/**
  ******************************************************************************
  * @file    network_data_params.c
  * @author  AST Embedded Analytics Research Platform
  * @date    2025-12-09T17:48:13+0200
  * @brief   AI Tool Automatic Code Generator for Embedded NN computing
  ******************************************************************************
  * Copyright (c) 2025 STMicroelectronics.
  * All rights reserved.
  *
  * This software is licensed under terms that can be found in the LICENSE file
  * in the root directory of this software component.
  * If no LICENSE file comes with this software, it is provided AS-IS.
  ******************************************************************************
  */

#include "network_data_params.h"


/**  Activations Section  ****************************************************/
ai_handle g_network_activations_table[1 + 2] = {
  AI_HANDLE_PTR(AI_MAGIC_MARKER),
  AI_HANDLE_PTR(NULL),
  AI_HANDLE_PTR(AI_MAGIC_MARKER),
};




/**  Weights Section  ********************************************************/
AI_ALIGNED(32)
const ai_u64 s_network_weights_array_u64[18244] = {
  0xbeb584fd3e0b24f4U, 0xbd38e26cbeb05673U, 0x3d6a0a75be1702b9U, 0x3c7fa351bea05a17U,
  0xbde6bf4dbeaec9f4U, 0xbe33b3fcbeba506eU, 0xbee306b1bd02e4ecU, 0xbda6502b3e821c5cU,
  0x3e435b183e4f873cU, 0x3dccdfc73e4dba2aU, 0x3eae9103be0551a4U, 0x3ebfa7fdbc236bc7U,
  0x3e8ea0ad3e893facU, 0x3e8c14a13e9cfb8aU, 0x3e41862fbe73399aU, 0xbea52e4b3eeb1b73U,
  0x3de23c52bea4da12U, 0x3ed2bf2dbe6e594aU, 0x3dd90b1c3ea96e9eU, 0xbebd81d6be62bc96U,
  0xbec71fa7be97d160U, 0xbebab9143e1b78feU, 0x3dc46742be4ce758U, 0xbd87bf0a3ec05aaaU,
  0xbeb91bc53e172c27U, 0xbea13dedbde85da1U, 0x3e74babebe465c22U, 0x3ed705e4bc05c965U,
  0xbe596b693d11cbdbU, 0xbe8ca3c1be3a39a8U, 0xbc1eb99fbebef4d7U, 0xbdb9f97d3d9600a2U,
  0xbeeac4c73d3dbcc8U, 0xbe18f7363e4d3836U, 0xbe88723abe61d13bU, 0xbee863c6be8efa66U,
  0xbe38cac63ea18154U, 0x3e1f90693eb477e8U, 0xbedac1c53d9933d6U, 0xbe227e98beae4d19U,
  0x3d91796dbe94fef2U, 0xbdc456b7bdbbfcd2U, 0x3ed7eef1be62a042U, 0x3d87f5c43e0a9643U,
  0x3f07db75be04008cU, 0x3da959353e4c5deaU, 0xbd10250bbe5e80f1U, 0x3d166b913e58aed7U,
  0xbd12f83bbeddb35eU, 0x3e02004dbeb253edU, 0x3e707f53bc96c976U, 0xba28e7a6be3e55ddU,
  0xbcdb703dbe14a2feU, 0xbee13ef83f05cbd6U, 0x3dc88d633e45d809U, 0x3d2703c6be7fd2d6U,
  0x3ed69984be9eaa7dU, 0xbd22ed3cbde1dd99U, 0xbeacbaa53e584dfdU, 0xbd14125abef4f225U,
  0x3ed929d8bd7e4796U, 0xbe6d9d87be484cc3U, 0xbe83508b3eb74429U, 0xbd329e7d3edc924cU,
  0xbe7bbf4d3ead3864U, 0x3e1e9fadbea638daU, 0x3f0b9c1c3ce41510U, 0xbe9bb21e3c2e195aU,
  0xbe6bac513bb10139U, 0x3eb2f412bee90fdcU, 0x3eb2bf703e3e762cU, 0x3e2cccb23d8c5c66U,
  0x3e9202be3e16deebU, 0xbe617aa5bdba163bU, 0x3e9f72a3be366149U, 0xbed9f75c3e3926bfU,
  0x3e8921153e1bfec8U, 0xbe2d6a593e933ba9U, 0x3ef348bc3e68b25cU, 0xbdc170603e512826U,
  0xbecbca13bc9651b0U, 0xbdef5c0bbeba9c73U, 0x3eab836f3e367007U, 0xbe2933773e8b9706U,
  0xbddc05703eb18d13U, 0x3e5349313d9c819aU, 0xbe7f80bfbe2fe57bU, 0xbd8c4709bc215276U,
  0x3e9b8e27bde69eabU, 0x3e051caf3e16711fU, 0x3e88c89dbe8fa106U, 0xbe878157be7011c2U,
  0x3bbf4fe3bb3d96c7U, 0xbeb84d6dbe7a19b3U, 0x3e3411933e40d6a1U, 0x3de36f9d3dc5a356U,
  0x3e562ba53ed312e9U, 0xbea1fff03dc73ee4U, 0xbeb2e00e3e315a29U, 0xbe0e5632bea3d640U,
  0xbe2b3754bda60660U, 0xbe861f1b3ce08462U, 0x3d0d418c3ec5afcfU, 0xbd1f80593c71d282U,
  0x3e4486323efa0d45U, 0xbec6d887be84c361U, 0xbe6a5600be984baeU, 0x3f36fc753c9d966dU,
  0xbea74966be50fcecU, 0xbe0b4e7c3e2c1f8dU, 0x3ea8985c3e953034U, 0xbe610ab3be7e3559U,
  0xbe703f543e5b7a80U, 0x3e55cb933ecdcd51U, 0xbe2d1786bc9e1357U, 0x3ea074183e001bf3U,
  0x3e70da31be565908U, 0xbed79044bed05d47U, 0xbe972dacbe91ab95U, 0x3da6b313be0b5547U,
  0x3ec9e3a23e774a88U, 0xbdb913653eb80bfeU, 0x3ee1372ebd6c61acU, 0xbd86f69bbe38a347U,
  0xbe7b906e3e6204e0U, 0xbed435a0be252ae9U, 0x3e9bb3b0bdecc935U, 0xbda83a9dbd0d7d22U,
  0xbd2bc4e8be3e3e1eU, 0xbea795a3bebf0f8eU, 0x3ebcfad03c0f6348U, 0xbe3363453de8c03bU,
  0x3e5112c83d2d59d7U, 0xbe13f3a93e339704U, 0xbeb0b2e6be217b6dU, 0xbef77b2ebddc2802U,
  0xbd7ba1c93d4a3825U, 0x3e6b36a63e3bfbfcU, 0x3e6e46a5be9ea81fU, 0xbe51a75c3e297366U,
  0x3f028f1fbed21851U, 0xbe7569f63ea5b96aU, 0xbe7b759ebe1373cbU, 0xbe2618cebdc18990U,
  0x3e13296f3ec7d7fbU, 0x3de3c6e53ea1a423U, 0x3b2da3913d0b2082U, 0x3ed50d09bd238625U,
  0x3e6623dd3d98f96dU, 0xbef3a8713eb80fa2U, 0x3e6499ccbe7fb875U, 0xbe50a9ac3eb4232dU,
  0x3e94ed533eeef196U, 0x3e8772983e9b7631U, 0xbddabf83bdb0c99dU, 0xbec35590bdcff03aU,
  0xbe5c76fa3eeb8c66U, 0x3e7148a5be9c42d4U, 0x3df1cd46be9b3b91U, 0xbe627d2b3e13b0b2U,
  0x3da28ce2bce2c778U, 0x3eb840ec3f015f3fU, 0xbea160183f07964dU, 0xbd3000f3be08029dU,
  0xbefba3bebec93343U, 0xbe68c7893ec0ce97U, 0x3e30e78dbea7058fU, 0x3f151151be812985U,
  0x3d63f5b4bcb75d03U, 0xbd4ae6cbbde27ea9U, 0xbe6620593cfcae46U, 0xbee5a0803eda0dc2U,
  0xbe32f4b03caff2e9U, 0xbe96c4363e50d7daU, 0xbe8e9eb9bed87325U, 0xbe583b47be89d8a5U,
  0xbf011107bdf49a4dU, 0x3d5789e6bde1b030U, 0x3e6c1b40bc71c14eU, 0x3e18ba84beb50231U,
  0xbe8d5c703df77865U, 0x3e8fd6013cf0c3efU, 0xbe4f142dbdfea8efU, 0x3daec7ed3ebe231aU,
  0xbe8963953e4afd47U, 0x3e95b6783ed4be59U, 0x3df4dd8abddc814eU, 0x3d95d124be351a63U,
  0xbe36fcfebe658d21U, 0x3ec90a7f3d653d52U, 0xbdda63b2be06cc03U, 0x3f0602abbe9010adU,
  0x3e083092beeff719U, 0xbd9717563e5e77a1U, 0xbdce611cbef47e5cU, 0x3ea4fab0be3eb1eeU,
  0xbeadfad53d802d68U, 0x3ece19883e38a7b8U, 0x3e3cf7df3deb66c9U, 0x3e096432be839b98U,
  0x3e0c443abd22502bU, 0x3d8633bb3e711753U, 0x3e2d2a5ebe471cecU, 0xbe9f2cd5bb17fbdcU,
  0x3ea4805fbeb55c59U, 0x3d9c63113c236864U, 0xbe8a34753e9b35e2U, 0xbd2d60b7bee8f142U,
  0x3c80fb483e7873b6U, 0xbe79efa8bd6ded04U, 0x3e341c1fbe97e5cbU, 0xbed32ca53ebb89deU,
  0xbe63549f3e5f5536U, 0xbd91bdc53eab620eU, 0xbd351b3ebe4e31e1U, 0x3da6c90bbe55e7c9U,
  0xbe03e7d9bdc554e1U, 0xbec6d1e43ea5380eU, 0xbf0f2ed8be380f46U, 0xbe839d4cbe8eb7c6U,
  0x3ce14cffbd92ac48U, 0x3e9b795dbd030a8fU, 0xbe00ff00be3f02b6U, 0xbeca84a7beb62169U,
  0x3e7bb274bd64e440U, 0xbea15252be6dea64U, 0x3df590ac3e696d98U, 0x3d4d68ee3ea880cfU,
  0x3d1b69f3be5c89b3U, 0xbe5a0862beb3deffU, 0xbd739a37bdcbe7b7U, 0xbe5ba8fd3ec51aa7U,
  0xbd5a27a03e26432eU, 0x3ed3d0653dff8cd2U, 0x3ed15f623db5898bU, 0xbe809c79be81164bU,
  0x3eef1d2cbb192c7fU, 0x3e47bc6ebdfe1102U, 0x3b680e883e71867cU, 0xbf02534f3bd7e781U,
  0x3ed6b1f83ea948d9U, 0x3e9dcaaabe257619U, 0x3ec4abcebea295e9U, 0x3e0386d6bd3af8afU,
  0xbc6d72233dbdedf7U, 0xbd99cc6b3e835675U, 0x3f16e92d3ea8d4e9U, 0x3e47a1cbbe873322U,
  0xbe36c3e6bdc6e4a9U, 0x3ed326cd3e93516cU, 0x3d1ec34c3e0e470aU, 0x3d1155183eb348b9U,
  0x3f272d10bdc84befU, 0xbe9cda92bed97072U, 0xbef6bde1be887f30U, 0x3d62e619bbcc8f11U,
  0x3dc108253e938116U, 0xbed2de9bbc8c6323U, 0x3f047f6ebe9d1376U, 0x3e531e753dbc7004U,
  0x3ec15800be87d385U, 0x3eefb9f6bd773520U, 0xbee688703cf1e07bU, 0x3ec5722dbe34dbf0U,
  0x3e8fe492bef017f5U, 0x3e17520abe28850aU, 0xbe87362f3e8ee175U, 0x3e2f05be3eaa5446U,
  0x3e14fbfa3e761cd6U, 0x3e24a48e3e823052U, 0xbe48ee9dbeeb98b4U, 0x3dc496d0be6bd39fU,
  0xbea6eadfbe055477U, 0xbe87f1c1be601a1bU, 0x3d82da303e09e356U, 0xbe07539d3eedb486U,
  0xbe5fae003e6535efU, 0xbeae7ee83e5f71e8U, 0xbca4fd683e970bc6U, 0x3ebdbcaf3ea7120dU,
  0x3e55bfcc3e2bcc22U, 0x3eeed47abe8aa854U, 0x3e5609a13e52bf23U, 0xbd43e1e1be9dcb96U,
  0xbdf37977be87b47fU, 0x3d9a64703e51bd3bU, 0x3e3e25473ea0864fU, 0xbed4c334bbffbda2U,
  0xbe658ed8be362d93U, 0x3d92a6673dc3c6d9U, 0xbeac7c00be0c57e6U, 0xbee705ecbe9b688bU,
  0xbe66f6563e8e03d3U, 0x3e30ae02be242a6aU, 0xbdefa8263ebb04b8U, 0xbeb1f9fabdd25f83U,
  0x3ead1d9fbe631059U, 0x3e4f6d503de0b5e7U, 0x3e913e78beafef64U, 0x3e6937a73eb2d2f7U,
  0xbebdfbd93ed49639U, 0xbc9b0df83dcfa70dU, 0x3ef23e0a3dd2177bU, 0x3de34a47be6a49efU,
  0xbeb005e63dc3d195U, 0x3db133e4be908319U, 0x3e718c12be047c44U, 0x3e6d91a1bdf13dd9U,
  0xbefa59b7bbc33a74U, 0x3d12ad03bd142e88U, 0x3ea41a2bbe8a0d92U, 0xbec5467bbdcc0d2cU,
  0xbdc236fcbdeba5bfU, 0x3e47d91ebe075000U, 0x3ec7387f3e950842U, 0x3e740ec33ea8f7caU,
  0x3d85e46bbdbaf7f3U, 0xbe94ff523e82a4c9U, 0x3ef194523e956087U, 0x3e95a1d3be0ae8a4U,
  0xbe15e4a93ebcbfd0U, 0xbd2b25123e192846U, 0xbe7276a93df19cf4U, 0x3ef78523be368685U,
  0x3eead4e43e66b9dfU, 0xbe4807d63e3a2a30U, 0x3e4a08b33eac3689U, 0x3cbfff253e492859U,
  0xbe185a1a3e019e75U, 0x3e1814b5be5c19f9U, 0xbe151a63be9e1345U, 0xbe769a23be1a3856U,
  0xbe4323a0be880241U, 0xbe7dfe80beb7a336U, 0x3e2b7abebddd3a17U, 0x3ef5a8513e6493baU,
  0xbdeab61cbcbe9dadU, 0xbdb49fa83e4d0543U, 0x3ea0f811bc81693aU, 0xbe4f5a73bdc7b18cU,
  0x3e991bff3e8f0f47U, 0x3e9d8309be01bccfU, 0x3ea7df893e1c1624U, 0x3e363521be5487e5U,
  0xbf1b90943d77c4cbU, 0x3d9d6d0b3eb189e7U, 0xbce6bbebbe33e32fU, 0x3efc84933e9aade6U,
  0x3de9ff573ea46084U, 0x3e0ddc1b3db67654U, 0xbdf0915d3ebe63cfU, 0xbe0f434bbeb86205U,
  0xbe9b76613cd0e76bU, 0x3f03babf3e0ea54bU, 0x3e90539dbe74918fU, 0x3e8fd022be05e308U,
  0x3d95b9c13e110da1U, 0xbe2900ac3eaab8dcU, 0x3d7c2ead3e1818fbU, 0x3ee4011c3eb4a231U,
  0xbe8f7dee3ebe6da5U, 0xbc389c463dbf6ac8U, 0xbe46f0ab3dcc2cfcU, 0xbf020365be86a544U,
  0x3e8c8584bea2fcd5U, 0x3d699ecabec21104U, 0x3e9d35f63eb78c09U, 0x3e20c4823df8cdbbU,
  0xbeb0b66b3d9cddefU, 0x3eed4a393e3f4eb8U, 0xbca8e36bbe94e870U, 0xbf21a44cbdec1718U,
  0x3eb4a6a6bd344adfU, 0xbeb329923e87907fU, 0x3ecffd14be415a16U, 0xbe9c755fbe38f90eU,
  0xbe610dab3d695d20U, 0x3ce0a11f3e605e07U, 0xbf0ad98d3eced1b1U, 0xbea2cacc3d7e0dbeU,
  0x3e8a18b03e2a65c5U, 0x3ea3f5ab3e63ab9bU, 0x3e5d572fbe819ea4U, 0xbef48f3cbd6499ceU,
  0x3e9ddafbba9a7ea8U, 0x3e8c0da23dca3b73U, 0x3e86fb2bbe7e97a1U, 0x3eb5f17abef001deU,
  0xbcc9e16b3d72ae6aU, 0xbdd9b48c3cc7f49eU, 0xbec8725abeda761dU, 0x3eb6254cbdc73640U,
  0x3d45b34d3d6a5cb0U, 0xbcc1f1a5be4437e0U, 0xbe1c8e3e3e9945c2U, 0xbd4c3f25be168391U,
  0x3ee2b9d6be982b0bU, 0x3e00c0ac3d21f4a7U, 0x3e7259a0bee94418U, 0xbe79908f3ee681caU,
  0x3de02ef7be81ed78U, 0xbf034fb4baa6385bU, 0xbe86783fbdff8f2dU, 0xbe5e93cf3eb2f706U,
  0xbe34e21f3dfc2e47U, 0x3ebdab17bd00e159U, 0xbeb4a6323e5bc199U, 0xbf075da4be67e76dU,
  0xbcb54e02ba946451U, 0x3d345bd53e083670U, 0x3c2d5096be8aa6fcU, 0xbdab0228bead30a0U,
  0x3e6b7b34beac17c3U, 0x3ebaecd0beb02543U, 0x3da116dd3ec8fb8dU, 0x3ca1c0873e4b6a6cU,
  0x3e869a393e9300e3U, 0x3ebceb7fbeea286dU, 0x3d84160a3c942f42U, 0xbe8af933be035043U,
  0x3e6ff486be8d3b3aU, 0xbe925cf8be8b579aU, 0xbded5646bd02faedU, 0x3f00e254be986221U,
  0x3d7a04cc3e84a23cU, 0x3e692c5e3cf11b24U, 0x3ee8b5593e548b81U, 0xbd8ed665bebdd02bU,
  0x3ece2acc3e336141U, 0xbe164a963d4931ceU, 0xbd2686b5be124999U, 0xbe42a3463d649bf2U,
  0x3ec4e242bd44a9a3U, 0x3e5f1dd1be2b0646U, 0xbeef692abe713ad0U, 0xbd3ad614be5ae69bU,
  0x3eb8dee33e94dc36U, 0x3de1a66e3ea06657U, 0xbe1b67fbbe705b5eU, 0xbea9606b3e74d752U,
  0xbea205b1beceb5d1U, 0xbec53f023e32d3a4U, 0xbe714fdabe8888baU, 0xbe26794c3dac54c6U,
  0x3ecdcea03ec9e4e5U, 0xbe1332573e87779dU, 0xbebc3dfbbe915869U, 0xbe94aa2fbded4d35U,
  0xbe567e823e716a2eU, 0x3ddb42683d9775aaU, 0x3efa478e3ed202a2U, 0xbe289c01bea452f8U,
  0x3da20dd8be5a928bU, 0xbe1f81d6be04a9baU, 0x3e71ff103e8257a3U, 0xbf0abbd93eb1adf4U,
  0xbe099b19bd82268aU, 0x3e4ef8723ea935e0U, 0x3db9e4923df44b68U, 0xbe7f39803dbdbc55U,
  0xbe4f7ba0bebac285U, 0x3f1086dd3e389062U, 0xbdfa1ca7becbac4aU, 0x3c61f97a3e358f0bU,
  0x3d82def7beb43faeU, 0x3e256d6fbe09aa14U, 0xbe993ae6beb700d0U, 0xbd862b373c598742U,
  0xbcfc19f9be71b101U, 0x3dfbb6debe412fe2U, 0x3ec48349bcd2e0d4U, 0xbe90061a3d08a6e5U,
  0x3ecaf0353dcf5b69U, 0x3ebc01623d97a12bU, 0xbc3f67e83cb5e920U, 0x3dbb2d8ebea8300aU,
  0xbda545863df7dc21U, 0x3e13de40be6d18f3U, 0xbd97e48cbe99a85eU, 0xbf0f93a33eb1d014U,
  0x3dfdc13e3c4de87cU, 0xbdd58bfabdf26ea0U, 0x3cc31f8c3e1c1cd8U, 0xbea456593dd8abf8U,
  0x3daaaa7e3dd6cb8eU, 0xbd8e9fad3e234d22U, 0x3ddfcd41bd3b9b19U, 0x3d335298bd049698U,
  0x3d24bbc83e1850d5U, 0x3d5849c53d925a3aU, 0x3e898c6c3cb0987cU, 0xbd8bd4bebe3bdae1U,
  0x3c200d823defc5d8U, 0xbc9b0594be443f58U, 0xbdb99a103dc9eb22U, 0xbe0cd3b23c6ed774U,
  0xbcce3ac43d1a2f90U, 0x3e2beb3a3e496e53U, 0xbdb30430bde63f8bU, 0xbdc518953e726f29U,
  0xbe6fa01bbde63cc1U, 0xbe3e29a6beb5513bU, 0x3da4d9f73e4f943bU, 0xbe94a2353c3ae2c8U,
  0x3e287497be50275bU, 0xbe4a65a73d7a77b1U, 0xbdcefe04bdd8b1d7U, 0x3d26216ebe7d3c62U,
  0xbea3bccfbe1212b1U, 0x3ce75afc3e0b3288U, 0xbe909c433ed56411U, 0x3e3161b5bd3fc875U,
  0xbde67558bd1d098bU, 0xbe2eaf00be744533U, 0xbdbaeb8bbd8bfcf9U, 0xbcbf04373e59d96cU,
  0x3e8887d5be8ea5a4U, 0xbe05cd5ebe88b6b9U, 0x3d1dd985bec65092U, 0x3e5278c9baa3d965U,
  0x3ce378803e015c4bU, 0xbd2ea51a3dfd7c75U, 0xbcb92dc5bd267419U, 0x3c8fc092bddf3af3U,
  0xbccf2659bd13f892U, 0xbd60fb763d9ab167U, 0xbaac4438bc1a24f4U, 0xbd8ee3163e105e89U,
  0xbd76603d3e128569U, 0x3e6bce6c3d8e11abU, 0x3d98ccd43d13af63U, 0x3c5d67793ace3d61U,
  0x3e08872f3da3435cU, 0x3e3d8dd43e64154cU, 0xbe36ce3bbd6a89f2U, 0x3bffe4ffbe07d530U,
  0x3c86bedabcd35e2bU, 0x3e4d4426be853876U, 0x3d1bd2933e4fb2feU, 0xbdd25860bcf40f22U,
  0x3ddc7e613d8f2e88U, 0x3e3a3984be473b6dU, 0x3e4ef9a33afc852bU, 0xbdf431703e8ec25cU,
  0x3d9126073ddd77b4U, 0xbe933a3cbe362f0eU, 0x3d5ef8aa3d80f31bU, 0xbcc5578dbdf31615U,
  0x3e2e59093d8c9199U, 0x3da281cb3e573440U, 0x3e5a27d6be7ac898U, 0xbe1199c2be2d92dcU,
  0x3ce271d83d3f54b8U, 0xbdbc448abe847bbaU, 0x3d6a5a4dbe1ba731U, 0x3e08aea93e0b3a13U,
  0xbe1a842f3d8bb3caU, 0x3e8ea2523dd284feU, 0x3e2913d13dc864f2U, 0x3d06fa8f3e5cc53dU,
  0x3da099bbbd6cee27U, 0x3de45868be36c87cU, 0x3ddd85053cae5402U, 0x3d31eff4bebdec93U,
  0x3e4cf5b53df27db6U, 0x3e1e66fe3e08ffedU, 0xbeb0b20b3ea36aa2U, 0x3e42cf563dfb2443U,
  0xbe618110bc907740U, 0x3e8be041be8b2297U, 0x3dd673e5be7c8fa6U, 0xbd98fa9bbd3e29e6U,
  0xbedaaf443e0c02b6U, 0x3d2a6e8dbe0c8be2U, 0xbdd9a1173e9a1d96U, 0xbe4c05733d15d49eU,
  0x3d96260fbe8ddb3cU, 0xbe54b056bc373647U, 0xbd4a2d883e156833U, 0x3c1366bcbe4b3d29U,
  0xbdcb4afa3e37876dU, 0x3e5ce1b73e33ee99U, 0xbe9503c7beb48ce1U, 0xbdc490c23e0650acU,
  0x3e8ad0ce3d110b09U, 0xbc9f6efbbe47e1c3U, 0x3d6e07e8beb24e05U, 0x3dd921e7bdfd7284U,
  0xbed32b92bd40ef93U, 0xbe4800183e7db0a7U, 0x3df2f1c5be62fe2fU, 0xbda09a55bcfca236U,
  0xbd360a17be1a9e1bU, 0x3d27a94f3e36322eU, 0xbdca521bbe62ba27U, 0x3da87efa3e531f44U,
  0xbddc8452ba52db3aU, 0xbddc7e093d7a9dedU, 0xbd458fcdbea2096fU, 0xbe25469fbc01b74bU,
  0xbded5671bde6cd0eU, 0x3e680da4bdadfe83U, 0xbe1843ba3e89b1c5U, 0xbdd151ec3e6f0b68U,
  0xbe1c7e803e19bfdeU, 0xbe5ae342bd4c3f1fU, 0x3dff1f44bde87c26U, 0x3d15fd2abd973332U,
  0x3d2861c13e15607eU, 0xbda0c7febd9bf92cU, 0x3e570572be2bd9adU, 0x3da667d3becfc5c6U,
  0xbb2d86053e2716c6U, 0x3ca15c303d3ac74eU, 0xbbf013c5be553620U, 0xbe194225be223bb7U,
  0xbe146537bdbe3eaaU, 0x3d3627e23d5a9496U, 0x3df51f0d3eaf3a6bU, 0x3d857efb3ea5038eU,
  0x3e1280453e4313ccU, 0x3e3c26f7bd317f7aU, 0x3dea1985be974ed6U, 0x3dae7071be9e43acU,
  0x3b6805ef3da2e3bcU, 0x3d8b728b3c184144U, 0xbe0ab6febb8dd909U, 0x3d6fa2efbeb768acU,
  0x3e3326b53e83cd2fU, 0x3dd3b5953a79e61cU, 0xbc8941373e6a2aefU, 0x3d9889923e054ee6U,
  0x3e0944233ddc0470U, 0x3e000cb03df71a80U, 0xbdb38ff23e796d64U, 0xbd921b5cbd6b8301U,
  0xbc1dd0fd3dc363d4U, 0xbd5885c33e19df55U, 0x3d85116bbd932c98U, 0x3e66b39a3e41d499U,
  0xbd6946bc3d84250bU, 0xbdbf09e2be4c44ffU, 0xbe06e286bcd9e70eU, 0xbe00f2a93e34e879U,
  0x3e7d70c83e8e357aU, 0x3cbfa4173e9f63f5U, 0xbe6ae3803e91b228U, 0xbe4d2238bce5ff10U,
  0x3dc6afae3e1d9523U, 0xbe9ee78c3d604ff7U, 0xbd3b3b5ebe5308b9U, 0x3da998e3be23bf4eU,
  0x3e215f65bd24927eU, 0xbbaf2a08bcd3b952U, 0xbe4beec4bddad505U, 0x3e87f39b3e6bff6eU,
  0xbde989853db49c08U, 0x3e2c8b453b8b8fd5U, 0xbbda7aab3e32a4c1U, 0x3cfc789d3d93bf8dU,
  0x3e960c70be2ceb2bU, 0xbe4e7b7d3d09f1b3U, 0xbda0c3d6becf4a53U, 0x3e0782aebdefe0f6U,
  0xbdf93c3e3dca9a70U, 0xbe83a725bcea5746U, 0xbd8d22663afa0607U, 0x3a00b656bcf5002eU,
  0x3e354db2be12ebf8U, 0x3d34869cbd92cbcdU, 0xbde58852be666cf2U, 0xbe13783bbe215c96U,
  0x3d303db23e213fa8U, 0xbc710693be33fbe6U, 0xbc18115a3e49fe01U, 0xbc866b02be100ef0U,
  0x3e663357be0d7ce9U, 0xbe3245b23e2f2e00U, 0xbe18d5de3e715816U, 0xbe5945313e0c80cdU,
  0xbdb9bd8c3e0bded8U, 0xbea7ae61be96ffe3U, 0x3d341ff4be379eecU, 0x3e05d943bd7cf7d7U,
  0xbd96a8223ddff045U, 0xbe3984b73d06a3b1U, 0xbda9cb8fbdece430U, 0x3da0d1f43e8ad7eaU,
  0x3e4e8f7a3dd6d4adU, 0x3e0ab310beafbe08U, 0x3e05f3e23d89e74aU, 0xbd1b09f63eec2345U,
  0x3e3c7dcb3dbf6640U, 0x3e0fe2ca3d0e4771U, 0xbdbd72ff3e9d4ee4U, 0xbe036c96bd1df529U,
  0xbde05e49bcc34343U, 0x3e1afbcbbeee30dcU, 0xbdd896263e1f4e79U, 0x3d3042983d909dd7U,
  0x3edfeb7b3ddefc56U, 0xbe312d4b3e323450U, 0x3a946201be0eff46U, 0x3d557a793a565e00U,
  0xbc0b7b1a3cc8831aU, 0xbe1f5ff4be5e186aU, 0x3e2280cbbd24be52U, 0xbcd3e36e3e53fbbfU,
  0x3d374944be023904U, 0x3e26ad4bbe481793U, 0x3d60f13c3e054933U, 0xbe81dd463d456ee4U,
  0xbd9fedb23d870bbdU, 0xbdfd1194be6e1b31U, 0xbe126ffdbd0ec783U, 0x3df02df33c422f2dU,
  0xbc3f7d8a3b8c56feU, 0xbe36f0743d0a8c7fU, 0xbe1efff33d1032d4U, 0xbe31466b3ed2268dU,
  0x3e095ce63df64c1fU, 0xbc432a793e18a9efU, 0xbdaf5e6bbe29401cU, 0x3d236ec83eca3674U,
  0xbe2ebbb3bdf72063U, 0x3e62fb3bbd66300bU, 0xbe15c1bebe63d8acU, 0xbea565983d5f1f20U,
  0x3e49e0bbbd9d61f3U, 0x3e7c8d0ebe95c85cU, 0x3da311f3be3a413dU, 0xbdea40163e81a53fU,
  0xbd903430be4effd3U, 0x3e37a8fbbdc7404eU, 0xbe29e3cfbcb53a5aU, 0x3d4c569b3da07a9dU,
  0xbc82ac42bd46ee81U, 0xbd0f1f423de0f41fU, 0x3df3156c3e0e387bU, 0x3ca60c273e7fdf91U,
  0xbe63d53a3e5e4491U, 0x3e13e050be44bf78U, 0xbe20ca54bee1c881U, 0x3e38e929bdc3c0d3U,
  0x3c9b8eb9be0e78c8U, 0x3de99f76bf1b8ee0U, 0x3d8738603e80a0e0U, 0xbd44c60abde24d72U,
  0x3e01c72abcdf9d97U, 0xbdabed313cee94efU, 0x3da540c1be73e1c5U, 0xbe3416323eba2f40U,
  0xbcb89e383db9ae36U, 0xbe2655663e9cd13aU, 0xbe1a9e9f39ca69dfU, 0xbc2ce2b1bee51a7cU,
  0xbe100335bd96033eU, 0x398209d13de4880cU, 0x3dd9c9d43d9562cbU, 0xbed3e12b3d95498fU,
  0xbdc6614cbd306f76U, 0xbe4eb707beca145aU, 0xbde2f796be995ca0U, 0x3beafe16be264518U,
  0xbd0ea1ac3c8e2086U, 0x3eaf33c8bd92257fU, 0xbe639d1d3db1af68U, 0xbd9c09cabcc0bccfU,
  0xbe1a4781be7b792cU, 0x3e42f70c3e38c4f1U, 0x3c84b4c9bd3bb406U, 0x3c13f6e43e16a01cU,
  0xbd8898c13e32fb12U, 0xbdf84e2bbdf5ee3bU, 0x3e77163b3e99b9f3U, 0x3e588a953dc50f6fU,
  0xbe2c53dd3d82ffdbU, 0xbd86ad3ebe77d5a7U, 0x3c8e5ddfbea173ceU, 0x3d9b288a3e03c6fdU,
  0xbe95c714be4872b6U, 0xbde6549dbd3dc4bdU, 0x3dc0e6223e74957dU, 0xbe1024c93e87bbd7U,
  0x3e283cafbc6ffdc7U, 0x3db444ed3d81f911U, 0xbd95462fbda965dfU, 0x3d911aea3ce27571U,
  0x3e8567ba3de7528eU, 0x3dc2e689be428132U, 0x3e11aa74bde291daU, 0xbbc22417be547ee6U,
  0xbb959a5b3de3f034U, 0xbe946a20be3394b1U, 0xbdb88f503e5cb231U, 0xbdc70903bdd17effU,
  0x3d8c0ab6bd3b9a67U, 0x3ea13f2c3e0449b4U, 0xbe4e28f63ce69887U, 0xbcf6f51ebea8b3b1U,
  0xbe0351e9be863921U, 0x3d3b6c67bda0bb87U, 0xbe1d0d683ea94098U, 0x3c30a47bbe8ac6a3U,
  0x3e0d3d55be3481b9U, 0x3cefa4573dabc599U, 0x3e5269efbd531adfU, 0x3e2047553e18adccU,
  0x3def93a0bd041755U, 0xbdb2a80cbe3a5c9bU, 0x3db470df3e965a7aU, 0x3b44a9cfbcf65054U,
  0x3c72bf07bdb24d58U, 0x3eb086e03bbd74f9U, 0xbe5456823dc33498U, 0x3e00d636be0d6691U,
  0xbd9ff29bbe4c112fU, 0x3e110aebbe29abd7U, 0x3d149a8abe8ab825U, 0xbdbaf4eabe5d196dU,
  0xbcf245e5be428281U, 0x3dd1b83ebe0ac060U, 0xbe5a4ad2beb6468aU, 0x3e662876bd202ba2U,
  0xbe43503b3d208e9bU, 0xbdfc12b43d828c86U, 0x3c777de83d9ce54cU, 0xbca000123cdfc69dU,
  0x3ebb8de73d6dea46U, 0x3c857c0abe17a5ffU, 0xbe6009debded0b8aU, 0xbd2442d4beda2591U,
  0xbc933b99be51c0dbU, 0x3ce187c9be797d8bU, 0xbc3e2024bd82993dU, 0xbdb7b594beecfb33U,
  0x3de66ff93de62a50U, 0x3d043670bc960ef0U, 0x3dbafd0abe19beb7U, 0xbdfce8f23cf5f306U,
  0x3dfbe0a1bdbd4be2U, 0xbdbe0c13bd73381cU, 0xbbafb7f23e8ece89U, 0xbdf345d0be21b62fU,
  0x3e9d637e3e0e805bU, 0x3dfb9c933e448540U, 0xbd014bd6bd97cf54U, 0x3dd333113e5f1578U,
  0x3e0932a8be1ba69dU, 0xbe3f08ebbdb08d4fU, 0xbc60604bbe70446fU, 0x3d8d074dbf4ff724U,
  0xbe9a832d3e0e5ab6U, 0xbe53b3bdbda0e8c6U, 0x3e50f20e3e61df79U, 0x3d8d72853d8e9806U,
  0xbd1576c3bbb76aa3U, 0x3d5359c03eabd0feU, 0xbdb3548d3e97d110U, 0xbb2b23103d2590cbU,
  0x3e8a690e3d87e925U, 0x3d2474c7bdae0092U, 0xbd88a8063de4f2e6U, 0xbe00bbd43b3da468U,
  0xbdf511253db82400U, 0xbd27952a3e295e34U, 0xbe27c29dbd9cd44eU, 0x3dbfe6fdbf3f0a7eU,
  0xbda854703dd41128U, 0x3e2f4a40bc89040fU, 0xbe718de4be013ad9U, 0xbef621cfbe1bf872U,
  0x3e44dcd4bd7e5b60U, 0xbd88be053e5eaf88U, 0x3d86734b3e879290U, 0x3a165166be1856c1U,
  0xbe85ed353da1506dU, 0x3eaf08c2bdcdc1f3U, 0x3dc26f013e0a7bedU, 0xbe1afc1d3eeefdaeU,
  0xbbd883f43d854828U, 0xbc889fec3e173c4dU, 0x3e31a361bd9d127aU, 0x3d2ee026bf536d41U,
  0x3e73cf5cbe3e5507U, 0xbdec8d163e75d12eU, 0x3e2b47523d495548U, 0xbedacfc6bd491932U,
  0xbe957574bcb6b29bU, 0xbdb7b0ab3e8af3c9U, 0xbdb918eabe2174a7U, 0xbd2bfd0ebdfcdbfbU,
  0xbebd0a44bdecf144U, 0xbce17c733ddf9092U, 0x3e5599a83e88e824U, 0xbe0b43a13ea34eceU,
  0xbd1362d4bcc1beccU, 0x3e87ca4e3d8e9c2cU, 0xbd713ba5bd8bfd8dU, 0x3d87f5013e812ee2U,
  0xbde57d11be6f47cdU, 0x3d1dfd4f3ccd84d2U, 0xbe631010bd8d10a9U, 0x3e6988363e62945dU,
  0x3d952527bc0f9443U, 0xbe0f68303ea34585U, 0x3d948662be9c73e4U, 0x3d75c5153d943b68U,
  0x3ecb41dfbd4f9ca0U, 0x3ea181aa3e626816U, 0xbd41fd813e160f15U, 0xbd4526febdc1ef1aU,
  0xbe0eec33be84ad9aU, 0xbe1213ebbe8c53caU, 0x3d90d7e3be14bcd0U, 0x3d2daf8a3d8ffdfbU,
  0xbebe39993e3ae651U, 0x3dc38749be36019bU, 0xbe409d2a3e1c8f2cU, 0x3e1f9089bdc72d03U,
  0x3e3b3f683e0bbeb7U, 0x3d4ab9e43eb07511U, 0x3e05b1ea3e3ca181U, 0xbc43cd2dbe50fb89U,
  0xbe12d238bd76c080U, 0x3d0693de3dc134a4U, 0x3e503389bc634256U, 0x3d925b4b3dc43a9aU,
  0x3d8f960dbe118a13U, 0xbe85fe76bdf3741dU, 0xbd94e4fd3d83fd4dU, 0x3db402513e89d6efU,
  0x3e3894abbcc89c7cU, 0x3da27513be51e6d7U, 0xbe719b47bddef202U, 0x3dceb6c63d4d2bc0U,
  0xbda52f443ded65ceU, 0xbe8035c5bc805fd1U, 0x3cc34f8ebe4ae236U, 0x3e0d3202b796f9f5U,
  0xbefc04653db2c321U, 0xbe996222be090a6eU, 0x3e48ff6ebdbce086U, 0xbd0229c2be503f33U,
  0x3dd4a6b03d89a36aU, 0x3d07bdaa3e004f12U, 0x3e19db05be8dab07U, 0xbdd5b38b3ef26b40U,
  0xbe060f8ebde3eddeU, 0xbe0a29823e1c3488U, 0xbe9a1e5fbcbb5e99U, 0xbe2cfc8fbe35131fU,
  0xbdda36f8be0076c5U, 0xbe891c74bd04fe6fU, 0xb9be248cbdb37c73U, 0x3df05c523df05a16U,
  0xbe26f1753e1ac4f9U, 0x3e18d2a1be57e06bU, 0x3dab51d93e237babU, 0x3d1b6dc9be472485U,
  0xbdcb812a3d907734U, 0xbdc7f1343c556eb7U, 0x3d8a3adebaeb4797U, 0x3d9f1e8fbd746b5fU,
  0x3e0063513e1a7ef4U, 0x3e21927c3d82f13dU, 0x3e412f63bc7bf37dU, 0xbea8b482be324a35U,
  0xbd0f079fbe0bffc6U, 0xbe85d840be124527U, 0xbd1ed63abd825667U, 0xbda264e63dd68e55U,
  0x3e45b94a3d8892feU, 0x3d6296983d02aa2fU, 0xbe88307ebd9d5fd5U, 0xbd6c30c63ed0de3cU,
  0xbe2239533d7a2a6bU, 0xbdebaa6fbe2ac6d4U, 0xbc1610e3bc4102c1U, 0x3d820b373e21427cU,
  0xbe95b86abdc2cff6U, 0xbd8c80d1bd08e12dU, 0x3e8899bd3e81f3d3U, 0xba67f1b9bdace41bU,
  0x3e439bd13dd15fffU, 0xbe2b9574bdd9eb8fU, 0xbdb1ebd83e0e6480U, 0x3dc372d03e1c92f2U,
  0x3e3f5c4dbd0a5fb5U, 0x3e268a523e5ff546U, 0x3d4569813dc25bc2U, 0x3d73043fbd68a662U,
  0xbe93647fbcc55a07U, 0x3dbf4a03bc9e20efU, 0xbcae9263bd6febd8U, 0xbd348d193e7da34dU,
  0x3e0a917dbd789e08U, 0xbcb4b2fbbd950999U, 0xbe8bb6eebda57dd6U, 0xbe09ef893e10f6d7U,
  0xbc240afc3e0e9524U, 0x3e81a4323e80c72dU, 0x3e298e23be92ee92U, 0xbd4beaa83db3705bU,
  0xbee6bb24bccaaceaU, 0x3e8536f8bdfd2fb8U, 0x3e20303e3e0bea62U, 0xbe4bf9933de9d250U,
  0xbe99dc7cbe2f56f8U, 0xbde4cc383d9b3e4aU, 0x3e10904d3d040dd8U, 0x3d2c4b163d3159b2U,
  0x3d66e3333e2878e6U, 0xbdf51b2b3e17fcfaU, 0xbe7180053dfe965aU, 0xbd86bcbf3e6c134bU,
  0x3e472942bd27e775U, 0x3e5e63603e4fa93bU, 0x3e1d471c3c736009U, 0xbd4b4f5abe06f4d9U,
  0xbdb17295bcce4112U, 0xbe046e703e5b4b8cU, 0x3e47216fbdb54c98U, 0x3ab477e2be85936dU,
  0xbe6ec887be2d8a42U, 0x3e8a21823e40be6cU, 0xbe11300abc071f90U, 0xbdbdcc89be919a2cU,
  0x3c2a0093bde6ad9eU, 0x3c3814d4be29320aU, 0x3e414dbcbeea13fbU, 0xbe910dffbe0fc928U,
  0x3e5f056a3aac87a1U, 0x3d8819653e7fe1b9U, 0xbd59eba53dba9810U, 0x3c065a6abe9ac73dU,
  0xbed5a557be466c7aU, 0xbc0e04bb3e0020b2U, 0xbe643592be314913U, 0xbcfc426fbe557a9aU,
  0xbb95afd13e48c83bU, 0xbe2a1e5a3e1291eaU, 0xbbe9c8503dc6a7cbU, 0xbb77e5c0be039732U,
  0xbe90ecb4bdf334bfU, 0x3e1c7f1ebe9a92f1U, 0x3e7d4aab3e79740aU, 0x3e4f1782bcd5302cU,
  0xbe06b9e1be591fb2U, 0xbec89113be72a4aaU, 0xbd8aac7fbe42ad05U, 0xbd109c9fbe23734aU,
  0xbe7524913c3061b7U, 0x3bf794e0bdd0c5f0U, 0xbe4455f6be23c003U, 0x3e0326ebbe81e324U,
  0x3c0f707e3e47c4dcU, 0xbdb8265ebdd6c5f4U, 0x3dba93413c5f3da2U, 0x3dd23c83be8b4287U,
  0x3ddea7993dddd21aU, 0xbe13a2f0be7dc82fU, 0x3e66b3183e797f8eU, 0x3d31da00be447f4bU,
  0x3d4f2329bd40c729U, 0x3e1c0c84be9c21dcU, 0xbdd8e9493d960bd2U, 0x3b567667be1a9259U,
  0x3dc936b0be4e3061U, 0xbdacf50ebdaa4ad2U, 0x3e1347a03dfb7216U, 0x3d3d9a0c3ed896f3U,
  0xbe1f19debdb1d6b4U, 0x3e0f31fa3d26cf74U, 0x3d8245853d2944abU, 0xbd85ec97be6e8445U,
  0x3e9ad37ebe50b426U, 0x3e3d41d33abe5a68U, 0x3e99fd02bcc8fc76U, 0x3e8855c93e37a1e8U,
  0x3e18efebbe2d53ecU, 0xbd9ca867bdebc01bU, 0xbdb786f9bec271b1U, 0x3c5e977ebe341b11U,
  0x3eaedbd5be263a8dU, 0xbd176e96be3b763bU, 0x3d1f9a903e0e035fU, 0xbd4114de3dac3beaU,
  0xbe127a7d3e019dd1U, 0xbe5a1340bd2254abU, 0xbd5362db3c6670feU, 0xbb7b856ebe5d2558U,
  0x3e96a8a83e14c513U, 0x3db59aaabe1a17c2U, 0xbe88251c3de4dfa1U, 0xbe9b7ff43dfeccbcU,
  0x3e3cf26dbdb1f2c2U, 0xbe514bc6be328e14U, 0x3c166861bda0fb6fU, 0xbdb42ce8bd57b2c9U,
  0x3e6ffdc03da52e2aU, 0x3d7f7535bd3c15d6U, 0x3e4879f1be500ec0U, 0x3da778cc3e1cf44cU,
  0xbe32fd08bda93f28U, 0x3e1a79453e8f66ecU, 0x3e34598ebc5a37afU, 0xbce453da3d8d73feU,
  0x3e81e0e039c9bf2fU, 0xbe27064b3e5dd854U, 0xbeaf36673cd81efaU, 0xbcf33af8bd1f180dU,
  0x3e2017bb3d79d007U, 0x3df867a63e1352ffU, 0x3e2812a2bdcab05bU, 0x3c7163173e4944f9U,
  0x3e820b01be1e8122U, 0x3e84d6023e28957bU, 0x3d3c5f803d40f901U, 0xbd290a3fbc432b0bU,
  0xbe3d15b93e04323bU, 0xbe7cef303d5b5628U, 0xbd0105a13e260c09U, 0xbdb9f9e0bde44360U,
  0x3e3f14273dc8f250U, 0xbd6d722bbe92a834U, 0x3e88246ebecd0586U, 0x3e8b0f23bc9ed1b2U,
  0xbc6ec47abcb20fcfU, 0x3e177a88bba0bfbbU, 0xbda5a1ae3d578c51U, 0xbdc8356bbe0e05cfU,
  0x3c47de7abe43913cU, 0x3e842830be84f43dU, 0x3d56ba563def68c4U, 0xbe095eadbe3a0cd8U,
  0xbd3ec914bda2044eU, 0x3e2f7c193d16407dU, 0xbdbe0e693df0a288U, 0xbd0940993e3c4f44U,
  0xbe4472703c467bb8U, 0xbe57e5b53dde23f0U, 0x3e24e7c8bea8d886U, 0xbed95cb3bac1121aU,
  0xbeebb1443d871893U, 0x3deab2e13e849dfaU, 0xbde49008be7ff280U, 0xbdd44815be86b81dU,
  0x3e11d7b33dcbba03U, 0xbe953ad53e6fe264U, 0x3d003ec23de3c15dU, 0x3e07598bbe9c7704U,
  0xb7a15eda3d810c93U, 0xbd49f2d9bea0dec8U, 0xbe567ade3dc2dd96U, 0xbdc54b973ee10e70U,
  0xba9b3d96be004131U, 0xbdab74833d310adbU, 0xbe4808b73e714e9fU, 0x3e82858ebe72b0fcU,
  0x3d8bbda43ccbf469U, 0xbd6bed20bbbb815bU, 0x3dae19fcbdb1d8c5U, 0xbdca05bf3e48c5eeU,
  0x3e314fd63e211610U, 0x3d01e6cebda587bcU, 0xbca9c358bc9a2bffU, 0xbe133bd93e7fde8aU,
  0xbdf1c256be115dd8U, 0x3d67c049be2d58d4U, 0x3d2d3f0f3e79180fU, 0xbd4a64b8be1b3cbdU,
  0x3dc8dd1d3ddc9b87U, 0xbe040449be52076cU, 0x3c6fd00abe40e209U, 0x3dc09403be2751cfU,
  0xbd83b65c3e0efea6U, 0xbeaeacbebd55fe4eU, 0x3d9afefe3e92ea61U, 0x3b86e97e3d8b8290U,
  0x3eb3bed2bda59e8eU, 0xbe4d5ebd3d75f4a2U, 0xbe540cddbc99f08dU, 0x3d2193733e2da5edU,
  0xbc2791e03e0fc18dU, 0x3da581d33d8bbd32U, 0x3d65db59bd266c24U, 0x3d21fb6fbb3d1bb4U,
  0xbd8a1d87be193557U, 0x3e0026d13d049441U, 0x3e01efb03e75ad9eU, 0xbeb1486abbd6eb2eU,
  0x3d480703bd39d475U, 0x3e382e8e3c3691bdU, 0x3d00d249beaba396U, 0xbc9f82b83e20f0cdU,
  0xbe69b86fbdb029f2U, 0x3dcdadb13ca83298U, 0x3b61c11a3e1fea1dU, 0xbd13623ebe1d524bU,
  0xbcdd48cfbe163acfU, 0xbea3d190bda65d4bU, 0xbd35a1313e0c0b00U, 0xbd8722dbbdbd6dceU,
  0xbdce7bdb3e007469U, 0xbdd15af1be7d7878U, 0x3e5cf7a13ebf578eU, 0xbe8476423cd9689aU,
  0x3dd8fcd03cffcfe8U, 0x3eac97033d0b5f2eU, 0xbd3b8db73e1bee3dU, 0xbd7b45efbe3aa9c2U,
  0x3d3602a33dcb6cafU, 0x3e92ace4bddb4027U, 0xbd2ab83e3c030b48U, 0x3dd7a779be94ea2bU,
  0xbe222beebe3c1fa4U, 0xbdb03ce3bddfa857U, 0x3cf5bd9b3c1b3bcaU, 0xbe0fa02c3dff925cU,
  0xbe085585be5c707cU, 0xbe08aa5bbdece28aU, 0x3ecb20603e294d6bU, 0x3e74382fbdcc3c6aU,
  0x3d4a92423d5a764eU, 0xbe04aa163e92f40bU, 0x3d6e54593eb7056cU, 0xbccade143e165f68U,
  0xbe1931793d476db0U, 0x3e57bab53d4259f9U, 0x3df9ba97bd96e247U, 0x3d13232bbebeced7U,
  0xbcdc163a3e08dbb5U, 0x3dab3109bd825a4cU, 0xbd246637bc940102U, 0xbdaaad85beb3fb53U,
  0x3e05c9343dc64e2dU, 0x3e0425d7be90c75dU, 0xbdb3cf47be655889U, 0x3e1322b0be2dc80bU,
  0xbe0710333da980a6U, 0xbdf205c3be54c2e8U, 0x3d86ab85be90f79cU, 0x3de0b6efbe68643cU,
  0x3dbf2521bbdfb17bU, 0xbdd9bc3d3cd960eeU, 0xbcb6991d3c191bc0U, 0xbbaf5451becf06fdU,
  0xbc66c35bbe35c3eeU, 0x3e68f2323ca449d8U, 0x3db2acaa3d3238ddU, 0xbdc33e0d3e925cf7U,
  0x3dfbdce93db8af0eU, 0x3d796954bd851e60U, 0xbe8ecb9f3e96fbe6U, 0xbdf860463c6c87edU,
  0x3e54f9efbd954d0cU, 0x3c9073513e9d71aaU, 0xbdc32d97ba84a89cU, 0xbd73ed7f3e472bb5U,
  0xbdb8a8d13de1fe9bU, 0xbdc70107be2aa9acU, 0x3deca9f03da3b430U, 0xbdd85bb33e9cc4f6U,
  0x3ce21a8fbe6864f7U, 0x3d7dbf103e167d3aU, 0x3de2331c3da6b451U, 0x3ddef2bbbbf3ba7aU,
  0xbe152b0d3e5ff7b9U, 0xbd9f4f513ca1ef77U, 0x3e1ecda1bebbaca6U, 0xbd4b065c3dfb6764U,
  0xbe43e045bca8a779U, 0xbe1dce5b3e9ba476U, 0xbe19d6edbe2fa01dU, 0xbc2c3b3dbd6b0ed8U,
  0x3e8c687e3daf354eU, 0xbdca9e25be0a7f19U, 0xbe09d52e3dcbdd5dU, 0xbd60d06e3ec4c9efU,
  0xbc6310e43e1e7df5U, 0xbdc03588be9de52eU, 0xbd75b8ed3dd7c466U, 0x3dccff83be16cb4fU,
  0xbeb5b79b3da56b1cU, 0x3d73ee3a3ea706f2U, 0x3ec876d03e5b3f11U, 0xbe67667a3d199e46U,
  0xbd62a5f8bdf767c2U, 0xbe1516663e202ca1U, 0xbd40e3563e4e49f0U, 0xbd7c40ae3e206b0bU,
  0x3bc4ab2a3d843307U, 0xbe9078a83e07150cU, 0xbd7047a3bdd65279U, 0xbe695e6d3edb4ae2U,
  0xbe0c37b53d3ed8f9U, 0x3d6914e53c58c93aU, 0x3d9c062d3d9c9ccfU, 0xbdb33585be7a9b15U,
  0x3dd6aa61be3ebfb8U, 0x3ddb63463dcc53a7U, 0xbe3269e33df70a44U, 0x3ea82795bdf32533U,
  0xbe6654403d917b0fU, 0x3c370702bece1313U, 0x3d80b358be69d85eU, 0x3d622cf43de84838U,
  0xbda2540cbdaffd00U, 0xbd873b8e3d935766U, 0x3c5073a43e56d842U, 0x3e32482b3f2045ddU,
  0xbda135acbd054459U, 0x3d00c7783e07412fU, 0xbc3e112fbb9ffdb8U, 0x3d00b6a4be71f96dU,
  0x3dd07d1a3d8a5070U, 0x3e207c7d3dc1c356U, 0xbe4fa92ebe719393U, 0xbe1784a9be3c8e70U,
  0x3da1d588bcb5eb08U, 0x3ce4689bbec1c559U, 0x3d2f25723e24df46U, 0x3de4db9bbd251b86U,
  0xbe6f8e67bd9c4c97U, 0xbdeceee03e5e2926U, 0xbd40ea363bfffe1bU, 0xbe373ba03ed46a9bU,
  0xbd84b25ebde99b74U, 0x3df7cee23e039e14U, 0x3e077ea7bdc459afU, 0xbd87bc983eaa044eU,
  0xbced0d053e4b0b39U, 0xbdf886d4bd8dadbdU, 0xbe6aac57be7dcb65U, 0x3dad84f8be4bd292U,
  0x3e2f94d53cfb09fdU, 0xbe862223bcb6ff21U, 0xbd1a27c3be83721bU, 0xbc8b48923d059d8cU,
  0xbecb18df3de99018U, 0x3e23ceed3e873091U, 0xbe4dc749bd81ccc9U, 0x3d67a4ff3e343302U,
  0xbe286c6bbe10d1fdU, 0x3e34300ebda91c3bU, 0x3e2987c53db126c7U, 0xbc954bbb3c894571U,
  0x3c4350303ccb2bddU, 0xbcc4cc253dee4324U, 0x3dfdf6273d82d225U, 0x3e04ecbfbe54f6bfU,
  0x3e36b4583d3ad21eU, 0x3d74f610bc587f86U, 0xbe474944be14aab5U, 0x3ddbe52cbcd4a9c1U,
  0xbe18c049bd9959d1U, 0xbe83af723de9532fU, 0x3decb0523e33d764U, 0xbe47cbd8bd7337e6U,
  0xbe225b31be7e6ac2U, 0x3ddd21743e01109bU, 0x3dbcfa923e085874U, 0xbb7393d5bd8e53f1U,
  0xbe878690be30bd2aU, 0xbe276c5abe31fbc8U, 0xbda6529b3dcf4bbcU, 0x3d1b2074be76068aU,
  0xbd23a3763d812745U, 0x3cf226033d1ab362U, 0xbe19d84c3cafb6c0U, 0x3d28faf7be84abadU,
  0x3e94f9053dc04a47U, 0xbd076e10bd541c83U, 0x3dce8a263e7794c3U, 0x3d6bf058bd8d70ebU,
  0x3e185cdcbd18daefU, 0xbd175dacbe0c260cU, 0xbe1e1bf8bda5bd5cU, 0x3d6289b03e3c5168U,
  0xbe0750143e2d918bU, 0xbd32ba7e3e53c993U, 0xbb05df31beb1584eU, 0x3e0ef11fbe34cb73U,
  0xbd144607bba26465U, 0x3ce1b5f6bd1d10edU, 0x3d9c06763defc948U, 0xbe02d6d43e0e349aU,
  0x3bedbc89bdaf84f3U, 0xbe00efbe3e2d4ba7U, 0x3e1a8feabe3a760eU, 0x3e7c01dcbcc6cb02U,
  0x3e0e8a9a3e48bca9U, 0x3e0410bc3e2be423U, 0xbe4100e7bdfa265eU, 0x3ca1c816bf127200U,
  0xbd7a78e0bc65c4a8U, 0xbe169da73e28146dU, 0xbe950105be1f575cU, 0x3d5655e2bda730d8U,
  0x3d6b23163bfc5389U, 0xbe99beacbd804b26U, 0xbc9760a93e0e4983U, 0xbc9f3e523e6fd095U,
  0x3e0f3a583d617fb6U, 0x3dea341cbdff17f6U, 0xbe23d571be63b383U, 0xbd5984023ce7042cU,
  0x3d40d6e5be40941fU, 0xbe170a1abcbed2c0U, 0xbe18afc63d75740dU, 0x3cb982e53cf47458U,
  0x3ea2b1043e60065cU, 0xbe8c368e3dd3b3bbU, 0x3c9e91713e05430fU, 0xbe1187063de38b66U,
  0xbca905b6be1e1aa9U, 0xbd6f2b703e3c36e9U, 0xbc8bc346be89c7a2U, 0xbd95a7523d0feebdU,
  0x3ed96f433daa532eU, 0x3ea50b543bb05924U, 0x3bb71f4bbe431c89U, 0xbdb4db823dc56377U,
  0x3e406be03e0109bdU, 0x3d4b8709bcf93bc1U, 0xbe3ae4c7be10c26fU, 0xbda03579becfd9cfU,
  0x3d29810a3c11e8e3U, 0x3c043a05bd05e060U, 0xbdd68ed23a390be6U, 0xbe10c2f93e32a701U,
  0xbe5e4feebc83f088U, 0x3da654b73ecc9ef1U, 0x3e249391be8df761U, 0xbdbe3023be2d89e4U,
  0xbe1e670a3e03c631U, 0xbd918ff6be0bab98U, 0xbacef7583e0724d3U, 0xbe0720b93ccd480dU,
  0xbe088f4dbe6880abU, 0xbe07ee9e3dcc2fcaU, 0xbe13370bbd00556cU, 0x3d3b6c2c3d11a6e3U,
  0x3d619ea13e8a0948U, 0x3dcdfc243dc6eee8U, 0x3d60e038be7516e6U, 0xbc886e6d3e0c3c2eU,
  0xbd73e12dbd6b9eb0U, 0x3e069cc9bda639cbU, 0x3e11b3c83daf2ad0U, 0x3da0d502be2d8cfbU,
  0x3ec00c58bc234176U, 0x3e540c713de8b827U, 0xbda4106d3cdc1ef5U, 0xbe2a9c9e3ebdaa27U,
  0x3e205fddbc9c9701U, 0xbaa958653dc050d2U, 0x3df26eca3e3a5f29U, 0xbcea4410bee27a81U,
  0x3d3110dd3d1927b6U, 0xbc9450e0be1b7fc5U, 0x3d6bbe613e116f3cU, 0x3ca1509bbe0d8cf7U,
  0x3e81f6e5bc696eb0U, 0x3dc09506be2d8891U, 0xbda083bbbe56cfefU, 0x3e173bb3be8e8ddaU,
  0x3ea0af053ddb6637U, 0x3e8f7ae1be498e25U, 0xbe00acf03cc0f7feU, 0xbe1ccbe23d5c7481U,
  0xbd21dec43db5d0aeU, 0xbb95983a3e5a7643U, 0xbca0c2c6ba8309c8U, 0x3d08ae9abd9ee9c0U,
  0xbe547d713e4486a8U, 0x3e84ee42be4a1eebU, 0x3e21cdfa3f070395U, 0xbc1e29383d994dd5U,
  0xbdba7c03bd5693e1U, 0xbe7c42133e86cd66U, 0x3cd87b163ea25589U, 0xbcf52da73e058348U,
  0x3d691168bda4b5a1U, 0x3da61e2abe10dbabU, 0xbe4fe6a3bda96f99U, 0x3cffeb52bdad64e2U,
  0xbd131f00be92a751U, 0x3e4775653e361e4eU, 0xbe29c726be737d64U, 0x3ccd53843de74300U,
  0x3d70c0873e9a1fb7U, 0xbd40ec793e4ec9aaU, 0x3ce2c3353eaef0fcU, 0xbe0bb1b6bd477683U,
  0xbe88a102bdbf5722U, 0x3e3f4fe23e3cffe9U, 0xbd05d1a33e57212eU, 0xbdb253c1be94281cU,
  0xbecf089abe1f2fd7U, 0x3cffed0ebe03a2eaU, 0x3e715bf93d96a93fU, 0xbe03450ebeb1abecU,
  0x3d5fbd593d5b9ee0U, 0x3de66397be549d70U, 0xbc3391ef3be19f9bU, 0x3d5650d2bd653a55U,
  0x3cad9eedbe44b8acU, 0x3ba561c93e0df7c1U, 0x3e4c98293e5c00dfU, 0xbd9760cd3d18eac8U,
  0x3e5c3b01bd57dc07U, 0x3e7e4dc73e680fe3U, 0x3d39fbba3ef8f138U, 0x3ce44ce2bdb52ae5U,
  0xbf1007cabd912bd8U, 0xbe0903a6bda054ceU, 0xbe5bd1bbbd65d513U, 0xbca17ffbbf1801b0U,
  0xbe576c10be1f16dcU, 0x3df93970be8a5507U, 0xbd39a2e1ba45b6efU, 0x3d412824be3e1929U,
  0xbd768331bc4e2405U, 0x3d5bda1d3d790b2bU, 0xbc8bfceebd62b5e5U, 0xbe9b1b923dc7d434U,
  0xbe015a4cbde645bbU, 0xbe8664a73e318e3dU, 0x3d278a593e842e09U, 0xbca7acf83e1a30f0U,
  0x3ea9a160bd151163U, 0xbea6dc72bc00485cU, 0xbdeadcf4be323bb8U, 0xbdf361f2be9d2bf3U,
  0xbcdd60c4bd36d657U, 0x3eaeb9153e3afee5U, 0x3d343f063d6aa100U, 0xbcc59536be622edbU,
  0x3ca83c29bd113e9eU, 0xbe07004e3e7eb374U, 0xbe856fd03e5f53bfU, 0x3d4838ab3dfac42cU,
  0x3e0be5483cda7b60U, 0x3bf68676be4cae7aU, 0x3dc3254bbe1fa254U, 0xbd8496b03eaa99c2U,
  0x3d53c5a33e2e2aaeU, 0xbe2a0c603d844ff8U, 0xbd5c98853d90118bU, 0x3e8dc2bd3e976f8eU,
  0x3d49b4a83cf125cfU, 0xbde9aeb73dfdd7c2U, 0x3d828e343e2352b7U, 0xbdbc0c50bd3d0667U,
  0xbe073267bbb6f66bU, 0xbe465e27bd353b21U, 0xbefd8c4bbd75093cU, 0x3e9c27e93d77c4ddU,
  0xbd344757bd03fa67U, 0x3dc3754bbe7c856fU, 0x3e5b203a3d90a91dU, 0xbdb3d2e6bd6c58c7U,
  0xbd98c85dbcab84fbU, 0xbda6f2f9bda5ecd0U, 0x3e9c22533caffabaU, 0xbe139510bdff83f8U,
  0xbc4b38153e02f519U, 0x3e997655bde7f25eU, 0x3d206e45bcb70b45U, 0xba90ee073e92fa71U,
  0x3cbcdf96bdc7145aU, 0x3d9e74f03e1ccc3aU, 0x3dce8d213d23a385U, 0x3e93ac0abce19476U,
  0x3e0017133dbf9636U, 0xbe88977fbee261afU, 0xbc12b8e53d5174e2U, 0x3dbce2663dea8d12U,
  0xbec7d1993c5c5f80U, 0x3cd9f1b93de8ae87U, 0x3b22f67fbe25f399U, 0x3dd0b95d3e694abbU,
  0xbd8ed2b03e532cabU, 0xbd9f3a32be1e6e33U, 0x3df5dd1fbdbbd0bcU, 0xbcd6944e3d14cd22U,
  0x3e74c938bdea78afU, 0xbe0ff7fa3d235982U, 0xbecf24edbe8768bcU, 0xbe46b2adbe28cfceU,
  0x3cb1cb8e3dc581a1U, 0xbe668343be88760dU, 0xbe14f87bbecd19f5U, 0x3dd5e192bad5f1c5U,
  0x3e364792bdaabf1dU, 0xbed11806bc901b69U, 0xbcec478d3d68dcaaU, 0xbe623a91be9bb0f9U,
  0x3e34746f3deed524U, 0x3e58ecc53d31d94fU, 0xbd6ed14cbc12bf8aU, 0xbd85510cbd934069U,
  0xbe22c2903e210efcU, 0x3ddfb4e8bdf8b913U, 0xbef0de0c3d50e4abU, 0xbd2b9442be5c4b26U,
  0xbc8d03a4bdd8a94eU, 0xbecce27e3e9d3137U, 0x38ff1440bdb03284U, 0x3c522e85bec722a0U,
  0x3e8f91df3e3d96a7U, 0xbeb4b194bdac56c6U, 0x3da334983e085450U, 0xbdf922b1bd0d1c78U,
  0x3e2c31d2be15545cU, 0x3ddd9cc83db19821U, 0xbe1b06743e5447c8U, 0xbcbd62cbbe8781e8U,
  0xbd7613653d70b6bcU, 0xbdc9805dbe380bc3U, 0x3e77218fbcd8ebaaU, 0xbee9b28a3d5c2095U,
  0x3e54cd8e3da4c471U, 0x3d7efaffbecaec3dU, 0x3dc5b5d03e0995dcU, 0xbdcfbb483db30d50U,
  0x3dc3111b3ba8b069U, 0xbe4066cfbdc14a75U, 0xbe32df663e267a72U, 0xbae9601d3e98746bU,
  0xbda4f4cf3da6e018U, 0x3e03cebfbd94ecf1U, 0xbda8106d3d72834eU, 0xbdcf27cabd916f1bU,
  0xbe40229c3d9f608bU, 0xbdba58ab3e8151b5U, 0xbd6dcd84bd986b27U, 0xbe7514c0bc8bef5cU,
  0x3db6c4583dd1e215U, 0x3e0fcc833e0cd5dfU, 0xbdada22a3ea88bd7U, 0xbc774de63d423ff1U,
  0xbed946f83d6d82a4U, 0x3edb54913d8a0b6aU, 0xbdb5b069bda2e06bU, 0x3e1d16883e68ac47U,
  0x3e394eee3dd254e7U, 0x3e7f7f8bbd420c23U, 0xbd33495abe899b87U, 0x3dc3d6783cd82047U,
  0xbcf9c0bdbe0696e0U, 0x3b8f349f3e0cc9d2U, 0xbee6e87c3ea4c64aU, 0x3e66b0ecbd11804aU,
  0x3e48c49cbe11b229U, 0xbea42bc3be9ecafbU, 0xbd59e0713ec10faeU, 0x3dcb14b23e7b3a60U,
  0xbe5a62973e0d92b7U, 0x3d148529be24964dU, 0x3e344d993e2580a5U, 0xbe024ef4be417370U,
  0xbd8f297fbe4a7c16U, 0xbe13dffb3e33abcfU, 0xbda596edbcb8199fU, 0x3d3055c0bdfb2bdaU,
  0x3ddc1a76bdcc3c5aU, 0xbe33ee88beaa2b89U, 0xbeaaba8f3da210a4U, 0x3e5540eebd991329U,
  0xbddad5cf3c68dd15U, 0x3e5777f23e216e9cU, 0x3d6621683e7ac961U, 0xbc0f31c3bdddd4bcU,
  0xbef1acf9bda4bbe9U, 0xbd7e9ed13daec364U, 0xbd8fb5cbbbf03998U, 0xbdab90683ebaa938U,
  0x3e0a3206be8ec3d4U, 0x3ddfad3ebe3005a0U, 0x3dc0f146be63c3eeU, 0x3db798a7be908217U,
  0xbde33ee6bd9ab352U, 0xbd77fc933de184faU, 0xbd8f9dc63dc8c4d7U, 0xbd8ffe24bd8df84fU,
  0xbd32f2f1be03ac5dU, 0xbd4072f8bece952bU, 0x3da5eeb6becc9d30U, 0xbdad5db63e7201a0U,
  0xbea7a7c3bd28a043U, 0xbb474c97bc9547f1U, 0x3e48ffd9be63371bU, 0x3cad7f4a3e1eeb75U,
  0x3e4bef42be18a620U, 0x3d0832463d319edcU, 0x3e3e6da73dbca083U, 0x3dc90f4bbe6d66dcU,
  0xbd7a967ebe16ed85U, 0x3ba51676be05c38aU, 0xbdca418c3cf79d91U, 0xbd86c6f9be3f3eb6U,
  0xbe2b7808bded0007U, 0xbe124ef4bccf6ba8U, 0x3dba13c4bede945dU, 0xbd45ee0ebcdbb196U,
  0x3dce289d3e29e7daU, 0xbda546e6be257510U, 0x3e3c2ea53dea96a6U, 0xbdb717973e9a184bU,
  0x3dd6f6f13d4ddf83U, 0xbe26f6e7bd399f9fU, 0xbdd9d51dbe0eda7dU, 0x3dbe20efbdefaadfU,
  0xbe9d2dbabd3765c5U, 0x3e2b21afbe10393cU, 0x3e6a9024beae8c63U, 0x3dc8e9f93d68d726U,
  0xbe0730fbbc96d9e8U, 0x3de7d7be3ea99b51U, 0x3bbde5e9bd88e353U, 0x3df9d2fabe8493cfU,
  0xbcd507503e2814beU, 0x3d5e5396bd582ac2U, 0xbd44cf6b3d6e8e94U, 0xbe3fa31a3e9e0b99U,
  0x3e5e27bfbe9351dcU, 0xbe1b11f23e465b2cU, 0x3d4d14c33e285becU, 0xbdb3e3a1bd459513U,
  0xbc781565be9291a2U, 0x3cefd4983e8b318fU, 0xbdc656403c57abcaU, 0xbe65dd53bd84bb5eU,
  0xbe7015b33df698a0U, 0x3e57da4f3eb70216U, 0x3e01ed533dafd54eU, 0xbdaf91a13d4fa592U,
  0x3e78857fbdbf61d2U, 0x3d2499263bc6cc98U, 0xbe02b627bc81bfafU, 0xbbc73f1b3e9d3ffbU,
  0xbda82daabe64c1a0U, 0x3ba979ac3e6bd323U, 0xbe1622e93e477bd8U, 0x3dabb32b3ea89862U,
  0x3e25f031bdd97c1fU, 0x3dd967053e7cc3f4U, 0x3c0bf769be88eef2U, 0xbdf53d24bd71be2bU,
  0x3e03d7c6be23bfd3U, 0xbc8191bb3eb8bd1fU, 0x3dc8a3b13de5158dU, 0x3d85859d3e6dca45U,
  0xbe748599bdbb9485U, 0x3d02b2b03e1dbee1U, 0xbb48a53dbe405488U, 0xbe66bc45bdbfa0f8U,
  0xbe5f65133c014577U, 0xbea3c8be3ea6ea39U, 0x3d9c92393e620d3bU, 0xbb383f31be8f77e5U,
  0xbe61e4263df016b7U, 0xbc073b5dbe929186U, 0x3e5b38a6bd8c105eU, 0xbd1113d0bd5d46bdU,
  0xbe50f262bd17050eU, 0xbe967b19be059478U, 0x3de4dcf2bdc4b298U, 0x3d1a0871bccf0f84U,
  0x3c77cf673d041015U, 0x3e5fbbb0be141700U, 0xbca58ac8be57cb8fU, 0x3dbff977be7dceefU,
  0x3dc46c523dfb75f1U, 0x3e37b6c5bd8ca703U, 0xbdd8279b3e13de12U, 0xbd4746813d09cfd4U,
  0x3e034ed13dd0ce21U, 0x3e726c6a3e7c71edU, 0x3d3170afbe288971U, 0xbefc1b1cbe9e1b66U,
  0xbe0b947e3c6614b3U, 0x3db637f4bb324180U, 0xbc64edeebdf4f8ddU, 0xbe02c5803d371158U,
  0x3d8f73b33e08d953U, 0xbd9f6ac4be754622U, 0xbca444573e922fe2U, 0x3e2c95debeb87b93U,
  0xbd8c895a3bc02f98U, 0x3c49409f3cdc4dd9U, 0x3dc8139e3d0473a3U, 0xbd36c2d8bc3cf9e0U,
  0xbd3c5e3ebbceb638U, 0x3d79217ebe20bd30U, 0xbdf321643db0c745U, 0x3e91a26b3df48648U,
  0x3e1806e3bbcff990U, 0xbd86f2963dd4fd09U, 0x3e12f238bea56414U, 0x3d04e3153dc7c63fU,
  0x3e24b2713d794c38U, 0x3ed7b540bd3e0383U, 0xbe8042c13e89cca7U, 0xbdde64b13e325d42U,
  0xbe3c6d7fbd8f748cU, 0x3bc2de9f3ddb64f8U, 0xbdbd9920bd9c81f8U, 0x3c8c3e71bdc65195U,
  0x3e1166163e3e319fU, 0x3d291ba63c56ee6fU, 0x3e8bbe5b3e3ff4fdU, 0x3e1b45bbbe34d719U,
  0x3e1d5c68bdc9a141U, 0x3e42535cbe3fe0b0U, 0xbdd5f34c3e929b10U, 0x3d9cd8ce3d90c130U,
  0xbdae3a913deaeb05U, 0x3e747c09bdbbfa2aU, 0xbe42e626be0ddc28U, 0x3e4734683dd5dd1bU,
  0x3d81671c3dace7f1U, 0xbd6d98c4bdde991bU, 0xbd1d551bbbf1546bU, 0xbc5613313df60844U,
  0xbda0c058bd9fa2e4U, 0xbd09ba6bbdca117eU, 0xbcbfb026be5df5beU, 0xbd41e972bbb2ef6aU,
  0x3c0727b43c20cc54U, 0xbc42a2bfbdc720f7U, 0xbc2cf1c1bef0f62bU, 0x3ddc6698be75311eU,
  0x3e517b103dfa086aU, 0x3e4d7dc9be4b9619U, 0x3d60beaabe5a9107U, 0xbc3b5bd9be6d0dcdU,
  0xbbc5fefabe26560aU, 0xbd21ce30be169bc7U, 0x3d0864fcbe446f07U, 0xbda5d8c2be4a6eb6U,
  0x3ce78b97bd27ef12U, 0xbdf93febbe433013U, 0x3e1034803de3fa0dU, 0x3e9cc0ed3e7336c5U,
  0xbe01b5e9bdf04408U, 0xbda55d2cbccb93c4U, 0x3d956026bf001a4bU, 0x3c9056f63e109252U,
  0x3e3304f8be14405cU, 0x3d6120ac3c469807U, 0x3d4bfc73be52006eU, 0xbd98f63f3e3a1696U,
  0x3d2bc520bdd28078U, 0x3db49df63ce46e56U, 0xbe535025bd27d9daU, 0xbd543fd8bf2c64e4U,
  0x3e37fe22bb6a35b2U, 0x3d7f16f5bd54ed8aU, 0x3e993849bd9327aeU, 0xbdfc8cd3be0b5485U,
  0x3d84eec3bdbe5c77U, 0x3e872976be7ba849U, 0x3c7fb976be92c798U, 0x3d584cfb3e4e3d4cU,
  0xbde5729e3dcfbb45U, 0x3e8e0f573d9a4713U, 0x3e01dfecbbd8d330U, 0xbe2bef7c3d314f80U,
  0x3cae01eb3e49c52cU, 0xbd5279143de4c32fU, 0x3da714403ca1a3caU, 0xbd11b569bf70c7f4U,
  0xbe79a949bd36133cU, 0x3d67fb4a3e6ff1e9U, 0xbe116f73bdd90e6eU, 0xbec9c1c8be40d219U,
  0x3e14f9823dbe1d2aU, 0x3dff2a443ece1091U, 0x3d5c91d1bdc417a5U, 0x3dd6bd95bd2d5ca5U,
  0xbe2cd7693d0cf13cU, 0xbe1d9516bdae707cU, 0xbe51a00abe1080faU, 0xbe1a6344be93a66cU,
  0xbd7d1cdfbd6d30e0U, 0xbcf89abdbe5c5e63U, 0x3d4d3b9abe2fc9f0U, 0x3d7ffe29bf8392cfU,
  0xbe65c069bcb354feU, 0xbdb6dfb33bec9075U, 0xbe6a41a9bdc289acU, 0xbec0829f3c1fb277U,
  0x3e45033fbd4ede69U, 0xbe7749e4bbf200b7U, 0x3c87afad3e0e231dU, 0xbda8c3db3e77b10cU,
  0x3edf5ac53e1b87b0U, 0xbe01147a3c9eb07eU, 0xbd06f6d63dae1597U, 0x3d9666213e1650bcU,
  0x3e1ff0d9bdad7449U, 0x3d28830a3e166535U, 0xbdc461edbe079319U, 0x3ca5116ebf0b0cb0U,
  0xbc850ae9be30be2bU, 0xbe297499be68b5f8U, 0x3dd557973e2eb7dfU, 0xbeca9bcfbdfbfdb8U,
  0x3b5d4d443ba45a77U, 0x3c2f050c3d7690a2U, 0x3dd173363e4c6a7bU, 0xbd6d8ad23e3ca8ddU,
  0xbeaeba8c3e165d74U, 0xbce08e743db45db6U, 0x3d622a77bd543ca4U, 0x3dea01243eae89b5U,
  0xbdd55cbabd371fc9U, 0xbe215ca6bdb42094U, 0xbe15afc0be14e8f5U, 0x3ba85a233df5f371U,
  0xbdff34e73dea610cU, 0x3e62c459bde6e526U, 0x3cac9e073d198b94U, 0xbeadde733d26f292U,
  0xbdbbd082bdfefd4bU, 0x3e40bb2a3e9c0c74U, 0x3d8207c2be8165f4U, 0xbc9937a3be3fe0f9U,
  0xbdc5c5143c9cb477U, 0xbd67445cbe62086bU, 0x3e80d5ae3d88832fU, 0x3e3acae7bea469ffU,
  0xbccf163cbdc51797U, 0xbe9b86d63e7c4ee3U, 0xbdf690953e18143bU, 0x3d242e86beda5c8cU,
  0xbccd52cebe3b8263U, 0xbdce5351be949a2fU, 0xbe4d38523ed0a6b8U, 0x3df05f1ebd8e1586U,
  0x3e0edb8fbdfff406U, 0x3e565c3dbe80a935U, 0xbd8ecdf6be4587d8U, 0x3dbcc9a3be8b2334U,
  0x3e3ea3613d0f05f9U, 0xbdd4e937bde35771U, 0xbd88b12a3dd66f4cU, 0xbdc3670dbe69c439U,
  0xbe2185863e0775bbU, 0xbd05ba0d3d185706U, 0xbdef87e23e30b588U, 0xbd4e5d12bddb315aU,
  0xbe5b8f183e14a320U, 0xbe26d7703d84c420U, 0xbe0688aabdfc92e5U, 0xbda13fef3dbaabeaU,
  0xbe3b6ac0bd049e41U, 0x3d034beabcf58458U, 0xbdd68bef3dc0aa04U, 0x3cab4e953e562f21U,
  0xbe3c78643e11f8f8U, 0xbdebd8a03d7ca59fU, 0x3d80d7a5be63cd05U, 0x3e207fad3e4ec14eU,
  0xbe567bd2bd9bd95cU, 0xbcec889fbdd78fbeU, 0xbdc13f27be289ac2U, 0x3d8751afbeb65df5U,
  0x3cfce4d13dc5c4e6U, 0x3d0222ac3e4e8249U, 0xbdd28e51be585b62U, 0x3da125e9be7cbd1aU,
  0x3e725a713db354daU, 0xbdbf6668bef41d23U, 0x3e0cc20d3e3f8621U, 0xbdae4bd13ceb2df1U,
  0xbe920a1ebc976006U, 0xbb1638a7bd4afae8U, 0xbdf65ae23a693abdU, 0x3e1e41503e84a47dU,
  0x3dd78228bdd87184U, 0x3e82fdcb3e5517c7U, 0x3dea220bbe1fae42U, 0x3d861933bea8fcb5U,
  0xbc8602383bcf753dU, 0x3df97cdebe24eb98U, 0xbe95a61bbc552c0dU, 0xbec2e40b3d79c174U,
  0xbd9b7c10bc42c349U, 0x3e19429a3ea24131U, 0x3d0adfba3e312e96U, 0xbd4f70e7be51bf7eU,
  0xbe5779c93daae7e9U, 0xbe3fba7f3b057cd7U, 0x3e5850ccbe9d7f50U, 0xbd9153c9bbcc690bU,
  0x3df8b0533e85cb47U, 0xbe3ab747bd5dc0c9U, 0x3d9cba8bbe0ab64dU, 0x3d070e57be1d8c94U,
  0x3e809ed1be00350dU, 0x3d7a7e153e5f3b54U, 0xbdda2ba33ec80da2U, 0x3e40d88b3e1f295cU,
  0xbd7411c83cc3a156U, 0x3e3f464c3e8ac4edU, 0xbd22eaf83d172eddU, 0xbd7873243b9f2227U,
  0x3e06b19c3cc5eedeU, 0x3d1ef601bd2a95f8U, 0x3e178f6d3e56987bU, 0xbdcd2e5fbedc9249U,
  0x3d4f784b3b6078dbU, 0xbd8e00ef3e522815U, 0xbcd811933d4749e6U, 0x3d1c4b843db508b4U,
  0xbe366b723ca0d277U, 0x3e34b9353e4370bcU, 0xbe50e50cbe93d2c0U, 0xbe824bf23d8382eaU,
  0xbdc03a33bd1844fdU, 0x3e97ab57bcd80550U, 0x3db666613e7f5541U, 0x3d5f7ad6bcdb8e21U,
  0xbc28e12e3e32567dU, 0xbd4ed4623e078498U, 0xbe81b8d23d564601U, 0xbe3386833e420519U,
  0x3da07d5dbe8d76feU, 0x3d3922ba3d034390U, 0x3a04ac8ebd892883U, 0xbd75c0f3be527db3U,
  0xbcc4823abe0aea3eU, 0x3e47c16f3e5a46b3U, 0xbe9347453d02bbcaU, 0x3e4e666a3e18172eU,
  0xbe402302bb7c62c9U, 0xbdbdfdacbe83bb77U, 0xbc4f8e29bd089518U, 0xbc32cb8fbea41ea7U,
  0xbe048222bc0d6710U, 0x3ea2407bbe14d6a2U, 0xbc063afa3de6ac95U, 0x3ddc80ddbe98444dU,
  0x3db48341be9ab3d0U, 0x3e6bb9b33dc2a150U, 0xbd898812be617f5dU, 0x3c7ff6743d8e0793U,
  0x3e546891be236d5fU, 0x3d9958ab3e00b367U, 0x3a38df7a3e305744U, 0x3ca9e7cfbe5568fdU,
  0x3c9d8ce03d8f4d8bU, 0xbdaf93dfbe9f22f4U, 0xbdc5c80ebeda58a3U, 0x3da4a21bbe6ab394U,
  0x3d9a58df3e5333c9U, 0xbe0c51d3be051ce9U, 0xbe4260ac3e1c50f0U, 0xbd70108dbd759b14U,
  0xbd838e41bd599bbdU, 0x3e5943363de96c85U, 0x3e27f10b3e1f8724U, 0x3d78e6e9be92de57U,
  0xbb24f1a03dd2b703U, 0xbe47ba4dbd1f8d0bU, 0x3d95ca12be2ef07fU, 0xbd408a5bbe507de6U,
  0xbbb868e6bdea038dU, 0x3e43860abec412aaU, 0x3e0ddae73ea141c4U, 0xbde15f4e3e8e1627U,
  0x3e675d9d3caa63b9U, 0x3e7958c93e29e900U, 0x3c8b4c8bb937c213U, 0xbd9b0e933ed1c956U,
  0x3dbdfb1bbd7c1c46U, 0xbe16c738be583a7cU, 0x3d29acfd3ce800d7U, 0xbdd0a91e3ed2a438U,
  0x3dd4a472be3de876U, 0x3d97f42ebeb1c2c6U, 0x3e55b3b8bf02700cU, 0xbe5e4802bd4de66bU,
  0x3e5c9699bdb377b0U, 0x3e907a30bec0efd2U, 0x3d5b377e3dd2fabeU, 0x3d39b580be2e0075U,
  0x3e6a9680bdfe5542U, 0xbde22dc13e4f03eaU, 0x3e43bdabbe27b549U, 0x3e28fcafbd750593U,
  0x3dcd381bbd19049fU, 0xbd232501bd02f21dU, 0xbd8185cf3e19829dU, 0xbd35b3a23eb2a8eeU,
  0x3d36adffbe193f8eU, 0x3d889f53be81f29cU, 0xbedc93dbbdcea5c1U, 0xbeae0b55bdeb1a7dU,
  0xbd7311e13d3aa289U, 0xbe44a0523e092c65U, 0x3d9a69863d1d9dfeU, 0x3a9750523e3dbad2U,
  0x3e46f9e23da1879eU, 0x3ca9a3273e40332dU, 0x3dffaf08bef5186dU, 0xbe15b660bedf9393U,
  0x3dbe6d543dbad4adU, 0x3db12fc2bd7ab8d1U, 0x3cebe929bdfe3050U, 0x3dc11854be8b782eU,
  0xbe68f1243e07b01eU, 0x3d75564fbe7d3b4eU, 0xbe93db4cbdcdd960U, 0xbe9b2a63bdbc9795U,
  0xbce10e32bc12cc20U, 0x3e046e1c3da536e1U, 0xbccdc0d5be883e5aU, 0x3d905ac13dab26edU,
  0x3e83a006bbc82b5cU, 0xbd354ee83de837c0U, 0xbe39a86fbe3627c2U, 0x3d56c2f5beb674d3U,
  0x3c8c15793d7b32aeU, 0xbe4e56ef3e8d7338U, 0x3e04c6533ac0c2c4U, 0xbd0ef06ebe6eba55U,
  0xbe12f014bd1c88f2U, 0xbbcae094bea607afU, 0x3e098ca0be5bfb0aU, 0x3e347f84bc688d8bU,
  0xbe99f3abbd4da32dU, 0x3e683ee53e694200U, 0x3d4c609f3ebc2dbbU, 0xbdf83dd63c739d16U,
  0xbd428a97bd4dc461U, 0xbe39d1a9be388ba8U, 0x3e15aec2be27f695U, 0x3e1b7794bea98297U,
  0xbda055cbbe780f39U, 0x3dff14643e4ef151U, 0xbd8173d93da5d9caU, 0x3dc61c3f3dff6142U,
  0xbda4f3053d81242cU, 0xbe0a606cbecabab7U, 0x3e0b62e5beb0076eU, 0x3e5d9da5bd68b612U,
  0x3d894a55bdc277c3U, 0x3d163c15bec960beU, 0x3c2e973f3c245643U, 0xbd3bade23c88a4b5U,
  0x3eb59dc33c460566U, 0xbe3437863deb731dU, 0x3def7eb9bda97633U, 0xbd940278be0b784dU,
  0x3d363faf3d610945U, 0xbe7cdb573dc8f438U, 0xbd0945e63e73583fU, 0xbd20f5273d7244ddU,
  0x3cb6bc1c3df55a6cU, 0xbe7e96543dc826cfU, 0x3d3828113e8029f3U, 0x3d3baba43e380d99U,
  0x3d9347a13de457b8U, 0xbe6ab3abbe9575e2U, 0x3e0cbd7d3e042806U, 0xbda97ce53e75fe74U,
  0x3ea4a3403db6c9baU, 0x3d2e673a3d9c4a16U, 0xbddca9293eb6d770U, 0x3df9e995be3883ddU,
  0x3d4856f43deabf95U, 0xbd42a1c4bdd06438U, 0x3df35f333e507a2dU, 0xbd82c039be18e737U,
  0xbd7f4b7ebe2ea265U, 0xbd114d8fbd53c393U, 0x3d5a5e1ebe6b2ff7U, 0xbdd856fb3e253dddU,
  0x3e7e46e43dc21fdeU, 0xbdb2717f3e3b6741U, 0xbd80ffdd3e679b9eU, 0x3c1051e83de896e6U,
  0x3e7b84e13e1ec070U, 0xbde176a7be532c92U, 0x3d9689a13e86235aU, 0xbe3cd238be775bedU,
  0x3dd06111be863694U, 0xbdff2af83e07b5c9U, 0x3da5af2b3e15e76fU, 0xbd9631f73f087ba4U,
  0x3e002ccc3e1f2d5fU, 0x3e10d7c3bdc5efc1U, 0x3df1befa3e16fa1cU, 0x3db3275b3e0bfb8eU,
  0x3e16b59a3da82dc3U, 0x3e03ece93ea92d3eU, 0x3db5fa503eb61ee0U, 0x3de575ce3e9038f4U,
  0xbee911d03d93055aU, 0xbd96d409be45dec1U, 0x3e2ffe6b3ea92c97U, 0xbe2db20cbdd8c449U,
  0xbdfd87c8be10f3c1U, 0x3e36ce583e86a332U, 0x3c4638cc3d683b21U, 0xbcdaf0f1bdda4d52U,
  0x3da65626be3b2058U, 0x3e4567cbbca41f51U, 0xbdceb78f3dc61cebU, 0x3ec6c9a1bcfa15b5U,
  0x3ddd7297be1c76c3U, 0xbd9bb94b3da8bb01U, 0x3cb20d6abebd2534U, 0xbdda5ed5be3e8d42U,
  0x3ee20fb0bd607ad5U, 0xbeb1b8d0be034e13U, 0x3e3ddf543d74c882U, 0xbe07b21b3d4c946aU,
  0x38266c5dbe24ddc1U, 0x3d5dcd7c3e59a935U, 0xbdf73273bc5a337aU, 0xbdf7c151be61c162U,
  0x3ec818f13e0c3c2eU, 0x3cabbdc1be17a4fcU, 0x3d42b5693e4dcd8fU, 0x3e0ba5b6bde927eaU,
  0xbd151cde3c0f1883U, 0xbd772b083e9ae647U, 0x3d3924ee3bb6ad71U, 0xbda901b6bbe6e913U,
  0xbd1f70d7396d10afU, 0xbe9bf281bd02c515U, 0xbc84ca3b3d146016U, 0x3e5183c53e11b899U,
  0xbe0a37003dcba98cU, 0x3e8faa02bd7ed07aU, 0x3e521593bd488d07U, 0xbd8ce698be256270U,
  0xbe44d71fbd694107U, 0x3cd20dd4bdd60d7fU, 0x3dfb30dabe1ff67eU, 0x3cb9c811be2d3164U,
  0xbe21ffe83b87cbbbU, 0x3e5b2cfa3eb29c6aU, 0x3d744bbb3ea59b6fU, 0x3ce8b1cebd8f22e5U,
  0x3e0e667cbd18e174U, 0x3e3c422d3e541ec1U, 0xbd3bf87fbe609646U, 0xbdc7879dbdb8c041U,
  0xbdc2b219bc7573a4U, 0xbda7a83c3c1e700bU, 0xbd99867bbe596b53U, 0xbcabc9e33e17a98fU,
  0xbcf15b743e8927cfU, 0x3e21e1763de8c37cU, 0xbe9fd946be949295U, 0x3dae65f03e2a510eU,
  0xbd65a9c9be268592U, 0x3dad2418be8bdb32U, 0x3d8dd4423e61434dU, 0xbdc1ea36bd6e7e23U,
  0x3eb45cffbe452474U, 0xbd3cca753dd0c892U, 0x3e2147fbbeae1c48U, 0x3e2341dfbedda872U,
  0x3e2a6b2cbe4aa47eU, 0xbe885d683e40e33aU, 0xbdc68027bc216263U, 0xbb76e2253ea3b58fU,
  0x3e7d2dfebd7b068aU, 0x3d226b65be8cc323U, 0x3e2ab3703cdb970dU, 0x3db7e8613c1d22b3U,
  0x3d2b08babcae98cfU, 0xbe1959c83e9fcd25U, 0xbd9fed743e79e937U, 0x3d2a07d53c9cabbaU,
  0x3eb5edc3bca55617U, 0x3e73480fbe46a181U, 0xbc90b025bda907a1U, 0xbe0966a63e830d35U,
  0x3d8468323cf80d16U, 0xbe4cfb98bd1fe7c6U, 0x3deceaf23dd01f41U, 0xbda07ea1be10cb05U,
  0xbe77a8a13dccacaeU, 0xbc086959be8709adU, 0xbcc59e553e71c83eU, 0xbdeaceb4bdce8cd7U,
  0x3e0b05cf3da6ee00U, 0xbde9e8813ea76072U, 0xbe0ca3453e328359U, 0xbdad55be3e551066U,
  0x3ea93c39bc4abae8U, 0xbc34cdc5bde1b6c7U, 0xbcf707173b5a705cU, 0x3da233b23dd5cf05U,
  0xbce3fbf73e20c771U, 0xbdb9147c3d18a13aU, 0x3cfcf35dbe5a7c4fU, 0x3c34b0c63f038580U,
  0xbe789dcfbdcfd4daU, 0xbe0316993e209f19U, 0xbe6d9dc03e706f15U, 0xbda7c94fbb4fb157U,
  0xbe8cfee4be0f2e2fU, 0x3a230400be822f53U, 0x3d938a9dbdca6b71U, 0x3c1319fa3d8ee055U,
  0xbeac95d43e2ace14U, 0xbe02a963be1c4593U, 0xbe45c7f13e9a599fU, 0xbe398689bdd7ed98U,
  0x3ab5dfe33e46936dU, 0xbd6df4bfbcc04199U, 0xbe27f5f43d3031ccU, 0xbbe74cd5beacfd8cU,
  0xbc9713cbbdf6bd43U, 0x3e1e28d03e327eb1U, 0x3de6ddb3bcee7818U, 0x3ec55e9bbd349716U,
  0xbe3f91343dc11608U, 0x3ce1cba0bdd40609U, 0x3dca5f063ea7e1a5U, 0x3cc37ecc3e129df3U,
  0xbda358dfbd3f4e24U, 0xbd4cac763d7ca550U, 0x3e25e16cbe8f857fU, 0xbd14d86f3e955e60U,
  0xbe3ec722be0c32c1U, 0xbe5ffa9fbc1c1c1fU, 0xbe00c5283e049fe8U, 0xbcb95c3b3dcd62e0U,
  0x3ea6788cbdd29610U, 0x3df4837fbd70e3caU, 0xbd8813fd3e105e40U, 0x3e410ca23d9c4dafU,
  0x3dd35d04bd13b2a3U, 0x3cfb6cb63e690917U, 0xbdbc668dbca32eceU, 0x3d83a16e3e66980fU,
  0xbe48d65cba090e57U, 0xbe0e29e43dc57fa4U, 0x3deab8963e376048U, 0xbc3153fabd9ef025U,
  0xbe1c00acbe586432U, 0x3d5164ce3d7d12f7U, 0x3d4e6901be2991c3U, 0x3de1e746beb561a1U,
  0x3e00a20abe0be72bU, 0x3d2c62563d704384U, 0x3db4903a3d00c5e8U, 0x3d8bf74e3d8181e1U,
  0x3e4f75c53de272e3U, 0xbe3651463e803e74U, 0x3e129af43c66d06bU, 0x3d8e947e3e3ffb02U,
  0xbec616aa3cca63daU, 0x3e5024df3d3c59a6U, 0xbd35993fbe2eceb4U, 0xbe0524893db237b6U,
  0x3c50fb6ebe093789U, 0x3e256fb3bda57b7aU, 0x3e26166e3db783feU, 0xbd617fb53cb1afa9U,
  0x3e41fda03e5b2f1fU, 0xbd8a48d93e15f662U, 0xbe44d2f13dad9348U, 0xbeb00bdd3dfb9df3U,
  0xbe15f10ebce28f41U, 0xbcd7c57dbe9e2942U, 0x3d03ae813dba471fU, 0x3d9d1bb8bdd74e56U,
  0x3df065a2bc9be39bU, 0x3de7f6e3bbc5571eU, 0x3e038a073d9150a0U, 0xbd43550a3ed04434U,
  0x3e11769ebdc6c2f4U, 0xbe44b7bebe0c1ee4U, 0x3d04f694be0f4d46U, 0xbd9e34df3ea4bb25U,
  0x3e01fd67bc81f16dU, 0xbe036e54bddfb0d4U, 0xbd72b36abd12403cU, 0xbead910a3e07d65cU,
  0xbea5e5c2bdc544acU, 0x3dd9de623e8d8ae2U, 0xbd2a5d333ea51611U, 0xbd573f1b3e2723b3U,
  0xbf07af7a3da53a00U, 0xbdb32bf2be2e2742U, 0x3cac6422bea01959U, 0x3e4b8a64be84caebU,
  0x3d0094563c9ebe47U, 0x3e0f198b3dec6d59U, 0x3d5bf0773c8457fcU, 0x3d7071b93ee7de0cU,
  0x3e29fb813e86ce97U, 0x3d956a8f3e0b4aa1U, 0xbd61daff3d84377cU, 0xbeb6cca0bde3a42cU,
  0x3c870f04bd638ab2U, 0xbe8e98debecb97afU, 0xbd8ec3063d79c848U, 0x3d2c1ad63e939a15U,
  0xbf22ba8c3e07d521U, 0xbd8a4c77bd66a134U, 0xbe4a9c2abe567499U, 0xbdaa1a313dee870aU,
  0xbd2101a3be6b1e19U, 0x3da6745c3c2f5583U, 0x3d75192abd83a7faU, 0xbdda56a3bde870a5U,
  0xbea13db4bd088174U, 0xbdc71b8e3d3d82a0U, 0xbea9bb4abe3c28b8U, 0xbd50efa43a819f28U,
  0xbe16b87c3e00512cU, 0xbe3320aebe7b6f2eU, 0xbda808093ee2eb60U, 0x3e07a01fbe705f51U,
  0x3e3b91e33d4480abU, 0xbee6fffcbe4ae9b5U, 0xbe6c96f13e481418U, 0xbd776dc03c627effU,
  0x3e13d9b1be12fd5fU, 0xbe20c7d93e61b5c6U, 0x3db46ef23df478f8U, 0xbd0be431be000c26U,
  0xbdfa9271bdb5fd67U, 0x3cdf1daabe7a249cU, 0xbdbcdbd3be312080U, 0x3e711ec0bd521494U,
  0xbe7d9ea4bde12efeU, 0xbd4a149d3e712b42U, 0x3d4bd472be85c2ebU, 0x3c8e1fa4be6452a0U,
  0x3dad95dabd43f70cU, 0xbe6d37a5be5ed04eU, 0x3b8a5b55ba373d66U, 0x3d958b9bbe00f584U,
  0xbdd8a44ebd953db5U, 0x3e6c57ab3e499bd5U, 0xbe10c134be4e0b81U, 0x3d1cf54b3dc9e516U,
  0xbd1aa86cbc9d900dU, 0x3dee88e53e7aad99U, 0x3e466b0abe3f9a2fU, 0xbdc104df3e0aeb57U,
  0xbe17e91ebd06dc9cU, 0x3ced2eabbe806b5cU, 0x3ddff80f3d4c6958U, 0x3d0c5ea63e13d418U,
  0xbe3bfe363d7012b6U, 0xbd097eecbbddc2beU, 0xbda8803ebe910825U, 0xbe49e28cbdfb4e2aU,
  0xbcba7a21bd89e07eU, 0xbe5739c1bd661898U, 0x3da89d98be4aa716U, 0xbd3b8d393e95d5f9U,
  0x3e12584f3cbead3cU, 0x3d4dfe0dbe35068dU, 0xbc896ac13deb6bd1U, 0x3e2daf423ce9477fU,
  0xbdcc649fbe27aedfU, 0x3e5c2c8c3de94e42U, 0xbb48e8f93e60a851U, 0x3cfa8f46be07a741U,
  0x3e429be9bde5603eU, 0xbd1b3f39be04a182U, 0x3e53d727be30c581U, 0xbd218d02be83449eU,
  0x3d884ef73d6d9fc3U, 0xbe5370e03d375619U, 0xbe22f0eb3db56a81U, 0xbd90a153bcef6f6dU,
  0x3e4f432b3e6ebd72U, 0x3dcc7fe3bdce96e2U, 0x3e25181e3db8290bU, 0xbd605d1dbdfd2e16U,
  0x3e1e16ce3c8e1940U, 0x3db006c83dc804ddU, 0x3dcb32f63e276d32U, 0x3d90e2e3bd9c5c0aU,
  0x3bc81297bda9d22cU, 0x3ec2a4013e320363U, 0x3e2d4c983e74123fU, 0x3c06049c3d0713ceU,
  0xbcb8fc3b3def0bc5U, 0x3de9d7a4be1c3f59U, 0xbdc0f334be17fa8bU, 0xbcd145623e161352U,
  0x3d418b7e3e48fc2cU, 0x3e03a9b63db41fbbU, 0xbdd0d2b7be81c2cfU, 0xbe9bf726be26321fU,
  0xbdbbd2473a07e41fU, 0xbd8e4e423c3a9426U, 0xbe5ace80bdff62faU, 0xbc8178e5bbe6af31U,
  0xbe9d61e4bd951771U, 0xbe8000803e0233dbU, 0x3deed15d3e1004a1U, 0x3da2982d3ea633e0U,
  0x3de1c04ebe818b31U, 0xbd5281c6bdf69359U, 0xbdd8c79abd04e38dU, 0x3d7c4ee73e704b64U,
  0x3e8d8fa7be48d916U, 0x3e132d02bda13ec4U, 0xbe34efd2be0bda61U, 0x3d4c88cabc9de28cU,
  0xbd26ed72bdd32954U, 0x3eb16a45bd8488f3U, 0xbc0036c93dba7726U, 0xbdb8707d3e81ff13U,
  0xbef4ea73be26dd88U, 0xbe2e2ba63dc645bfU, 0x3e6ace593c89bfc5U, 0x3e1a49a9be83b93aU,
  0x3d2e9816bbdd2a7dU, 0xbe446eed3e4812fbU, 0xbe49da01be2f3cc0U, 0x3cbe05533d4cc926U,
  0xbbf46fd7be682571U, 0xbc8b8d97be267bf4U, 0xbe15ffb9bec8c93eU, 0x3e8f2d0abda26846U,
  0x3e4071a6be03b20eU, 0x3ce20bd93e465a86U, 0xbe03e1fcbe4cc66dU, 0xbd56a50a3e81e800U,
  0xbe1eddab3bd86535U, 0x3c88ba973da6b9a8U, 0xbe45a55abe067aa2U, 0xbc76d2bebf132190U,
  0xbd54db583e25e29fU, 0x3dbf54a63d23c232U, 0x3df1646ebc5c5255U, 0x3d1974fa3ddf835fU,
  0xbd3423cc3e0a3ebbU, 0xbdf45c7b3e5d3a38U, 0x3e2c56ae3e98eaf5U, 0xbea85c76bde6ce66U,
  0xbe2676513bbff7c7U, 0xbde5c0293d134472U, 0x3e246c87bea8262eU, 0xbd7d526b3d1609bdU,
  0xbe329db63dd6f072U, 0x3e6610a0be9d6343U, 0xbe3a7cdd3ea85f01U, 0xbe29e5283d5177b7U,
  0x3c7b2d3ebc27d5a5U, 0xbda2b2073c162581U, 0xbe0d76f1bb05181dU, 0xbdb15e293e0cf3deU,
  0x3d8af12f3e7b5e4dU, 0x3daec8b0bda7e6b9U, 0xbdcade083e96e474U, 0xbed04ab43cb54a30U,
  0xbe462fa03d8f9654U, 0xbea3c6933d958d81U, 0x3df7ba4fbdd93693U, 0xbde29944be57ebc2U,
  0xbe2075f03dca416dU, 0xbc538eb3bc9dd6bbU, 0xbe009b73bde4c28fU, 0xbd2711a8be814510U,
  0x3d7d3b4a3dd43efeU, 0x3dfd7978bd9b75c3U, 0xbd8288f33e0a5e2dU, 0xbc18d1efbe372524U,
  0x3e58e6e6be2218a8U, 0x3e3370e3bd433624U, 0x3dfa80463df15030U, 0xbe0f85febdc456c7U,
  0x3cfdef5bbdd93581U, 0xbbf8f6a8be05c370U, 0x3c8a8567be11c1acU, 0x3df174d8be8856abU,
  0x3de8a941bd379ab9U, 0x3e90a453bd27b22eU, 0x3d68746dbceedb43U, 0xbcc70bf9bd803e2cU,
  0x3e06f0fd3c882f2bU, 0xbe256f8a3e143ea5U, 0x3dcf0fedbe31e79aU, 0xbba58d4b3e734134U,
  0x3e1259193dc64616U, 0x3c4ca3433e66fc5dU, 0xbdc6f363bf062a05U, 0x3d3611c03e38c5aaU,
  0x3da06679be361670U, 0xbe92f4a0be354589U, 0x3da2afc9be731438U, 0xbdac838fbe3f7beaU,
  0xbe2c04523c5674e9U, 0xbc16117cbe13dfdaU, 0xbde272383e967dcbU, 0xbe59be0e3ea31b50U,
  0xbcde58b53d96e3b7U, 0x3db9f49f3c4cf325U, 0x3d15959ebe20191dU, 0x3dbfe37abf032013U,
  0x3d870cca3d4caaf1U, 0xbe2f3f153bb080bfU, 0x3ec0fce83d14b68bU, 0x3e5d0bbbbe16f3b4U,
  0xbd706da5bbf0e04aU, 0xbdd9bab1be0050e9U, 0x3d187c303e2a544bU, 0x3d4b57d73e58c118U,
  0x3ea6a0183e29ca06U, 0xbec7055bbcee40c4U, 0x3c717b3d3e356203U, 0x3e076a05be704d19U,
  0xbe2e7c473da03264U, 0xbd0ea8493cea28d7U, 0xbcdefb2d3dfeb095U, 0x3d185b2f3db8323dU,
  0x3e92a55c3d8b98afU, 0x3bc180a7be8ce3c8U, 0xbe7721243eac1ba2U, 0xbdba2fa4be36b61cU,
  0x3cdcad003e21eb08U, 0x3e8b32e5be434658U, 0xbdc6cfb73eae442fU, 0x3c8bfa5a3e464efeU,
  0xbe71720a3e0daeb7U, 0x3d22846d3c0b1fceU, 0x3d2e1aa9be5597f5U, 0xbdb7596dbed3babaU,
  0xbe1222a53d91e08aU, 0x3dda0218be365bdbU, 0x3d8af7a0bcc48be2U, 0x3de6f6aabdcf01dcU,
  0xbdef8b3e3cadfa4fU, 0x3c64415a3e889475U, 0xbc1dc1c5be7cb5aaU, 0x3eca8c433e08068cU,
  0xbdbf7be93d183a64U, 0xbe126370bc7011baU, 0x3d22925cbea6a77fU, 0xbdbe13903d1c518eU,
  0xbe69dbf43a401f1bU, 0xbeb4597a3e571cc3U, 0xbe199c68bdfa3a01U, 0x3d42fed0bc98445cU,
  0xbc0d8178be647139U, 0xbd8b3d583e2fcfcbU, 0xbdb3ef803db87e03U, 0xbd2ee278be84454fU,
  0xbd4541eb3d911f18U, 0xbe5fc4a83e3c68c4U, 0x3d0fc58dbea1b593U, 0x3cc7e9313a46ae30U,
  0xbe36f9a2bbcdfd2eU, 0x3e2bdbf43e8054a4U, 0xbdb91dbbbca52e81U, 0x3cbb7e5c3e495e81U,
  0xbd1fd9bebe11d46fU, 0x3ddf61c53e0f29c8U, 0x3cbfad4d3e99175dU, 0x3e5f54e6bd9b80f3U,
  0xbe114effbe748a34U, 0x3e6cc036be168a1fU, 0xbc9622b7be30f0edU, 0x3d4dc2cf3d623f36U,
  0xbe8d6dca3e3b4fdcU, 0xbd5512813e412949U, 0xbde0d8a33e837a55U, 0x3e31d712be55e7edU,
  0x3c52b35abcdabdf0U, 0x3dc562343e319a16U, 0xbd203f123a7cc484U, 0x3e019e5d3e07c5fbU,
  0xbea99d653da4cacdU, 0x3c9c04d33e463c1fU, 0x3b0de7853e3c04a1U, 0x3e51de353deafd40U,
  0xbcd1a5cc3c94d0d3U, 0xbe945a2ebde92c06U, 0x3d036fd6be67634dU, 0x3d3d1d5fbe9c06dbU,
  0xbe1cb84fbe28a717U, 0xbdf91134be38dd0eU, 0x3e343b8ebce3238cU, 0x3e2cc63ebdb7c618U,
  0x3d9461efbc2f9845U, 0xbe8b3cfebe265e46U, 0xbddbad9a3e4bb98fU, 0x3db05e86be0c1279U,
  0x3e885272bdd274e8U, 0x3dc888df3e1861f7U, 0xbe1479ee3c0f5489U, 0x3e317f54bd182ddfU,
  0xbe4076babe3613c8U, 0x3d5038c13dd69e13U, 0x3dae4c523c7f18eaU, 0x3dc49c5ebef2423aU,
  0x3d55c36cbe34b68aU, 0x3ddc95f83e0a44d9U, 0x3d51dc493d338af3U, 0x3e3acfbabc306ec7U,
  0xbd46d77a3e018921U, 0x3d9d21f7be1d64fdU, 0xbe35b4893c4ff24bU, 0x3d676d923e8610d9U,
  0x3e6bbd4d3d088b49U, 0xbe77b39fbe159165U, 0xbd2aae3bbe4ebbb2U, 0xbda1ece03f14cc29U,
  0xbda327f53e2b3326U, 0x3e618eb53e322871U, 0xbdc662b63e096d6bU, 0xbcdecc203e27c2a5U,
  0xbe09ec543d934475U, 0xbdd5dfe6be6f5ae4U, 0x3d44b47f3e90fe11U, 0x3e47be9b3e3fd214U,
  0xbe59e2673e11f0aeU, 0xbe0f699c3e85be0cU, 0xbde576d23d980d3dU, 0x3da0ea7c3d087a68U,
  0xbe9bb36c3e039e96U, 0x3d2ab76f3d52848fU, 0x3dcbebdf3e797185U, 0x3dc0fe4a3ef92ad7U,
  0xbcf378a53e35270cU, 0x3e0d02773e5fb88aU, 0x3daffefb3df03889U, 0x3951d2efbe21bf34U,
  0xbd2ad4e5bde80c15U, 0x3d8d68e9be19fbf6U, 0xbd227cc33e25036bU, 0xbe355d9d3d76a8fcU,
  0xbe67bcd73ba310fcU, 0x3e332f9d3ebadbabU, 0x3d221f52bde387b9U, 0x3d9968fabd9e2c47U,
  0x3ebfb90e3e42b04cU, 0x3e9af1f7be010bb3U, 0xbcdddf9ebde7e2e7U, 0x3d7ee955be86d882U,
  0x3d8ac129be3e9943U, 0x3bfaac4abe64e51cU, 0x3d37c16cbe7c434fU, 0x3d8f4b81bb1ac97eU,
  0xbd4bdbcc3e3d4ec8U, 0xbe660cc8be428db6U, 0xbe4cce07bee84d7eU, 0x3e9eaa3dbdc877a4U,
  0xbe5574f8bccc6704U, 0x3d191c66be9105aaU, 0xbd209819bc26aa66U, 0xbbd4c0bb3e13dc60U,
  0xbe6228183dce726aU, 0x3d56e814be612a97U, 0xbe03d8fabec8ae35U, 0xbbdbc41dbda345a9U,
  0xbcea93c13dcba57dU, 0x3dc0bc783e1034e7U, 0xbdbdef1cbdc2b862U, 0x3d8a258fbe6a7cb9U,
  0x3d6f970cbe1475efU, 0x3e0141b3be1e1f73U, 0xbd98bf09bed39acfU, 0x3e3866573df0c3d8U,
  0xbe8a1b28bdf3b783U, 0x3e8b7b5e3e486d47U, 0x3e0e8d33beb8c318U, 0x3d8ef4f73dfedeb4U,
  0x3eac8b7d3d426f44U, 0xbe37c4ffbd1c87aaU, 0x3c42cf9dbe9285c3U, 0xbd59ff7b3d1096cbU,
  0x3dbdf13e3c2c7f8aU, 0xbd7b8d9bbcb3220fU, 0xbd5928bfbde22e23U, 0xbc9dcebd3de857a0U,
  0xbdaeacbb3e4fe8cbU, 0x3ded7792be8df98cU, 0x3e6d7b9cbdea0bacU, 0x3ed7f352bde4d2d9U,
  0xbe2e1eeabd484800U, 0xbd7dfcdfbd60beabU, 0xbdb9b0433ea130d1U, 0xbd8252dbbd7eb0deU,
  0xbc897bbabadaa622U, 0x3eaf053b397abbd0U, 0xbc420e773e336e0aU, 0x3e1a70fb3e87ff2fU,
  0x3e342dbe3d168f6cU, 0xbe89864f3d6fd536U, 0xbdcf96683db7a5c2U, 0xbd1b5e033c793fbfU,
  0x3eb7c6e03de9c220U, 0xbdbd0c3fbdedbc9dU, 0xbc8815e4bd82e9a5U, 0xbcbd3d2cbe229175U,
  0x3e76a4293d0fda4aU, 0xbe1cbfeabcd8de14U, 0x3d3b59b9bdf57ea6U, 0xbc62a7003dad916eU,
  0x3e4fd218bd91d676U, 0x3dcdad5c3e19e3d9U, 0xbe14f6f9be2180d5U, 0xbdf4de8a3dfc002fU,
  0xbd7a88893e0b4bf8U, 0x3dc78f51be28fe84U, 0xbdf39f7d3e48bdd8U, 0xbcac6730bef4699dU,
  0x3daf2836be272972U, 0x3af745debddc4614U, 0x3c8ee652bd6982beU, 0x3ebb4b41bcdd0d29U,
  0xbd919acf3d6964aaU, 0x3e8221e3be98ed3cU, 0x3e04ace9be117785U, 0x3df73c343d9b7422U,
  0xbbd1ed0abd5ecbd0U, 0x3ec2ceec3dffc292U, 0x3de8d0483eae922bU, 0xbdeae7dabd0f48e4U,
  0xbde5621bbe1f0e01U, 0xbe8b4fec3e243e02U, 0xbdbe17d1be7a982cU, 0xbd19add3bc5f06d4U,
  0xbda7c2bcbe1254c9U, 0x3cd88f0b3d8ebab6U, 0xbe629ddb3e198a33U, 0xbdd90e5a3d33ae79U,
  0xbe4677f0ba9230d0U, 0x3e0adede3da55e76U, 0x3d877a8a3e046948U, 0x3e030676be8d246aU,
  0xbe1176463e14de27U, 0xbe23eb413df7ee93U, 0x3cb565d4be07901eU, 0xbe3c53abbedc25e8U,
  0x3e3fb6b7bd8427e6U, 0x3e63f727bdff0c77U, 0x3dafbf503c88e9dcU, 0x3d2bf56f3c7a5f30U,
  0xbdc604ccbdbaebe6U, 0x3d9431793d5663dbU, 0xbd11cf863eba92d7U, 0xbe90a3273e0044b8U,
  0x3e310184be3c24cfU, 0x3e0e7d9a3ec58cafU, 0xbdb880a8bcfb5dc8U, 0x3e001c28bcffaa7bU,
  0xbf0b6969bd6fb185U, 0xbe3130aabd94a258U, 0xbddc87c1bda3b38dU, 0x3e00fe3d3e882afaU,
  0x3dab18633df13502U, 0xbd2e31dc3af104caU, 0x3e115bc1bdbd6edfU, 0x3d9052f53d8c67e5U,
  0xbcb1c125be7bbed6U, 0xbd50387d3de9d437U, 0x3d8e30a43cfe15f3U, 0xbe67cdf8bd101472U,
  0xbe8ebd9abe3bbfdcU, 0x3e9b864e3e474a69U, 0xbd9dc81bbe1d29d7U, 0xbdd18782be542c66U,
  0xbef29f20bd752da6U, 0xbeb0563fbdf5f22fU, 0xbe1568ebbe874d60U, 0x3da4a23ebe02acf4U,
  0xbc6a799b3c9e50f4U, 0x3cda3f5bbe1bb44cU, 0xbcaa8dd9be5c5a68U, 0xbe075956bdba8320U,
  0xbc4703163e52af4bU, 0xbe0ae4a93be16135U, 0x3e74febbbc2dc936U, 0xbe877d493ddfc49aU,
  0xbdb6c282be359a53U, 0x3e0d12fcbe2649b7U, 0x3e05a3673dc74552U, 0xbce267d2bdc1fb71U,
  0x3e187088bdb878abU, 0xbda2346bbda61c9fU, 0xbe548129be82983fU, 0x3ddb82b6be86710dU,
  0x3e39a6573e01cb6fU, 0xbe82825dbdfcc9abU, 0x3e036eb1bded3041U, 0x3ce9425dbe8f2ee0U,
  0xbd63f1323c8d3154U, 0xbdc4e6a6be212b6fU, 0x3e3d42453e9edc07U, 0xbe206172bd9b3624U,
  0x3d9a8f9cbd5ea99eU, 0xbe66f2ac3e16c4ccU, 0x3e2df5c03eae12e5U, 0x3d364e58bd6a7a3fU,
  0xbd237e98bd088dd8U, 0x3e498428be54a487U, 0xbe02a88d3e028dc2U, 0xbde77797bea02f94U,
  0x3d0fb934be8f1cebU, 0x3e9e6761be4e95d7U, 0x3dfa753dbce3d6c0U, 0xbc6b49c6bd41b653U,
  0x3e956a023e691430U, 0x3e63c8233d136f87U, 0x3df01649bc280706U, 0x3ed0e73a3e2ac173U,
  0xbde4606bbdb424a4U, 0x3da350a03ed6ac47U, 0xbd121e1bbe84cbf7U, 0xbe077ebbbe4ca828U,
  0xbe8a05c5bd8898b3U, 0xbd2019b13dba07daU, 0xbd8cc5fd3e6dd1fdU, 0xbe027764be862058U,
  0xbdeee871be3feaafU, 0x3d493476bd9d3f7dU, 0xbbbe1f0ebdb1c6e8U, 0x3dbb9268bda1946eU,
  0xbe5e4fd83e92439bU, 0x3e22a6ae3e46d79aU, 0xbe608ff93ead9b13U, 0xbec3c4f1bd7398d2U,
  0xbe118c41bdb8a896U, 0x3e4d3597be8623e8U, 0xbd0bc8103e43e17eU, 0xbdd25cafbd7bcef1U,
  0xbe9578a4be0ddd3dU, 0x3dbc7c22bdb5683aU, 0x3c9c1da63df246dcU, 0x3d0f519dbe058b07U,
  0xbe2094e23e2c65b5U, 0xbe29d2553e963bbbU, 0x3e229a693da4e393U, 0x3c1ba382be3704d8U,
  0xbe4ed3f13e6e309eU, 0x3d7b6fcb3ca974e6U, 0x3c81440b3e422409U, 0x3e5a95a53e38a691U,
  0xbe2adef23d5fe504U, 0xba736b03be7a75ecU, 0xbd7dc486be993e9eU, 0xbc76033f3e9319beU,
  0x3e9bf9dcbdb83dfcU, 0x3b427d4a3d0abfdbU, 0xbca01f79be99574fU, 0xbd01be4fbdcf5ceeU,
  0xbe110121be366a5bU, 0x3e1f413fbe2d5d30U, 0xbc5c5ed13d804177U, 0x3cdee5db3e068d3bU,
  0xbdf665523e169b8fU, 0xbe17cf093db0f5c2U, 0x3cd76a953e9676e6U, 0x3d9ad85abcf0154dU,
  0x3ea2203f3d170314U, 0x3e0d04103e814008U, 0x3dc3f75dbdd85dcbU, 0x3dc27e0e3dc324b7U,
  0x3f10a32bbe27bec5U, 0x3e10ad80bce9db24U, 0x3c8f46a53e836f5fU, 0x3d9bec82bdecebc7U,
  0xbe445cb4be2c31abU, 0x3e02139a3d19f28eU, 0xbd4b00113e0e11a2U, 0xbde127bcbe6f7944U,
  0xbdaa3ef23e5c8fc7U, 0x3ddee1683d7d640aU, 0x3e549061bf1bc69aU, 0xbcaa4d9a3ddd1396U,
  0xbd3f9624bc17c064U, 0x3e3de4e63e506a3eU, 0x3db029f93d12b682U, 0xbc4aa2debe9a441dU,
  0x3dd058a33d585f56U, 0x3dd33a79bcca60ccU, 0xbdb5e9f7bdd90776U, 0xbd5af731bcbfa6b1U,
  0x3e19ded63bc5bd20U, 0xbe3012b93c375748U, 0x3d8fa480bd0843eaU, 0xbde38a843eba2112U,
  0x3db80eaf3aac6deeU, 0xbe88a5bf3c69dcdcU, 0x3e7faad23ce07d66U, 0x3e87464bbe2d8706U,
  0xbcda97f53d851510U, 0xbce83840bddbe146U, 0xbc5abefbbca7f1feU, 0x3d82db9c3c988e32U,
  0x3dbc69713e410107U, 0x3e4ca0a3be8d4276U, 0x3decc64f3d096deeU, 0xbd4b902a3e647651U,
  0x3d84d72b3d8ac8caU, 0xbe84e044bb422202U, 0xbda826823e715e11U, 0xbd9ffe1cbe82c2f8U,
  0x3d6dbbc73d54c2bcU, 0xbe24a2873d665690U, 0x3e4d052f3ec86b1eU, 0x3eace7f03d990a18U,
  0x3e3577d43cb39e2fU, 0xbb94b6933d0e5ecbU, 0x3e0a9f563e9837dbU, 0xbd600126bcd1fb20U,
  0xbd11d62c3e2db1e7U, 0xbd008a7cbe2af35bU, 0xbdbe5b073db357deU, 0xbbbb892a3e325d8fU,
  0x3cddce37bde01702U, 0xbe7e14833df8f7f4U, 0x3cbe252abe54d1baU, 0x3da11a123e6cf96cU,
  0x3e489efdbcf54a53U, 0x3b630ed2bdfd36c9U, 0x3d8470613e81e538U, 0xbd593b97be41feddU,
  0x3e6e0043bdb020c9U, 0xbe075aa13c409452U, 0x3dce4cd1be035363U, 0x3db12d7dbe4f2382U,
  0xbd8e82503dd3fae9U, 0xbc4d2a8f3d8fc155U, 0x3dac7a8b3d863aa8U, 0xbe1a20f9be85e2fbU,
  0x3d816346bd4afed7U, 0xbe819fc83aa481afU, 0x3d908939bd5fa998U, 0x3c27911cbe84d91bU,
  0x3c66222a3e27d63cU, 0x3dbf97c1be90c996U, 0x3c5eff6ebd2189c5U, 0xbe631d92bd4b9b01U,
  0x3ca8345abe1a107fU, 0xbe418f063dd64267U, 0x3ddf0bc23eaee5ebU, 0xbd742114be318edfU,
  0x3e4b4a07bde38bacU, 0xbe852d90be93b9dfU, 0x3e728cdf3e274015U, 0x3db8f2273ec65c48U,
  0xbe0df7303d4363ddU, 0x3c1f3b1f3b9cba91U, 0x3d5271103de7aafcU, 0xbd805e863d9777efU,
  0x3e679381be7958d2U, 0xbd975c4ebdd35156U, 0x3e8333d8be719979U, 0x3e0dbd6fbe0e4508U,
  0x3da916c63a4f62f5U, 0x3db2a2e43e9865a8U, 0x3c985899be295f0eU, 0xbdd4563d3e3c4052U,
  0xbcfd0a59bdbc305bU, 0xbeff8f4ebdf2c9b0U, 0xbdb639a63e7d2d53U, 0x3e016e883e978642U,
  0xbe24f577bdfb0330U, 0xbd62cc9f3d2653c2U, 0x3cfcf211bdca4744U, 0xbcb09c243e968e3eU,
  0x3e7737de3a1994c8U, 0x3e369b5ebbea18bfU, 0xbe3d12b3bdfd808aU, 0x3ea894c8be2fb428U,
  0x3c17a5923d604cf8U, 0xbd0f31273e15ea5fU, 0xbd998f5d3d7763bcU, 0x3d5a20413df74d32U,
  0xbe1b98bdbe1a4f33U, 0xbde1f82abcdfd902U, 0xbe4706f63e4269e4U, 0x3c3a76afbc43fd34U,
  0xbcdee7073e4f5270U, 0xbe1283a1be08b735U, 0x3c7633b9be2bb8f2U, 0x3dd975c4be0538cfU,
  0x3dd66ed8bd575792U, 0x3ca1ee303e38fe17U, 0xbde9a755be8ab100U, 0x3daee5c83d658791U,
  0xbe0dc3c23d1ee044U, 0x3e65c85d3cbae876U, 0x3cc3730dbe8e8f8aU, 0x3d90f57ebe23f76eU,
  0xbe692671be16d181U, 0x3e3aafb1be18114bU, 0x3e08bd5d3e4cc0e6U, 0x3d50502fbeb7771dU,
  0x3db1c8c53c2f5ab9U, 0xbe84a5013ccaae98U, 0xba7afd7b3e20159fU, 0xbd8014bdbd755c6dU,
  0x3dce6892bdcb0c38U, 0xbd5baeefbe7ff7e5U, 0x3e888bd6bd2d6e84U, 0x3e415becbc529a55U,
  0x3e89740b3c0e4b66U, 0xbd49d4f33e4e7be6U, 0xbd9114b23e8547dbU, 0x3dbf0f03be690714U,
  0x3e171e54be4c493eU, 0xbed467e8bdfc10e2U, 0x3e483c65be4a7b17U, 0xbd8d13c9be8bfeafU,
  0xbca8e1da3e6da371U, 0x3dcfac5539cbdc71U, 0x3d4ca7c43cb31a63U, 0x3dc6a63dbdf657c2U,
  0xbb506801bd28844fU, 0x3e4ba890bd225cecU, 0x3e0b0be5beced34fU, 0x3db6eb72bde7b046U,
  0xbd87a104be09c493U, 0x3ea15a6abc851dcaU, 0x3d1c79e2bdc0229fU, 0xbd7796c5be93f1f1U,
  0x3d3e3dddbd9c2e9cU, 0xbea9caebbd51ba11U, 0x3e90839b3eb9a8f2U, 0x3ca3e2d23e80939aU,
  0x3d8a8990bd68ca02U, 0x3e0695b03e76b3e5U, 0x3dd642b6bd8b739fU, 0xbbc25f323eabee50U,
  0xbbd47a57be4d7c49U, 0x3c301f4fbd90a88aU, 0x3dca85753cc27893U, 0xbf1875113e1bb579U,
  0xbcb8f9603c1b8449U, 0xbe5fc021bed72074U, 0x3d0a86483e1c4580U, 0x3d8804b7be9c4de3U,
  0xbf07188cbd869ae5U, 0x3e38c01dbc939632U, 0xbde4a9573d6bd2f6U, 0xbe112ddfbe46f7d6U,
  0x3cc9ddfa3e238df7U, 0x3e83a98fbc7f64a8U, 0xbdb77a8cbc177543U, 0x3c434814be64373dU,
  0x3a6aa9603d905330U, 0xbc5ddf963e263e14U, 0xbdd58ba7be968a94U, 0x3dd92f4ebe08a1c5U,
  0x3d032313bdbc9ae3U, 0xbe53260ebec2d19bU, 0x3ca8d586be7ec8b2U, 0xbe0c48023e29766cU,
  0x3e3a3c08bd9522c5U, 0xbe7e2a79bdeee4f7U, 0x3e2b1dbe3e9343ffU, 0xbd89dddebe9b85c3U,
  0xbd6a54333e3c211eU, 0xbe5df94ebe8738fdU, 0x3ca9fb223d448340U, 0xbd6b6a7a3e355eebU,
  0xbd470af23e3aa52fU, 0xbd50e72abe2bdeb0U, 0xbec159473e963863U, 0xbe04848d3cf75ed2U,
  0x3d880e463c6c6f00U, 0xbdcbb0fabcc4a0c4U, 0xbdaf851fbee89802U, 0x3c4caccbbd20efa9U,
  0xbecedbe53db317adU, 0x3dc36f54bdeb3fcfU, 0x3e48d76f3e47bfefU, 0x3c9f46e9be7a9c2dU,
  0xbddb0ba03bd0fe01U, 0xbe86c1133e4fef5eU, 0x3db17eaa3d26de33U, 0x3d48ca203dc369c6U,
  0x3e89b124be80da1bU, 0x3dec2f23be34a6ecU, 0x3d984d543c9c752cU, 0xbea10aa63c8a099aU,
  0x3e83514c3d24bf27U, 0x3de6e625be5cf19eU, 0x3db2c413bd4f60bdU, 0x3d4b1833be4540feU,
  0xbcb9fd42bdcd9aa2U, 0xbe74e0f3bdb95ea1U, 0xbda50b893e81ae43U, 0x3d8eed18bede0f9aU,
  0x3d621fef3c5fa956U, 0x3e60e438bb9d43c6U, 0xbe0538c83dc0509fU, 0x3b970230be8739a6U,
  0x3e9229173e0a1f0fU, 0xbd541d93bddcd0ceU, 0x3e662eeb3d72cf08U, 0xbe5d17a83d99761aU,
  0x3e3e5e333d884b01U, 0x3e151c27bf0c2baeU, 0x3db68d0e3cd65af3U, 0x3e142f543b73edeaU,
  0x3eca94fd3d9a9d4fU, 0xbe7917a4bd3985c8U, 0x3e6735b6bd8c94eaU, 0xbe02fbdebe7474c5U,
  0x3e6347b6bd075b3fU, 0xbe75cdd6bcae4884U, 0x3e078eb63ded4fc5U, 0xbdf747a2bda2aa1cU,
  0xbc9ba309bdc37e45U, 0xbdf7f1ed3ea244deU, 0x3e66e2a33dd24ecaU, 0xbe3be5883e0faac5U,
  0xbe198896bcf26dbcU, 0x3dec362d3d2ac45bU, 0x3d9226633ddae7e5U, 0x3d02ffc33e53aeaeU,
  0x3daa6936be20d1bfU, 0xbe7d36c83d8c6758U, 0xbe45eedfbe2bcb57U, 0x3de2cf043e9ffa44U,
  0xbd45d751bd9f2e42U, 0xbe89c50abd1e839cU, 0x3e05d22e3dd37d03U, 0xbdc2bb57bd36aed4U,
  0xbd9a0e88be69dc8bU, 0xba4d2bb03e994b23U, 0x3e2534903e8dc5c4U, 0x3eb1510a3e2fc6ceU,
  0xbe2d05debc4687ebU, 0x3cfbc627bd26fa51U, 0x3da5fc7d3e0a77a2U, 0x3ce624efbe81ff06U,
  0xbdc35c1c3dd547abU, 0xbef4f0023bc9fe31U, 0x3e399d7fbdf003a8U, 0xbd9756edbe6814c2U,
  0x3cf3392a3e8ae35fU, 0x3dc6cd4ebdaf36e9U, 0xbd0e17263c4925bfU, 0xbd12b17fbd18e63eU,
  0xbd5de4d0be16cc8bU, 0xbe2ab2e9be05ba32U, 0x3e7440af3e4c23c4U, 0x3dcee53a3c88b2cfU,
  0xbe1d4020398e9d1bU, 0xbcd230c33d324532U, 0xbd1b8f7bbeddd061U, 0xbd3a022f3d3b77eeU,
  0x3eadd51bbcf96c19U, 0x3e600fff3dab088bU, 0x3da475dd3d89950aU, 0xbc3762263ebc8b0dU,
  0xbdb01fc3bb50fc34U, 0x3eab73043e669298U, 0x3a43c139be6f187dU, 0x3cc1ceacbdbb3a15U,
  0x3d87c003bc701307U, 0x3db660d03e090ea5U, 0x3e2013333e8a45a9U, 0x3db519a7be27c742U,
  0xbd6b99e63d8190f6U, 0xbe02dcba3e935e18U, 0x3d882e3bbe625547U, 0xbe17a0203c46762cU,
  0xbe900e3bbd400932U, 0x3d7781323e6569d8U, 0x3dfe2d26bd2b477fU, 0xbd0a06babeb82728U,
  0xbc7778c3bd86fe3dU, 0xbd11279a3e335d5dU, 0x3d4e42eebe24f7b1U, 0x39b4f85bbe9e0a52U,
  0xbd42e5863e35f2bbU, 0x3d47c74ebea01dd9U, 0x3e7444e43e2c69d6U, 0xbe8de8f23d08b8e6U,
  0x3de39bfdbd0f09d7U, 0xbe9dee0b3df5d4d8U, 0x3c2d7fa43e4767a9U, 0x3d4eefd93cc9c576U,
  0xbe985bb0be4942cdU, 0x3e7ddd8ebe15bc13U, 0x3d592d70be8502f5U, 0xbe0b745bbe4076e0U,
  0x3d275202bc29046dU, 0xbd78bcf2bdef25e4U, 0x3e0efea1be98361fU, 0x3c7c39693e77fabdU,
  0xbde4d211bd115316U, 0x3e20e516be08d825U, 0xbec8788dbd3a8d00U, 0x3e146645bdc09470U,
  0xbdc4f200be0d7680U, 0x3e83eeb63e12482aU, 0xbd4062d5beadd2d8U, 0x3d001dee3e6eb925U,
  0x3e4b0a8e3dbe5657U, 0xbe61d3323de6c291U, 0xbe55ce87be763f19U, 0xbe07159b3d7dc4c7U,
  0xbc7a3b88bd08bc86U, 0x3d51e7f7bd29cd1eU, 0x3e1167f23d303699U, 0xbd9642463ee0e17dU,
  0x3e547f43beac39fcU, 0xbda1f2313de145a1U, 0xbdf655503eb529cbU, 0x3dac80fdbe28dffaU,
  0x3c72b5a6bdf97e3cU, 0xbd9eb845bdc2653bU, 0x3e1f80cfbe829f5cU, 0x3d37bcebbd13b781U,
  0xbe728e813cafd1caU, 0x3c0864993cd5d6f1U, 0xbc8288aebe94ba27U, 0xbe88d408be42e5ceU,
  0xbe2e8394bbe6ddfcU, 0x3e2c4f4a3dc6e1a7U, 0x3d6557f4bdbf7534U, 0x3cfc2d013e2767c4U,
  0xbe0fa4fa3e0b34f7U, 0x3d92b574bdb3d575U, 0x3e2804bdbd695ec7U, 0xbd89dd55bd292d92U,
  0xbd831ab23db94ebbU, 0xbbf9bb813e887aa0U, 0xbde738ccbe385bc6U, 0xbd7d9ad33d02bb6dU,
  0x3eaf19c53dd7869cU, 0xbeb075ba3e20af34U, 0xbddca9a4bd156d51U, 0x3df275283d170538U,
  0xbd2a776abd7b4942U, 0xbba98639be5452a3U, 0x3df21b1cbe39951bU, 0x3d3a60773d8fd378U,
  0x3e1a3f4a3e5168a4U, 0xbdb994df3e8b368cU, 0x3cb272693d1ce701U, 0x3d0bb0693d87e2a8U,
  0x3e200bbfbceb71bdU, 0x3e892738bcc43098U, 0xbce67122bdd1945eU, 0xbdf0f648be1f5dbdU,
  0xbd14476e3ddda07aU, 0xbda6759bbe670b2aU, 0x3d46f1433e9f95c6U, 0xbe076dc63e0387a8U,
  0x3e32e0583e364262U, 0xbe3570523e49d826U, 0x3d1964e63be9e3ddU, 0xbcb62d39be979df4U,
  0xbce6ec41bd9c5955U, 0xbdfdd444bdcb4b0dU, 0x3ee29444be6644a0U, 0x3e0eeefebbaf7a83U,
  0xbe1921243d553b57U, 0x3d0f507eba19233aU, 0x3d46311bbf044010U, 0x3dc78193bc0d6c79U,
  0x3d9d206a3d753e04U, 0x3e6d3dbd3e1af17eU, 0x3de36c593e779553U, 0x3b6f5de43e23b9f8U,
  0xbe2ce7f0be75ad1eU, 0x3e0132f8be8284daU, 0x3c551ba93ca5b661U, 0x3d7d698f3e577e1dU,
  0xbe0e18a43d1cc0ddU, 0xbde763fdbde2434dU, 0xbd088cd53d88d96eU, 0xbeae7422bdeef580U,
  0xbdac71bbbd07026eU, 0x3d52e566be2fd020U, 0x3d1b81cd3d62c3c7U, 0xbe0b9af43e8a8eafU,
  0x3dd64e7dbdf25b15U, 0x3df4270b3e2978d4U, 0x3e2a1c5f3e6c4ceaU, 0xbde78d9bbe8c30d1U,
  0xbd31e10fbe366401U, 0xbe6bcee53dd1648dU, 0x3e068f813e81c77fU, 0x3dacdf6cbc392610U,
  0xbe2abaaebe0750a6U, 0x3e4f99a9bd0ce039U, 0xbe1945723ee4ca92U, 0xbd4373c4be3afff6U,
  0x3e5bce3ebe07f05aU, 0x3dd770d1bd696e82U, 0x3d790c843e0226ddU, 0xbdab07eebe5a40d3U,
  0x3dad9e61bce1a4e9U, 0x3d09e8a43dc7faa9U, 0xbe0a082d3ecfc428U, 0x3dd511dcbee148c5U,
  0xbb7b09f0be89e384U, 0x3d8a14c93e008a6dU, 0x3e2d09c9bdbf3146U, 0x3d5e8a0a3ea8f90fU,
  0x3dd4254dbdb2d624U, 0x3e3c8d69bcc860c6U, 0x3db56100bd0b71f3U, 0x3e62eb5a3c5a0ff9U,
  0x3e103838bd88baefU, 0x3d8a6fca3e87a6d9U, 0xbd1e5c4bbde1cbf1U, 0xbcc89bbc3e371d08U,
  0x3e9cdc12bd4e6afdU, 0xbde0cb23bb6e58f1U, 0xbd117d453cee3eabU, 0x3e1437a1be5c6bc9U,
  0xbd95082a3cb0f359U, 0xbe6f99e03dc6c2f9U, 0x3e0e66a8be1932d0U, 0x3da1436e3e3dadb6U,
  0x3e978fae3e80d19fU, 0x3d963f1f3dc0bacbU, 0xbef866f9bd8b41c7U, 0x3e4af72e3df844ecU,
  0x3e0ce3eabc9ea106U, 0x3e59bc97be1d6dd0U, 0x3d9d3b843dbf77b0U, 0x3cdfb903be6fe184U,
  0xbe3c4d213dafb3daU, 0x3df6da43bde4ec8aU, 0x3e504b3e3e960cd2U, 0x3d01c3e7beadaec5U,
  0xbcf031783dd8e976U, 0xbe8a043f3e30308bU, 0x3df20ff13d3d4fc9U, 0xbdead83dbe8660deU,
  0xbdef8941bdb44882U, 0x3c172cad3e3f2535U, 0xbf32ddc9bb272fe0U, 0x3e6ccd193dec1354U,
  0xbd29261b3e12796bU, 0x3dcd23513ed70a62U, 0x3dbd63563e97ad8fU, 0x3d70e9a4bde98db1U,
  0xbda86d873d8eee56U, 0xbe9f184d3c18ca9aU, 0x3d9a2e40be08a309U, 0xbe09ee9c3ea8ca30U,
  0x3cd94d283df6caf7U, 0x3cd3de8a3b1b7183U, 0x3c444e0e3e0512a5U, 0xbd13d3d83f13306dU,
  0x3d70bed5bdd2c0deU, 0x3de22c093e0f774fU, 0x3e8aa7fe3db86943U, 0xbd1b7effbe37fe0bU,
  0xbda6c448bbdfa18aU, 0xbd228516be3ad911U, 0x3dcf4dbebeef3f11U, 0xbd94faeabd61c10aU,
  0x3d01ed663d9cc6d1U, 0xbd8da1ddbde0e5a3U, 0xbde3bde4bd3d8e3aU, 0x3ded47533ea9fb81U,
  0x3d1eb26fbd90bbeaU, 0x3d8afd3b3daa668aU, 0x3db90a6e3e268c9dU, 0x3d9099683d00a68bU,
  0x3ea68c543e34004cU, 0xbe67fbd4bdeff0e0U, 0xbe1c4599bed1da2cU, 0xbee89d6fbbc3a0baU,
  0xbe6919d3bd1d6292U, 0xbb22b0d3bdab129aU, 0xbdbbb5dfbe32d943U, 0xbd986e1d3d91919fU,
  0x3c52af0f3d45fa0aU, 0x3d5252633ddfcb3eU, 0xbe18c656be93bf76U, 0xbd34b3ffbdcd9a07U,
  0xbe1f74b23e53822eU, 0xbe1005543da59893U, 0x3db642083e464641U, 0xbd6880603a63c07eU,
  0xbe33b53a3d8bd3c3U, 0x3d4ef1e5be46fdc4U, 0x3d8b5c2b3eedca1dU, 0x3d2fdb47bbbcd230U,
  0xbe156a46bc6a91efU, 0xbd6ee553bda91d4aU, 0x3dda4029bdccba4dU, 0xbda44f243e1d746dU,
  0xbdcb0dc2bdd41829U, 0xbe4ad25ebe4e3dbcU, 0x3d8beba9be86979aU, 0x3c761f113ed43841U,
  0x3e148b55be1fd7afU, 0xbd6b14d13da140f1U, 0xbdd262913cbc55c4U, 0xbccc333abd550170U,
  0xbe5ff36cbdd42983U, 0xbbc02391be370a80U, 0x3e0d49f03e1ee611U, 0xbca1f3b23e1ff4f6U,
  0xbbc9c55abd74db07U, 0x3e118e93be42630bU, 0x3d5a42e6bda1bfa5U, 0xbce52dd1be78f985U,
  0x3e5b037a3dc8a0daU, 0x3d8f40edbde7aebdU, 0x3cfd33763e691edfU, 0xbe2a58e33e39d3ecU,
  0xbdd97cd6be0e6e5cU, 0x3dd273823e53780aU, 0xbda31978be4f1568U, 0x3d247196bf016933U,
  0xbd9ea27dbe60338bU, 0x3e5022373e14a3fbU, 0xbe1564e13d7d47a8U, 0x3dea10d63d1f17beU,
  0xbe56f2ed3dbb500aU, 0xbe30942d3d10f2d2U, 0xbd9313cf3e89ca65U, 0xbc8887b1be8fa1c4U,
  0x3c983085bd80a390U, 0xbbf663903db4514cU, 0x3ddc1e623e5322bcU, 0x3d36e3c83f0dfeaaU,
  0xbd397528bde51cf7U, 0x3e16cb0b3e1dc024U, 0xbe40ac69be9f28fcU, 0x3caa831b3e96dabcU,
  0x3d28eac3be713fbcU, 0xbc3f32693e588670U, 0xbe6f0e5d3e5d6566U, 0x3c9a6aef3cdac863U,
  0xbe1754533be8d103U, 0xbe78ea2fbe8d7589U, 0xbdfd5fd2bd967059U, 0xbc8df2133dd41690U,
  0xbd11b04ebd5441a8U, 0xbd3495403e4167d4U, 0xbe454c253d9e24f2U, 0xbe139f923e3ff84aU,
  0xbc8ffbdd3d18f591U, 0x3e298413be7fa2b2U, 0x3c9d9c01bcc7e98bU, 0xbb245b42be1acd3aU,
  0xbccf84cabdb58837U, 0xbe23100bbe01f9abU, 0xbe14eceb3da254fdU, 0xbe30d1d8bd2ba147U,
  0x3dc1229abe09fb30U, 0x3dde339b3d77b41fU, 0x3e1b36bb3db5cbecU, 0x3dc25614bcb1be64U,
  0xbec6efcd3e1cbe13U, 0xbdf01c673e49937aU, 0xbdaa38c2beae651aU, 0x3dda4b253c850359U,
  0x3d0b2369bdb20016U, 0x3dc2e6183e016503U, 0x3d9030c23e2280c5U, 0x3d8c5c44be59e7ebU,
  0xbd88d409bdc678dcU, 0xbe8fd765bdb9c170U, 0xbea02d79be8a9090U, 0x3bd33b043cdb43ceU,
  0xbe2b36383e2db339U, 0x3e10d9ffbba5b3b4U, 0x3c484c0d3d422387U, 0x3d67c8d73e13b598U,
  0x3da45219bd9aebd0U, 0x3e17286d3c8de99aU, 0xbd02166bbd00f08fU, 0xbbcdba873edd613dU,
  0x3dd11745bd1c0f5bU, 0xbe47df083e035391U, 0x3db63bf6bd4209ccU, 0x3d5657c8bd5c208fU,
  0xbe528dafbe29fee3U, 0x3b9f2f73bd3393bfU, 0x3ebf54c73dd262f6U, 0x3ea19ffe3e0d3481U,
  0x3e8112ef3d918df4U, 0x3e6057c3bea6fce3U, 0x3df01b4c3d37e740U, 0xbcb2b64b3e7d54b4U,
  0xbdadca8c3e193cc9U, 0x3e6046373e04cef4U, 0x3ba7a6243e7d6adaU, 0xbca85282bea18181U,
  0x3e445eac3ce9e5ebU, 0xbe01dbd6be3bbc8bU, 0x3d9cb2883d6b9c8cU, 0x3d63d279bccfab93U,
  0x3dc4553a3e838d71U, 0x3c17ee84be0b1fd4U, 0xbdac9c31bdd3901fU, 0xbe469fbabe2a10a5U,
  0xbccd4d57bd7f7c90U, 0x3e2276193d5112f5U, 0x3df4ebafbde62f72U, 0xbd81a2dcbd216360U,
  0xbe9bc1b43e12cb81U, 0x3ebb9041bdd31609U, 0xbd8031cfbe85808eU, 0x3e270672be932cc0U,
  0x3d8c2930bd479c16U, 0x3e26e404bc1c490cU, 0xbdc89167bd90070bU, 0xbc2d3a03beb095f7U,
  0xbec722963dd8552cU, 0x3e5c1a5cbe84eddbU, 0xbeb1998fbe03d77aU, 0xbd6adea63e1fb9bbU,
  0xbe8589f73d405910U, 0xbe89a0e9baecde29U, 0xbc99109abe696a3dU, 0x3c526d573e31323dU,
  0xbec7e724bde91194U, 0xbe887cebbe29d135U, 0xbddc5a3ebe2e57d5U, 0x3e3c5997bdbb7a6bU,
  0x3e037f5ebdb1e7cfU, 0x3e66af453ce0c9f0U, 0xbced5a00bdfb6283U, 0x3dac55333e893f9dU,
  0xbcbecddd3dffb05eU, 0x3d9c63fcbda57963U, 0x3e150fdf3b2f79faU, 0xbea818863dcee912U,
  0x3e66cfb23d966bb9U, 0x3db8a7c73eaed827U, 0x3c1b732cbe89276fU, 0x3d76a487be8724a7U,
  0xbee3586f3e29ddffU, 0xbeb8b8943e14c31bU, 0xbd5a8228bd790eb2U, 0x3e5076dfbe9f17aeU,
  0x3d5717aebc9fbd8fU, 0x3e93cbde3ea752fbU, 0x3e081936bd754a1aU, 0x3d676cfcbbc7e5eaU,
  0xbe6db8c9bd9222ffU, 0xbe6930a73ded6404U, 0xbd811a2fbecc0931U, 0x3df468e63dd57bfaU,
  0xbdbb98773dc43bbfU, 0xbccb6f4f3e8277b8U, 0xbd63d461be5c2446U, 0xbd99941b3e7aef84U,
  0xbe8d4ad43dd45e52U, 0xbd2d51d8bd4f9a88U, 0x3d370bc83e07c758U, 0xbd841e55be3fdb58U,
  0x3e4c096ebe4b362fU, 0xbe356c58be218086U, 0x3e0528c83d7f3c7cU, 0xbda32faabe81b760U,
  0x3c0772dfbe199775U, 0xbcaa605e3e2a2b31U, 0x3d1e99cd3cd9ff31U, 0xbf07039bbd3b5904U,
  0x3e4fc60f3e29abc4U, 0x3bb805013e2a3180U, 0xbd200a36be9272adU, 0x3dbd7399bd7d1f5cU,
  0xbeb0d32a3e2ddb6bU, 0xbe877825bd91cd2aU, 0xbe1fccabbe0628a0U, 0xbdd5db69be988ff4U,
  0x3d051c29bd2017f6U, 0xbcca8cf4be1a1ccdU, 0xbc86cfb8be0f6365U, 0xbc1070bbbe984ee5U,
  0x3b919f65bd9b279aU, 0xbdc70fbbbc4ed6ffU, 0x3ea194e03eda8c32U, 0xbe6408e93da5fd92U,
  0xbdd272513dafca40U, 0x3ea230933c17ecc5U, 0x3dcf7f4dbdfec302U, 0x3d6d078b3ccc3f0eU,
  0xbe17629f3d6b3c5dU, 0x3d221a5e3e264c1aU, 0x3c042d4d3e0306b4U, 0x3ca60defbdb9f990U,
  0xbe168a3d3d221ee6U, 0xbe08b47f3d80453bU, 0xbe3ad917bc882f56U, 0xbd7aaef1bdc7a790U,
  0x3de975a1be775031U, 0x3d80895abe389fa8U, 0xbddac636be43b8a9U, 0x3de9b85a3c846538U,
  0xbe6b5f06bd42ed25U, 0x3d59ed9e3e8a41aeU, 0x3de2e89dbe6a5e5aU, 0x3db4bcabbe5cf3ceU,
  0xbea0d2103e0b227bU, 0xbe809d483df747bcU, 0xbe07f292bcd3f6e0U, 0x3cdf468cbe82e225U,
  0x3e444b37bd4afb7cU, 0x3e97eeb73e35ec33U, 0xbdde4df2be34f4baU, 0x3be3b75c3d8a39beU,
  0xbe77645fbe131de9U, 0xbe1bd428be66e24fU, 0x3d1e01483d8d22f4U, 0xbe7d07e3bd860d83U,
  0xbe6cbd6cbe32208aU, 0xbdf9a8c7be04c20cU, 0x3dea8a5e3d9adec1U, 0xbdbe74de3e381b22U,
  0x3e5f79673e49a05bU, 0x3c14fedf3dd91fb3U, 0x3e33c9a23e67d919U, 0xbce64a613d3afb5eU,
  0x3dfe25c6bdced3deU, 0x3c3a5195bafd76c9U, 0xbd91d28cbde1a74fU, 0x3be52f1b3e784bf0U,
  0x3e4e5a6d3e6accf1U, 0x3e6937a7bd4d5b8eU, 0xbea6baaebd1009d9U, 0xbe6b2b5dbe0ee725U,
  0x3e54090ebd53f94cU, 0xbe919ff93e472f2dU, 0x3ced1855be55e0e2U, 0xbe14f874be508b61U,
  0xbe28d9483d8caf92U, 0x3dd696e9be43462dU, 0x3debe155bdbef9fbU, 0x3dc196803e937cb2U,
  0x3d93ce44bcc8a2b0U, 0x3de109e0be28b633U, 0xbe449dddbd82da62U, 0xbdb2e6223e09a3e8U,
  0x3eb2fbbebe6672edU, 0x3d9f62e5be584498U, 0xbe6d942d3e42d8d8U, 0xbe981afd3e0129bcU,
  0x3e8a6cbebe2a0ee6U, 0xbdd5ddecbdd826f6U, 0xbdb8e890bea69b5cU, 0xbe1ea1b53e0f3964U,
  0xbdabfcfa3b1ae7dcU, 0x3eb489eebe073a33U, 0x3dbfc3c63dabc530U, 0x3dc04f423df0410bU,
  0x3c805f143e2df8f5U, 0xbde7dd84be41d479U, 0xbdc3ed013e53b07cU, 0x3cdfef513e57293eU,
  0xbe076f9c3da15b6dU, 0x3e432ab23e16776bU, 0x3dcb7d73bd59e618U, 0x3e8cebbd3d8358d9U,
  0x3e87f9dc3d8caf94U, 0x3e137018beb2dd6fU, 0x3d09e5a9be8023f8U, 0x3caad2a13e81178cU,
  0x3d9b4862be2a92a1U, 0xbe46712e3d46f23fU, 0xbc33e7e3be70e46bU, 0xbd471734beb4ea32U,
  0xbd600399bb91849dU, 0x3e08196abdb623f1U, 0x3d7961e3bd982f31U, 0xbd967a6cbef3c83dU,
  0xbdd1f0153e7762afU, 0xbc759bf7be5e2b6eU, 0x3eb16dfd3e27d078U, 0xbe83328ebe4b772aU,
  0x3ea81ccebdf6bdfaU, 0x3a8c3121be90c0d5U, 0x3c3b3f44be21d7e2U, 0xbdb757b63d1784a2U,
  0xbe7ba0c23e40bab0U, 0xbd737b3bbe2498f1U, 0xbd503642bdacbaa6U, 0x3d65bfa33e197db7U,
  0xbdf65265bd7e4eeaU, 0x3e0b452f3db20246U, 0x3df184d3be5ab76aU, 0x3bfa39c0bf007407U,
  0x3dc0c065bde9e895U, 0x3e1cfb4f3e1fd2feU, 0xbe7a64febdc8429cU, 0xbe906da8bd86e541U,
  0x3e5729f7bc578e9bU, 0xbcc795eebec015fbU, 0xbd7cf45e3d7a9559U, 0x3e04ccba3e755cb5U,
  0x3dfdbda33dd19c5aU, 0x3e49fdbabdc3c28bU, 0x3dddf9753e1c91acU, 0x3dfe22a63d16524eU,
  0x3ddecf21be847cc8U, 0xbe97fb6e3e0d55b0U, 0xbc96747e3d91f4b6U, 0x3d3c75a3be8cda56U,
  0x3be15b3dbdf0d129U, 0xbd9a68a8bd56e63aU, 0xbdda7846bc490f86U, 0xbec71a40be794929U,
  0x3c9cf3f03d9196cdU, 0x3e4fcc75bbe8dd89U, 0xbdc11dfbbe89346eU, 0xb98af0083e713886U,
  0xbe65320c3bca43f9U, 0xbd8f08d93dfab305U, 0x3d5ab505be02441fU, 0xbd55570f3d14f035U,
  0x3dabeee63d6adfdfU, 0x3e1a5f2f3ce1811bU, 0x3d5edd7ebe6df10cU, 0x3dff139fbf229b0eU,
  0x3da4803cbd82b4b4U, 0xbd91c147be031f37U, 0x3d6f2a9d3ea06c4dU, 0xbe01a97fbcc143a8U,
  0x3dff04383d7fb9ecU, 0x3e41b968beb1a13aU, 0xbcefd4e4be337243U, 0xbceb21e7be1eedccU,
  0xbea6af483e2fefb7U, 0xbd3db7adbe7b7831U, 0xbe770068be4be24bU, 0x3dd5327ebe846cd4U,
  0x3d61a67fbdbbbde3U, 0x3e3d37ff3de7c2daU, 0xbd4fa5e6bdff02b0U, 0xbc74e02dbee8de5fU,
  0xbe9bcbc63d3966aaU, 0x3e540754bb8ee540U, 0xbe1d798b3e4153d8U, 0x3e13344d3cb2398aU,
  0xbd9513703dc4d7eeU, 0x3dbb15903e9d4b5fU, 0xbdf4b11fbd4ab3a6U, 0x3e0e42bcbe74d83dU,
  0x3e1a0d01bb7430bfU, 0x3e34ad86be1e398fU, 0x3dbecae73e776f8dU, 0xbd87acb0bea7c64cU,
  0x3d8b14ecbde19339U, 0x3e58b27e3d5bed8bU, 0xbe417a98bde49bafU, 0xba3dd8d9bd432906U,
  0xbd99479cbc1af7d9U, 0x3d7df765bd405568U, 0xbdcb95cfbd94ed4dU, 0xbd20e5e83e0d523bU,
  0xbd94c4d63da44d33U, 0xbb93f5a7bd6ebeeeU, 0xbe00b937bd80a7dfU, 0xbdd0b36a3d3ad251U,
  0xbe5cdf633dab8820U, 0x3e0928723e370f61U, 0xbdb68abd3ce9458cU, 0x3e69fb0c3ea464e9U,
  0x3d5c4bc13dd872b0U, 0x3e8e34aabe0d935dU, 0xbb1f23b73de06577U, 0xbc8c97e4be5d0f39U,
  0x3d6758a03e2789a7U, 0x3e0543673e61dcebU, 0xbeb84373be0988e2U, 0xbe06ccf6be4c9d8fU,
  0xbdddc609be3dba01U, 0xbd2e9a373db85981U, 0xbd97fe9dbe27ceedU, 0xbc6926543d71363aU,
  0x3e9e2c9dbddcebbcU, 0x3e6e6385be4fb5a8U, 0x3d327009be2615a7U, 0xbe14d2373d9ad5fdU,
  0xbcfd40c43d411263U, 0xbe8213bdbe477ab0U, 0xbd407195be1c5edeU, 0xbd8c6dd83e714330U,
  0xbded04053e699718U, 0x3c208d1ebe234a47U, 0xbeaf5bcb3dd7f642U, 0xbf063b5c3dd975aeU,
  0xbe8399b73d43ada2U, 0xbdb431043e4706d2U, 0xbe054fa73dc0577fU, 0x3c288d393e67ad5aU,
  0x3e7a4882be1ebd3bU, 0x3c9fdbc83e180fe1U, 0x3dedf781be3ac435U, 0x3d046ef4bca312a3U,
  0xbd801f783dfa9ef9U, 0x3e5e7cf1be04d198U, 0xbe0f707bbe2ba718U, 0xbd724ca63d9f3e94U,
  0xbdc5ba76bdf2ba36U, 0xbd92bf223cdd9269U, 0x3e376c36bc994831U, 0xbeaebc9cbe208322U,
  0xbe1228a83d14a718U, 0x3e8bc5c03ea40c47U, 0xbd66c159bef44fc8U, 0x3c858218be91e396U,
  0x3e796e553ddfc1c5U, 0x3d0d4361be82f4ebU, 0x3dd4c7653e225096U, 0x3d72e281bef60495U,
  0xbcdd99f83e05c9e0U, 0x3dac54cc3dc772f3U, 0x3d70eb323d8d25c8U, 0x3d7a08e6bef7131cU,
  0x3eae83643da3ba0cU, 0x3e0050473deb1b30U, 0xbcf30b313ecab2eaU, 0xbd916a5c3d0a79ebU,
  0x3df52153bd8af9a2U, 0x3e508dfabe270f29U, 0xbd666c7a3e2111a6U, 0x3e0037debd2673efU,
  0x3edf63d83e1ab589U, 0xbe1181af3e0b7fe1U, 0xbe1aa2e9be60e652U, 0x3da2e759bed4e460U,
  0xbdf680b03d53f3b3U, 0xbe8692fabe1de2ddU, 0x3ddf52783d95a288U, 0x3d9a69cb3e9484f6U,
  0xbe34f7f8be3010e4U, 0xbdbdba283dbe35a3U, 0x3ca2b27bbec502bbU, 0x3e4e5b3abd11a095U,
  0xbb9bfdf93dbaf5a3U, 0xbe9ae05ebe7cde68U, 0xbd9914793e7a855fU, 0xbcd4a381be3e6099U,
  0x3e5f89693d4fe183U, 0x3d54c5b4be0ba451U, 0xbe0f648c3e4d8d9eU, 0x3d8036303e5ba41dU,
  0x3d85bb8cbdb1dbe9U, 0x3e65d4e0be5d9e83U, 0xbdd1a16e3e28264aU, 0xbd5ec41c3e16d2b4U,
  0xbdb3d9bebe35b663U, 0x3da97d323d48b302U, 0x3e7a4144bd9f1fefU, 0x3c0937d13d99d25bU,
  0xbdcb0cd0bd612321U, 0xbe4d21e1bd11ba26U, 0xbca2b23bbe027866U, 0xbb99e68abe933387U,
  0x3edbe6c23ddcb698U, 0x3b14f7b1be74e2ccU, 0xbd145be2be13adc2U, 0xbd5f90e2bebc6826U,
  0x3df087f23dfcd785U, 0xbca2e68c3dd1393fU, 0x3c8c851e3d9bfe46U, 0x3dbd8788beacea86U,
  0xbd7cda6e3e28e003U, 0xbdd44e5dbd751a48U, 0x3e9d570f3e1402fdU, 0xbd46a50abd72661bU,
  0xbe0b7f103da0d163U, 0xbe64c3eebe88d3d8U, 0x3d56cfbc3e386b46U, 0x3cd2814fbe43fe02U,
  0xbe8a0a15bdfe7ff6U, 0xbd8d90103bd9cd75U, 0x3d383898be92b83dU, 0x3d46c1543ead45f3U,
  0x3d5543413cbc2cd5U, 0xbe0e12323d953ff7U, 0x3df228f2bd9bca31U, 0x3d7c8e53be01ff8aU,
  0xbe5fe167bde5061dU, 0xbe0ec43e3dbc45b4U, 0x3e4757b5bed494c1U, 0xbbb8c3ca3e618230U,
  0xbda26db4be10f073U, 0xbced0f17be65bb47U, 0x3d8371103ed8b120U, 0xbdc7695e3d28295bU,
  0xbde5faa8be3f2af4U, 0xbe64e32a3dd08fe7U, 0xbdc27c4cbc9a142dU, 0x3d8eae5f3e9d1bb5U,
  0x3c95e8393e60fc4bU, 0x3e56eba5be2109a0U, 0xbc5c21d53e60675fU, 0xbdca840c3e7c0ef6U,
  0x3e19799cbc0c07dbU, 0xbcad68843d4f6768U, 0x3e9f2f61be5856c9U, 0x3e4a2441be104cb8U,
  0x3ea0ac8dbe06d324U, 0x3e5d177a3d0adc50U, 0x3d495b54bbab1c1fU, 0xbdc0acacbe04ac0bU,
  0xbe110489be2f785eU, 0xbc82af21be374c38U, 0xbe139bdabea00207U, 0xbc4ca5cb3ea877f5U,
  0xbe1115033d95d05fU, 0xbddc0ffdbdaa0f88U, 0xbb8ec5a23c847802U, 0xbd22fdb43e050faaU,
  0xbdf9091c3e01fe8aU, 0xbe3536303dceadeeU, 0xbd3abe45be80ad0cU, 0xbc87891bbe04803bU,
  0x3e9f0db4bdd573bfU, 0xbe77b19bbeb2fc64U, 0xbe068cc53dd65e59U, 0x3d629c19be4718a5U,
  0xbe8414dfbdedfbdaU, 0xbe170ada3cf0ddc8U, 0xbe14b8a93d34d425U, 0xbda2323abeb24068U,
  0x3c4f9007bdce47acU, 0x3e53bd973defe115U, 0x3e2500063d54044eU, 0xbd89bf643ebab662U,
  0x3d36bf97be86de7aU, 0x3de79b61be123b84U, 0x3bc78737bed1077aU, 0xbea4dc39be3cfcb5U,
  0x3d00fbc1bcb8cfd7U, 0x3d266c8fbe3ca9afU, 0xbdc9855cbe47d1acU, 0xbd00145f3deb2175U,
  0x3df5c5683df7c185U, 0xbe9d7e933e440c92U, 0x3d72b62e3e7c4537U, 0x3e1b78acbe3cccabU,
  0xbd149cb03ccf15ccU, 0x3e5e71933e28fe1eU, 0xbe208ad1be7eb4bfU, 0x3d1228043e882bfeU,
  0x3d0b71093e2a5fb4U, 0x3d623118be171bd7U, 0x3ccbdff13e4d14d4U, 0xbc8d543e3dedb8c0U,
  0x3e2850673d91b527U, 0xbea0e3113e0bff92U, 0x3d8d904fbf066174U, 0x3d72d8f53e31cc94U,
  0xbed322b6bc98a98dU, 0x3ca640d7be0364f9U, 0xbd956919be1e5dc3U, 0xbe1bf5253da28e22U,
  0x3e227a373d162018U, 0x3dc22990be293eedU, 0x3e33b19abdcd2974U, 0xbdb621f43ea002d5U,
  0x3dddd9fe3dab7c96U, 0xbe6f6ae33e03c992U, 0xbdbfbee7bdba729dU, 0x3e33ec50be6ef52dU,
  0xbe24c9273d099d12U, 0x3d40e5ebbe94fd88U, 0x3df82621be8be981U, 0xbd8a609bbcaa5cd7U,
  0xbe850ca8b9d8214dU, 0x3e463413be101074U, 0xbda07d0b3dfa0cadU, 0xbd956697be4ae66dU,
  0x3e21e5b03e3c9f28U, 0xbdf798a73d9849ccU, 0x3e1d5a12be3cbe79U, 0x3db8a75dbeaa38ceU,
  0xbe6e1ee9be787dc8U, 0xbcf98d823e471f98U, 0xbe41bf11be5ecb5aU, 0xbddc691f3de0553aU,
  0xbc4d0cb2bd1c8d41U, 0xbe4164a9beebc8abU, 0xbdc5a5f2bcf4309fU, 0xbd162bbc3cb12f00U,
  0x3dd2e5513e13c632U, 0xbe10052b3b458893U, 0x3e328a22be7b5decU, 0x3c0da3c7be3d6e01U,
  0x3e4589d9be76727fU, 0x3e1c081dbded712dU, 0x3dcd4dd4bde5f44eU, 0xbcc4e33abe639618U,
  0x3ddddf8c3d767ecfU, 0xbbe1b4d33e43d42bU, 0xbdb42a9d3e94cbc6U, 0xbdd2f5acbe3af457U,
  0x3e25f1ce3de3675cU, 0xbd846329bf000f3fU, 0x3da444583e8de84fU, 0xbd11705abdeb2f0cU,
  0xbec4b6733e11c739U, 0x3e32a532be224637U, 0xbdfbd06e3da24c89U, 0x3dc4848dbe6c73aaU,
  0xbca18502bda53504U, 0x3e1c391c3e3820ecU, 0x3d3ed2613e4c588aU, 0x3dacaf9d3ef2bc22U,
  0xbd691e2bbd8a385aU, 0xbd657d693e531727U, 0xbe8a87a1bea00503U, 0xbec4d6a0be185babU,
  0x3d06ab4abc8606afU, 0x3d83e5debf060be1U, 0xbe10d211be2086b7U, 0x3da1bc833ca6346dU,
  0x3db856c43e232736U, 0xbcef8fcabd9921bfU, 0x3df6e1a03e1dc8a4U, 0x3d02629a39aa4182U,
  0x3e1298ac3e43c567U, 0xbe83b6b2bd739a00U, 0xbcca3f96bdf20490U, 0xbc70719d3c8fd849U,
  0xbe7f26ff3e01f7a3U, 0xbd6386643dd3b884U, 0xbd9f011abeafa78dU, 0xbeaa83bb3de370cdU,
  0xbdea06ba3dea982cU, 0xbb335d3d3e1eebffU, 0x3ddf3700beb2a146U, 0xbd9224183ddc3e8dU,
  0x3dbe8d5c3cbfdcfbU, 0x3d39c2443e24104eU, 0x3db017a1bd1a85beU, 0xbd8720353db2e3fbU,
  0x3d30492bbe3d5a33U, 0x3d765b1f3e35b98bU, 0xbce860933e45d9c9U, 0xbc1cf69f3ead94cfU,
  0x3e1743dbbe880eeaU, 0xbe1e9779bdf9bc11U, 0xbe3a96d1bf013be7U, 0xbe604c043d689925U,
  0xbd533a603e185cc8U, 0xbdfd3db33e36fff3U, 0x3e01b1f43e33cc56U, 0xbd4f5ed4be78182eU,
  0xbdce43e1bce8579cU, 0xbd4e660b3e4697a8U, 0xbe4edd20bd129e2cU, 0x3ddc792abdb96a2bU,
  0xbe0cf77cbeab9865U, 0xbe02a25ebe70a02dU, 0xbdee7db63d61f27bU, 0xbdb9dbcdbd308688U,
  0xbdec08d3be49bb52U, 0xbe4de756bea7e04eU, 0x3e4f6de2be92d896U, 0x3c8c523fbe60592fU,
  0x3d9ed1c13e2ef1ceU, 0x3e3471413e525659U, 0x3cf7ee3fbe8b18f2U, 0x3ddd5761bd96636bU,
  0x3f10ae58bd8617b7U, 0xbd79b76dbde34e79U, 0xbe6408cfbc0e0aa1U, 0x3e04c3f8be3d1fd7U,
  0xbdb91eadbc2e86e3U, 0x3dfcfdbb3ea33a09U, 0xbd93db27bd18eec3U, 0x3de51156be4041b6U,
  0xbd2a3dfd3e0244afU, 0x3e279873be2b811eU, 0xbe8b2b2bbe307ac1U, 0x3e39302abd9cb25aU,
  0x3d9d10cebd08e53cU, 0x3e569c08be82d3bbU, 0x3cef32843e423a47U, 0xbde8ddcbbe110ad6U,
  0x3e09281cbdff26f6U, 0x3ebc974d3dbd17deU, 0x3e24050fbde555b4U, 0x3bd52eff3e53f1ffU,
  0x3c2530dabd9e4e7aU, 0x3dfc17eb3e86d0a8U, 0x3d61f256bd661017U, 0xbcff0731bee3cf8bU,
  0x3ddf54633c543890U, 0xbc34454a3d424df8U, 0xbe42c0a13e30c7e4U, 0x3e7367213da02d72U,
  0xbe285fb03d629a72U, 0x3eaddd5b3ed3734dU, 0xbd3fdb6cbd4b08d9U, 0x3dcc62813e9f6512U,
  0xbe8c8547bd80ef65U, 0x3d43598abe23ea5cU, 0x3e39e0a9be41e4c7U, 0x3d0443343f094fcfU,
  0xbe2b88983dd0d5e4U, 0xbd86d9c63d884677U, 0x3d1e5dc6bdb0334aU, 0xbda385cabf00d056U,
  0xbe7f8277be36f1f5U, 0xbde306403d7f4ea4U, 0xbacfcd163d954f2cU, 0x3e6a4fc0bde3c232U,
  0xbe35f2f43d45c5bbU, 0xbe5c5e8ebdf26033U, 0xbda253e2bec73a98U, 0x3d98726e3de082e6U,
  0x3e5e0b123cc8586fU, 0x3e87a8d23e00d2ffU, 0xbe8715583dae8e09U, 0x3df9d43cbe1cb342U,
  0x3d5400793d33cbf8U, 0xbe2d14353da391b3U, 0x3cb9324d3db18058U, 0xbdb5aed8be8c9337U,
  0x3d99a0163dfecc49U, 0xbe0dac533d053aa0U, 0xbe3a86e63e80796eU, 0xbe372622be2692baU,
  0x3d2e909bbd490afaU, 0x3e03f2d03eb024a1U, 0x3dce1abb3b8de241U, 0x3d4ec20b3dbec5b7U,
  0xbe9cab993c525337U, 0x3e45705abc0ce564U, 0xbc7d3d123d4c0504U, 0x3dee6f8abd9d3096U,
  0x3dfbd6933d0dcae9U, 0x3e1bfa23be0d7c65U, 0xbdc1525d3dc22918U, 0x3d503023bd7ba844U,
  0x3d8f7ccabe8a18bbU, 0xbe6151db3e844359U, 0xbdb3f82c3e662525U, 0xbe5bb32f3c8f852bU,
  0xbe22bbe6bd316689U, 0xbe5749b83e08b811U, 0xbe0ba6f5bd85c12dU, 0xbd8a2d183e48eec5U,
  0x3e814fb93e12f44fU, 0xbd8c6531be8af711U, 0xbe2074da3ec8bb3bU, 0xbe129347bd880aa1U,
  0xbe0e517cbc1ba2f5U, 0xbcd74dfbbe0f36c4U, 0x3e2862a1be24d7a0U, 0xbc927c48bcbca8d0U,
  0x3d9dadcfbe17dd2eU, 0x3d81ab3abc1c1f5eU, 0x3c8d51dd3b5d154aU, 0x3ea23b143e3da27eU,
  0xbea0a7d63dd8cfd7U, 0x3dcd1a123e1930daU, 0x3e1bd12ebdb751b0U, 0xbda18c5c3e14af83U,
  0x3e29f4e63e3f2392U, 0x3e174f953c6fee0fU, 0x3d9705883e2ff5f0U, 0x3e1ff044be757d31U,
  0xbdfc5154bdb92903U, 0xbe898d43be98a806U, 0x3d96fa733e41bb4aU, 0x3d870b493eeb954cU,
  0xbc4174febe27d284U, 0xbe30e046be4c7241U, 0xbe3f9d663e25a54bU, 0x3bec082d3d6de1f8U,
  0x3dd7c95fbdade546U, 0x3e2301babe047a7eU, 0x3dc6c4f9bdce5dfdU, 0xba55e9aebdb0d32aU,
  0xbdb20fe43dd90526U, 0xbe465c153db1d938U, 0x3df351e13e8c6548U, 0x3db2aef73e2329e2U,
  0x3d8826f03e095326U, 0xbe9fe6af3c48809aU, 0xbc294253bdee161eU, 0x3ccd52613e8d5cabU,
  0x3e39044e3e95ae44U, 0xbcf687623d8d09a0U, 0xbea9358bbd6a87c5U, 0xbdc2cd323da82b98U,
  0xbe604bf6bdf8b258U, 0xbdf0869abcd53c44U, 0x3ca90acb3e2422a9U, 0x3d9234be3c433489U,
  0x3e8b44573d2c51b3U, 0xbd61617dbe324294U, 0xbe3fecb7bcb86203U, 0xbdbb53233f045431U,
  0x3dbae5f63e4baf50U, 0xbd4aa1d3bd466f1aU, 0xbe2907133e38c344U, 0x3dc328a53c7899f6U,
  0xbe28c9193de281beU, 0xbe5d4984bc1adbb7U, 0x3d90b3b3bdee8453U, 0xbd1015633e0d6cc2U,
  0x3e0ab4563d809b35U, 0x3dd1d7823b8d3d7cU, 0xbcfd9d693d88410aU, 0x3d7e4418bd0c0678U,
  0x3e2fa2d0bbebda2bU, 0x3d28a2513de31649U, 0x3e213fd3be803c04U, 0x3e11edc13ef41601U,
  0xbe3362f0be002063U, 0x3e0fe0b53e12296fU, 0xbe0115563c828e58U, 0x3d5768253eaf7046U,
  0xbebe3c543e7ecc96U, 0x3da5784c3d5b1653U, 0x3e9792ebbeb1dbf2U, 0xbdeef3cbbd5ab02dU,
  0xbe55b30cbc4e959aU, 0xbdd3f43c3dab114eU, 0xbe2c2e1b3d6dcd13U, 0xbbd7e2ab3e9ab45fU,
  0xbeeeb9d43d3ae401U, 0x3df5c54abe0186d2U, 0x3d084b32be89c40fU, 0x3dbff04cbe0b6eb5U,
  0xbdd4344abdfa9c38U, 0x3d675b7abcf7d04eU, 0x3d86a0f03e8056c8U, 0xbdd8f0d9bcaad16bU,
  0xbe6571e33e2d77b7U, 0x3df51d823aa39486U, 0x3e8f5473be1109c0U, 0x3dd943babc01881eU,
  0x3e14fac53cebcd28U, 0xbe26f6b93d9de88fU, 0x3d89526e3e2193b7U, 0xbdec8a9ebdbbd680U,
  0x3e1e62e03d889ea6U, 0xbdaa7b28bd41ade5U, 0x3c0f0005bd9f3feeU, 0xbe24b274bf0f67c3U,
  0x3d4d1ab13c7612b1U, 0x3e4e91ddbbaf012aU, 0x3c874f7fbd503dcaU, 0xbd9eba73be8472cbU,
  0xbe1033553d0fc8e0U, 0x3b8c6d703d63e628U, 0x3ea6694e3d3bfd99U, 0x3e4ed2b8bd032ebfU,
  0x3e90f56fbd5b36f4U, 0xbe85d1ecbd6f407eU, 0x3d86fb61be83d3e2U, 0xbd17fba9bd983d90U,
  0x3d5fa354bc27356fU, 0x3e3b292d3db5c2d6U, 0xbdf77d723d1e3534U, 0xbe266aa3bf06b24cU,
  0x3daa7873be22518cU, 0x3e5caaf3be779c96U, 0xbdaf6b17be01c46cU, 0x3d97a132be5fb41eU,
  0xbe3fd391be1ecf8eU, 0x3e519ea03ebea78aU, 0xbcde1a48be1150b9U, 0x3e220dd83dff1130U,
  0xbe5abff2bbbacc00U, 0x3e678dff3e5c5690U, 0xbdef7dc03e7199e3U, 0x3c3a9c04be2f5d03U,
  0x3ee45ea23dbf70b0U, 0xbe92cf1bbdb5fbdaU, 0xbe1beeb6bc8fe568U, 0x3e0d11ce3b7e3ce5U,
  0x3c6634d33d846f39U, 0x3e1493713c52ded3U, 0xbd668a88bdd98dd6U, 0x3d8b2f303e2debaaU,
  0x3be5bd1d3dcb7addU, 0x3e333fb63e278840U, 0xbd19749bbe3ff12aU, 0x3e8f8faebddbc68aU,
  0x3d8ca175bd86dc3dU, 0xbbbdf7153e8205b4U, 0xbd3d9ac43dd2af43U, 0xbd68679b3e34a497U,
  0xbe2dfeac3e5df3b4U, 0xbdb8353a3d4df216U, 0x3e82384f3dbd284dU, 0x3e27a84dbd800a8dU,
  0xbd601d34be406ae4U, 0x3e60c2e23d785d46U, 0xbb860d1fbd9a6f35U, 0xbdce7b6e3ea4bc80U,
  0xbd5563bf3d462f20U, 0xbe29dcba3e35dc39U, 0xbe363cccbd0f9ea2U, 0xbd81ff01be00efe6U,
  0xbd140d3dbda157bbU, 0xbc265fb43ca11b58U, 0x3dadaeedbc873f86U, 0x3cc5d9e8bd2aeb1aU,
  0xbefc621d3e0f93c9U, 0x3d8517abbe3e95bbU, 0x3d9621e83e6d8ed9U, 0xbd450d8ebe8267e4U,
  0xbd57fbdbbcf09173U, 0x3e31c544bd823bd2U, 0xbdf41b523da7be3cU, 0xbcb52829bd57f1dcU,
  0xbdc2fc4bbe5d4a40U, 0x3e13f18f3ddef29dU, 0xbe6d5f6dbe5921acU, 0x3dd22e1bbd02b9eaU,
  0x3db788dd3d5915e3U, 0xbe466cbe3df79632U, 0xbcf8e7a9bdf3b1d5U, 0x3de8c1ec3d8e13dbU,
  0xbe5b7f4a3d451282U, 0xbe37db5dbe45f4f7U, 0x3daa7ee6be1bf4d8U, 0x3e65c1713ec166beU,
  0x3e41f586be34fdbeU, 0x3d905c51bde95db3U, 0xbe04da56bd141834U, 0xbd55671a3eaad805U,
  0xbd0bef603c818f46U, 0x3dc9efc63d88c3c6U, 0xbe102f58be0caa0cU, 0x3e596308bde05131U,
  0x3e1973a6bd8479cfU, 0xbd9c005d3e8b5f0dU, 0x3db6a728bdeb74ebU, 0xbd947c01bda948b3U,
  0x3ea8b03a3df272adU, 0x3d83132cbd295c5aU, 0xbc9ed64b3dd49100U, 0x3ddf6a703ebe1eb2U,
  0xbe0862643d4612e5U, 0xbe68cefbbe65ca88U, 0x3da8df2a3e5f00b4U, 0xbde22627bec63688U,
  0x3d4fa4503cc24cb9U, 0xbe55ba25be643f9fU, 0xbdf33897be4cb000U, 0xbe81e661be2d5795U,
  0x3e62c6e0bd1d23d4U, 0x3d4e85febdc25119U, 0x3db81a9e3e5c2c53U, 0xbd7106e53de788fcU,
  0x3c5799eabe38016aU, 0x3e35c54fbce009efU, 0xbdcb420cbe8a50a0U, 0xbd7242743e709560U,
  0x3e1f3604be5e0221U, 0xbe896ef23d0a72ebU, 0x3df8cfc3bd639e01U, 0x3bc7eec43d218293U,
  0xbe3fa1a7bd430750U, 0xbe04042bbc81183aU, 0xbe11d9683e7cb9b1U, 0xbe8da7cc3e020a90U,
  0xbe673538bbd09efcU, 0xbd0b17d43f1006d8U, 0x3d86a792bde8f4eaU, 0xbd84e0923dc16992U,
  0xbddea565be362d84U, 0xbc8ef20ebdc5e76bU, 0xbdacf7823de5635cU, 0xbe79d1d93d0097dfU,
  0xbd81a2d93c5fc9a6U, 0xbd60e6143e448e4cU, 0x3e157cacbd98e7beU, 0x3ca71d31be72d6c6U,
  0xbe84f6a13e289fa2U, 0x3cf1c4713e42ceb6U, 0x3d8e6d57be4fe5b5U, 0x3e66aefd3dcc22cfU,
  0xbe6ba681bd979c35U, 0x3e3b99dabcb3748eU, 0xbdb684a83e3182a6U, 0xbdde78903e50623cU,
  0x3f1df2f83e2ab5feU, 0x3e8f1d58be1095f3U, 0xbc0a64c3bda81fa7U, 0x3bf66dddbed338edU,
  0x3d98e6a63e098669U, 0xbe495bcd3dd0e46aU, 0xbe166fc4bdb66d5bU, 0xbdbd1d743e7b8230U,
  0xbdba86cfbd8f8008U, 0x3df9dc0fbe4a1621U, 0xbe7b9fc5bec677eeU, 0xbd8a43563e031bdcU,
  0xbe1c387dbda33264U, 0xbe45d862be9a19a0U, 0xbda223883e734e7dU, 0x3e16ea4e3e799f4dU,
  0x3d8b9edd3d0d67f5U, 0xbe9ea2d63cd999fbU, 0xbe1714be3e2d3916U, 0xbe1747463eb12946U,
  0x3d5d1a66be8a4326U, 0x3e25f87fbdfa4d62U, 0x3a86c446be0f4579U, 0x3dafea16be17fd36U,
  0x3e8692213e0f4518U, 0x3e40d3b7bdc09d86U, 0xbe78db55be7bf3ceU, 0x3edc8411be5dbb8bU,
  0x3d706e6a3c372342U, 0xbd70fb01bdbd3fbaU, 0xbb937b743e51e819U, 0x3ddaede6be4ceafaU,
  0xbe51878b3d9e5331U, 0x3e170af8bde33854U, 0xbaef5508be36c666U, 0xbb2b7e4b3ecfde89U,
  0x3e0e2adbbad22e92U, 0xbd00d8e63e64ca51U, 0x3da2ff903e1bbebeU, 0xbd7370d33ebb2d82U,
  0xbda4588ebbb32e40U, 0xbe14b9893df9bcfbU, 0x3b9d5ed63e4e6c38U, 0x3e93977c3c3f50eaU,
  0xbe2579c73aee66d7U, 0x3b6c2c303e4829d6U, 0x3db6e43b3e86b2adU, 0xbd8a75333bfad1dcU,
  0x3dbe370fbd898247U, 0xbd8ae46fbe5f2965U, 0x3cbeb9c93d077c53U, 0xbe3265e33e6fad1aU,
  0x3c4ba9a9bea9c744U, 0xbe099e3abc7f7d5eU, 0xbd18fb57be1e395bU, 0x3c5854983e3dafa4U,
  0xbe852af43da91ba8U, 0xbe4404b53da32f5cU, 0xbd5711bf3b1dea78U, 0xbe8fdce7be4bfb11U,
  0x3d0fa5a43d1fbfe7U, 0x3e98acb63dde1311U, 0x3d65e92cbe68a328U, 0x3d873eb43cae0ce5U,
  0x3eb4c8133e1bd271U, 0x3e0ae4593d9084c3U, 0x3abf10f1be804240U, 0xbe1e3db53cf4dd62U,
  0xbd3a39bc3e18b96eU, 0x3d3c29c03d825155U, 0xbcfb96603cc68f52U, 0x3dd595f03d5350a2U,
  0x3dca690c3dcd5bbeU, 0x3d880d133db3d558U, 0xbbcc5a713e35cbd6U, 0xbe5846e1bc35cac6U,
  0xbd9fc953bd80bb20U, 0xbe942d243e8a9b78U, 0xbe2f40bd3eb2cc01U, 0x3daa9cbd3cb6dfd2U,
  0x3e25f13d3e1c2d32U, 0x3ec0335ebe3bf49fU, 0xbe2b7614bda84ce0U, 0x3d00d8163e7db7c5U,
  0x3d2b7c2ebe945796U, 0xbe01a5213e3c8c0eU, 0x3c802b70bd6daa94U, 0xbe009a963e2d195fU,
  0xbde7f47d3e168e2aU, 0xbc99463abde24291U, 0x3e11b1083e140647U, 0x3dcd22273d122a38U,
  0x3e4a53843de86fbeU, 0x3be789673ea24e11U, 0x3ddcf039bd1b359dU, 0x3cd5520cbe94f187U,
  0x3e618d78bc8653eaU, 0x3e244442bdca32d6U, 0x3db252ec3d05d245U, 0xbd91b78a3ee447fdU,
  0xbc0100efbc59048fU, 0xbde2ce66bd0e5a21U, 0xbd39c509bdca3521U, 0x3d3067473de6e85eU,
