/**
  ******************************************************************************
  * @file    network_data_params.c
  * @author  AST Embedded Analytics Research Platform
  * @date    2025-12-12T19:32:28+0200
  * @brief   AI Tool Automatic Code Generator for Embedded NN computing
  ******************************************************************************
  * Copyright (c) 2025 STMicroelectronics.
  * All rights reserved.
  *
  * This software is licensed under terms that can be found in the LICENSE file
  * in the root directory of this software component.
  * If no LICENSE file comes with this software, it is provided AS-IS.
  ******************************************************************************
  */

#include "network_data_params.h"


/**  Activations Section  ****************************************************/
ai_handle g_network_activations_table[1 + 2] = {
  AI_HANDLE_PTR(AI_MAGIC_MARKER),
  AI_HANDLE_PTR(NULL),
  AI_HANDLE_PTR(AI_MAGIC_MARKER),
};




/**  Weights Section  ********************************************************/
AI_ALIGNED(32)
const ai_u64 s_network_weights_array_u64[4608] = {
  0xb3807f000e7f35U, 0xf1afe7b54232e53aU, 0x4900e720bad4bc59U, 0xd3e7577f14b5331eU,
  0xbdc9cd43f8252c18U, 0x8c15c21bf6f380c7U, 0xdf04fbfffed5b3d1U, 0xfbd99fb5a6fac6aaU,
  0xcdf4febad38bf517U, 0x363a0f452343da49U, 0xe069386516243d24U, 0x2a01ed3d2f40e9feU,
  0x4e232c7f211c0b04U, 0x5f3055480b321f09U, 0xf5230b0a55331d2bU, 0x502a0653090f3d0fU,
  0xf541395531504208U, 0xc50e6c81dcce931U, 0x7ffbffff49f529a0U, 0x3c635c1ae236e81cU,
  0xbcf67c23aa431926U, 0xa1334e14bd1b3deU, 0x72bc41472f8ad3eaU, 0x4680bdfa75f20205U,
  0x692bd31df2c9f1f9U, 0x7847e3b582267f34U, 0xcc2c927815e08a06U, 0x8841c64f541c2360U,
  0xdb6752138101f836U, 0xef117f0eee81aabcU, 0x847216483a0bd5eaU, 0x4ebf468a73ed846bU,
  0xc10c22bc32f8141U, 0x7f33e366420065d4U, 0xc3fa241cf12fd0d0U, 0x1fb8203a240fbec0U,
  0xa48172b1e45a377fU, 0x5f2db1a41316ad21U, 0x87954f7b2c1267e4U, 0xabe73ea5f3813d4cU,
  0xd3d7348f9f3573faU, 0x66ece77fa83ecefdU, 0x58234002dd7f1ee6U, 0xe853044f5ce3bd08U,
  0xbdce932082377006U, 0x40d49ad7f50c199U, 0xb97f33c404190539U, 0xde81f8c9fc1c78c5U,
  0x54a64a14490d33e1U, 0x55b14f2c81134600U, 0x5b536d2620bcf829U, 0xa1d51028957f5afaU,
  0x669c6bf129da6994U, 0x81e82c469a0a4760U, 0x26c915583121f9beU, 0x949701b05438c3e6U,
  0x4557fb7095729c5U, 0xb0c3477ed3c9a907U, 0x228141e62a817414U, 0xbadf840e034cc9d4U,
  0x813f1238c78bace9U, 0x19f331f4aea9c518U, 0x8ed8ba45734e1ad9U, 0x7c96ce30b914f46cU,
  0xc6862a69481685bU, 0x28ccece6d80a0d74U, 0xd77360b47fb18147U, 0x9b06c2464950b6d2U,
  0xc17504edbea7536aU, 0x8f13737fd5614505U, 0x7245f7d62fa6788cU, 0x6f5e81dcf2823101U,
  0xa78bd6067a014bc5U, 0x2f64c4f15148f281U, 0x62f404b463f6ab4fU, 0xf3b64a8131bbe405U,
  0xb9c153d86021f59bU, 0x466b5228c37f18abU, 0x8381c968701f9ce6U, 0xe82c948550accba5U,
  0x8845867ed333e404U, 0xd7b1c91897ff813aU, 0x4454e90a3cacdb7fU, 0x6ab7f3547f715aa1U,
  0xb6b058aeb79f25aeU, 0x8e00000197U, 0x17c00000159U, 0xfffffe40fffffee4U,
  0xb3fffffe48U, 0x452000000dbU, 0xfffffc36ffffff3fU, 0xfffffe7d000000efU,
  0xffffffe600000035U, 0xff00000179U, 0x191000000e2U, 0x2720000024aU,
  0x2adfffffeadU, 0xffffff23ffffff31U, 0x820000042cU, 0x10400000159U,
  0x1dcffffff6cU, 0xebc500bdc5171eb0U, 0xded2becce305c51bU, 0xf2b20be2e7c2dd26U,
  0x2de8263430ca2e49U, 0x45f2d11422233db8U, 0x7b4172217c1f8afU, 0xead014cce828ad22U,
  0xc45920ed42dbecacU, 0x5b7d1382e070df5U, 0xf2aa0fc040cfba00U, 0x1f13f0c2626b5dcU,
  0xeb044af0bde63cd2U, 0x3fcf0eb3054ce4U, 0x2055275bc6be1cdeU, 0xcc2dd03a07fbd227U,
  0xf832efe4f2efd73fU, 0x35096126caf23e00U, 0x337f201b09f1a10bU, 0x20dc1ef94d2be8e7U,
  0x4d4dafe33403a80fU, 0xe40e08c12aa9df4cU, 0xcb0c36cdef0b7fe5U, 0x318fdace6461ce8U,
  0x4118d2c0f9cfe50eU, 0x2d58c13df721dae8U, 0x31cafb41fb5e37aeU, 0xed2e24c2e5f51408U,
  0xf6dcf5cd5a27b349U, 0x3a42c833f51423c8U, 0x263924b82f2f08deU, 0xd5162f211f48f2f3U,
  0x2d2a02e5256f1d18U, 0x4413095ac4fdf04cU, 0xf102d233bf25dd0bU, 0x4b1040e1d9cfe4efU,
  0x23cd2f0cf4b0fdd6U, 0xdd0af4fdcb273610U, 0x1e083af3e2e7283bU, 0x4d17d866eff6f30fU,
  0xb9053d003d25dfa4U, 0x41d5da2fc53c502cU, 0x81224fe7dbd3ebe6U, 0xe2bf4d5efcf06f2dU,
  0x95380a8e9af4c816U, 0x1d4d5f0648e4fce8U, 0xe0cdfe2ae1e903daU, 0x42cb28c7b2d1b0b1U,
  0xe805cd64df32cf4aU, 0xf91a2efc05d2f1cbU, 0xe801dc3824ca6ffeU, 0xc750bff8f2ddbc02U,
  0xe44c4014192f15a5U, 0xffdbc23fd515c64bU, 0x2115c0eebe5ec7a1U, 0x13fbbb39bc21c8a8U,
  0xa7ea412446235fd3U, 0xe44297bf3141e618U, 0xd9debbb98dcb254bU, 0xfe6c0c233060bc50U,
  0xffa1d04e0fe727ccU, 0xeebbcae292613faU, 0x395a08ebb700368fU, 0xd378e4d170ddfa21U,
  0x9f938c4f8cbe15aU, 0xf647d6f92bb9bd2fU, 0x3d16d6c6ba10e2e7U, 0x350281a518414613U,
  0x32e2fcdcafdb28e7U, 0x3602e3e31a32d9e0U, 0x23b63a00f2d4dfa1U, 0x5926dcf9e1d6f0f3U,
  0xc829d4d6cd39bab9U, 0x502a26f0079ff724U, 0xeedef146e1c74b18U, 0xc0613ba4e3ef39d4U,
  0xefe50d20dd08c8e8U, 0x16fceb52053544f4U, 0x3529f404f7ba3fe5U, 0x4d282b2d2ca8359bU,
  0xb8cb44d0fa0d0e04U, 0xfb41d5db554fb7ceU, 0x4a3f1da7e4072cfdU, 0xe3081da4a0925faU,
  0x1e12f34db0a0b62aU, 0x2508f3eef91ce815U, 0x1a25d5c8d3e3c1d5U, 0xae15d32ef8341b37U,
  0x206bef1daee2b2fU, 0xc2f655b9f3f74651U, 0xf6e041d731d8c118U, 0x18379a220c25a3e9U,
  0x1c4a031fe2e5fb2dU, 0x292052219adb3801U, 0xcbede9132e0b9ac2U, 0x19f2bdb2e41c3bd2U,
  0xbf3de04fae23408U, 0x30fe8df23c841b7U, 0xf74053b7d3ffb8e3U, 0xaee68637f7fcb5d0U,
  0xfd8394cee01348fU, 0xa4121bf403b41c12U, 0xfb83f09b802a7ddU, 0x2541ff09a233c4b8U,
  0x1fd93145fe48c551U, 0xd0c50f24e8dab8beU, 0xe317c61fa72fc0e9U, 0xb8fadf2e33f1402bU,
  0x2c213528423447faU, 0x2c4fe1816b40ecedU, 0x341cb1c93aebd9e9U, 0xd1d3b1de0fff9ebU,
  0x2d274413102ddf1cU, 0xd1af9715d53626abU, 0x3b11a3e525e8c4f6U, 0x5a7fbe4401bf4daU,
  0x339ac944227a2c8U, 0xb2ae37c0f0d354a7U, 0x275723cb22ff19e6U, 0x4dc131266ddbc4d9U,
  0xecc6c01306f42a20U, 0x3705e44a47afe71aU, 0xf6e82c079a23b11eU, 0x8d35057fb0c15daU,
  0x26c1c27f050e2f1fU, 0x1cd73ddb3b06e0f1U, 0xe7f1c406d70c2bbfU, 0x3ef03ab95f1ad900U,
  0x1cf3b8c32dbd220aU, 0xdb010f06dd13e6eaU, 0x3c38e71e41dbe13dU, 0x35eb34ecf6106195U,
  0xc03106bb2cceb70eU, 0xf4edbae2ac0a19c3U, 0x6348c3f44de6400bU, 0x36f6e2c3d145e42bU,
  0xee322ac0b51d0af7U, 0xc91769d70ebd1b38U, 0x380136f31fa8ebb2U, 0xd035e02bcfc72dfeU,
  0xb9db22b8cd0feeebU, 0x6ca9e21acf976efdU, 0xdcea42f4e4db3235U, 0xc11587412e15ede2U,
  0xc1b2bbdadb40b917U, 0x823da98f4bdb91fU, 0x3f02199a58161e31U, 0xbbd80ce0fdc10ca3U,
  0x5a2d2c170b463d1bU, 0x24ced5f9c2fb0a0cU, 0x8f6c41b07c24ab7U, 0x12191227f0023a43U,
  0x32044adef7914d35U, 0xc7bbb62ebfc4c9e5U, 0x670aaa03383d12f0U, 0xe22d1300438f842U,
  0xd943d010362be624U, 0x84c9dcd6d7651dbaU, 0x91b7031bb71d81f9U, 0xd2420c100db4b446U,
  0x11f91cd0ea06471bU, 0x9031df562bf1adbbU, 0x1bbc2f3cbefaf2c0U, 0x1e49cad35d55102U,
  0xd023bd8ef4a707efU, 0xf71d52392a32b7d1U, 0xdaf71f0837cb2102U, 0xbd203f30a133ee9U,
  0x1230da2608e4c89fU, 0x3d0b02d1d7e2f8d3U, 0xa1d6ce32bd0cf506U, 0xf724ccbdc21210ddU,
  0xaed414f81cd90481U, 0x161505e00a313719U, 0xffed2f28310d16e1U, 0xd14b00d2c2dc1513U,
  0xd8f7bef94028fd0dU, 0x278c4912d0fa5804U, 0xf244ba23440852c3U, 0xe71bcc8f7dfa0cc6U,
  0x2df1e9cb253c003dU, 0xad80e00f34ef4adU, 0xceb5cad9f7d9d3b1U, 0xf1f87fd651251dbdU,
  0x3ef8342c411b180dU, 0x3803bc06f2d13e04U, 0xef308cefe515e0fdU, 0x8e1b2e1d608e443U,
  0x143a128f24c23c26U, 0x2839d5c15c51210fU, 0x8e1eda2430ebb6d8U, 0x3bd2ee06e81134f6U,
  0xc927d9f846e316c4U, 0x2030ff11d6531cdaU, 0xa3ed3636ceb6d122U, 0x3e2b150bdfb9d412U,
  0xc4312d0d903f5c9U, 0x20304624d9f202ddU, 0xeb0d4f430301f635U, 0xd548d3f2d7edd7baU,
  0xcf05c1f105ccfbdeU, 0xcf2eed2dcacc6f0U, 0xeccc44ea2ee605feU, 0xc1c55bfa81bd95e4U,
  0x317f905cdfcceedU, 0xfaaf72cc52a0c4eU, 0xf8dc1aed2de2de28U, 0xfaf3dee2d31ef6fbU,
  0xfe1a36ecf60608e4U, 0xf9c50cefedcedcedU, 0x8061a46d32419b5U, 0xf60ce55af5f50f1cU,
  0xf1edff3ddaf2b831U, 0x501e1d2f2fddf25U, 0x2a41e216190bc7edU, 0x33d211efe503ffd6U,
  0xca2d203520f6432eU, 0x6044fdf4b559d04aU, 0xcf8638570035471eU, 0x1a121517ffac4eb7U,
  0x4b00f61c49c529ebU, 0xe1e21fe03727df1fU, 0x2125013d2237253cU, 0xff117f05df0b1d2cU,
  0xc51c29eae8f9351cU, 0x3cf31c1ff2222411U, 0xf6cf2005cc0f0310U, 0x32d7103e171f062aU,
  0x6c308cadcdef62aU, 0x30dd2ec74ccfe3f7U, 0x1910bfd705f8c8c6U, 0xcfee1a2906e7b715U,
  0xbdada01dcfa12d8U, 0xe827ff203af2d406U, 0x230d3e27fbd302e3U, 0xd2ffcd18fbfec7d1U,
  0xf13ffdf2f33f9f8U, 0x1a142721ce81caefU, 0x12efe03d41d718b5U, 0xa26e8d703addfbbU,
  0xfde2efc2f5c60d15U, 0x101303192d42abecU, 0x1f010c3b09644a4dU, 0xba14c7b79e99400aU,
  0x7fb71fc522a46bd0U, 0x36e027ebf5dad40bU, 0x3c16fd1914f9ebddU, 0xc65b3fadd5d30c33U,
  0x32022d1f699dfbd9U, 0xaf07e6c517c6e035U, 0xe44909d92e2a0ee1U, 0x3a33ed27dadaf31cU,
  0x10fae17f5fcc5a5U, 0xd6c7b83310ee439dU, 0xb3ccf91e181ebcd4U, 0xf00426dc109726fcU,
  0x29f5e072d143e9dbU, 0xfeb61ffbaaee1f07U, 0x98bac32a1b9ab9e4U, 0x37a8182e4c2cb5adU,
  0xf7bbb4f040ecdeddU, 0xc5bed2359ca8edU, 0x3c0531e439331dd4U, 0xff8f8554921ebcc8U,
  0xd8fbb742b3b0f4fdU, 0xf516c3c51bcfd8f4U, 0x22230b4d4a10d049U, 0x240227081dc2f712U,
  0xefdffa1048b7bf2eU, 0xd9125e18daffd435U, 0xfeef5639d208cd2cU, 0xbfa3f03105fc40e3U,
  0x3b3a24f7bc10ef10U, 0xdefbf2d5cae71f27U, 0xe227d3fe21ca07dcU, 0xfa8f312f8d41d03U,
  0x43e70e030303f3e4U, 0x7f17e7f1fa2a19e2U, 0xc206ffcf0a1fe4c6U, 0xf31b063424db0cc2U,
  0x14253a1546d02529U, 0x23e4dfb28e71d2bU, 0xcefb20d0df1731dfU, 0xa92910b60afcb20dU,
  0x2023b6012272d82fU, 0x1d021713e4caf90dU, 0xe0d7e5fde12911ebU, 0xf1bd22c5b6059441U,
  0x2e2eede60edc4c01U, 0x280bc0eae4213515U, 0x30edb2c31116fee0U, 0x531825811eda2a18U,
  0xbf5d0f1da29edfaU, 0x271de5dd2df216cfU, 0x1627dc17cf5b1320U, 0xe42f31c42021ee1dU,
  0xbfc1cbf5ae333300U, 0x20e025e32148e092U, 0x8cf9f2e12d05dc12U, 0xfece45c0fa033fd3U,
  0xf9db15c3fe35e5abU, 0xe4bec9a31fa41327U, 0xa6502514cebe4912U, 0xd01b12d3ccbcd0ecU,
  0xb5cf16615fbe0c0U, 0xa29b3d572e86e61U, 0x1a3d1b4dc4ed0ddaU, 0x107f42d21c7af0bU,
  0x22edba22f12f563fU, 0x13ff18ffac972610U, 0x20ae3e4f3694e1b0U, 0xcc9b14e3d405d5f2U,
  0xf5171a44067f1a3cU, 0xa6bafef4daa8eeddU, 0x499e3e36afd3e41cU, 0xf6034dcb272cbdeeU,
  0x3f2937d4cb0a4610U, 0x18eddefc5a30051cU, 0xc6bfb90ec115db58U, 0x37dc3636aaf2f5d2U,
  0x2dfd3d781430f814U, 0x19c3d722ffd4b21dU, 0x42dec3fb44f6645eU, 0x1176af3fbff16fdU,
  0xf09f6381110bdcaU, 0x15f7fb24f9e8d6cfU, 0x270e26e7f4c0f9f2U, 0x2bab7fafddd8b622U,
  0x526fc1be6cecac6U, 0x282918d507623e10U, 0x2e10d6234c42ebc1U, 0x42d1c8d741cd1fd2U,
  0xc1ed93f04037e408U, 0x1ac1302d39064445U, 0xb354d9e1d9dbe149U, 0x2238d7ffcde20f0dU,
  0xc91a1f31145a9c00U, 0x27f1e624ee1a04f1U, 0xe1545064e1c01bfU, 0xf94af5dbca174602U,
  0xdc2a34f9ecf39bf1U, 0x6c112df4aa37f1ffU, 0x36e7fde1adbb11c2U, 0xc70bb201b0e7d400U,
  0xddc338443f39fee8U, 0x1de5063aafa13907U, 0x3c11aea9ad36fc46U, 0x232210dac0d03624U,
  0xced6d055b74eaf38U, 0x35371410eff217c9U, 0xc55ea0717e4363cU, 0xad53f2e17d629d9U,
  0x1214e3f6ed20e91eU, 0xc9eb19cde5bf26c8U, 0xf51dffcd12cf3120U, 0xe821fcf4f7d82534U,
  0xbfe839292536192bU, 0xf65603fd0221b4fdU, 0x2d1fc33af0233a48U, 0xd0ff011ad44528d6U,
  0x167fd71fcc250af2U, 0x353cd40ffaa133f8U, 0xdff3eaf3d1f8f836U, 0x1afadf1fe2e5c4a5U,
  0xefaeeef5f0dbcd07U, 0x217f725c0da10b6U, 0x271ee4ed1abcd4f2U, 0xd8da20e724dff14aU,
  0x815ecf7ef1a1e04U, 0x34d32123cdd1fe03U, 0xcea9f23bdc8f042bU, 0xdf0ad945f733d831U,
  0xdcbc12f8202303f8U, 0xf22ad0fcf40f57f2U, 0x10f5421af3401d7fU, 0x111921c10bf92504U,
  0xf7112c5aed04ee4aU, 0xd01e06ca1935f3efU, 0xd520e500fa20e3f1U, 0x5324f92ce8f64556U,
  0x32ec00f6e2e62ad0U, 0x4919e3152f17ba11U, 0xcb0ccd28e6fcdbedU, 0x150eb4801e7ccbfU,
  0x8de70603bbd7179eU, 0x14b332cd122a1b09U, 0x14d1f8332ee55108U, 0xdd290c27d4e941d3U,
  0xce18bde70ee83512U, 0x3aefeb2f4bead250U, 0xf822e4274bc706adU, 0xd4f7391c2fe70e11U,
  0x3021a7072ee5fa1fU, 0xe92e1d1dd71b3c3fU, 0x23ce1218fe3ae8f8U, 0xfb0bcb2b460d0aeaU,
  0xe6c5b03a1f0700eeU, 0x3fcc9f5cbed3dd9U, 0xb8d133b9fbce0340U, 0x122102b0240e1bc3U,
  0xc04fcaf609fbde81U, 0x21c5c2d40feaf0f1U, 0x24130601c3e52504U, 0xc12481cc000e2af1U,
  0xfeb30d20300ef5efU, 0x3e81efe1a03074cU, 0xe0fa0200eb2b15eeU, 0xe5e5e73849a8152aU,
  0x2ac7fc23edcf53dfU, 0x6efd41fe246f1d8U, 0x160b10cc14a12fU, 0xe9c9135605e63928U,
  0x39d5db2a00c3f8e9U, 0xcfcdc5c198ea3856U, 0xfb9a5e0814d21636U, 0x2cf1fb28e7232410U,
  0x3d2eecda00e9e6d2U, 0xf04c36c3d9fedb14U, 0x22ee2e02fafe30fbU, 0x2e0eebe30410ed2cU,
  0x28cef6c3281225e7U, 0xcd0ce019be35fb56U, 0x47d84b251ac5610aU, 0x547f34d2e7f52110U,
  0xf41f21bbdb2430ebU, 0xdbef3dc1b4132c3dU, 0x25b916f346f25ecbU, 0x4a5ed720fd13e00fU,
  0xab2d2d35aa232dceU, 0x5efdf38b0deddc4U, 0x756ac2adcaf2338U, 0x14c6e51b03e7a2ffU,
  0x2218c307e3b7d8d4U, 0xa1ad1b193b08330aU, 0xd936c04a1d2857baU, 0xf0e1cefefe18b601U,
  0xcbccdfd632d306ddU, 0x3ac70a1563181fc4U, 0x9e09e6ff08eaff29U, 0x3dd031058b01b0fdU,
  0x4c424c4ade610708U, 0xd52e04fd387f1d30U, 0x39f9de3fa9fbb609U, 0xdbfc71010f46f942U,
  0xd50d8c555cf29c5U, 0x13042ce91ee02238U, 0xfded081c321636e9U, 0x304e1230e63b0e59U,
  0x12eb31c834ffd8caU, 0xddc9e006e6e0fb14U, 0xb01128bbd10c16faU, 0x2eb9ebdefdce07f1U,
  0x2be621d7fe1413eeU, 0x45310f2bcf1323d0U, 0xa4dff4e92c53ea1cU, 0x23ddcd3b23212c41U,
  0xf206f00937b3c233U, 0xe3fbd9133c26e93eU, 0xd5eaeebc3e5837a1U, 0x3b310ffcf2d7f025U,
  0x31d5b9b1c8301df9U, 0xf736a0eaa2f4dcU, 0x711dca1a29f420f9U, 0xfb7fd705254514f6U,
  0xeffe370be6203421U, 0xeedb4da1fc050ce3U, 0x59339ec12efeeec8U, 0xf08cdc6abe3e62bU,
  0x32f234450df28d0U, 0x4a00b729a9ecb8d8U, 0x40c110b4922ebf8U, 0xdfe3f72efcfb2d3dU,
  0x9d4a23103d0111c3U, 0x4ea4d93cdb024eb2U, 0x201f1b01e91917d0U, 0xed600e423f53be6U,
  0xf351fbdcfea627e6U, 0xd410edcf3fd413e6U, 0xceeb55d4553308d9U, 0xeefb16dfa8fac5efU,
  0x9f470b18ecbeef2bU, 0x52e4edd733a9fed7U, 0x15b292ead637e7f6U, 0x28e30f233bd2b13bU,
  0x20622b06e76136bfU, 0xb6b3c3cba5bcf0c0U, 0xc0f30207a53638bbU, 0xfc00cbc6210aa20aU,
  0xffaf7f6f2a21d42U, 0x9116d77f1699bed7U, 0xd659d5191db7edb9U, 0x4709443eea1eb308U,
  0xf528204632f9d5efU, 0x4c00f8122a9f5a51U, 0xa0e952d7df3f4bdcU, 0xd72c4d0ea22d3644U,
  0xb879e736d534eb55U, 0xcee472d8485af9b4U, 0xc4fd7cb4230b37feU, 0x44dd780735d346f0U,
  0xde60f5cb644bbfcbU, 0x89d745d615fee4bfU, 0xdd40f11dfb98f8c9U, 0x4633ec51af105cebU,
  0xefcd3820cce156deU, 0xe800b4dc46e4beb3U, 0x924d72d1963ba0cU, 0x2acc60f4cbb01129U,
  0xbdef2c19db4bddf1U, 0xd00948332e3ad8f9U, 0x531c0e9afeca13c2U, 0x2ab1b85cd71f6d81U,
  0xe804ce19dbd9bdf5U, 0x28f9431ce03b160aU, 0x935b6deea31184fU, 0xf04a23de054a69c1U,
  0xb7e9e9b424ed0f65U, 0xaafeef14cf199dbeU, 0x46281403c6fe1713U, 0x672e111be3c7fd89U,
  0x67da0b9eda9e5b66U, 0x15c0fa03271c1340U, 0x29f6ddea412302ecU, 0xef21e8fce2e1e8d4U,
  0xd2efaabff02fa445U, 0xf5f3f1a9041d2bU, 0x3e9b1fc050f3b00U, 0xc34528f12d0555f3U,
  0x47ffc5f61dfb1b10U, 0x12c61b242146f134U, 0x2ed9b713fa3ee320U, 0xf306cafc5942e5ffU,
  0xcbf9fc18e0d313fbU, 0x23d42446a9da0631U, 0x4d2c100613171ccaU, 0xe6f9ccda12234afaU,
  0x1ddde7153c0d3cdeU, 0xb6a0940197d10efcU, 0x46f8b909032a162cU, 0xb8e30134810507e8U,
  0x2ed40757eee440e6U, 0xc1adf33ece2f939U, 0x53542bea4ecf30ccU, 0xc7c5f6191f3cb800U,
  0xd5dd31112ee8371aU, 0x2618e5e7c9ea1d11U, 0xd7f71d4321e7fbe2U, 0x5e0d5cfabf4eadfU,
  0x5f3d51f30e73225U, 0xdbf9d80b04bd23e2U, 0xc70343cae6efd81bU, 0x370eecec0a0201d8U,
  0x3121211a101ff514U, 0x14c3bff923fbf3c3U, 0x2fe3cbc0182f280dU, 0x1ce733d30d382d18U,
  0xe1ba15ed2b0ef1f1U, 0x45b41ce8c3f98125U, 0x58dd8f8171dfbfdU, 0xfa17fc1fe627d106U,
  0xc72acfc2deef05ceU, 0x1a18dfd012e5d11eU, 0x46e2fe38c9420220U, 0xe86b0d002fcb240eU,
  0xeb21c4363ed4da16U, 0x144926d10f09010bU, 0x27c34b183bfccba5U, 0x36dd09ef1519f5d7U,
  0x84afbb7e281ea36U, 0xd0e307e5cff4c11bU, 0xf53219c9cfdd2ef1U, 0x30e5ca243cd735deU,
  0x3de33bd92bf4dde7U, 0xece6ff22d1ee17a6U, 0x16e72fc5d1dae222U, 0xfdd934163613f832U,
  0xdd13bef845471cd1U, 0xb80b3f09c4d036d9U, 0xe31dbee7b6220dbaU, 0xedda2894bb2bca14U,
  0xbb1e2d322132107U, 0xbd25cd10d102f9eeU, 0xefc3222c6cc0b2bU, 0xe0e52a03e71b2bf6U,
  0xb1cde529062fbef2U, 0xe9eb3c1e13eacaf1U, 0xc4073924c4043dedU, 0xe715220ccad4dc28U,
  0xdce3b6e90e1c11fcU, 0x47d730272eead1deU, 0x1c1ef9dcf70ad917U, 0xd42619eadcd9211bU,
  0xd1e2b41d233ef2fU, 0x2bd8fbe01912e7bdU, 0xdb35d9f02fe5d9edU, 0x2ad8fd0807e4441aU,
  0xf525dfd6141c24U, 0xfce35fdd06ec04c6U, 0x6c7d8f431f7e33dU, 0xe7106c33db2305f2U,
  0x58091e0f1b7ffec6U, 0x360ddf2e589ad431U, 0x4fefa7c8d62d00ddU, 0xb5a1cffdc7c38bdbU,
  0xff4dcae7f0d3f2e6U, 0xc9b431e0133bd840U, 0x1050e7bbda342a9bU, 0xe220623724b5b621U,
  0x5a2a08e35c0c44b1U, 0xe2d0e2d6a0ced8c1U, 0x595785a8cbb30af3U, 0xcc8d7f18071daa23U,
  0xd216f1cd4a42b03dU, 0x26bcc427a6d43115U, 0xeefffae5c6cbf13U, 0xbdf6ea55556ba636U,
  0x1cd143d45505aec6U, 0xc02802071c745527U, 0xb7361cdfd84b51c7U, 0x87225d310c444c75U,
  0xeb07148e0abb3840U, 0xed2323fef415dea8U, 0xecfd2804fbec2bdfU, 0xfdd712fc351beeb7U,
  0x81817dadde7c2edU, 0xe9e718ec0fdff911U, 0x2cdf2b1a3221210eU, 0xe1f905d4f0f8de11U,
  0xdeed0edf05e40d07U, 0xb26fc341509381dU, 0xe2260707fce705dcU, 0xf421e4e9c82f0ca6U,
  0xcf7181dcce831d3U, 0x1bddf5f9f2140437U, 0xf9edd214e6e42ec1U, 0x2ae3d9f02feedbb6U,
  0xd4ba05d0fdf9ec3dU, 0x3a2236e2cbe623e9U, 0x10e71316fb01ced7U, 0x2ce4c8381025f02fU,
  0x1e8c581ccf73a41U, 0x30fd43d6db1a4123U, 0xbe5b26d72ebc61d3U, 0x284ac9e0b82fd1a4U,
  0xeca2b37f63411d2U, 0xd937fee2a98115e6U, 0x4a2131a3c8312d51U, 0xd5354edf0945e679U,
  0xbee2f3dd1ed23303U, 0xea0cc32a2c924a0bU, 0xffb7ef2e280e1fd2U, 0x69423addb6c00fe5U,
  0xf3f004a22b5827fbU, 0xdd01431322fd6a58U, 0x560cdcff002ff1dcU, 0xd34cfe333fbde15U,
  0x1906f8a728f69ed3U, 0xf904a8efea4e190eU, 0x610ce2075c1742fcU, 0xc0c02d04e4bbb900U,
  0xb119da310ad3fa68U, 0xde19131b3934e2d7U, 0x2c1a161d43dbfef1U, 0xf9d9340006ea9dd9U,
  0xe90cfe2bef080203U, 0x1ccdee7eb221cf1U, 0x1007dc31d31501d5U, 0x23d20401ebe2d41eU,
  0xe31ce0091f363ff5U, 0xd8f831e1f9e10510U, 0x12d318fbdcfe17efU, 0xa9d3e511ca16b839U,
  0x1ad7dedef2e7f105U, 0xbfcf06e0f53047faU, 0x7e824cac20cd009U, 0x145feb6cbf3c20dU,
  0xd9f0818ed63008ebU, 0xee1945ea26fe0bacU, 0xf013e1fecf341212U, 0xf1ec66ff25e9f817U,
  0xc0f0d596515f20d4U, 0xfad9211023062dfdU, 0x1b0aee09e01cce0dU, 0xcb1e0ad42a0c1a0cU,
  0xd5d7260315cdf8fdU, 0xcf0e7233d181632U, 0x12d827e83ede180cU, 0xc02e0cde04ebcfc6U,
  0xcf3f30bd8f1fc15U, 0x2d0c2eedf7372404U, 0xeb3426ad2a19cbd2U, 0x2ac91dd7f21e2128U,
  0xf40e37df2cd8e101U, 0xe101fd45c2bc38c5U, 0x26e1dfb92accf715U, 0xc305df3af73c20ecU,
  0x47051dfde8223926U, 0x262f813b29be16f6U, 0x21ede3e4e0199eeaU, 0xb909f62fd12cb529U,
  0xd8d9182e0a1921dcU, 0x15fae3b424e4ab2dU, 0xf00f067db1e5a936U, 0xcbfb1d70011faa1bU,
  0x3bb3bf1fd4a9e61cU, 0xb53931d30df0b7f2U, 0xe1d599c0fefc0bc4U, 0xe7a7420c682d3634U,
  0x2b302f7dfd8de19U, 0x310b321cf21aebd7U, 0xbe62a828dae3dbebU, 0xc53228ca2eb7fbd1U,
  0x21e04449079ed12cU, 0xc8214585710f0bf2U, 0x649c8292e2911f9U, 0xeeeb9b98e1d24e60U,
  0x1048277f0cec2e09U, 0x1501e0a5d17a601dU, 0xef18510c18fed20aU, 0xf4108ccddab93b58U,
  0x1d4d0e1de91d3afeU, 0xeac8e2c3fece37f8U, 0xc6d011e247d861feU, 0x45b632d097ff9cbfU,
  0xe146c01cc7e41ce4U, 0xdb1318312ce517c1U, 0xe1ec476222e1d9f7U, 0x5a2bf046d5e1b1e5U,
  0xf70a38f6ec5ac55eU, 0x46d84e0fa410df69U, 0xacb04b274be1d10dU, 0xdd077fcff61bda24U,
  0xad4af4b8377fbf39U, 0x2525002109c146adU, 0x2fab98b019e42bdbU, 0xe35c2a24e5f5da29U,
  0xdffd0bbb503a2adeU, 0x11f81c1dcfd8c729U, 0xa8022ac0eaf6dcfeU, 0xec090ef9b44a2617U,
  0x19f4e6125b24138bU, 0xebff39cc0b397f19U, 0xb4e5e90a3592c2b7U, 0x34755812ebfd4f6fU,
  0x454d193fefcb0df2U, 0xc5d7f4c50949b9cfU, 0x13ff0505fd1bb722U, 0x3d1251eef22e4115U,
  0x51a8d0423ad521ceU, 0xf40dbaf60fbc3fb7U, 0xfc10bc13fee0f12eU, 0xd92bcff42708bc2bU,
  0x55cab31118d8bb3dU, 0xa626bdc81591d7c6U, 0xec001251f6382bd1U, 0xdeca07a63d04fba6U,
  0xcaaad337b2e22e0dU, 0xed17d407151df6adU, 0xc103cfb16b8371dU, 0x309c422e13ee231eU,
  0xd0fd12d12012479dU, 0x3cc52dfee8c7402aU, 0xd3b33dce3ae9f6bcU, 0x233901d5fe021f0dU,
  0x2c0b030a043aef2bU, 0xa7c04539f7ed04ccU, 0xda40c7e542fd1e10U, 0xdcdf1aec1f2ad1d0U,
  0x1de4e91f0003e0ecU, 0xed0dd81cda226de1U, 0xeabb11c11237fd1dU, 0xd329bfc8defaceb8U,
  0x27160be0bf4cd12eU, 0xf8e47feed9ae2d34U, 0x1e043ced13245d39U, 0x5530a001bf9d6e7U,
  0x14101f3befebfebcU, 0x40d26f1761e7f701U, 0x32e4ea20311224d2U, 0x2731bbd91810f146U,
  0xadd6bfd60a1097c0U, 0xd1b5f5dae681c9beU, 0x64a1cff633cd1266U, 0xfb86d613b401d104U,
  0xc9c6efe5f53becd3U, 0xd520200d0609c41aU, 0xb91153ebb10c3d3U, 0xac4e45c21c545bcU,
  0x2b9cfa29374955feU, 0xf103fcb849c7ba5eU, 0x124e4fda00f212bU, 0x514c2efbcb51425fU,
  0xc73314210793d62bU, 0x4e28031e0a46c9fdU, 0x9feff92fb1db1b1fU, 0xbef8d216d3e9c539U,
  0xce5534b96221ef9aU, 0x43be325601042549U, 0xbad3012c5c63f3c5U, 0x8be17c4cba35bd1U,
  0x90430ad2e61a0cb2U, 0x322c817c18977c72U, 0x4d27d535a9f1e6f6U, 0xb40faa401ff92f3U,
  0x5eb2f327cf3edcbcU, 0xaab0f9fefd9fd9d4U, 0xf7eff7b734e3fefaU, 0x2fcf573009de19c1U,
  0x151aebe8bf024407U, 0xeeff9501ef22b522U, 0xe648c80f1c5025d6U, 0xe9e119b8d318efd3U,
  0xed0fe3219f0b4ed1U, 0xfe0d993bd59ee7d9U, 0x220bd515b73c04c1U, 0x40bcdabbd3521a7U,
  0xb8ad7a2be1de4cafU, 0x2c32d9b1eab2b5f7U, 0x550f051ec8b43615U, 0xaff1f89d41cf170cU,
  0xb11cf4c6c77e25beU, 0x9ba92c33e1e125c1U, 0xb600114ad908e553U, 0x622d1c436081ad8U,
  0x9320aeb8bdc29745U, 0x24f529cdcb341afdU, 0x3a2734f905d9de5cU, 0x313209f5f3ed3395U,
  0x1c062512d5c9ff1bU, 0xff9d6f3f9202bf6U, 0xfcf6dfc529d2d721U, 0xe9062110ceeb0cedU,
  0xb5e6bce43cdb81c7U, 0x41d3c8dbbe25cdd7U, 0xbb2112071b0953bdU, 0x4232c12737312198U,
  0xb4660dcfcc3bf9f6U, 0xe420c8bdff990112U, 0x24cf2a200e0f181aU, 0xdeeb472c13d54ea3U,
  0x280947e1f7280e5bU, 0xef10a7071bd434c5U, 0x321eeb6cb474842U, 0x2a20d70beeec1b00U,
  0xa1f13fdf8bdd418U, 0xdadec83363ff1ac6U, 0xfccdc9b829d2fcc8U, 0xdce7c13c4f0a49e4U,
  0xba51d9bd561fd0e3U, 0xfc3d9f024003f8e7U, 0x1bfd2942f0350c0aU, 0xeb95ccb9ec45fa39U,
  0x371b10dcda19f4U, 0x1423d4f71cabd816U, 0x1befd5c18ed3ffe0U, 0x1308a20b06e8cbb3U,
  0xa133a1ff7e137cbU, 0xedefa13a85022646U, 0xdcbfec2db5d58129U, 0x3031d5ffb7d92534U,
  0xc1f50cd0d21a0cafU, 0x2bcc1e1e11fee402U, 0xe0dadeda18380cddU, 0xc9edb0ce0ad1f3f7U,
  0x26fa1f0111b9f2cfU, 0xcde4d9ce40b347eeU, 0x8053dcc18eaefccU, 0xf1a0720422e23c1U,
  0xdfd812ecdea123efU, 0xf9f606103e303e66U, 0x3bf8e104b758ccceU, 0xb731f0b3fc19efe3U,
  0x8030ad618e72808U, 0xf3c8cf0d4bf0f219U, 0x37d7dd2a2c2428caU, 0x26d6af4502331b2dU,
  0xe1e038812f15f542U, 0xac2237f3fe1cceddU, 0x324b16f9f8a21308U, 0x234faff6e6551b13U,
  0x15ccf1ab39001c0bU, 0xf115a52300fcd581U, 0x1646f10036e914d9U, 0xf7b06f6fec2fde4dU,
  0xef272b164a033519U, 0xf144faddd748e8d5U, 0x192232c0f3480131U, 0xadd6135ff113d818U,
  0x160ec1f51451fe17U, 0x10391ac61f163117U, 0xc4b60ff5fc354a2fU, 0xcfea00c3bd2ae648U,
  0x3808c18a2242063eU, 0xe31de81cff0ace1bU, 0x13e0ff20b5ca10aaU, 0xe23d232224faaa29U,
  0xa6d137052122e2c8U, 0x540924bb01bd29c3U, 0xe6f01fc315f9dbabU, 0xf5ea4de21823d6e3U,
  0x2d2ebf57c7dcf8bcU, 0xece5cedd00cd080eU, 0xdaf51a03c00c13fcU, 0x1e11de278bd746fbU,
  0xbdb0232cd61ce618U, 0x1717e82412d41406U, 0xff1431f6180c6657U, 0xbb542203c30c5105U,
  0xbdd62b530c5409caU, 0x47e9e4366813e929U, 0xdb54de02ebbd0bc3U, 0xe413f9d7a6055042U,
  0xbd192a130bde0441U, 0xb370e251335c511U, 0x52cdd2cedfd638beU, 0xb40e2df9fa200419U,
  0xe7372b2e22e33bbcU, 0x1b08e6afd4271037U, 0x50c7aef6b70a332fU, 0x42ebbc2d2f170de4U,
  0xe92b027fd318efcdU, 0x44d74bd864982314U, 0xb5a935aefab4b9f1U, 0xc7f2a1e3cb161028U,
  0x241abea24701f6ddU, 0xc563b10d71efadcU, 0xe309d6bb311b2b81U, 0x3144bc8ec326d8edU,
  0xe6ffc2cd05daafb6U, 0xff110fc06e91666U, 0xf0f83fb00e6fea21U, 0x2bcb36e53a094a10U,
  0x15fefee4dd480de5U, 0xe4e139dcf7f43dbfU, 0x12eb28f8f9ec19eeU, 0x4ad511085db5bb9dU,
  0xcfeb02039e1dea38U, 0x30c8c1201528f7dcU, 0xe7b0102435decea5U, 0x171fe0d2343503e0U,
  0xe1cfd612bc4957afU, 0x2e09c508c96a3e1bU, 0xe7c20321580c567fU, 0x580e04ffdbdd181dU,
  0xf3332bfcf44124cfU, 0xe326c1cb30248e29U, 0x4d78231e25dd4ed9U, 0x72f559e6ede92130U,
  0xc41cf4f521dc2de4U, 0xc18bb250203022bU, 0xf5fbe1a60a40e3feU, 0xe3060506aec3f8e2U,
  0x2f33edefe02b23feU, 0xadf7a9c7d82fc9e4U, 0xe538f8c1eef70fe1U, 0xa0a0dfddf4d2f904U,
  0xb2ed4916ac0c11f4U, 0xdbfe38f50cd1f7e2U, 0x4434028c0628a8daU, 0x504a1c719e20835U,
  0x4101169f9331157U, 0xb940f1242bf934fbU, 0x4f575817d9d51cb5U, 0x135afb46dcde3933U,
  0xfbcafee5fded1115U, 0x3b3819596337eec1U, 0x20de54ee531afef4U, 0x2bb1ff0226fa185aU,
  0x5dd9db1b51381aeU, 0x2b1d31df2313620cU, 0x2fc4ceb0b8142f44U, 0xc93adf5bbf001904U,
  0x28beea13c8b6b8ebU, 0xd859f20548d142c9U, 0x12009bb492ce0d7U, 0xabdc010a3a0547dbU,
  0xa32801dad7ccda97U, 0x2f1644ad4435dabfU, 0xe91307efcb3825dbU, 0xefa738b7b3f41ff6U,
  0x3dc55727eb4ad2e2U, 0xb4f98c2b54fd04a9U, 0xdaf6f8f9d5e117c3U, 0xec47d33ab4a9419aU,
  0xa52d2e9bb0211e9U, 0x96c8d43ac7c2f2ffU, 0x4154c3ffb71a37e9U, 0xe6c132abdeed25ffU,
  0xc3de613d3fcddf8U, 0x15ea2bdab7fe1ef2U, 0x4e0fb90b41f1d8f5U, 0xf5f61c521d2ad1caU,
  0xc50328d5000d4da4U, 0x8a115b1ef7ca2a0bU, 0x3cf72a1214e547c5U, 0xeff75625406624e1U,
  0x33cfe1a9b9e25625U, 0xeb47f9ea1af002ebU, 0x75563315f33c0605U, 0xce02d5c915091035U,
  0xbe81eb33e42fbad9U, 0x4d01e20644d818e4U, 0x532e064ffd26c381U, 0xeef9cca3dceffb15U,
  0x93bbbf31dab4befcU, 0x2c11f32d352abfdcU, 0x3316433832252aa0U, 0x3e6158d2feee5e87U,
  0x94fa48ca97d0f80dU, 0xdf43d4240ac91466U, 0xc44ee9b7132cf2f0U, 0x200ae0f834d233f2U,
  0xacb927d32a02ebbdU, 0xcdd328eaf60e4ffaU, 0xa734cf57d5c90d02U, 0x4445da4b12ffcf40U,
  0x32bad4d5f2f6d8f2U, 0x20a94a2de8b02bcfU, 0x130d1d0a374458d1U, 0x2e096315894a41b9U,
  0xec985236efe31520U, 0x35eab5e14ff917ceU, 0x67fac61d27d059b3U, 0x1ad1f63f01e900b4U,
  0xc6fd226933680446U, 0x3c1d0f3a23dbd518U, 0xbf568d3af0cbf8d4U, 0xecabe8f1c113ff9fU,
  0x114f1f1aa56e0efU, 0x3a54ce4838c7f443U, 0xb7e93c00352e1049U, 0xb7f1cafec72fecb2U,
  0x4e1a1e1dae5fe464U, 0xb25417e25067cbd3U, 0xf51107cf10fec2e6U, 0xece206505beb3130U,
  0xb4c9ddcbede20bd0U, 0xc4a4d045e355e735U, 0x1053f41581ceff1eU, 0xaee8202d0c36d2f9U,
  0xfbc99be54afbdb36U, 0x40a41cfae6f2f31bU, 0xbf3f5b621af0ac35U, 0xc4f3ffbaa300c15bU,
  0x34fdfb580f50b40fU, 0xc121d735192e2fd0U, 0xdb10081bcc553ae1U, 0xe0f70ac7c9e3ddfdU,
  0xfbdbf3cbcb61dd45U, 0x3923313204e018U, 0x42e619024a442f17U, 0x58fece27ccd90511U,
  0x9a73de5eb4748c9U, 0xe1fecdbbf83cf8a7U, 0xa260bede3d55b0eU, 0xdedbf7fe10ef3bdaU,
  0xaec4f1bb0fceeec2U, 0x2f0c0ca5e6c5c381U, 0x239c15a93acf0ee2U, 0xca485c409fda5be8U,
  0x23b0eafb7f83defU, 0xd0f0d560bf81f457U, 0xdbca71bebbb2d55cU, 0xc9d6c7e2c64fc5c1U,
  0x302e2547b826ae30U, 0x222415c60b0fadf9U, 0x36b32946e035c963U, 0x68159a1a0508f819U,
  0x394625f5de20256eU, 0xe41ff9ee571a63e9U, 0xea4e431707a35829U, 0xf99164109a241fbbU,
  0x3a24eeefe6ff40d1U, 0xac24c6b9c3c736d5U, 0x421a04f7b0c91cf4U, 0xe5294531082ff923U,
  0x1cbe47b3fe50111eU, 0x22feeca9466e13cfU, 0xcb1123161620e09eU, 0x5e1621cece093335U,
  0x848ddffc9807b1b8U, 0xe13fc1413c24b4f0U, 0xc5be10ccca02dd8aU, 0x2994bddf169fe2ddU,
  0xf0b914b58340da24U, 0x1049d2011300a031U, 0xd153b1decbc63789U, 0xfdf4f0133e81490dU,
  0xd437d32d190bede7U, 0x3221cef52321ea23U, 0x4e3fd9ca430a1038U, 0x1d27b14424c30ef5U,
  0xa6e2e63d213138d3U, 0xfbd7dfece3edcc00U, 0x9b9b2aed1db51bbU, 0xefd2f891920e1bfcU,
  0xd14ffce58e000155U, 0xa7de9010613ac804U, 0xf5fdd815ff43c3f4U, 0x1b8fdb21d2415b5U,
  0x20f8f2e31cb6ef92U, 0xff04b7f8022c5decU, 0x990f7056e038d4dfU, 0xaef5c307dcdfd806U,
  0x1b9f5930f8971da8U, 0x262a5af5036c27f0U, 0xe238ca582199f1dcU, 0xdbd4262810287feaU,
  0x1d326fb41a6a7a8U, 0x1dfee30b20210c64U, 0x47bd35c2b12ae434U, 0xfbb83d1ce764fd97U,
  0x4103e587d5d90944U, 0x102ca453e4263e62U, 0xb2ebbacab73b5f3fU, 0x1ae11ebe04cd5e87U,
  0xe6b7e221e529e20cU, 0x6b3522d30efa4d19U, 0x2ebeef572fc40302U, 0x47c8fe6a28cf7206U,
  0xf62a188d3ae5fed3U, 0xd8dc38e5b10b01d5U, 0xfa0368de100a1c44U, 0xf7e9f04e81292dcdU,
  0xc05c2a011de2fcdcU, 0xbe2122af430e36d5U, 0x8f8c0495140f1155U, 0xe22c9969c1fc03eU,
  0x9ef917081be41ec4U, 0xfddf3361a53e2U, 0x3721f9f30a0d5a0fU, 0xa7b6013934ccbd36U,
  0x23043bbeeff1f020U, 0x2036ff4204e4afb7U, 0xc1accd1f6e46c98U, 0xf0e6041ecf461a31U,
  0xdc1a14ce339b1211U, 0xefdfc90b2f50b1daU, 0x2c4879d7f7d96ee4U, 0x14d00e9e3deea2aU,
  0xa1bce7e8670b1a87U, 0xff142212ecf3efe5U, 0x33df0df23bccecb6U, 0xfe0bba3624cc0fd2U,
  0x3a07271c245462eaU, 0xfc2f844e005e1f7U, 0x143744d027222ab2U, 0xf01e13c0fabecdfbU,
  0x1211d7eed12c155cU, 0xd51f03f104d626c6U, 0xc131acee638d417U, 0xe6e60ebedc1de8efU,
  0x201847e0f03b1c18U, 0x1e3100f9e1db0fe1U, 0xdfb621dbb9ed0727U, 0xf32ed0a7c316e2ecU,
  0xdc29ec4de7f6de07U, 0xe8cccb390af7b504U, 0xa81d0ed12facefaU, 0xce17ddeafd3417e5U,
  0xeaf0ecdae2ee0dcfU, 0xfde165aad02280aU, 0xb0f821f53eb8b724U, 0x3ae435f122023fceU,
  0xeae5f5e6c61f2020U, 0xe44619cd04e10e96U, 0xdc131bf921f5d320U, 0xf031e0147ff92ff4U,
  0xe44a32eef823f838U, 0xe4104b48ac671814U, 0xfb68fbcaebed371dU, 0xe0f620daf009dfb5U,
  0x27373dbbe4cfb02dU, 0x2e2dc9f7fec0353cU, 0x3700f5d85934dae2U, 0x2554fedce944d724U,
  0x26e82ce2b0b409e3U, 0xbffafac10cd2c4b2U, 0x79bf4ebc6df23eeU, 0xddd43b0993d5ce9dU,
  0xfbc2bbd726c831d3U, 0xded40be1c269af18U, 0xe600bd1bcdc5b011U, 0x13bcccfb7523da0cU,
  0xcef32419f7ac5547U, 0x531162b811ee6d4U, 0xac1016e3fdb404ebU, 0xf2b8a12202ce022bU,
  0x8f0c7c43fe9ee00U, 0xde19cdfcda19e0e5U, 0xfe107092dec0cc5U, 0x32113111d4282852U,
  0x3ef608063e351ae1U, 0x21f6373de3fc271cU, 0xef0e0c2dd12520eeU, 0xc2d9e0ec08ed16e4U,
  0xcffc3dc4f2e3d1d3U, 0xf90467deca163c21U, 0x35d706fddbef04f5U, 0x193c13c7fe1230f8U,
  0xd1faf8f224cad4U, 0xda0f516f8cc1c2dU, 0xe01d062315eaefedU, 0xf93ab253cc2dcd0dU,
  0xfad506cd02159adcU, 0x40392f0a60212346U, 0xd5dbe3d3fe353836U, 0xe2d306281cc6ee25U,
  0xcc1cc3900dc420cfU, 0xe7ee42c6393dcee1U, 0xda50db171b182c02U, 0x1cd0fccd0bd53adfU,
  0xbf1cedf5fc323704U, 0xfe1bcb05810953f9U, 0x41f33204e4e011f8U, 0x46bdf13a103126a0U,
  0xcce905e7ff17ce33U, 0xe2153f36cca4fe10U, 0x379aad17e8efde04U, 0xde28b9b41d1d2510U,
  0x52e5276d09d30af5U, 0xc823d2ddcaaa262bU, 0xa3fc3f0bf85fa6f5U, 0x212eb613e9ad13dcU,
  0x7fd5ef5ed526c69eU, 0x2099d33c2c83bc2U, 0x5bfe3feee420728U, 0xf4816f0f1cb21f9U,
  0x522f14ae921dff7U, 0x3ed0ec44bdfb4ca7U, 0x63f1f4a91ec8bf16U, 0xefdbebc7b94ace13U,
  0x1403ed25bef7394dU, 0x41d30aebacf26607U, 0xc64bf0ead1b6a0a5U, 0x26d9e2554d3fe9f1U,
  0x4bd95e05f9f10568U, 0x239a642d07e8e4acU, 0xa73ce74f01830017U, 0xaeb021c71213003bU,
  0xb7972777d9e552ddU, 0xea299ab8f4b7e656U, 0xb2ed17e005102ae8U, 0xbca92da5a52743baU,
  0xa0140d1ed6c5d0c7U, 0xf900dabb17e7cdccU, 0x3dcbe3ff10bbe5deU, 0x46f9fd59161d16bfU,
  0xe2ce3bd6f552c825U, 0xdaff2847284aea33U, 0xf86e07f63aaedd49U, 0x30c9d5d6eee8eddfU,
  0xaa3225db4af4f630U, 0xfaf20f3ed0e8ee23U, 0x3cbba0045f0b2dcU, 0x1135e0360f04f5c7U,
  0xcd2ecc4ecaf1d80cU, 0x204358230a263be1U, 0x1ce41604ee4afe1eU, 0x65c6215d2ccf0249U,
  0xfd01ab81d0406501U, 0xd81f1e3ed0cc271bU, 0xbe1de17a7148315U, 0xc0a9f07201b9efe0U,
  0x4436420fcc1dcb1bU, 0x3926c9ffb1f12e3cU, 0xf7bf1a29c0ceb521U, 0xcc400d1234f91bd2U,
  0x130cdae9000a1200U, 0xcebf22327fcc350U, 0x47d9e023bf18faecU, 0x16e1d6712e020431U,
  0x37c8af4b610dd818U, 0x24ef66fcf660c336U, 0x2f586cbe20b711d3U, 0x21daec23bee9c528U,
  0x10430dc448d3ee0dU, 0x13c7ca00703b0f32U, 0x18cc01b51d50affaU, 0xcfde1fd03d4e2cc7U,
  0x745c2b7f21153030U, 0xffffffecfffffdefU, 0xffffff99000000ddU, 0x320000010cU,
  0xfffffe32fffffd57U, 0xfffffbb1000000f4U, 0xffffff29fffffdcaU, 0xfffffc82fffffe7dU,
  0xffffffadfffffd97U, 0xffffffacfffffc8dU, 0xffffff2afffffec2U, 0x2a9ffffff1aU,
  0xfffffdaefffffd41U, 0x3b000000fdU, 0x8bffffff9cU, 0xfffffebefffffe5dU,
  0xffffff99fffffd80U, 0xfffffe2f00000065U, 0xffffff80fffffebfU, 0xffffff5f000000a5U,
  0x14dffffff94U, 0x16cfffffe7bU, 0xffffffb200000053U, 0xfffffd1efffffee3U,
  0xe00000379U, 0xfffffff4ffffff75U, 0x12dffffff26U, 0x11c000001a2U,
  0xffffff2700000286U, 0xfffffde5fffffd5aU, 0xfffffd6800000015U, 0xffffffa6fffffc5eU,
  0x17000000ccU, 0xd0212e6e20cdee4U, 0xeabce87b2802ee1bU, 0xabcfbf1e30c1f036U,
  0xb52f06cdc68c09beU, 0x6e6eef92b2c072aU, 0xbad3c3d9e812ba11U, 0xc816fc4abffde100U,
  0x33fa34ff0ef4d5f8U, 0xdee8023df3f7c997U, 0xd2db2cd71f43f74dU, 0xbff4d8311f5ed43eU,
  0x310b09d3270a574dU, 0x25d5c628d43356ebU, 0x1220f8bfd3fc01e7U, 0xfde30d4a81c701ecU,
  0xc7d0f607d900d5bbU, 0x633e1ee9301cf8f5U, 0xb0a2930110909d5U, 0x12c317c20dc4faf9U,
  0xf2d48405ecd50511U, 0x30fb05c637748f18U, 0x81fccf723212636U, 0x8db0414bbc9ee2bU,
  0x113733e525ffe6ecU, 0x292232cf0fece006U, 0xbd4cc02b1fd504d3U, 0xe8c3351b3f181ce8U,
  0x301c00e63f2c0633U, 0x120ab947c8b94c2eU, 0xff4aaf17da1220b8U, 0x4531221fea2123cfU,
  0x4d8ff312ff4be3cU, 0xf1b2d707c1c45ce4U, 0xbef11137c7c0e1ffU, 0xd1a4ddb02307fa90U,
  0x1cfab221ca173f4bU, 0xa1f9f968e4060c2fU, 0xba808fa3d1301ccU, 0x2b04cef79fe8b6bcU,
  0x8d6e1e60d0a2b0dU, 0xc1f8cc230b0c4ce4U, 0xea0eb4ed08f33b30U, 0x17e5172fd1210000U,
  0x3c0cf7d131f2d610U, 0xc1c536caf1c822faU, 0xda11c0f00b10fccdU, 0xfef03e1b81dd920dU,
  0xfef0efdd0c2084faU, 0xfacd130ac5122021U, 0xb809e2f81e2eff07U, 0x27cc270a37e5cbb7U,
  0x1929d4ff0cbc2c03U, 0x3813ce19efefbc1dU, 0xc010fa03cb101c3aU, 0x10360a30e503ec0dU,
  0x1eda03d122ded1faU, 0x8fe07291dbda839U, 0xd1ece3d6484af100U, 0x13282415d52acbd1U,
  0xde14b1b41de43509U, 0x173016ef0c18b6bcU, 0xe82af2f810ea3732U, 0xb922ef28e3f4feefU,
  0x28e9f98111fc28f9U, 0xcdc1ee27fbdd02f6U, 0xf0e6c3d9f61fb8eaU, 0x707fd4255dbf2U,
  0xe21bdca412f12536U, 0xfcd00f0828fdc722U, 0xd4063fc91e0b5fddU, 0xd80fda0f84c2fc0bU,
  0xd2dfe2cbe2f01ff6U, 0xff7fe5fe03d40ab2U, 0x4f40de31b0c1854U, 0x6f29651eed1f4ebU,
  0x1ff4d106e9da040aU, 0xaff8f8f8e6ed10d2U, 0xbfdb00efa510bcf6U, 0xb2ffce0b05fa57c7U,
  0xedcc1514bdc42f1eU, 0x12d0fd281bfac7b6U, 0x220bfc02361216c6U, 0xb11b41c1edafee0U,
  0x1e0cf810fee40409U, 0xad3b2d22da2932e7U, 0xc421e9feff0606deU, 0xe13d410d10f9e5d2U,
  0x2bca07f8eeedf00dU, 0xd4d3ea4ef53ce2ccU, 0xe1f6350fee04c1e9U, 0x30b7ebe1fe0be535U,
  0xc82ccf12e2b9fc24U, 0xcd0d3634fa201d1cU, 0xf7dfae0dd61704ebU, 0x9b3b1d24eaf5d3c4U,
  0xd3dadcbed739ebd7U, 0xf1dceb99e1dde23dU, 0x812d2b49defa1509U, 0xeedc3a9d46ea688eU,
  0x5beae4230037d100U, 0xaae838cdcc0f312cU, 0xd2db5df6f4f616d2U, 0xbe09e8e4f6010adeU,
  0xd3fbe206fefdf7e2U, 0xce0154d4c932d1d6U, 0xaabc2ffaec01acffU, 0x60ff21cfca0721b4U,
  0x2224c9813f38af1dU, 0xbbd806efe69833ecU, 0x4cdeb5342ce14cf4U, 0x29d3f401c239233fU,
  0xfcd90f341cf2cb51U, 0x22d9294b48f4eb9dU, 0xe9e8ddb7cac24018U, 0xc4cc2e0d9ec1284dU,
  0x51ee0f1e4150cf2dU, 0xaf9002df601bfddU, 0xbafdda630c452dbcU, 0x3130513b8b28daffU,
  0xef89f4376b48be44U, 0xde322fc001c2fcdU, 0xc61639ebdd011c01U, 0xfbd6c4fe9bbffbf2U,
  0xbc22d7cbe73216c2U, 0xcb95bfe8fbea3a34U, 0xa60dfebabd5338e1U, 0x5327fb3acba2d0fU,
  0x1011293acc35c015U, 0xd601b92503cdb922U, 0x3719a3410851e241U, 0xeafc8d7d01664caU,
  0xb74b0c0c38f21ff6U, 0xb9d70545d2e1d2b2U, 0xd90707e416bbdcf2U, 0xcdfcd815dae16e18U,
  0xc4da04600f1b5617U, 0x293ff1cdb42747abU, 0x71338fe47e00c06U, 0x3e1e29c9f5cd0cd0U,
  0x35aaacc6d4c5982aU, 0x13be07fe0038f2fcU, 0xf5dffebd42c4b04fU, 0xd74a2a13e1ec1d0cU,
  0xe88535efe4150132U, 0xe4b1fe09e1e136eeU, 0xdd3df1cab644c7daU, 0x170d85dfb21f4c0fU,
  0x2423e9172b5fead9U, 0xc77df92aeebada51U, 0x941de20920f9bc25U, 0xeb2d35fa9f4a5b00U,
  0xc8d673c0e1eb1c18U, 0xc1d6f63e8434eb06U, 0xc433c0c9b2414f35U, 0x32f0c507ea3dca0eU,
  0xdd4110324f1c1be8U, 0x224f2a444207dc15U, 0xf8fded1ed516501fU, 0x14ef0337ca114f25U,
  0xa62f0b8102f2cc5U, 0x29e6e747fdf7cc06U, 0xbf08ed1deadc36f7U, 0x37e683aed4b7cdd1U,
  0xe3e54f604109715U, 0x43dde81624fedee5U, 0x146ad211ec710e21U, 0xe4d5082192f8027fU,
  0xdbe35bf229011d11U, 0xd0b810132ce704cfU, 0xc8b1c8d193da282fU, 0xf811eaedd2f14001U,
  0x2fd5f32c04812ee1U, 0x5bb909009eed33ddU, 0xe9032025063c0eb6U, 0xe40f52c9ed4d5423U,
  0xca4d0a9cf907cdeaU, 0xe0160ffda3dd0a33U, 0x983524bfcfa43551U, 0xe7f504fa16aeddc5U,
  0xe310fa144aa20e09U, 0xee33db47b71ce609U, 0xe9d1ed30b1e2259eU, 0xfe0b1b140d26e0f8U,
  0x13ff21c506cce229U, 0xc41f3d12f3d01313U, 0x913507ccc0cdda30U, 0x3821cb00102c3719U,
  0x27dadc0deefce4fbU, 0xe537f8dff71826eeU, 0xaf0b905f8fb2dffU, 0x12b8c73eeb28f8deU,
  0xf41d150fc6fd8cbdU, 0x26e9fdf801121bffU, 0x1631411801f4f6e7U, 0x26f9eece10d41e26U,
  0xdb07c4d90cbdef02U, 0xed19110319fb1105U, 0xd7d210c528012002U, 0x3242421b1fefadaU,
  0x112f35f41b2c1ce6U, 0x9f5c7ddfe0d03cfU, 0xf50c1c1c0729e932U, 0xf2e6d9b6090e09d5U,
  0x91acc07e3b733d6U, 0x3011920230d1ec6U, 0x210db5d2dd06f809U, 0xe7ebb1eb0df42411U,
  0x2fe03eccdfcc3e0U, 0xe117dff0c8ce21adU, 0xffc30b16b8ebfbe9U, 0xcbb7ef122df31840U,
  0xae3240d4181fafbU, 0xfa817ddf30f22f0U, 0x86ebcae81225ffd2U, 0x4e32e31dffdc2c5U,
  0x8e3d31b2c12e0c0U, 0x4811fdd4dd220a10U, 0x3239fe55dd24bb1dU, 0x3cc4a9fa00fddfd4U,
  0x5701df0729a818U, 0x11b40e4ee5ec2bdeU, 0xe37020eb9d1cebc7U, 0x5414d8c2af020c41U,
  0xeaf70729322ef324U, 0xb0fe15f83527dbf7U, 0xccd0f006f221ebf0U, 0x36e402e9321254e0U,
  0x3c15e41b35d4255bU, 0x7d7e532d91b05f4U, 0xc5eec7add8e1e4f6U, 0xcde0bdfcff0ebefcU,
  0xd4e31247b8cd1ed6U, 0xe91733f21804f1bbU, 0xe6d01ee4f4bbefc7U, 0x40ce2bed11d123a9U,
  0xf3efdbba221b3508U, 0xaf220b5e62c2d16U, 0xf5eea4e80d1026ddU, 0x94cbb0fe819cc4aeU,
  0xd8050c0c032eca25U, 0xeceed2ddacad4509U, 0xb02c0ae8b5fe06e7U, 0x1b1eb3b03bf14021U,
  0x4a3489d7d0810fe8U, 0xeffb7f720584adcU, 0xd4fdb6e9e437e21cU, 0x291ebe02c013fad3U,
  0x8cb20cbc8e32720U, 0x5e103bdf5c43238U, 0xbb02f10fa4dc4362U, 0xe12de4b9bbe85028U,
  0xefe7b60f26e60756U, 0x19362ecced2ee332U, 0xe52a23f00de3edf3U, 0x3df927afd51c23feU,
  0xd7f5fe033e04e611U, 0xb3220c1002bf06beU, 0xeb0f2bdba0ec3efU, 0xf9300d9dbb2b29fbU,
  0x533d44e810edd84bU, 0x12072afad1e50bf0U, 0xa02e9bbebddbc1faU, 0x211123e81bf1eec0U,
  0x9ad3e8e4e59ab705U, 0xced7dcd3e1c217ffU, 0x440b2034cbedf8d5U, 0xe0010efa0924fd3aU,
  0x1206e3f501820b1eU, 0x4152b101b52cc38U, 0x3f4d3cfc8f92dcfU, 0xcbfbe69831f7160dU,
  0xc4c3c802dcee1b2aU, 0x2dd430092e2f2cdeU, 0xe6da2c0a1aed02e9U, 0xf22095ff27f7ecfcU,
  0xf004e5e0fa2b18e3U, 0x3714f5061331ee12U, 0xe8e0a7a8fd2837f5U, 0xe10a1d02b5f6230cU,
  0xb9091b11f53d0ec7U, 0xf500fa1219b60bf1U, 0xc8201ca2261ff448U, 0x9cacd17f025d312U,
  0x19039425fdde2a18U, 0x143c2af01ce8d91fU, 0x81192116acfce30bU, 0xefee1343f114eeb7U,
  0xfdca32fe42f5ff01U, 0xd5f6d5e90e50f6ffU, 0x9134e3b507fb1e17U, 0x25f4c01b103a0d4dU,
  0xe7ecffef17175017U, 0xb15ecb4f9fada05U, 0x941c8c9dbdf29c4U, 0xd8ffdd0ee721d10bU,
  0x15c02e20044c14feU, 0x36cb4415260c063bU, 0x503dde2df11f537U, 0xfb07c8d80013d32aU,
  0xa1811e829defeceU, 0xde114beb2d1f32f6U, 0xb230a838af20201cU, 0x211502ec891311e7U,
  0xa6fd1d0efed4caf6U, 0x360512a4f6ef3333U, 0xa9c70fe7fd47e352U, 0x41d9e215efee3424U,
  0x25dc812bffc11513U, 0x2c1b13c216fc361dU, 0xd7e60efd0adb2718U, 0xc43a10eaebe2ceeeU,
  0xe5b9dde048cc08deU, 0x17fbc51416b90a03U, 0x37d38e5faf3d53fU, 0x8bc31d495431372aU,
  0xea06df27f715e1f1U, 0x97f821f700d1a630U, 0xb607f8c2eb0321f9U, 0xa0fbf00dea3d4bfdU,
  0xe135e2deb2fde90eU, 0x40a43ee1cf1de1e8U, 0xf6f54ff5cf31c9e3U, 0xe0b0e3b638bafc38U,
  0xd2acd0df82a26e9U, 0x2c7f722d24f14daU, 0xe5f123b13ef0e4e5U, 0x9f0f0616c11c4b02U,
  0xa1d0edc53ae1e4caU, 0xc7b5c2271817e8d8U, 0xdff2d7b9fe3147e9U, 0x5da1cd06062c02cdU,
  0xde4ef0d1e0a500f9U, 0xa9f0d4281215640U, 0xa0fc42ccfec3a2aU, 0xd4affbc7f1f5b449U,
  0x2127db98b1eabd3cU, 0xd9a7da0bf1e7561dU, 0x1def39f2d7fdf212U, 0x18a7d7d80a37eb2fU,
  0x16c932cc111c1637U, 0xd620340a26abc83aU, 0xbb30c425332d0322U, 0xda2e2e17a02823d1U,
  0xb4811be1e50a3ad0U, 0xef16f1350705e539U, 0xc837e84ae4f129bcU, 0x5ceefd8ce1e4904U,
  0xfb290e010615ff68U, 0xa9491511caeb4c52U, 0xbd6caf40a20dcccU, 0x102d4cf9c1e6d3ddU,
  0xdbadf8af3edffaf1U, 0x2c4f55a13382813U, 0x8f4c2d2f8fcad92aU, 0x22483bc01ab6e0a0U,
  0x9e40c070de5edf0U, 0xb5c0f238f1f7f309U, 0x3fa21f3b54dc3beU, 0xb2e3e02bc3971854U,
  0xb5f7fff42863d6ebU, 0xe4f1e5d0b1aefde6U, 0xf2d2ff2ff3d7f301U, 0x10e0e616e8d007f2U,
  0x1034edf0f54105c6U, 0xf419fee61b07382eU, 0x7f43028f0efa624U, 0x175f2908fbe3031aU,
  0xf2c810e9d714000eU, 0xc9321610e81223e8U, 0x401d44f30f101a19U, 0xcb825f70ff8ed2aU,
  0x15cfde46f3294f12U, 0xefd81810da21f4d7U, 0xd1f3de10d238e1ecU, 0xce01ece2ddfe3322U,
  0xd2dfd40c3d332747U, 0xf4d9da3306063b21U, 0xeefc1dd4f4dddce2U, 0xe99ce8f9f8e20babU,
  0xe5d9d5e739caeb01U, 0x2b1ed2f31cd8f710U, 0xd013f1f203fe1743U, 0xd9071481e4ccf7f9U,
  0xa6ebf3d954ed0210U, 0x28811eaca2293e0bU, 0xdfff2db50127093eU, 0xdad4f69904fd2d0eU,
  0x4e107592a2338d6U, 0xb8e71f2f2d172440U, 0x6ac0f528eeeb15U, 0xfff32a18d01e02f6U,
  0xd2cb1d3d32ceb5ebU, 0xe2b8c7012c06cb29U, 0xf231beffb4fcf00bU, 0xc5d03acefbe937f3U,
  0xe924f713f0ffebb1U, 0x141edcd09bfe1fcU, 0xe4a9cffaddf8f8f4U, 0x1feee71ea10b13afU,
  0x9f0911d61be3cd26U, 0x20faec0430a348fdU, 0xd9ca5df6b8382708U, 0xf6f4f6d0b0dffe35U,
  0xc0131f1601ea0d8cU, 0xd800e101051c1affU, 0xc6c3e7e4c5210ce0U, 0x8492d0dae1710f8U,
  0x3f261c8ef3f4181bU, 0x5904f2bba653dcc4U, 0xb3c04daaeb3135e8U, 0xd51ff638f42cee08U,
  0x2033d5cd02edcd5bU, 0xf4eed622f0390c33U, 0x26f8f73deec9ec3bU, 0xb6dcfc4af9e402fdU,
  0xfb16d2002bba0b0fU, 0x5ae3e819bcfcdfc6U, 0x30bdcbede653648U, 0x34c0e00df21700f4U,
  0x7e5fa06eda6120dU, 0x193fdfcdea26e716U, 0x2b31e238e510e1f9U, 0xda00b8e017350e14U,
  0x251a33e227f7ed11U, 0xaf762dbe40b19c6U, 0x9be4ea24da25fc18U, 0xd50e233c4e45e1f1U,
  0xd34db5e6dfde3a17U, 0xd04be3abc535cad2U, 0xec3922d9c6f421efU, 0xb6e7060beddb2824U,
  0xae5f9d9dedee77fU, 0xfb29ecf203310a25U, 0x120b232aedcb352dU, 0xdadace0d2fd0eeedU,
  0xb058e70e0214230cU, 0x1df7fef8074a1ae0U, 0xc8fd06451329d945U, 0xf8fe280ef8e73efaU,
  0xe947df98a6fd0fecU, 0xec81ddf022e8e8cbU, 0xb70e2808092bdf39U, 0x2bfaf52414f9c2e8U,
  0x1cfedfd3f80ee2d4U, 0x39623f194f25c732U, 0xafd3dce4450e3a24U, 0xf503274bbae32c43U,
  0xde0af5ded3cb2a47U, 0xf7f2fb1615e6e1b9U, 0xefe3e728dee8f614U, 0x3508143515fffb19U,
  0x9b07e6c6f8e036c3U, 0x938f905d602cd0dU, 0xbc08e833bc350beaU, 0xda4e155dfe3afc16U,
  0xf721e912f00c2d25U, 0x39c7ed15dd927f3bU, 0x18211cf3d9170be1U, 0x14ebcd0c0be6ed0eU,
  0x2118a205cc29a004U, 0x3c0fecf2dd19eb20U, 0xb3103d4412f7020dU, 0x1df8f59ac3e61a02U,
  0x2de4dbb8063de00aU, 0xd9a1f9e708a0f72bU, 0xc5abb40dac172b19U, 0x50ed9cdbdeb39daU,
  0x3feaedd40555bfe2U, 0x15f5c015ad0a014cU, 0x2833eed8e21b0907U, 0x431909fdee1b11d4U,
  0x53828ec2fd6cb11U, 0x43044bddb8e3d4d0U, 0xc3cde631e2120908U, 0xbdfc19f3bbd91625U,
  0x571524372c480406U, 0x4f900e10ec6f1f9U, 0xe321fae20513dcfbU, 0xfee1230d06ffc522U,
  0xa5d234e821fbbcd3U, 0xd28cf02e0533d0e5U, 0xf9d2ea0fef1d0adeU, 0xbdfbbdf60ec32d15U,
  0xc11190d122081a3aU, 0xe10210c3ff2e0cedU, 0xe32ab3d2e3d82201U, 0x1ad9cbd4d63609ebU,
  0xf63f2c03d5f60939U, 0x3f24dbf3024127cdU, 0xee0dd0f5d2fde7c8U, 0xe52dfc620fdce2a3U,
  0xc4510ecd2f33d540U, 0x241a11bf95d7e716U, 0x2fcc4e081d913b9U, 0xed06ff01b1e1480cU,
  0x26fc0b3005ffe35aU, 0xbfe004ef9433f838U, 0xc0704c005e612c4U, 0xff212dd52f2ea60U,
  0xfa35ea0319f6d897U, 0x9cd50c5ac7e53a33U, 0xbc2bf4d5fcf9d3baU, 0xd03de1f29eef43feU,
  0xdc95e496e516fd0fU, 0xa2d3e7e70a29e418U, 0x1a4246b18329c4f3U, 0xf8bab900ff5bd3eeU,
  0x13efbf411d31fccU, 0x4c541221b3ad947U, 0x81428cbafd34ded6U, 0xe3eeba30cf073bf9U,
  0x6eae4f5b42cd743U, 0xd2fac0ffc62055f2U, 0x2a30f6f01401f91aU, 0xc45e05d031f0d820U,
  0x230ecb3a57d643ccU, 0x180ce62324fb0ebdU, 0x9d7108cdcd081306U, 0xffeb10e8d83eff28U,
  0xff2afac2b82307f3U, 0xf7eefd29e2e51426U, 0xd331c3e92d1d2016U, 0x110aad251ac3f608U,
  0xe12428052d1800f6U, 0x2c19b901b9f825dfU, 0xfbc8dfebd9b608feU, 0xf9fc25ad84095617U,
  0xa3133db1bb50539U, 0xe8c100f2cf073e28U, 0xaafe0314f33df4f0U, 0x301c21464809f729U,
  0xfcc60098f9c3f2eeU, 0x1a1e83aec45c8e0U, 0x4ef9471d29260d26U, 0xacf3ed20e534f92aU,
  0xd7f067f148e2e0f4U, 0x3fcaf24fa304cc03U, 0xef6b815062bc433U, 0x222b10e51eb307cdU,
  0x2731b0c2d2152e03U, 0x1fd6baf81808e9d0U, 0xcd2f491fea23f9e6U, 0x11fcebd90d28c830U,
  0x9073323d5d3f443U, 0xe209c2eaaf0116daU, 0xb5d4d212d344eae8U, 0xd4202426002c49a8U,
  0xe625bfb1371fe8f7U, 0xf2fea30c3c302d39U, 0x36f4e50dedd72b3eU, 0xfe37fb1efdd830fcU,
  0xf5ee7f180eb3fb16U, 0x2ebd2407ecf63925U, 0xb609d89cf0d80100U, 0xf91a0d0ef5beefd7U,
  0x36f5ddbf4ed8c9d0U, 0xc8ffb3f0b91b2762U, 0x81e708348cf62dccU, 0x61e0ecee96f3fcfbU,
  0xc8cc54aef51ab814U, 0xf7c7ff4b35ca2de9U, 0xddfec1ae1613ae2aU, 0xfd5e5d234f21d30U,
  0x20fae9ce3cf20b1bU, 0x2e41bcd610d2283aU, 0xc203d69cbce61612U, 0xee4e2924cf4705c1U,
  0xa9d52bb4e5ff85f3U, 0x1bdeabe0b110600U, 0x7f2e79727ea276bU, 0x3e12bed02df13637U,
  0x21fa07dfe92bf81cU, 0xfed2c1e9fcfe66c9U, 0xeb56f6ea5404c886U, 0x510b2ff715134c27U,
  0xfcfa1e133c268d14U, 0xd604df16f6c73b1cU, 0xc815d8c7d11a3d04U, 0xc308b3db1cdbdc13U,
  0xd820271ffcf5edd3U, 0x55274345c5121b20U, 0xf4f8d0daabeac8e3U, 0x1b393b39e8d0f2ffU,
  0xe5f8ccca2610d635U, 0xd4e0fb13021b3523U, 0xa81cf42b1920f3e0U, 0x13b93005f6d21e12U,
  0xd605231f10fafbc2U, 0x25f4ef01ad1b0ce9U, 0xbfe7cb06adf6e934U, 0x8201210ecd6fe08U,
  0x3f2f1df3107cd0fU, 0x921800d80133f4eeU, 0x110117f1c60f36cdU, 0xe6da1efeff0c07f7U,
  0xf50dc9c43ace0a09U, 0xc80915f40603c035U, 0xe42422eb912bd1feU, 0xbe40da07ead40f26U,
  0xdd81de88cafee3f6U, 0x1dc6ac1be5182e20U, 0xd0e4d81ad4130417U, 0xa2f28ee147123f37U,
  0xce45bc21f3cc2530U, 0xfbc3f3c3d30703dbU, 0x4fdce8fb3d1f53deU, 0xe40bf5cf283ad0d9U,
  0x91d4f51635d32836U, 0x16df21ca1bd940e9U, 0xdcfa0bd1af059706U, 0xbfa50e616c4091aU,
  0xcc26f1ebe5061cc9U, 0x3307c33ee726400bU, 0xb2a5d408e7381937U, 0x9f74501aee801eaU,
  0xa34f0000e21d5d1U, 0x373fd4d1bb3730bdU, 0x9313f70fd4f53325U, 0x28109dfdbb7ca01U,
  0xf7f101d41ba4fec3U, 0x9e30d4e72942eb04U, 0xc953cb42e106151dU, 0x2bd7e2192ccf0de7U,
  0x1ca5c6eb28222618U, 0xf6cb37bcdb361dcfU, 0xca9af7dd00373900U, 0x61cb226e7cd1f31U,
  0xce16bce7edc125f4U, 0xef41d8af1bb52f95U, 0xf1feea0025c81210U, 0xc74a1709c63e0f2dU,
  0xe3d92a1d36aa1703U, 0xe02e22e5d81ee3c5U, 0x91d01df81d4ebceU, 0xfba7852707e62b32U,
  0x95130d212bcae247U, 0xcc35f9c508370abdU, 0x2c4e7f9da390ed2U, 0xb01ad105d7231d16U,
  0xd91533111e22ce15U, 0x3e5eef2f82216ecU, 0xd6d9e0f8185c06e2U, 0xe42bcd401b12d44fU,
  0xb9e6fdd0380a33f2U, 0xea3121f011facc34U, 0x20bdd8c5120affd7U, 0xc41326d24123430cU,
  0x32d12002c91708c1U, 0x21e21b0f0322e634U, 0xbdbef3810fa3327U, 0xb210d4a6e75ff504U,
  0x113c7523fcd38e1U, 0x3f0c48c90dd9fc1bU, 0x1bd901c30c42bf33U, 0xe848d7f11f091defU,
  0x35a602f2f6f4fc06U, 0xd4c9e80f08c819e4U, 0x48c5e60c19f44627U, 0xad8ad0f90e2cd033U,
  0x16f0dcd2e0bf14ceU, 0xd2f44737ed17c638U, 0x1a005f7dff104cdU, 0xc935f641ca341bf0U,
  0xfd00cf0cc32adfe8U, 0x18fb312ad1ff3cd9U, 0xcf016cfa00dde13dU, 0x8db3c19ff6fe19ddU,
  0x9fe121183ce428d1U, 0xc50d2758f212fd32U, 0xaf3581b9f82133d4U, 0xe00efd36d52218ecU,
  0xfa070300dc0f2a34U, 0x1190c5dc1bc4cbf9U, 0xd8260cc5bedf39d7U, 0xaafbcfc806ea01ecU,
  0x301906f1180be9e3U, 0xb5263d4e0e151232U, 0xeff8c405a8eb23ecU, 0x1a0c14ed12161333U,
  0xa1ae242a00041721U, 0xd4b2e70daee52b13U, 0xa43300ccd1f75e2fU, 0xccd81d00f920203fU,
  0xe011d2101f1c0a1cU, 0xeee03221904ec1fU, 0xa2eaf71081f019c7U, 0xfb3c3be9bf4dd8fcU,
  0xc3b832070d02d037U, 0xc9d937ded60fea1bU, 0xfe35ffc9eb2effdcU, 0x1cec0631fbe80e3fU,
  0xfffdcd3c41ee8ee8U, 0xfc21b328b7cc0fd0U, 0xf11d243994f3f9ecU, 0xcff07e4dced1bd8U,
  0xeee5c61c11201606U, 0x201bfd01e1c0390eU, 0x161325c343dcdd2aU, 0x29f346e4ed0d0eb7U,
  0xe415a70011f830faU, 0xb9f5cd221c04fe12U, 0x1c01e204cb0f27efU, 0xff1323a4d581fcceU,
  0xdb0b45ae28171ffbU, 0x20ff165709fbc531U, 0xdd37dbc30b29c535U, 0x112a4e0bd4d643abU,
  0x23c5b23110f9c62bU, 0x609fa221ae32ff6U, 0xf1ed2f0ccf3dce1aU, 0xd0b20b0bbd7a8fdU,
  0xd3ea43f7fdf31b07U, 0xf520c83411ba1d09U, 0xb32de7201ce7d9f4U, 0xfc2c1225d8e5e4d7U,
  0xed11b43e16f5c5e2U, 0xf019b247f0f91206U, 0x341e31ffefdf38ddU, 0xfbd1d1ebfcd614f1U,
  0xcb213b214300334aU, 0xc8ea21d1d23fbce8U, 0xd9b7ac531937eb24U, 0x411b081d42e51393U,
  0xdb9218c53c56d45aU, 0xc131c10ff4f70d4aU, 0xcab01619a6cdd5fdU, 0xb548b8bed7a4cc15U,
  0xeb044e5244191037U, 0xe62bb913c3dee6a2U, 0x25f6152c0f0c4ee2U, 0xfa163f60fc2e0bfcU,
  0xf707ddf6e12b35e0U, 0xe805b51c43f7f8b2U, 0xda3a0fdf2a040b14U, 0xb86709f0ae9195a3U,
  0x21c540df62c5fc52U, 0x72233c7fcf130004U, 0xe804ded82300504aU, 0xe042fe24f6cedac3U,
  0x40d2b61feee3da08U, 0x4145bff41f0ef7e3U, 0xe0c80ecc3313c949U, 0x73540b0efb889cbU,
  0x4dd16162ba8e212U, 0xd4d50036f4aac951U, 0xb0143e461ef8d1d0U, 0xfc9c27b538ec38d5U,
  0xe7f0a9c92bf6faedU, 0xf8f3ccd21416eaa2U, 0xadf6df0d2800bb23U, 0x18282481feedfa6dU,
  0x5003e50e2d30e8c5U, 0xd94e2c2bb6b4e3d1U, 0xfe5431edc3ca1efU, 0xf1d9f1e0a1eecacaU,
  0xe61419382ccf3514U, 0x1206e34519e45620U, 0x9902d1beebe1f5d3U, 0x1a540bd9bf3c4d4bU,
  0xb3114bd9d53b06d8U, 0x5f0a4112eaf52d3dU, 0x53c3befd130bb28U, 0x3ae2db87ef23b932U,
  0x29a3146fd5c2fc07U, 0xa41bd50dd24236eaU, 0xbb1ec4afca42de9dU, 0x643312d8e02b39efU,
  0x1e5847c8243d2333U, 0xab03b8eff84b24d0U, 0xaaffe0dbdc31fa55U, 0xc32ff22d24e80416U,
  0xeee0d1f0240e0106U, 0x2300dab44eec1600U, 0xf711b7dbf72cd6cbU, 0xf2fef79bc8392f2eU,
  0xfaf7c0facfedc60eU, 0xab835f2f00c190aU, 0x6d116d818ce28c9U, 0xef0fd317a8d8e0e4U,
  0xdc6a22c2881d8f2U, 0xb840f3bfe4ec20e9U, 0xcb060e3e2bf71edcU, 0xebfe2808d5140310U,
  0xd6d0eff0d80aedc8U, 0x4d09e511de18e3c1U, 0xd520e3d2fb331a12U, 0x1806c9e91d113be7U,
  0x232d74fd4b9e118U, 0xc5fb1f0ac0362614U, 0xe506ede4cb01def3U, 0xc22b3ccb0c101ae4U,
  0x2a46eff3eef1b21aU, 0x2db356e3e8ed2adbU, 0x14010131dccf2ce3U, 0xfa81281325820039U,
  0xfaf388fa2dbff731U, 0x22f22c213c00ebf1U, 0x3004cb272e15d82bU, 0xa3c93f2c1c1d0dddU,
  0x2c07d9d5f511f3e0U, 0x1de2f4e01c24da05U, 0xb3f705e1c7d42c2fU, 0x1920c7fe050ff8d1U,
  0x15fbcdb7d7d2f8fdU, 0xd2e846f9d72bd1f1U, 0xca2b130dbdf62f37U, 0x645e30ed21e08c7U,
  0xef1e2c60b03206dbU, 0x9ef3031b0e0127b7U, 0xc929c1c3e2f3cbe1U, 0xdeec16e1280ddf1dU,
  0x2536c2f829c9c621U, 0x1ceefbedd2e418efU, 0x18ca31dd121fdfcdU, 0xce3222c1d09ea0bU,
  0xf747e1e7e90f9fe4U, 0x412aa37a41edd3bU, 0xbdb0d14dd61746b7U, 0xcd19f1100a2e1115U,
  0xa0aefd9fad5efe3U, 0xfba1c431532bdf36U, 0x3c2573f51df13e46U, 0xef52d1d9e7f9e901U,
  0x1ec03ad53cdc0ffdU, 0x9e512f303d8c7d7U, 0xc8da13e2ef3df63dU, 0x112b20f4dd37e1e0U,
  0x8b8da92010ef8f3U, 0xf2d1d31ed611db31U, 0xfe0bd701ead5f423U, 0x27fa1248b6fc0a33U,
  0xbaf85dd5f0f00238U, 0x20e72505c4d543efU, 0x811d01e92df8262cU, 0x252ad7275b1343b9U,
  0x100e08e6e9b0d2f9U, 0x1904d30905e4d02cU, 0x285e632d1d27ec22U, 0xbde121f6eaef37edU,
  0xf94c2fe40384eb03U, 0xccd6c74c2e811d1aU, 0x9101e9f8c8c9252aU, 0x170bc32dfc26fd3bU,
  0x4b4f95dae0ef81e9U, 0x39ccf6d19ff00941U, 0xac303344d3f4b6eeU, 0xd5d8ee8be520fdfdU,
  0x1efd103d3b56c707U, 0x22e623d727b3d82aU, 0xdcea17029e241f3dU, 0x200ae5bce3b70a06U,
  0xfadea96309f4aa0eU, 0x18d3c1c0f0d2073dU, 0xed17262efb44e1fbU, 0x50fe090bfd0225f4U,
  0x42e40cd7d108bfe9U, 0xf3014ef3eda2ff5eU, 0xd1b6eddfebf5d55bU, 0x18cdc5e3df0a0b23U,
  0x2406001be743df1bU, 0x48fe1719adcce727U, 0xf4f9d0fe31e84315U, 0x480026d1ecc7103bU,
  0xfae332c10f2fc807U, 0x2bea51f2b41a25b2U, 0x4280b22d018e4e3U, 0xe0e0fffa3c0517f5U,
  0xdd32e7ebb30cf906U, 0xfaeb1204b313fd17U, 0xcde505fba20ce5e0U, 0xdaeffce1cd1f11e4U,
  0x17f6132bba09e4d3U, 0x26cf10c4db01f710U, 0xe5cf051509302606U, 0x33e1f126f70ef4feU,
  0xa71af7cb1903f4cfU, 0xfbb1e9d5d6331418U, 0xd80fd5d7f2d9f405U, 0xc22aebe0fc0b1d3aU,
  0xff0b03ec260e080dU, 0x1d07fcf3d918bfc3U, 0x180ef8000815172cU, 0xbcb5f7230ce6cc2aU,
  0x13eb2dfa03c0d50fU, 0x2af41d1ecc27c501U, 0x240de9f605cbf000U, 0xabccfc36f014e0fcU,
  0x81dc210751fd1dd0U, 0x2f73c225c4d7afc6U, 0x2b3b4dd103cc28feU, 0xe0f6ce2959ee0f0bU,
  0x4900b3dfac4114U, 0x4fc6fac80dca4c1fU, 0x19fb1d19ba11fcf3U, 0xc54e2e94cecafecaU,
  0x75905492481ea50U, 0x13c32926fef21ce5U, 0xa9f508c92643f5dcU, 0x27e31622d624d665U,
  0xf05910a8e925e021U, 0x2908e3f1f23ebcdeU, 0xa16003f70605b8e0U, 0xc8fb2dbbea3aea18U,
  0xbd316211705b90bU, 0xedaf1070924f18d6U, 0xeffeca41eb1039feU, 0xe3dfe16fdde5aecU,
  0x16fac09b2737f8ccU, 0xdfec4101f324051eU, 0xdd57c2f0d7de526cU, 0xa83930003834a067U,
  0xd5241bff91f2e450U, 0x5c0d1bf6dad5ff0dU, 0xccfb36f6a8f70e44U, 0xeb31c107370fd73cU,
  0x21c5010b0bcdef03U, 0xe107dd0310ec01feU, 0xe6deb6b416032516U, 0xd72437dd1a21d750U,
  0xefbe6fc8cdbd2f8U, 0x16f301ec37fbe4daU, 0x6ae193c272554c3U, 0x56000fa31804ffd6U,
  0xa16dceef016e5e2U, 0xacdc72c0717fe15U, 0xccdef429810133deU, 0x800fc08b80a2807U,
  0xc999d4dad1cbd630U, 0xf3d5d54bbf5dd109U, 0xd818f1e1ffb5c3a5U, 0xdf48b7aff7ebe2e4U,
  0x22cab9aadccefdddU, 0x3a2c0821c22436baU, 0x50920cf58dfd103U, 0x941f190c8c30e32aU,
  0x2a4d4119103927ccU, 0xff2f1f25e4d9f202U, 0xb9f329d105ea0015U, 0x1903e820f1fee739U,
  0x93a161201eb2234U, 0x1726f0d5ebecf6d4U, 0xac0af80800f2eb00U, 0xc62820e2c9e6e511U,
  0xf0d6e9f4f4bf12fdU, 0xe2b8faeeff31f121U, 0x3ebe1dbe9efdce1U, 0xde0de33931fb1602U,
  0xf700ad04f9f126d1U, 0xfefe2e1cd40a122fU, 0xdceeedd3e7ea1f1dU, 0xd6ef0c010a33f0e9U,
  0xc7d5edd01a0bf4d8U, 0x10272623f2114508U, 0xdddd0136edbceb05U, 0xcb06d0ed420af2f1U,
  0xe1e2f8be22d911ceU, 0xb9def718d02bf116U, 0x2af0c4e081f60ce8U, 0xc51605edd61e201dU,
  0x1906e307d706f00fU, 0x34faf5fbf3f40bffU, 0xeb2eedd06c4f630U, 0xe1ed180f1fdbf3eeU,
  0xff0aed89f7f80e0bU, 0x41b418f708311421U, 0xed2505fdcd0436f9U, 0x8e31d21059a4a2aU,
  0x3506240c2432f5fbU, 0xeaeae023023c230aU, 0x2b1645f8f70af3eaU, 0x31f2df0549dbef0bU,
  0x9d7dcd8251fc7f9U, 0x1d1214ef0312f8dcU, 0x2b07b5bb12eec23bU, 0x430e19ff12bfd821U,
  0xedd6ffd34a11f435U, 0xf5d02ef7e5eddc14U, 0x710d9200ff3d428U, 0x2be4e21d2bbf04f6U,
  0xf4f681eaf1d9e706U, 0xfceecef23729fdd7U, 0xfed71af1eae1e631U, 0xdefe0bf9dee6b0efU,
  0x10f2e8d6dde13712U, 0x2d001fd704d8def9U, 0xfa0dc2e9e1cecdfU, 0x30f51fb1f5b1f415U,
  0xdf188709c01af211U, 0xeec24751bcca55edU, 0xd0f70a1632383fd7U, 0xa60f5f46f639d2edU,
  0x606d8f2fe9ea6f1U, 0x941834d0f8360ef8U, 0x2ff04ddc06fe2735U, 0x27c621fbfce1360eU,
  0xe3b5a8f6f6fe691fU, 0xa0a06f5bef32006U, 0x2b8f7ebcb2ce818U, 0xe2ef45a609e03e3bU,
  0x5b9ebe01fe2e71fU, 0xd0813c283b6713b2U, 0xd09bf5e4fd1e1c05U, 0xf6080b0d2aec4b32U,
  0x2999af02f1e6d8aaU, 0xbe3ff7d42ceec935U, 0x234dd4c03ffef42aU, 0xeb2d0730db0cdaf4U,
  0x331455e92ace2009U, 0xfc4af1402445e17dU, 0x254cc648d40f1363U, 0x2135fee54810f611U,
  0x523b9ddb49d5e3dcU, 0x1807f62a08a3e4d9U, 0x17d152996413e6cdU, 0x13dc1fefd399d8eeU,
  0xfd3efc1b5313e11bU, 0xc8fb04f023c753cdU, 0xc0c808bdda3ef8d3U, 0x2f92ee5610dc22e5U,
  0xd7d308d208c9d075U, 0xafa49a0fd0fc68e4U, 0x45d3e2afb329637fU, 0x1fd90750d4d1243dU,
  0x4c2d824132f2837U, 0x5513671db0f70440U, 0xadd49daeef3ecb0U, 0xdac618001f985fa7U,
  0xe9e3bf9825d50825U, 0x4d1f3aea40023addU, 0x10e2febd4133fc63U, 0x455b7b18bfd103eeU,
  0xeee0c662f63c20fdU, 0xf6a63d921c4318ffU, 0xb6334229c1cb08a4U, 0x37d5fee30ce3d118U,
  0xbe5d297ed07aff6U, 0xb336d05ef2022907U, 0xe0318e91efad2e5U, 0x23314713f346112dU,
  0xc70b2a1a10b9e739U, 0xc6f9e2ecb62fedebU, 0x9ededf8f81ba917U, 0xb1be1a1ed8d8ec14U,
  0xd792d4f804af002bU, 0xb4cb5c03812df5f2U, 0xa9fde3c5f13eecc1U, 0xe523e3ec97d81e37U,
  0xbe24635ad640d6a1U, 0xdf02f7131830f896U, 0x2beb020c1930b93bU, 0x162837d2bfd22b39U,
  0xf4d6cac1d7271605U, 0xcba64b0a200bdb0cU, 0xc5d220dd8b3f13b2U, 0xfe1629f7ba060547U,
  0xdcbfeb64e71e1df4U, 0x6111350db7d9dfffU, 0x8c44642e8fbce5cU, 0xe01ce6ff2e38eb0aU,
  0xde05bc1049f537a5U, 0xfdb8d61c08440edfU, 0x110c28cf1620a834U, 0xbcff37c8c2a33834U,
  0x2731eed220c3ecfbU, 0xe601ca00f80f0e11U, 0xdaf21b161f0506faU, 0x17f9d5bc2fe64a11U,
  0xe0ad2c1150011df1U, 0xc7bce2e6ce1b0526U, 0x27f8e3a7eb14c6f3U, 0xc23140e8b6f72de1U,
  0xdefb13ca24263403U, 0x215cd90f1a030db7U, 0xd7d70dd828a4e22fU, 0x14c0bac11cea0bd9U,
  0xdb0e0319f8810513U, 0x84089c13bacb21d2U, 0xbab603eef9d02221U, 0xc011f834eefe23c1U,
  0xd3c7ebcc05fd09f0U, 0x5b9d42ccc0cddee4U, 0x1e593afe0e1e62dU, 0xc1f1f8e3021808e2U,
  0x223b2ad38883e423U, 0x3dac67e7af290211U, 0xad2d4fd849f7d7d4U, 0xad3df89c0368a534U,
  0xbd221b18fdbba5f6U, 0xdb2decfb320b510bU, 0xb78f15df3849d423U, 0xb1f6e10eea4eb2U,
  0xf428b1c701fe07b7U, 0xffbe11019a36def0U, 0xbf4f94f0f6e3bc5U, 0xe1e4edd320de2fb1U,
  0xfbdce6446b15d7caU, 0x1503fd152c94eaf7U, 0xa613134ca9cd44f1U, 0x2bac2cdef7d1dcf6U,
  0x63f2c75f30dff1ceU, 0xcdb4d4dea1182611U, 0xf0411626b1e1fb2dU, 0xfcd8fc7f0f33e507U,
  0xb7e7b52c371de9eaU, 0xd381d918484d232dU, 0xf5d6ff14fa3f1133U, 0x8d07ab15213b1932U,
  0xddcc70dd2fe073fU, 0x3d2a1bf712463b1aU, 0xf7eba6a1db11c9e6U, 0xf108b1a9ae2f3004U,
  0xe8e30605f3fab6fbU, 0xe9b0ff17f3d6e6ffU, 0x735c7eb291108d1U, 0xa3f6e201161445e0U,
  0xcd1f8a2419bdd528U, 0xc622f24a3f32ac06U, 0xbe22e4edd9290133U, 0xebf013e9e94fdc1bU,
  0x4ca1dd41a43e613U, 0x114f10ebca120817U, 0xeb03582cf0ebfceaU, 0xfff7a9bff3d31a27U,
  0xf01fca1b28eb07e8U, 0x29eefedc8f061ffeU, 0xd9e2f20fa4bde5c8U, 0xe3cd1cb304bffdb3U,
  0xc517ec04ff034623U, 0x56cfd7fbbff61a13U, 0xf207dd2567051116U, 0xd0ca0d23dd0a23e3U,
  0xfaf281b436e8dc16U, 0x3e5feb823f9b70bU, 0xcb35f5ffc6d20311U, 0x470030edc0033013U,
  0x22cfd06d625e13eU, 0xfacb303b24f12a03U, 0x2f3d2ec62ac5fde2U, 0x3289bd2eddede6fbU,
  0x14faf1f4ec1a1e06U, 0xee4320d43858dbb3U, 0x23d702111b4ae250U, 0xff4c2507a3f7e7d0U,
  0x12eadccef3f6f725U, 0x29841afafceef321U, 0x183d0ab3270d112fU, 0x3a50bf8dbf1dbc1U,
  0x2e02c3043b2448e6U, 0xe821f6d3f8e4b8b9U, 0x3dd7e2d0fe1c2402U, 0xfd5012139ccbc5ffU,
  0xc1e6e50709c406d9U, 0x47f608d7181d08bfU, 0xc5e8f5d0cf2e221eU, 0xd7e4120ae5211b34U,
  0x8c5efddf723c8d5U, 0x26221f19e3fb161eU, 0xe8c0070efc10f14bU, 0xf2df05d9b818b7e7U,
  0x2ebbe07f133558eeU, 0x13292208fd24f5ecU, 0x28252c0ff10a0517U, 0x35c309090dc92105U,
  0xf612dace24f012e2U, 0xefdbc0cff4201e3dU, 0xe702ba3c15c0c4c5U, 0xb84500eed9d4d0e4U,
  0x20cc07f70c06ee33U, 0xb622dbe8e8ea062dU, 0xe304051fdadd3bf3U, 0x16e1f50bdfe9eef7U,
  0xf1f1a41cf5a4eeffU, 0xe3cfc70328f5f854U, 0x1a5dcf6f3e8ee32U, 0x25451be0ddbc0d2cU,
  0x1b9e81cc1a8d8b7U, 0xcce52581280af3d2U, 0x7b91b1901c0dee8U, 0x14f43df74307101eU,
  0x1cba91c01ed810e4U, 0xfde0af1001d3fe08U, 0xc7fc02b0bcf509e3U, 0xd8ffba3a0d28073aU,
  0xd6e93c2ed2fbfd03U, 0x13e4feffcd410f26U, 0xcb14d8cf0427e102U, 0x1fc71906f3d4e3b8U,
  0xcecdc594be0a94f2U, 0xf30b132a1cde0e12U, 0x1f1db5ddd5f31b1cU, 0xc1f5f6edafddc3e8U,
  0xbbeee5f91d0a033aU, 0xea332a22e4f726c5U, 0xc5d13cb2cec72df5U, 0x2eccc303ebfd1421U,
  0x181bb5dd03233132U, 0xdecf01fa12461d39U, 0xc429294d0425eff7U, 0x81b4e05cc050535U,
  0x52fd0f3a1605361aU, 0x1c33f7f6c2eb212aU, 0xea4ae3e7ea40fcd4U, 0x8cfc699ce11e00bU,
  0x17181a2e31ed0bcfU, 0x1c1d19480af2d80bU, 0xd5dcf6f604d82d15U, 0x300faf30ac7c424U,
  0x19d4dfe042f4021fU, 0x61ae7ddf5dffed7U, 0x506f52fb617f5d2U, 0xf8c726ebb7012ce5U,
  0x2ffe07f817e507e4U, 0xeff0c21300e61f50U, 0xabffd182d33cbdeU, 0xcafddd04c4251ed5U,
  0xd9eeece82a01e73dU, 0x30817f610142c41U, 0xb815ed0fb71aea2bU, 0xefc21eeeeb1b4913U,
  0x234c8ff23f2f50cU, 0xd718e5eab4f23ff1U, 0x2332f5e7d305dfe3U, 0xbb06fd348113d521U,
  0xbed8031fe71f1ce1U, 0x9bc25120cd201bc2U, 0xf5cc37e64ec6211cU, 0x2fca960bf498c92cU,
  0x27e217e631a700b0U, 0xdecfd005bdf14231U, 0xecfdf4c0ebc4bf2bU, 0xeaeb02aaebe82998U,
  0x9fd8a4e7b8baa74eU, 0xf0effb1714f40ec9U, 0x1c23e51f85c6f1f0U, 0x31ceecc111d75933U,
  0x2239ede5de1d06b2U, 0x4305dc0e8adb1236U, 0xe6d8c4e9ecffd903U, 0x18cf51ceb008081cU,
  0x163222d0273505d6U, 0x22330bc5e4500bU, 0x13302c33c405ba71U, 0xc311b10e066439f8U,
  0xb25e2e222862008U, 0x17e9c53b3b3904e7U, 0x29e2ecd533d70288U, 0xf416ddd23ab3d6e5U,
  0xd1f6c881bc0130U, 0xdb27b6e18c3545c0U, 0xeba92ce5bce0c62aU, 0xc4cbb9f1039ff1ecU,
  0x10fed0e11c8328aeU, 0x54aaf519d3fa2344U, 0xa2defcc9cafdc2e2U, 0xf11ac6e7e75bf34eU,
  0xaac9e40e1d47f8edU, 0xab40aec4cdced4a0U, 0xd43e4651ea0a552bU, 0x26c1cc5a2be0baebU,
  0x17ff02fefdbfdae6U, 0xf835bcd31b523cfbU, 0x3bf8ebd74631c707U, 0xfef824dad3bd2857U,
  0xf0e1d2f20dd9fbefU, 0x38d71b37be020f19U, 0x30020a114af497efU, 0xbdc500aeea1247e9U,
  0xcb7f822bfbc1e1d3U, 0xe1363451071fc6b5U, 0x283a1127f9223ed4U, 0x3e1f0faa21f747c3U,
  0xe41519edace5bf1fU, 0x17c5d4d21a0a01d4U, 0xbdb112fd18e117f9U, 0xac02db9612aa3633U,
  0xff0afedbdbe0082bU, 0x20bd141ece30ced0U, 0xfeffc3f6e63232dfU, 0xce0a07e708ff101aU,
  0xf9e9532e4549d5baU, 0x4d14ee1bca20feb1U, 0xff4768f31d20f502U, 0x108a07123ede28daU,
  0xf3300a0fef815d9U, 0xd11915ebf70356ebU, 0x36e8ebc6d7d4f61bU, 0x4ce1b4eaeac1e06U,
  0xe42e2cfc032a1144U, 0x46d10523b9ecf2a3U, 0xecf2e15be4cfe22eU, 0xf5dd24ff01fcb352U,
  0x251f8108e81b1226U, 0x2803f23d1f5cf322U, 0xc24d02f7bf02c03eU, 0x21f412c5e54b132aU,
  0x19ecbd2125c2f412U, 0xea0b13e5d9cf1df0U, 0xf0ed8bbe6209f1aU, 0x91dac713d03745feU,
  0xf048a3b3f9cc01f3U, 0xf43ab3d80f3c1104U, 0x18b9151cd81edf1dU, 0x2d0beeebf9e1edd6U,
  0xb7d408df08cdb9aaU, 0xe3db061d0f0c18caU, 0x40d8d62b1759de34U, 0xcdee2a0e181d00f5U,
  0x50178a0c20fafe1fU, 0xd705b2eededbe41cU, 0x1d262fc214dfe9d5U, 0xf545f3ce1d110838U,
  0xd7d2b6d20a1629e2U, 0xe6812a3b1f1c3ceaU, 0x1bce03070ee85405U, 0x2aea05c01b56d3b7U,
  0xfc209ae01b04e2d3U, 0xc0dfe00fdc12da3fU, 0xe1dde2ae2e65cccdU, 0xe74520fcd4c20903U,
  0xb929f8f8e444c3efU, 0xd8b32de92a13f5cbU, 0xe5cbe513fefbe512U, 0x161f17f5b62affdaU,
  0xebd5c8ea4039fd11U, 0xe4d434f0b2b2ec05U, 0xdfe7e53dd9e0234cU, 0x42f2fc5eb3d6a24U,
  0x4b9a2651b228e3d2U, 0x220e0f2ab71722efU, 0x1618e303ce35ae41U, 0xd9bae24abe1ef0deU,
  0xfaf0ecfadfbcddf4U, 0xcfe9d6c8d3f9322bU, 0xcb52b321dd10f4dbU, 0xdc081ebe81f3f111U,
  0xdf143349eba7050bU, 0x3f404ad3ea13e3d8U, 0xaf3fe338b2494429U, 0x25d21f1c09cc96f0U,
  0x1ed608e61ce4d0U, 0xd8f4dd084125d0faU, 0xe12fb16d4fdb804U, 0x2dcc0b0816dfa8e0U,
  0xa913c7511b063c36U, 0xeae63af2e8d64b10U, 0x283715f82a0bd81aU, 0xf5c502c60ae82decU,
  0xddfa2c0801e4f91cU, 0xeb054f12c220e92bU, 0xb2fffb23fbd6e5e8U, 0xecf0601ac319c4f4U,
  0xe10e14b21515234eU, 0xd4f3d7fe07e22d0bU, 0xe20e24fc300fce09U, 0xc6f0c9180af3fec3U,
  0xdbe00307c52ddc05U, 0xfe48d5e8b746360fU, 0x8e8e629ef0b4218U, 0x31311d7d8e8410cU,
  0xdd1a0aa9e3cde222U, 0xffffc120d01613c6U, 0xd41613eacfe6dbe4U, 0x290c1bf318d1159cU,
  0xfbdef0082de002d6U, 0xe2fb153afcf5c4e2U, 0xd2ec19d281e5d90aU, 0xde33da33a6f925f4U,
  0xf5d819853129d514U, 0xedcc23a4a21ae4edU, 0xf61325d3a3fc1150U, 0xf9c3f600631bbe06U,
  0xf40a021515a5e4d7U, 0x48f600d12a1225efU, 0xcad0a81f9fbded7U, 0x3df6e247410ee2d8U,
  0x420109f60eec3deaU, 0x28fd2ef808fb4100U, 0xe923ef38d30faff4U, 0x10ea070c4eab372eU,
  0xccdd9ae02ce1fe06U, 0x8e3f7c3cd1449afU, 0x50adfe5f109f44cU, 0xf4f3dafec7102cb6U,
  0xcad1e2090026ded1U, 0x54e83afa24eae61cU, 0xf027124cdee216f8U, 0x18ce12f1fbc427f5U,
  0x5416b2c8290216fcU, 0xa209031ca803f905U, 0xbf1eeacc271f36f0U, 0x9f8ea00dbedbd5cU,
  0xe1152e370d40ec16U, 0x2f02e5face0de5ecU, 0xe3ec2518ef271cd3U, 0xb8e7df3a10fb0ddaU,
  0x3533fe1c0cffaed2U, 0xa0d43ff6d32b2cd2U, 0x972efa0ae5e9f5dcU, 0xdc0a0cf63906dafdU,
  0x1ada3c1409153628U, 0x232bedf117f00f1bU, 0xc80ed33303f71b20U, 0x82081dddf00071bU,
  0x4bf13c0513fee0f6U, 0x625eeded42b24deU, 0xc9f2f5351ef4e71eU, 0xd9ff01ca1fc9d7f1U,
  0xe52837072b0440ddU, 0xdd924e90d110120U, 0xc90ad10020281139U, 0xc21a9a1afa1c38f1U,
  0x4f1f11cf1fab5e2U, 0x8df2026b6f40817U, 0x431115e511ef0601U, 0xbdbe0c3d91ef5b9U,
  0x123bbc1703060c42U, 0xcd7cfdbe50a1ca0U, 0xf138d3a4865eb2a0U, 0x14d6c12aa4e8fafcU,
  0xc630cbf212b6d33aU, 0xf108e166f84be9e9U, 0x1329f395f33a9b11U, 0x2f4cd3ed257f0b02U,
  0xf1360ce31d10171bU, 0x25bf3957ef27fffcU, 0x3230ceffa52bdeffU, 0xb0aae79917e2231fU,
  0x31feab4af4dae9ceU, 0x40ac646e04c6630U, 0xa6f8b013b54ab8e4U, 0xbafddeebf551e0cbU,
  0x932537eb860dc9e8U, 0xeef327f4fdfb1ca6U, 0xd0544ae757b22500U, 0xfe06e309c82ed327U,
  0x1ddb22e81dca2929U, 0x10ee2d51c202da0bU, 0xf50c160d35de1ff4U, 0x24e602dae7f80fb6U,
  0xc041331ac92a440dU, 0x932cffa480542U, 0x9a1af820c5431937U, 0x591e45585b27fc03U,
  0xe5acaff7f5acb0f9U, 0x3ebedde128ce3f33U, 0x28d7eab1b8c7d3d3U, 0x5420e93b1c2aa727U,
  0x9b1840dac416224aU, 0x316f6f0dadad5e0U, 0xadc54c12e9d829f2U, 0xe4addebdbfb9edb5U,
  0xc512acbbe0fffc40U, 0x11180204b745cb20U, 0xdf31065ab0fafc20U, 0x81004142d430e80bU,
  0xd3c3042e09fd05ecU, 0x23121821d51e2f2aU, 0xfd14d628f4ef2290U, 0x18eed112d0c27c4U,
  0x6fe8e90aef271c4eU, 0xfd3abfc8aaee5715U, 0xd2a2a1a807fde224U, 0x34c06f2c0f7e845U,
  0xc7381824dd261407U, 0xd7ff142bdea40f1fU, 0x37f0383eed3406e9U, 0x10c2fa03b621460fU,
  0x2be8d2f5e82511f9U, 0xc209c229af211dcdU, 0xe3013337033af0e5U, 0xde0febd6c7b83302U,
  0xd2d809c82f252ff0U, 0xd0b00243faff51f1U, 0x31dad54733181ad0U, 0xf4f6e5fbc112d5dfU,
  0x81338ffe24c2622U, 0xd73e071711c4f90cU, 0xd8fbf5be2642eb33U, 0xf83e2c16b2c616ccU,
  0xd4b8df1734e108eaU, 0xf105fa29f8043a2cU, 0xa304021eef08fdf3U, 0x27ec811122f8e2f0U,
  0x32c72c3c1de53003U, 0xbd6be17ebe8ff1dU, 0x320807ecdd4dd4e9U, 0xec1805a305a9b7dfU,
  0xcdaf4d143aec121fU, 0x9c42233442049eU, 0xc628712600d6c219U, 0xecfb2048d1d21341U,
  0xe00ed9e736afefd0U, 0xe908b79fc5054c25U, 0xd2f8fc97e3112625U, 0xa40953f89eec12f7U,
  0xe3f10b29f21707f6U, 0xd1c3d2049d2a06feU, 0x5220334202c9032U, 0x160825d6e0f54512U,
  0x422f3405ccd9d9d3U, 0x273809bfa33651deU, 0xf6bdf0ef0830baf2U, 0xa2ddc3efbfc01216U,
  0xf91d00daba2cd523U, 0xccfd1a30a5c11304U, 0x22040707bb01887fU, 0x6fc0b13fb031d04U,
  0x1124d000059cf707U, 0xc2a4211ec841ccb2U, 0xfcebb3a74fb8baedU, 0x1c1f143ffbb1112cU,
  0x2f2dc9ebd9f7aef7U, 0xd9c316d7e4ad0c22U, 0xe11406b9d0510919U, 0xe3f0e4e131e232f8U,
  0x17eb1435ee270dd1U, 0xebfd1702fd2a3d45U, 0xf00cb6d30314efa5U, 0xfd204417f33e0d10U,
  0xeeec072627e5c0fbU, 0xafc61dbbd20b3b36U, 0x9909d3d3e1ecffdbU, 0xf21df5e9b8242132U,
  0x853e209180aa13dU, 0x1601210cd2b8f5f9U, 0xb0d3fe2bfdfc09edU, 0x7e0d5290600fcecU,
  0xa81f91b0e55e20bU, 0x18ddffed20f620f6U, 0xea17e0b7d0e53600U, 0x15f511fc1c0e27b6U,
  0x4006de0f44d7b3ddU, 0xd908f016e2e1e5deU, 0xc2d705dceff600e4U, 0x39292cff2507a4eaU,
  0xdd01ef20d7270efcU, 0xf728fa28fc24f952U, 0xebb5d400d30900ddU, 0x2ec704012d28278fU,
  0x64ed1aef32f7cac5U, 0xabae0f51ec8355fU, 0x12103cf91c2a1a29U, 0x31d5cde6b029fcdbU,
  0xedc1dbde1c11f438U, 0x3205e6fdf3eefbcbU, 0xe3f4da300301e208U, 0x2602e0e6e2093301U,
  0xf7d3d4c8ffed1e08U, 0x8a30901290c1a2eU, 0xf73f24e4d5d63440U, 0x46dd15e3e6eab827U,
  0xfcb1e2014c1ec9f6U, 0x3f0611dab5b7e917U, 0x81d91809ed1bf5feU, 0x27313a13b4174bfcU,
  0x110fbf209a0a0bU, 0xf60ee2242803ec2eU, 0x18cf13f013030e12U, 0x7d403d8d9ceeffbU,
  0xdddb02ea13e4fd2cU, 0x413a0329131be3daU, 0xe30ef3e8b9e115a1U, 0x3abcd700f93ae4e8U,
  0x19ff9db7f1da1decU, 0xb121f92f240003dbU, 0xf0f32e280eb8dcecU, 0x9e08ec411819d917U,
  0xb90806bfd6ddc0fdU, 0xc628410a06103316U, 0x2e0a20f7badfc724U, 0x9dedb0b0f272723U,
  0x1ee292c1dbbf1809U, 0x2fdb2945b3cf20ceU, 0xb41ee00ec1ac245U, 0xfedef4fabfd4f9f8U,
  0xf248f72d17bee2ffU, 0xf7d500e6112e40a2U, 0xc3d2dacb461319d8U, 0xfdfeb63235e22e3cU,
  0x24ec81c3c5d01e55U, 0xd7f5f2fce2e1ec0eU, 0xd8e50b4109400630U, 0xc7442a0cbb4d34f6U,
  0xfa03e32df2b7f9ffU, 0xde05eabdc1d81c3aU, 0x1fce3cfebf2daf1fU, 0xf6aeea1be1d3c317U,
  0xfbef060cd603f501U, 0xe2b0e32b09dd0a19U, 0xa4ed0fde251022b4U, 0xf03c35fbe8190d2cU,
  0xcdf3ffb5f7d31d06U, 0xd0cec5941edac8U, 0xf9cb141b2bfd03ecU, 0xdfe4f044135d2c03U,
  0x2d37cc103df3e2f4U, 0x21efcdd3d80407d0U, 0x1a2be8e74105fe27U, 0xd3280bf818fee732U,
  0xbf21cff3f664ebebU, 0x9add20edd7172110U, 0xd8e7ecd30f3726deU, 0xa3abd6f8f5e62310U,
  0xe127e218d00e28f9U, 0xecfb2de840d4de45U, 0x39d132e81d0bf7c4U, 0xe7f1ffddcd91bb9U,
  0xaec0f502ff0323b7U, 0xadb5ccb8ed28010aU, 0xc9d3ecbfefb8e017U, 0x1f26a52535df39f2U,
  0xed3dc6ebcaf40d4dU, 0x1d5e32ec5dae9ceU, 0xfdf9371dcfde273bU, 0x478a07c7f6d32bb6U,
  0xcc4ad904c81ed8c5U, 0xdc281cd3f5f3100dU, 0x8106df4aea20cea0U, 0x16ffed3869b8ecd7U,
  0x2816bfda27d70e2cU, 0xe2c4d50be2dcf8acU, 0xde0a13313e0f0726U, 0x10e4f7c8c5c8aff3U,
  0xd39b0eb8db063054U, 0xfde839e1be2926eaU, 0xc32365403b11635U, 0xeec5ca11fb166028U,
  0x68edece120c7e1dbU, 0xea09ea05d7b028dfU, 0xab6570282e3249edU, 0x182131d5fd0afb0fU,
  0x3cba5bef3a0de506U, 0x12c34d2c2dc9ffe5U, 0xdb05ff2ae4f8b83eU, 0xeaf0c603c7cbf6c5U,
  0xe4322003ea37220dU, 0xa02112ddb1dee4cU, 0xdf0bd0810e19b619U, 0xf03cce3523f047ddU,
  0x12ec18c7d61337bbU, 0xedde0f06d41032e0U, 0xdd2262edcc2eec19U, 0x14240ac4e838e2ebU,
  0xc7e4d53334e7380dU, 0xcc3e41ff1a2a293bU, 0xf018cfcfc756c524U, 0x241ae4ffe81afd02U,
  0xea373dbf22ec1333U, 0xd8c9bf1e9f1af8dcU, 0x2513e2e8ed1b30edU, 0xfa360807facbe140U,
  0xd8d819f2510ffa06U, 0x147c507041a07d8U, 0xd025b009e6481ac9U, 0x2cd1ea3fa0e3f720U,
  0xc5dedbe71b2e28dcU, 0x1d21f58107250bf0U, 0xf3012fefbffd1938U, 0x1b0ef2fadfe04125U,
  0x2417ff1006f6d605U, 0xeeeaec39f12cdad4U, 0xe4260f163602fcc0U, 0xf032edc6d4f1eaf2U,
  0xc6fc0619bbfc1e09U, 0xf6a1f1bd23ff160bU, 0x9fb2fcf6df13142cU, 0xbbed15a4482cf328U,
  0x51b2ceae7c3bf0bU, 0x10f718c9f5fe1f12U, 0x17dad8ea3d26111aU, 0x290c1403003d2a2bU,
  0xe10709bdf0f4fb16U, 0x4afb1ed114223519U, 0x2ba2bd8a6daf4d6U, 0x1513d9e4f52dd2ffU,
  0x1d1333040b0e0d1dU, 0xb6eee0e6af3a302fU, 0xe8f3f9271019ff02U, 0xcd030cf2f417cf11U,
  0xe8d6b601de11244eU, 0x3614dc30ebce22e9U, 0x2af8f3e84eeeb1e4U, 0xdd0c1f36f493fb54U,
  0x6178a09480ce856U, 0xb5f5c5ffb2ce1ef6U, 0xf1bedae5e3e7cecaU, 0xb8fcdabdb41a2ec0U,
  0xede0df1924173f0eU, 0xfcd13402d8e9bde1U, 0xbae22a1c371c0f07U, 0xf8bcded402e5fee7U,
  0xefc8fefcf08145e0U, 0xf2adc4e12907cc02U, 0x85211fd2e2ec709U, 0x1835e3ac05a9c5f6U,
  0xd701f6fe3eab4610U, 0x13e7132a06dd1f37U, 0xce2be9fc3cf60edaU, 0x2ac7f5cbef067223U,
  0x4211c221168bf9f1U, 0x32a8f8c91c1bed1aU, 0xa83000d2f41dbe3eU, 0x32d83ae3f5db31aaU,
  0xb7c9ee0218ee130eU, 0x1cb2cf6260364221U, 0xc243beada36fae8U, 0xfc1fb62246e2c22eU,
  0xc6fcc8cb4f97612aU, 0xb41d2f7024a2027U, 0xc30bbb0a110cf92cU, 0x93ec2ab5da031133U,
  0x2e11a13d40e29ddU, 0x3bb6cc1ddb084004U, 0xdb523c154a64f75dU, 0x13413bf7fdcb284fU,
  0x1331e6010101e2ecU, 0xbf7329203637caf7U, 0xa32921eda2d2e006U, 0xe202112798fadb58U,
  0x185418a1130ea9ddU, 0xf6f84ec70e8deb22U, 0xee45ff1c3502d47fU, 0x3cf111471b28e4e0U,
  0xcce5f30c3c06f521U, 0x227e4aa0fa52fd9U, 0xbdf6c8ee97355acaU, 0xbee330d98b2e02bdU,
  0xcdbcfbce5f13e7ffU, 0x73c908e825dae4e8U, 0xb11e1d26081746c7U, 0x4d73c18e1e950c4U,
  0xef27c3c62e270b32U, 0x471cf31efc312ae5U, 0xcc03ece2f0344f4cU, 0xcbfb3d12f4e50419U,
  0xbc5f4eae43414dfU, 0x1d71c1646003723U, 0x11de1ff2fb2d1e02U, 0xeb15e8f035d61924U,
  0xee423171a0208fbU, 0xcc0abe18e825f701U, 0xaf11f12eee2bcdc6U, 0xd94abcf628ff2608U,
  0xdca3f22bcb55f031U, 0x96d9d911f64626c1U, 0xf6dd050ae0b4e281U, 0x162f17f8d006d80aU,
  0x13ccbb0d1016f2dcU, 0xafd60bdd09c418e0U, 0xdbdf24cac1dea336U, 0xd22528c7d8f6f91fU,
  0xb97ddc9f3eeedcaU, 0x14bbdaf2d72c23dfU, 0xc20cfc10e797f603U, 0x3205200cdf00c7U,
  0x1a1d8a1a262e1adeU, 0x10dd0aeef6cf1506U, 0xd33dc1f18fcb37ddU, 0xf4dcc3249c1eecf1U,
  0x9cb93108bfe801d2U, 0xf53318d9060ef01dU, 0xd9dd162bd90fc7dcU, 0xe2fb0506ffeef7d6U,
  0xed02b00818fbd9fcU, 0x23ed18fb14df1d19U, 0xe7d9f002f9ef13e1U, 0xe6f2e1faf71dda1aU,
  0xab72ce2f71bddf5U, 0x5402637f350f009U, 0xe3ff05e4f1246afeU, 0x2820cf0503111c15U,
  0xdfb414c605fa0c31U, 0xfe16ebdde212033bU, 0xd9d60bfeecf1e411U, 0x810f26d8e3ddcf17U,
  0xbacbec4216135104U, 0xe3815259fbf53fd3U, 0xc6dbc3c4d9f4290cU, 0xefca13dabdf7e6dfU,
  0x4a5bf82c1f0ddf07U, 0x153108f5f7d01e15U, 0x9ff6242ee1534b3U, 0xd5d1badbce46d1c0U,
  0x3efd3a0040fc2bdfU, 0xdc01cd9d7efdcf1U, 0xfbf8262dec2d1efdU, 0xfe2bd8b0d7ff14e9U,
  0x1ee1daf2f343d131U, 0x15e90736aacb4143U, 0xe20c3238ec2df4bcU, 0x58e34ae8fcf44412U,
  0xffe7fcf669ef09d4U, 0x33e3f42415d9edddU, 0xdaca010e090c2b2aU, 0xd42729cad1d433f8U,
  0x27db6735da4ed802U, 0xaac703d9a1fdfcf1U, 0xb4dadcdb55600b4dU, 0xea4323dc214f03f9U,
  0x94bd7109f0c3cbf1U, 0x299a10f4f21f2c49U, 0xf541f058de17ebe5U, 0xa06f2d422aaf7edU,
  0xe704eadee8e0001bU, 0xf6db8b08a2d6270bU, 0xa61337f73321e3d7U, 0x5fffbc8e8cbef1cU,
  0x28f4166209111024U, 0x5537c5dfff03d354U, 0xeb8416f31d0de11fU, 0x2afcbc3a0c8f42e9U,
  0x1fdaf9e40bd4d511U, 0xecc0f1efec08facfU, 0xe6f444bee311df4aU, 0xad8e626dd4d982dU,
  0x9f1a021ac1ff2bf4U, 0x3509eaceb40d16f7U, 0xe110f3ca8a536fbU, 0xc80e0cff5ce1f6baU,
  0xe01deb9f1beefb2cU, 0x403fc0ae73518e6U, 0xc5bd328149af653bU, 0x4f10ff1a0e7cae3U,
  0x7d0ccbbd5fde949U, 0xae140be50f08cb47U, 0x90828dfb50d3be4U, 0xe105e7f9dcd1150dU,
  0x2600aa131519ffbbU, 0xb323e7edcfc60f13U, 0xd1e200deb6213a12U, 0xdd113ff1b40fac1aU,
  0xcdf44556d514f2e6U, 0xc5e7271aea1af5e8U, 0x3709db1ea9fe0803U, 0xe836f3e5cdcacf09U,
  0xae0e35150e060326U, 0xc3cd373006ec24f4U, 0xf1e1c9f90c0d21f0U, 0x8128e5fcdeee16d3U,
  0xe9a7d4d0aae40443U, 0x2140b17001a228eU, 0xbf09f6031f4d27ddU, 0x3a24e7e91a3be51dU,
  0x1df6cadc2930de0eU, 0x42ebd4e6eb0f0105U, 0xdefffdecf1f1ccfdU, 0xd822372bc0f8ea0eU,
  0x10ce393219233d62U, 0x19071bde1198210bU, 0x37e9f70ea2125111U, 0xe4d909120ebe23bbU,
  0x223c9ce0e16e1e16U, 0xea2a4829da9e3469U, 0x510314ae1f7d936U, 0x8310f9c52114de16U,
  0xe09b4db015b0f0eaU, 0xebb6231d072cfad6U, 0x13df22e6230a14efU, 0x281915e7e4a01024U,
  0x1c37edec25ea2d03U, 0x30a0c2f2b5f919cbU, 0xd70724d5173cfe19U, 0xf3254ffab3ab2a2dU,
  0xc7d1dbaaf025f303U, 0x901b91ae419bd2cU, 0xf2bc3d2a29ca0202U, 0xb820d5f2aff7fb00U,
  0xc60407553738fff5U, 0xd531d23adb26f903U, 0xfdea3bcccf4a1af5U, 0xc464ed08b9f8fa25U,
  0x9a813de552f92c36U, 0xf8f90544edee18ebU, 0xe71cf90af20def40U, 0xf7d9810d15eacf00U,
  0x1cea014d3df0e6e1U, 0x2637f54ef4f5f5ecU, 0x10ff06e6f7073cf3U, 0x4e4dbd5cadef2baU,
  0xfeec14cc28e92a50U, 0xf4e70907dce714ebU, 0xfa010bf907f0dcU, 0x2cbaace5dae7f218U,
  0x1a06fe07f5f7ba33U, 0xdaf636f73013ebd5U, 0xef1001f7f6e7dc03U, 0x2edef5ebe5f600ddU,
  0xf10d031102f22321U, 0x1c0cdf53040dca23U, 0xd011e06f0df2ef3U, 0x30aec3f00f011a39U,
  0x19e6d325012100f4U, 0xf52237fd2e092b3bU, 0x4b43f4e4b8e823e4U, 0x151dc1e81bebe0ebU,
  0xd3ea0ff02a1b2345U, 0x782263d3129cbd7U, 0xa2abfcf1d45d24aU, 0x19eb09cc1123f415U,
  0x5fff4ca56caf2ceU, 0xc6ddc6eb011cf601U, 0xad00b81b05080334U, 0xedbf47e48d06e70eU,
  0xe01a63cb02299cb7U, 0x2ec81c0e35c4d10dU, 0xb6574bd1d720a537U, 0x1400e49f1cbbdff0U,
  0x14cc8115d025fefdU, 0xf74130141bd0033aU, 0xa030af5d4d2a9eaU, 0x2f00d0d9c043d7ccU,
  0xea2b60adef49f41dU, 0x18c664eb10270ee0U, 0xdc1410cae8420a1bU, 0xede0bacf1dab162U,
  0x29e3fe51fd2f5a1dU, 0xe2e994e800214c34U, 0xc708d21e4d54afa6U, 0xefe212eaa2082504U,
  0xc22bc4053005dcecU, 0xf8adccc1ffe223e5U, 0xeeb3ee7e51823cbU, 0xe8b2eabde8f73713U,
  0x2e0907d6341d1822U, 0xe3f30ff1ea1b1a30U, 0xe7f42911e73514e1U, 0xf5231c50c93120ddU,
  0xcb1ee6e337f0b1fcU, 0xe4cb0e000f0c1ef4U, 0xd5fcf9e0bef9ff2aU, 0x309b51fd8c9f2d5U,
  0xf62500fbf5fde4e7U, 0x3c00e409db12eb25U, 0x1c19c82102170d0dU, 0xdf1bd4f804f2c0f4U,
  0xcb0bf0d7fcf9d820U, 0x238117d50d17d6deU, 0xfdf9eae5cd17eee7U, 0x1014eff70e030b20U,
  0xe1f1518103212d9U, 0x2021830e10d2ac3U, 0x6d0fe1815eef521U, 0x4ef0f190931e90cU,
  0xfad7d6ccf0d714d9U, 0x108139a1f405135eU, 0xd7249ddd9402f8f2U, 0x3cd5f8ecd338e821U,
  0x184f9f0ed21d1c0eU, 0xc4f85c28c7ce01f6U, 0xeecf242dbcbb43ddU, 0xc309f4cbc939eb05U,
  0xcc870933f606261cU, 0x3dc1bb42c2634c2U, 0xfddceaa5a7213dfcU, 0x4b99b5fb1cf046e0U,
  0x4d3ed49cf18aee5U, 0xbffb34841c352f2U, 0xfd41de3d43ef2c00U, 0xe9fb4d29cd2760f8U,
  0x983ccdf04c150519U, 0xdab1430cd1ff4ee7U, 0xe721b8c2ba14dbfeU, 0x8eed3c3022050bdU,
  0xf1bcf73f0a04f0d6U, 0xe4213906cacad47fU, 0xefc2b39326743beU, 0x2b185316cceee21cU,
  0xbf8d5b351803b040U, 0x1120e8ecd0f2f709U, 0x311f0936c620c326U, 0xeeb1f0d6e2a851d8U,
  0xe9d7c5d415dd33efU, 0x1bcefcd1cb4b600dU, 0x16b0c3f8e3e22fU, 0xc33b4c7bcd820a9U,
  0xe240d3192de015efU, 0xf23816d0f09b36c2U, 0xfc2dd349fcdec7e9U, 0x1c10da0a25c120f1U,
  0x1816142d44e4d8c3U, 0x1ee8ae283631f1fcU, 0x9feae0dd9209f0d8U, 0x26d1120e09ed5a23U,
  0x1d112112c4042828U, 0x3cedf8efe5e11c1bU, 0x9ac4f4dfcfbc0f07U, 0x7fd702a912c45017U,
  0xf43016fd1d940fe5U, 0x2b212be7e0131029U, 0xc1141ccf85d9dce9U, 0xac700e9f5d52afdU,
  0xf9ce1213d6f6d3e4U, 0xdb38df0ba32ef3fcU, 0xcbf929d1e510df0cU, 0x181c20142ec8f3e1U,
  0xcd5be5b50881ff1cU, 0x4a9c1d24d6fe131aU, 0x627efdaca03f7fdU, 0x3627d414d0f908ceU,
  0xfc3bf11dff294e50U, 0x2a1b0c22c5ffd6e9U, 0xf7da05bc520cff24U, 0x3f2493b00082035U,
  0xd60be3c93dc419edU, 0xbddb001241e3e106U, 0x40fb04ff023d1945U, 0xde12cee002d7f3fdU,
  0xd809ef0b0fda0926U, 0xd608f429b6eb1e39U, 0x2f0daddf1e90e38U, 0xe204264d313a1138U,
  0xda03efd32da81415U, 0xd007cb17421acc26U, 0xca5f12fcec03f2fcU, 0xe7ece6d4ce16e233U,
  0x4e4f0da0dce04efU, 0x29db084fbce5f3ddU, 0xb13121e28de22deU, 0x92bcd2e92cfa021bU,
  0xfef803e32cbb24b6U, 0x643aea2102441231U, 0x2138db81ddf237caU, 0xdc64615eed9eb40U,
  0xf12913de17f22fc6U, 0x34dcd4ecbc1f16e1U, 0xc315391816fcad52U, 0x159f051b0f23050eU,
  0xf53eb3e0e1d004bbU, 0x2d262cef1d422105U, 0xf3d0d816f73ad91cU, 0x35dddfe1ee303ef3U,
  0x7083c05c925e20eU, 0x24fb1ce514c20e9fU, 0xab2606e70934192bU, 0x34f801e7d9f0cbeaU,
  0x3bf7d01e52c3fc29U, 0xb5160797eefdf2d5U, 0xc20ed4dad9362050U, 0x1612e6ff0b38cd23U,
  0xcfe5dfbfe0d1041dU, 0x5e032a3ae24e0321U, 0xb10e25d9b7e11311U, 0xd8bc1d7223483313U,
  0x6cea8a6e2d3cef8U, 0xe53cd6b3380a9426U, 0x5510ce7190607edU, 0x12343b20ea26f30bU,
  0xbaf9f9ec1bbe425aU, 0x21cf201e2ee02415U, 0x8139f90fed203640U, 0x234db019f7ef36b5U,
  0xfac6dba0d104d313U, 0x11db020a44d00c29U, 0x1140f009e702e407U, 0xb7ef4d39aaebf51fU,
  0x164ff8ff04f03c1cU, 0xb4d0ed0043e9f002U, 0xc637353907cf1fe0U, 0x6ec08d4e62ce720U,
  0xd60a0dbf0edcf92dU, 0x340adee7dbc6a556U, 0x164d371123fb1b1aU, 0xdb161fe0dd37c01dU,
  0xcf15ebff34d1260dU, 0xffc20807ec11f1dfU, 0xe0c20727fd121b29U, 0xd502eef8d5e20e00U,
  0xb81afafe1f1afc03U, 0xc706dcbf011aeb24U, 0x1cd22fd211040812U, 0xfb3507f2d6e6ead4U,
  0xd0de0a25df0c05c3U, 0xc9f927e210ffca0fU, 0xdaf02514141bd51aU, 0xedf809feea300a39U,
  0x2c0fbad40eceebf7U, 0x4301ce507f11dfbU, 0xace1ed9c31ccfU, 0xe6fd28e40b2a11efU,
  0x10b50fe42b0415faU, 0xbe1e3fae71928e7U, 0x3c72e0e33e91f14U, 0xeee014fdfeeb12cfU,
  0x321181dd1e1504daU, 0x62ec91d13e73117U, 0xde1fc1450f370d26U, 0x233315bf0ed2c0bbU,
  0xeed1f4d60300ed2fU, 0xf201f834caccf422U, 0xd6dbe9fe4d010838U, 0xdaad081414184bf1U,
  0x1b49fa45eef129e8U, 0xefe2f3bc9bf42916U, 0x17e2e31cbc1deee1U, 0x251959e3d9f6d1c5U,
  0xe8d9faba283906c7U, 0xd5cf05fee4c42ae9U, 0x3aceff2a0df55218U, 0xd1d4def80aee02faU,
  0xf1180aee2db10e0cU, 0x81f0442ea8b748f4U, 0x7fe1015322bf540U, 0xc5f9e0d8daccf649U,
  0x158c18f10c1be9cdU, 0xdec94720d8db3d33U, 0xa6f4cef74934bfd6U, 0xedc0d79b09e651acU,
  0x3ac5fb45eed32dafU, 0xe81427fd0bdcfac5U, 0x4f0ffcf05243209U, 0xa1f7f42bedf23ff1U,
  0xcacb2ced2c11334eU, 0x14d1d1173a09f51cU, 0x930913a8faf60f37U, 0xe912cb26cbdb42d6U,
  0x3db0ae8432c4e6e0U, 0x1b50be11d12ced12U, 0x64425450ff02912U, 0x121aec36bce3cecfU,
  0xf1bd2eee26f9e908U, 0xc78134e5d52b2dd8U, 0xdb39ffdde530edf2U, 0x22edb084ed42c716U,
  0x2ffa7bade2a06f3U, 0xcd63c02ecfee637U, 0xde0de5261723d001U, 0xd3ec27e3e8d5e6f1U,
  0xd121eb8a23df14feU, 0xc1d3e0251eca5efaU, 0xabc420b93f12ed2dU, 0x201a0526df23d838U,
  0x12cf86caf9feed16U, 0x2a60bc3bf806bf45U, 0xeee5f9d917114df5U, 0x23412b23d3d31fe7U,
  0x3e0339ea48bc0219U, 0xeadd30cbe6f414f3U, 0xd057fea3d81eb1ffU, 0xf5f8e814072030feU,
  0xdbdd01dc4f083dd7U, 0xfef1f5151d36f0U, 0x1f2249dc2d110caU, 0xe4190019b4dfc3e5U,
  0xbac2c50b9ec81f4U, 0xddc706cc0b1738e3U, 0xfd0e16ba1e030ed1U, 0xfe2616090dfde3f3U,
  0xfdfef6d602b7131aU, 0x10f1ff3206e90b08U, 0xae31deacfb0ae711U, 0xca0f18210d490ae8U,
  0x1dc8014d2325feddU, 0x31fe113e06e7378dU, 0x1c042a48eddde1c8U, 0x3bef18e20a0d03f2U,
  0xc22d151e310fe6d8U, 0xad1ea710f80c2c26U, 0xca29c63c2e560f03U, 0x9230bc0fd4fac2eeU,
  0xefc1ee32e038fe21U, 0xdcf4032c0a210702U, 0xbde4233d0730d02dU, 0xe7f1bbc5dc22ca20U,
  0x5340ffa80dceefefU, 0xbd81d6d6d4330b0bU, 0x2716eafcd638d9a0U, 0xbd2b23e6f6de5134U,
  0x26b00eebb0dbed0bU, 0xf018edcbe65550f6U, 0x143f14e9bed9dfd9U, 0xbcf3e2151c03fbe9U,
  0xf7f8b914facef111U, 0xc0d0c51b2e04d63bU, 0xcc7beb339072b2eU, 0xdefb28ccff4bfc36U,
  0xe331bb32ab35be15U, 0x8c121ecd21ee800U, 0x9deaeed4ce2da054U, 0xf2f406f6feed3639U,
  0x3d40990bf7fdc7ffU, 0x52af5fce53214ceU, 0xdc28cc3a4addf5efU, 0xc28e4d502fdf404U,
  0xac070cf71116cfe5U, 0x1fe5c552c9f44bfaU, 0xdcd73ac44035400cU, 0x81e2db33f7ece641U,
  0x14e2b13a198b4d5dU, 0x4fd6dc0afc20539dU, 0xfcecf3d7fd0aef08U, 0xd81cd3d31117e70aU,
  0xcbc57b7f6f02307U, 0xd7f2372b18350bdcU, 0xfa0f32a2c718e9e6U, 0xb63dc9b729c6291fU,
  0x113a13e2bd9c8e4U, 0x54134232c7190d67U, 0xabd5fbad3903f5c8U, 0xc4e4d0cdd2152ae2U,
  0x1e761525ffa7151eU, 0x1410eb14202343dfU, 0xb816db3eee270834U, 0x44a6eb243bd2b623U,
  0xb9e60bd0e9fd0930U, 0xcb5718eaef0ac234U, 0x9f36e3ce88c3ff48U, 0xc910ec15dc9dfd3fU,
  0x1ac010e9e8090e31U, 0xe1a13af8402446a0U, 0x39e50700ed2401d9U, 0x2ee098f648cafeefU,
  0x19c4dd3cdc109815U, 0x2ee22bdfbcf8094fU, 0xc90ce60389f34795U, 0xdf0fb70207dbab20U,
  0xc7f448340e114538U, 0xb825fe2ff815d6e6U, 0x42da133dd546deb3U, 0x4fc801255f1615a8U,
  0x72ec8d7d2e3241aU, 0x45221b313ce01fd6U, 0x8131f529b0cde439U, 0xac07f2d3a53021e7U,
  0xa3051c39f925bb3eU, 0x28430a2ad8445298U, 0x2f00f8250535de05U, 0xe5fdb0be4baebd1cU,
  0xa61dabda414deffbU, 0xf8c8d6e9d820d0b4U, 0xda02e6c0ee2dc1c1U, 0xf018554f9cbcccadU,
  0x12b3e025d041e0c9U, 0x16dae4f244fdc0fbU, 0xeb00fa1c0519222eU, 0xebe7c8f3be1222bbU,
  0xfb4f9fcde40aed52U, 0xf3b91a0bd5f04239U, 0x3e25447e8ecbce1U, 0xf428f4dee8051214U,
  0xf6be204426e3ebe6U, 0x34e7ca1a12fe1116U, 0x1aff3949ef3d170bU, 0x15d5c20e04333f1dU,
  0x49de1ab723db15ddU, 0xfc3b0d8d0c10005U, 0x350723cbdb24dc13U, 0xdb0223a8ba0ffd07U,
  0xc2dd33fd480032d2U, 0xf5c7d6e5e824fad8U, 0xb6e822052ddcd7f7U, 0xc9c7d8f824f1deb4U,
  0x2ae1547dff61bddU, 0xe60231e5dc1eea2dU, 0x6f9023941f3f813U, 0x810037cf2a310117U,
  0xebcb5dea4be22703U, 0x29c8ea34252352a9U, 0xc30713f2dd337b9bU, 0xd2d41208331b10bfU,
  0x3458bde52824c0ecU, 0xdd27ce45f0181419U, 0xd056f057340b2c0aU, 0x114b23528ff3c528U,
  0xdfa827d32dc6d1e2U, 0xdddcdfe0e83048f0U, 0xc3d31a0d283331afU, 0x151cfd13cdfb39e4U,
  0xd4e206364228cc1aU, 0x81fdcd0e37c81fdfU, 0xb4fbe7f2fc4aec21U, 0x8414181303d1f126U,
  0xb481fb2aba379e02U, 0x8dfdbc1ce95d12e3U, 0xd390da23efd3f20bU, 0x491a22071ff51deeU,
  0x90e20036eb0f4664U, 0xd8b68a232f9c436U, 0x91f4ecc9ec37c83bU, 0xace6934c864892ecU,
  0x909a11388a312718U, 0x1605fd0e0be1e4b9U, 0xe0ebb408180f01d6U, 0x12dca6ef06c4d0cfU,
  0xd7b3be0003e62307U, 0xf73b0ab2f40408f1U, 0xc2ef0de0aef8ffecU, 0x1bcfd6d2fe332626U,
  0x1fcf3f241d856d1U, 0xd539322a2d4c23adU, 0xe21ce4cf02b9f71bU, 0xf224255c19d629b7U,
  0xca341f081a34c525U, 0x5e13d5eae0f3312fU, 0xf0f92204b713302dU, 0x8081d0781d6d531U,
  0xc56a3c04342f3a43U, 0x3929e34de3f319d5U, 0x5153101fee5e10bU, 0x56ee28205c2e1031U,
  0x131abb09da07d1c7U, 0x57b9ddec26d51225U, 0xf31fbce7c804ec0bU, 0xd101dd11b9fd0cefU,
  0x36f0e6b8e925f31dU, 0xfffff969fffffd11U, 0xfffffd26fffffdfdU, 0xfffffb12fffffaf8U,
  0xfffffab4fffffc86U, 0xfffffc8bfffffda3U, 0xfffffca5fffffb0fU, 0xfffffdc6fffffcbdU,
  0xfffffd15fffffc96U, 0xfffffe2ffffffcfbU, 0xfffffa8efffffd85U, 0xfffffcd1fffffbe5U,
  0xfffffc12fffffeefU, 0xfffffd85fffffcdeU, 0xfffffca2fffffe3aU, 0xfffffe8afffffc61U,
  0xfffffe0efffffcf3U, 0xfffffbddfffffdeeU, 0xfffffafdfffffcc2U, 0xfffffee1fffffe3fU,
  0xfffffe30fffffddbU, 0xfffffc2effffff3aU, 0xfffffc46fffffd52U, 0xfffffdb3fffffc27U,
  0xfffffd84fffffcd9U, 0xfffffdb7fffffe26U, 0xfffffaaafffffbfaU, 0xfffffe3ffffffd4eU,
  0xfffffcb0fffffb80U, 0xfffffd1ffffffbefU, 0xfffffd8bfffffe1cU, 0xfffffd78fffffd20U,
  0xfffffa1ffffffb29U, 0xfffffefbfffffd68U, 0xfffffd35fffffd26U, 0xfffffe45fffffd11U,
  0xfffffb95fffffc99U, 0xfffffc53fffffcffU, 0xfffffc52fffffbb1U, 0xfffffd81fffffd9cU,
  0xfffffa22ffffff76U, 0xfffffac3ffffff5dU, 0xfffffc72fffffc88U, 0xfffffc7afffffc4dU,
  0xfffffcc2fffffd30U, 0xfffffc94fffffdffU, 0xfffffd03fffffe08U, 0xfffffc77fffffe11U,
  0xfffffe20fffffb20U, 0xf20d81caebffe814U, 0xf623d403ecdcd9f3U, 0xcd00e8f921fcff30U,
  0x1f807f7bbfdU, 0x22edfd0cf3fffe0aU, 0x1ecf009a5fef901U, 0x2386e10dcff909e9U,
  0xe4c3fd1ffb01eaeeU, 0xbfcfbe235b003ffU, 0xb0001ab7f0fdd1e3U, 0x4401f6ffc8fde8U,
  0x1e4fe0cf2a7f320U, 0xfff12b0a07ffe9a7U, 0xfdcfb3a9960bfca3U, 0xef00bc1d19fa009eU,
  0x5fdfffbccf2c5c2U, 0xf1fdffeb02ff04baU, 0xaefcbef407f801U, 0x289c00ee1c131bf9U,
  0xf0602fce1014387U, 0xda05fa9ef981fb00U, 0x9d00ee0719f20d07U, 0xfa9e03b3001bfbb1U,
  0x70908ffd9d10bf2U, 0xae4f2ee2df917aeU, 0x2108d1cee707c09dU, 0x430471d3ebf2ff06U,
  0xe0a0240f1f3a7f8U, 0xdf0c0434fc0ee334U, 0x3c8f71b37feee08U, 0x6554ae20c31d7905U,
  0x1c18f70a26068138U, 0xdd11f7e7ed3e0001U, 0x8e0308270e12a418U, 0x2e5dfeebf938ecf4U,
  0xeff817f3dee5290dU, 0x3fa9534ea013181U, 0x14e89b18e1090ebbU, 0xbfd12e00cfb02d6U,
  0x8fe022c22f6deecU, 0xa0fbf9ed01fe01deU, 0x5c5090a2003eefaU, 0xe6b2f1df1005c508U,
  0x1c0501dbd902ea0bU, 0x100604ff01e3f102U, 0x42ff02cffdffff0aU, 0x238ffb702071dfcU,
  0x414f7f1aedd07ebU, 0xff0ee8332b012b1bU, 0x416fe33dd02c4d1U, 0xf3003f8530fe010cU,
  0xc05fffadc00e8f1U, 0x9fc02ba0cfd04ccU, 0xfc0cf734c50009faU, 0x2d2ff89a99f2d8f1U,
  0x15bf0081f004bdd1U, 0xfaf0f92d17230802U, 0x4f05f0c7dd1cd4feU, 0x12e03c802fd3102U,
  0x1f510d8fac5e211U, 0x70524c510ff6db0U, 0xdf0dbb2dbf08d981U, 0x1400e0c43f0404d1U,
  0xf5fefeec25fefb10U, 0xdd100402fa0315afU, 0x2f3022ceafffbfeU, 0xc48fe69fa218fe17U,
  0x31db0a991bfeb6aeU, 0xfaf40eddbbd00001U, 0x1afe0d231700e10eU, 0xbc5010502eb16fdU,
  0xf5eef10ccfdce6e1U, 0x5aec30400a700U, 0xf10a01070adf0ffdU, 0xe900e4ebfcff0007U,
  0xfffefffe0f0815e5U, 0x1e0e000dfb00021dU, 0xe809f8eafffdfeU, 0xf90af0ff1e0506f0U,
  0xe4df020305fde0fbU, 0xf9fd0209260100U, 0xb000181fd05e8efU, 0xf9d40001fe00e0f5U,
  0xffccfd0d070eed01U, 0x2f54b33c40101fbU, 0xd6dafadcf1d2e623U, 0x19022ccde10601c7U,
  0xff01fef11eff2c10U, 0x3f17035307ff07f7U, 0x10cfddc2704fb03U, 0xf3e403126ede740cU,
  0xf2ce87f0202dc0dU, 0x25defd110e1a0403U, 0x23029a1622fe4ffcU, 0xd198ffd702edcaf6U,
  0xd4fbd43c13f409U, 0x2053846be03cfe6U, 0xb9367918c811d21aU, 0xfb09e2b2e6fcff21U,
  0xf010106fe1239e5U, 0x2f08085bf00c041fU, 0x317d4c9fafc0006U, 0x4bf011139717fc15U,
  0xf781070f0c0332a7U, 0x9f7083468230902U, 0x3a011bb4c20b2bdcU, 0xe01102ba02a920c9U,
  0xf2981421d3f9d907U, 0x20920fde0f97fdcU, 0xc00ff1b0fd3f0cfU, 0xb00d2200c0101f3U,
  0xf906fe250806e700U, 0x1a1b000e03021414U, 0xfaf407fa4b0d0305U, 0x544511f4e70c151bU,
  0x10ddf83cf6ff0ffdU, 0x313ff0e11d10301U, 0x6fc28fa051efffeU, 0xef2f023302f80fceU,
  0x6df090907291101U, 0x221d0880cfd901fU, 0xdebc29c05ca2ad5bU, 0x9c02040fb6ff0137U,
  0xfd0404b33f07ef22U, 0xec1e04ebfd00f904U, 0xff46e9c5cefffc07U, 0xcbf96c56d6f3b304U,
  0xec6702500c024d40U, 0x2df4fa13d7fdfe00U, 0xe1023a81e2db36eaU, 0x15e0005f06f8e724U,
  0x8e407f91a5be006U, 0xefd0b221f0260f7U, 0x33593d2d3a7f2265U, 0x16fd544b0af804faU,
  0x9f8fe0cde0d2a41U, 0xd3f006f8f8f4fadaU, 0x72c1351f90af309U, 0x1d702bdd2316ae08U,
  0xf83509ccdbf0d8d2U, 0xff1c0932eb4407f8U, 0x330b3216eb062afcU, 0xe1f2f7340bed4244U,
  0xf818d034252629eeU, 0x3fc4b162600032aU, 0xed81240aedebf01fU, 0x16ff19c9110001f1U,
  0xfe03fddbc104d002U, 0x7e8030d0002f7e6U, 0xfdeb09abe0fa0efeU, 0x2807f3f9c7cb67f6U,
  0xe023f8d810004289U, 0xae9f8ec2f250601U, 0x104dcb530123603U, 0xe31f03dc0520f6d7U,
  0x80dfe1d2aeee304U, 0xf906ba071901cee8U, 0x23f9fd02daf2e4cfU, 0x140113ac1b01fee1U,
  0x7fefe1bfe068a07U, 0xc9ff01d9f801f525U, 0x2cd07e8ebfffe00U, 0x4ebcfffa304dafcU,
  0x11b8028105fdd118U, 0x911060e191f02ffU, 0xd10006d1deefd7ffU, 0xb17fedcfe0315feU,
  0x20e050adcc6f00cU, 0xc1017ec11fcbd23U, 0x3b2ac25d6d22fe4U, 0xf2030cf737e3fadfU,
  0xe080120f9f486abU, 0xea0d05ef06fee6dcU, 0xfbe4e1df580de602U, 0x1b4316c5f80a54fbU,
  0xdb105051302d1a3U, 0xcaf8e6c79881f0ffU, 0x82051a2616160af4U, 0xa1bfcdafe231a88U,
  0x63a180ec9a2250fU, 0x1616b76ade010de3U, 0x1dbf349f9b2cea1U, 0xd402e8ddf70f017fU,
  0x905fa3d21fabbccU, 0x12907d909fef80fU, 0xbd3e72d28090cfdU, 0xccf93f1c08e4ca22U,
  0xea2ff11a040205b5U, 0x3df7fed219d40003U, 0x4bfe2e13ff0af710U, 0x115806e301154632U,
  0xdf40feed5301308U, 0x2fb08a4fb03c0f0U, 0xa6915f1901c15b93U, 0xd4ff0349dc03feaaU,
  0xec0000083e12eb1aU, 0x14f70c4f040715edU, 0xe80d96fb07fd02U, 0xcbd7ffc666dd0e02U,
  0x1e2fece0105f2e4U, 0x2f804e8353f0003U, 0xa6ffc0b82bcc5503U, 0xdb81fe4b05f9d101U,
  0xf8dcfcebf82d18f0U, 0x71efc14e9fb3c7fU, 0x1df93f293ad32dd1U, 0x1e0006511506ff15U,
  0x3f9ffe722170efbU, 0x35ef0af10b001d44U, 0xfe02ff030507010eU, 0x2222fa6a3cdcfb00U,
  0xa46fdde2a0222fdU, 0x15ea0038232a0600U, 0xb0313ee13e9090cU, 0xf63d01a607150ee8U,
  0x813160300edfdf2U, 0xfaf5a746dd0adb27U, 0x410c40214cf01266U, 0x60ff627f10f2fa0fU,
  0xff9f92be6ff3ef4U, 0x1e2cfee30bf5fd35U, 0x5fa232a11fb1c13U, 0x1a6cfdc408e82702U,
  0x29e0ff1e0ef0d83cU, 0xf60df0e83a531d01U, 0x29fbb6d6d004a918U, 0xc2bdfb02fb62c628U,
  0x4f5fde342040b03U, 0x2fd07e7fafe0993U, 0x21e9edf194321ab4U, 0xeaffead7f6f9fef0U,
  0xfdfefeeee40cf7ecU, 0x8104fd1602fefbaeU, 0x910cfffb00e4ffU, 0x1ac9e896f614f104U,
  0x716fe32eeff0506U, 0xdf0704fb20daee00U, 0xfffd65a1608bb02U, 0xf6dffd8afcf8da09U,
  0xfcf907f8e5ecde05U, 0xfb1df2b6ee028140U, 0x1912e12208dc083fU, 0xf5fe2c8bdcf9010fU,
  0x40707f7080612U, 0x501008ecfdfce92aU, 0x830f70cf506e90bU, 0xee22ed4333cf0307U,
  0xffb3fdbcf7fef912U, 0x111704e7dd01f502U, 0x4801caeef4dce402U, 0x512016e06311800U,
  0xfaf2ef3034ec0ce7U, 0x4154c14d00239f3U, 0xf21241df25e81ac9U, 0x9feebd8e90efe1aU,
  0xb0001d9141162ccU, 0xedf800140604f4b9U, 0xfb4a16fc210402f8U, 0x1081eb15d719d812U,
  0xfe24ff38f8002d03U, 0x60d06f6ed5dfd05U, 0x1500ffa83501270fU, 0x6c0043505130726U,
  0xfcfbfcc913fe0318U, 0xf6fefacdf8ff8128U, 0xdb0334dee3cd2a59U, 0xc900032803fbff0aU,
  0x3fd02f9d9fef6d4U, 0x16fb02fdf6fdffdcU, 0xfeeaf609f1020af9U, 0x119afceffcf7ecefU,
  0xbacd06b8ff01b0c4U, 0x150503e2e3050a01U, 0xf00015b6f9fcd8ebU, 0xffa4fefa00efc7faU,
  0x7cbfdeef8efd806U, 0xf8e3a40ee3064395U, 0x1a2c12dc34ed29caU, 0xf90151c621eb05ccU,
  0x4022107125bU, 0x15db090907fdeb13U, 0x277ee4cc60ef20eU, 0xb2e5bb1581dcb0dfU,
  0x1ad303b61213d944U, 0xf7060b02b314fb08U, 0xf907448eeaf0a8eeU, 0xef05fb30ffb9f711U,
  0xe3d816d5aaaffb2bU, 0xfb021f0f0300f3ffU, 0xaf6fb04050712daU, 0xfd00d10cdc0300eeU,
  0x40001f0c8fef0c0U, 0x15f500f6fb0104dbU, 0xfef0d90103f900U, 0x178109f8f6f716fcU,
  0xefd8001df70118bbU, 0x502fcf214beff00U, 0x3ff0aea0cff01ecU, 0x7ee00f2ffdfffdfU,
  0x3e8fbfffec4e20dU, 0xfc177c39dc021d10U, 0x111192ffdc901e91U, 0x270209152505057fU,
  0xe106ff2dace92929U, 0xbfe04f702010303U, 0xfddb18b22fffed05U, 0x433b0bc32b30230bU,
  0x22ccec78f10810d8U, 0xbe307cb56b50c05U, 0x64fc1401ff0031f7U, 0xd43e02aefdce401aU,
  0x8180efde412022cU, 0x4063a220cf90ff4U, 0x3110810c1cfbdb7cU, 0xb024c4a210cfe1dU,
  0x6ffffb11d1516d8U, 0x50cd0bdc08020e09U, 0xfefb1a3a13f30fU, 0xe2011dc716083b13U,
  0x16d1083afd003f49U, 0xe7e10800e2e505feU, 0xed012aea4d0b30f8U, 0xee78013e07e9eb00U,
  0x80ce0c847d2eadcU, 0x11089f310003506U, 0x37522412eaf48bcfU, 0x2605fd81f4fcfe28U,
  0xf800ff2106f0cfefU, 0xfdf404e00902f006U, 0x5fd01150dfaf704U, 0x94ef0cba6fb9af7U,
  0xe2bf03a61c00a908U, 0x180c000be51b0a03U, 0x1bff1cb1d31483fdU, 0xf82c02d805eef616U,
  0xfa1f01d0f1d002fcU, 0xfdf683cdf0ffbd05U, 0x38f52a10dff81d18U, 0x110629d4f602022eU,
  0xfd0300f3ea06e9eeU, 0x322506f30106ee2cU, 0xff120404e5fd0903U, 0xe3d1f0e522ec0dfdU,
  0xddd8febc1c04e67fU, 0xf8e407e01a270903U, 0x55ff12bc1111e1e7U, 0xa05fef806eafe0bU,
  0xf8d9f9d406eff402U, 0x408394dfa0008d8U, 0x4027b914eb31df81U, 0x31fed9c80106fe3aU,
  0xf60100fbd9fbd2f4U, 0xb0e0fcbc04fff7bbU, 0x2c50c3626030603U, 0x3fb9cde9c8121111U,
  0xebe7ffdede0017b3U, 0xf01c030ae20e0702U, 0x3c0224380f134401U, 0xfedc008a002542eaU,
  0x21b0ae8acd1070dU, 0x1e993d90e01a5dbU, 0x100e0c2710d41105U, 0xc3fd4908e4ff036bU,
  0xfbfd04f9f802d9e7U, 0x51003150102101dU, 0xfdf428bb030bf7U, 0x8c342014d2e081f7U,
  0xfee03d61df9fbe8U, 0xefdbfed1dfb404ffU, 0xe201bc9cf7fae0fbU, 0xf4cafb1c02f2b111U,
  0x10bdf2afc1c02f3U, 0x31a7f0fef001698U, 0x38f74149c913a78aU, 0x120003d4dc07fb32U,
  0xfd0001c7f3f9ca1fU, 0xbfd303acfcfde12dU, 0x5b4fcfff2f8f100U, 0xccfbb9bdeedbe08U,
  0x160503d1f70502ebU, 0xdd20ed0bf3fef7ffU, 0xca05fb180006fa00U, 0xf9300881fa0b1007U,
  0xaec0d11da3b1323U, 0x9f4cefacafcdbd2U, 0xbcacc6f709da3911U, 0xcffe45e0aff02e9U,
  0xfb05fefa0511eca9U, 0xb0d040701000306U, 0xff45f5e82f040c00U, 0x45a20dcbf71503f7U,
  0x2bff24afbfe7f94U, 0xefe903b505cfff00U, 0xec02c9ce3600380fU, 0xfbd4fe4ffeee16c6U,
  0xbebfae210d50316U, 0x102e526f8fa69e1U, 0xf36729f5ddfd83U, 0x2e0419fc240801ecU,
  0xbfff9f8160002c6U, 0x22f109db01040f04U, 0xf3eb00e30f0d03fcU, 0x212eee00392b5217U,
  0x2565f12f05041a47U, 0xee5011800b30406U, 0x32f710e07f011308U, 0xda3a011907fa30e0U,
  0x12030ad73a6f140dU, 0x4ec7fecf6fefc2eU, 0xefc135ea31ef1103U, 0x23ff250817f702e9U,
  0xf1000028f50e09dfU, 0xf417ff2302fdf6f5U, 0x4105e122fd0404U, 0x11ecf92b2fdcfc05U,
  0xf0f9fbee1102fdeeU, 0xfdebffdf1bbdfb01U, 0xe404bcb60f01f5eaU, 0xe9a90414ff1d04ebU,
  0xfccf721ebdefcfaU, 0x41981e50404ce05U, 0xe21f614ebf12a37U, 0xd00480be9010220U,
  0x60101283c0605f0U, 0x360905f60001e82eU, 0xff45f916f5fbf9fbU, 0xbb58e3cb1e03e5f5U,
  0xf8340acf0a00d01fU, 0x4f80220ec54f703U, 0x3d0523c4e4f7ee01U, 0xf6fbff49001604f4U,
  0xfc0afbfbdd110b0eU, 0x613cdd5180140e4U, 0x3c4bfe2e17eac0d9U, 0xefe3fb4fffe021eU,
  0xf50d01f13207fc41U, 0xfcfe033a0105fddfU, 0xfdfdfffb4a00f704U, 0xda5ad9e5d6342206U,
  0xfaa207e906050a6bU, 0xefff021711f2ffffU, 0x45002fc735f79de9U, 0xe7f020efdc8e1fdU,
  0xfefd15d31ab91427U, 0xfaff8111ed001ee6U, 0xfe29f5ee0828cc30U, 0xc021cddf700ff25U,
  0x903ff043efcd7f7U, 0xeedefc15fd06e124U, 0x3fed29f8f90d00U, 0xdc15cc4afa0899feU,
  0xfde906b40dffba49U, 0xf00afd12d72bfb01U, 0x2c040bfeb70fcd03U, 0x14f6012604ecfff1U,
  0xf41ffee307030311U, 0xf809e8e50301c1e8U, 0x4e9370514dad009U, 0xf6fff6f0130200e6U,
  0xf7fe01ffd70118feU, 0xedf701fd01ffeecdU, 0xfefffbecf9ff08ffU, 0x8a0faa18105f8edU,
  0xbf8601b513fef8c2U, 0xfafb03241313feffU, 0xddffe5e00d09e9bfU, 0x6e8ff0000d3f8feU,
  0x3aafd0006aac905U, 0xfef4cdfff1fffa0bU, 0xd0d7f60cffceb418U, 0x301f3eceafe00e1U,
  0xef00feeafefb07e9U, 0xf806fceefdfe0503U, 0x407fbe806fdfc01U, 0xe1e51ba7e3f7ff00U,
  0xe4b5fada08fefad6U, 0xcf3fef3e81006feU, 0xfc01d8810103f0ffU, 0xf2060013fee90609U,
  0xfdf1fc0802d1e900U, 0xfb0e3b43fe050ac1U, 0xff129eda202b2dd5U, 0x21ffc01902040400U,
  0xfeff012ce90dfff5U, 0xe008fc58fd05ebf5U, 0x31dec5110f70501U, 0x19ddd4a3aaf37fefU,
  0xfadb03f604ff94d9U, 0x160b030dfb0e0201U, 0xcc0119342a0c2defU, 0xf6f5feaf00a31429U,
  0xfd260419d2affe03U, 0x7f78104fd02f4faU, 0xbeff04fc19d0e6e0U, 0xffbf9dfe906ff05U,
  0x8f2f9f9f5011210U, 0x3fbfad205f10c18U, 0xff06fcffd6fc08f5U, 0x9bdef8c6f0149510U,
  0x28ddf1f4fffa2bd1U, 0x19f704f314ee0ef8U, 0x5fae8b4c8ef9e0aU, 0xd50802dcfd0516ffU,
  0x805dc18f408fde5U, 0xffe5f1e318fdf805U, 0xd1b6dde0fbf83526U, 0xf01d3fb0c06fbb5U,
  0x400ffeee1fe18cbU, 0x6040305f70309U, 0xff1e09cd02fcdc06U, 0xf60d1e0bdad3d101U,
  0x6f9f70ef603fcb6U, 0xec03f3db1121ffffU, 0xe701a0211dfdf9fcU, 0xe08103e5ff0fe1d2U,
  0xa0fe41ce6fff6ddU, 0xe5f8d5c20e01b524U, 0xf527e60df9bdffefU, 0xd500f801be04ffddU,
  0xe901fff32dffbb34U, 0x719fd16ecff02aeU, 0xfe06fc0e21fe0600U, 0x6cb1210e8f614eaU,
  0xb5fffe21fc00dc21U, 0x8f503091c220200U, 0xf000088115fdf9c8U, 0x3160109fee3fd19U,
  0x1a3feea2dbcb709U, 0xfb0104c01bfa81f7U, 0xebc3e7382f455b2aU, 0x2d01e659e000ffe5U,
  0x1007fd30e6f82be3U, 0xd06ff4ff9fbf6d5U, 0x80700dfe6020106U, 0xf1210d2f1d9bf703U,
  0xdc0d2616080406U, 0xf2f6ee1c4f2afcfbU, 0xdd05e8ed26024514U, 0xfd09fa45ff05f6eeU,
  0x7011226f8c721eaU, 0xff04d0012afef52eU, 0x3b0cf63dd1ccbb9fU, 0x2d06e741f5fd062aU,
  0x5fa01fcb9f4daeaU, 0xf7f30abdfe03e6e2U, 0x5cdd711cc16120dU, 0xfa53da4d12f7cbf9U,
  0xe681ffd60ffcb339U, 0x10f004070a500305U, 0x100340d5c317d5f3U, 0x1238fd100cf4370bU,
  0x9e3121ec033ff2aU, 0xfff434f3f5011ebeU, 0xa1cebffa706f1f1U, 0x5ffecd8190700f7U,
  0xfffdfff7fd05e916U, 0xc7eaffb9fd0107dbU, 0xfec6f529e40201feU, 0x1122f0e115030cfeU,
  0xed13ff2e04fe10ecU, 0xf6ff000828f80601U, 0x90206650afd0702U, 0xf7dbfe8100fc03faU,
  0xfb03f9ded8fcf607U, 0x4ce121707022a29U, 0x40d6ffa3f14ed8a1U, 0xb903d92bc40900ecU,
  0xf30100a129fa4101U, 0xeac500f6fb03fea9U, 0xff18ecf7b1090c01U, 0xf1d6113af30b0603U,
  0xe8190243daf00c0eU, 0xf00cfc3524080205U, 0x8bfd3e423bc17f07U, 0xe8dd04250412c9edU,
  0x73ce70fe31f06f7U, 0xfbf524eb0fff08a2U, 0xfb298118f42f0d9dU, 0x301d1dc39f2020bU,
  0x70700000ae4fb1cU, 0xe7ec03010905efcaU, 0x10fec612805f4fcU, 0xf4d7c7a5d21ddc12U,
  0x1cdc01dfe105d22fU, 0x1702fccbe9e0f6ffU, 0x35000c2cf0f3dd11U, 0xe49ffa704de47e7U,
  0xfd380e2abffafd12U, 0xfdeceff50ffd2204U, 0xeaf1a2e7b52210e1U, 0x1fdd9f4e4f500acU,
  0xfe01ff0eb2f22000U, 0xe40703e6fdf707efU, 0x3e0fef4f3fef0fcU, 0xfcd914cf0bfa1f02U,
  0xc3200eb13fe1581U, 0xf403fdbf1484f3ffU, 0xed019ef6fe061209U, 0xe887fe51fe080d05U,
  0xfdf2f90c0fddf1d4U, 0xf9e278232dfde2eeU, 0xebfcc29c8d3ce2bcU, 0xf4fdbac4cef300f1U,
  0xfc06ea1efe4531U, 0xc5d5f7b5f9fc0805U, 0xfea7152b3605ea02U, 0x300f0ab81c3ce9e2U,
  0xc0e0398ee0455f1U, 0xeb17f9d81cc8fb03U, 0xf7fedcc945e9f1f6U, 0x1f81feacfae8f3deU,
  0x2d0f80ddb24f4edU, 0xfbf6e1b0ffffd80aU, 0xf28130fd15f4fc1bU, 0xc0020921cc05010eU,
  0xf1fffea2fcf821dcU, 0x2215fff7fa00f3edU, 0xff0608ee10fcfcffU, 0x120cfd221dfb2a08U,
  0xe605fa42f1fe2af4U, 0xfaee0808dc3600feU, 0xd7ffc4fceee543feU, 0xd6e3fe1102efa818U,
  0xf8e5010a3110f609U, 0x3f823e10a02d939U, 0x3ae4f9343fcb02e8U, 0x506bdcb07ff032fU,
  0xf509062c070b65e3U, 0xeb1402650109f2eaU, 0x429f9fdbdfffb14U, 0x491443261e103bf5U,
  0x250a00b71c088ee5U, 0xd9d40a0c13cbf508U, 0xfe064ccdecfaaaf7U, 0x1353047f02ba2329U,
  0xfe0e12c11d24db09U, 0xf70ab5dc01d348U, 0x2f2433f52f41fedeU, 0x901205dbdf7001bU,
  0xfa0701c5f2f5c4faU, 0xead305080006f006U, 0x8fde626c201f509U, 0xe7cd0d6153cf170cU,
  0xfe7f031dd7f96639U, 0xea05f3e2caf8fb02U, 0xdaff250328d7f91aU, 0xf53cfec2050c11f4U,
  0x72108070ccc080bU, 0xfe0efc4adaff0c15U, 0xf5f423feffb01cfbU, 0x105e80bfe010016U,
  0xfc080400e8fd1ec6U, 0x25fefff40502f6ffU, 0xfe38fdd7e2040400U, 0xed0121e6a8fb3dfcU,
  0x188100a90b06dbc1U, 0x4fe09f712b70303U, 0xf040bd60ff50fd3U, 0xf81f021008ae0b12U,
  0xba211e5e80cea19U, 0x1009ef40efff9deU, 0xf711f51f2011dde6U, 0x700199f06fe023fU,
  0x2ff0105fe00b70fU, 0xf1f801d9fc0201f1U, 0x106062f100102faU, 0x3ddd5a68ef5c5fbU,
  0xf4cf0081e6feaaecU, 0x20cffe7fc14fdfeU, 0xbfeffabc6068cffU, 0xf439010cff101d0eU,
  0xfffcffe2f7e5f605U, 0xfff22df4f6fcf0d5U, 0x16ef05100e0db0a5U, 0xfcff17a8fe08fc43U,
  0xf90301f71307b708U, 0xeb04fdfdffff0318U, 0xfcf310dd40fc0bfcU, 0x192ce98193fff2faU,
  0x8c300e408fde035U, 0x1f9fde70c0402U, 0x2c01250004f5d9f8U, 0x20fffcefde8dce7U,
  0xf7f70fd5f0fff402U, 0xfcf67f03e9052ce8U, 0x1d30f180001c6d6U, 0xa01b323d40403caU,
  0xf90300c0e60e180fU, 0x21eafdd80202fb2aU, 0x5bdf8ed02fc03f9U, 0xea01e4300bebf5f7U,
  0xe633ffdfdc00ca04U, 0xa1207f122f40101U, 0x3601c40d2be63ef4U, 0xf3fc02d3fec3c217U,
  0xfd0df5112b25e615U, 0x20041f2aa0530bbU, 0x19cac52606087fa9U, 0x1e023132e3050134U,
  0xff090248e6f31800U, 0x17da0c08f7fce9b8U, 0x238dbc3fe0aea07U, 0xfec00f5721122b07U,
  0xae8fdfce9faf628U, 0x610fde837c2f706U, 0x1e06fe1fdae26bebU, 0xdc50021a0df71613U,
  0xfcdc060bd601edefU, 0xfdff0ba3f8018644U, 0xe42e16093320eb02U, 0xd5fd24aae4000406U,
  0x160201b6e012feb9U, 0x10f09e5f90504f9U, 0x1f304dd1805f50aU, 0xd5f146364aedeaeeU,
  0xec6afe2df60334e3U, 0xf8f7fc25d624ffffU, 0xb1023f9c2a01e009U, 0x7ab0054ff1d811dU,
  0x4e916f44cabd5e0U, 0x1f63614caff20c6U, 0x260cf02e0b0b3bbaU, 0x2903cff621fc0355U,
  0xfdff00e72603dfaeU, 0x22000221fe07e3e7U, 0x305093102ff100bU, 0xf005fcabd8192403U,
  0xf98101f7d70003b0U, 0x1814fcbbcec50806U, 0x3802fbcd150c62eeU, 0x123c00e101cf17ddU,
  0xfb0614002fb1f6faU, 0x10a5eedcafef300U, 0xf411c1ff0e1018b3U, 0x3fea21dec00ff06U,
  0x306020ee4f1d8c1U, 0xf6190237ff02fdf8U, 0x311061c33fefe05U, 0x159c04b0f1057f0bU,
  0x3b9024ff50129c6U, 0xef00fec8cdc10300U, 0xd5fefc2e040614f4U, 0x14ca010004c91ce6U,
  0xf6de0d1bf700110fU, 0x604050df0fffeedU, 0x2d013b3e3cebf522U, 0xa0012f503fc017fU,
  0xfdfcff1f300cf705U, 0x120dfd0305ff0e11U, 0xfde6072d0904fcfdU, 0xf135f3101c0c190fU,
  0x14e7fe3aef00175bU, 0x1df1fe0bee7205fcU, 0x3d012c000501e608U, 0xfd68ffed081de7f2U,
  0x1207fbfb0af40829U, 0xfe0d96f80effeb1fU, 0x21e551f51c0d4164U, 0x4fd57e42001ff44U,
  0xf7fe03faeef7d923U, 0xbfc000303fdf738U, 0xafe21eff1f2fdU, 0x1233b72dbaea81f9U,
  0x304faa9fe03aa34U, 0xe913fe21e829f2feU, 0x170201f5a3eed207U, 0x66602160510d1f8U,
  0xff04f3ff2125faeaU, 0x43e000004fbU, 0x232fffffffaU, 0x362000002a7U,
  0xffffff2d00000343U, 0xfffffc49fffffc9eU, 0xfffffcd2fffffe24U, 0x33d0000014cU,
  0xfffffa0200000580U, 0xfffff96f0000010cU, 0x684fffffeb6U, 0xfffffbf9000000d6U,
  0xffffffaa0000058bU, 0xfffffd5200000302U, 0xc5fffffcdbU, 0xb7000000acU,
  0x19b00000632U, 0xfffffbee000000d8U, 0x630000013bU, 0xe7fffffd60U,
  0x2ef00000669U, 0x4cd00000079U, 0x66600000411U, 0xfffffe50ffffffc7U,
  0x7e00000360U, 0x6ce0000009aU, 0x4240000050dU, 0xffffff70fffffc44U,
  0x433fffffdf6U, 0xdc0000048aU, 0x5d00000070U, 0xffffff93fffffe80U,
  0x4e5fffffb9eU, 0x20dd16df38087fa0U, 0x92fd50f24d51bfaU, 0xc1d3f8e03a14fafcU,
  0xf7e921d9e4f4f4caU, 0xd0e2ecfbd61be80fU, 0x3f35dc10c5351b2fU, 0x9b0cd502e81e4020U,
  0xd5f036fe00d759e3U, 0x2a682c50c2abf7d8U, 0x28b71b2f81434a33U, 0xe63818b333b31633U,
  0xa204ca1f104b39d2U, 0x4d4ddf54e509411aU, 0xbda522b33aaccfebU, 0x51539b424a45d31dU,
  0xb70f0c1e23c1010fU, 0x2139f1d0eae0a3c6U, 0x5c4c1f8195addf1U, 0xd125ee2fab112a3bU,
  0xbd4eb1fada2ee5c6U, 0xfad01dea3313fdf5U, 0x6c95ea4ebf447fafU, 0xd3df06d92eb906d1U,
  0x1813bdde45bf049bU, 0xa2043f431a28a9d6U, 0x2ef50aa82cee23eaU, 0x45c711f72434ea92U,
  0x4a24252051eababbU, 0xc50364423687f396U, 0xadd4d710b7817429U, 0x4efeb41687e2bc51U,
  0x4939bce9dad68d50U, 0xdf41f302e2ee3b33U, 0xf8d823010a0aeb1cU, 0x1b29cde93301da26U,
  0x20f06210e00ef58U, 0xd64e393b0bf8cbe0U, 0x14ed30135efa81f7U, 0x302154f745e3ea35U,
  0x29e3f43210392507U, 0xffffe5b300000908U, 0x187300002803U, 0xffffc688U,
};


ai_handle g_network_weights_table[1 + 2] = {
  AI_HANDLE_PTR(AI_MAGIC_MARKER),
  AI_HANDLE_PTR(s_network_weights_array_u64),
  AI_HANDLE_PTR(AI_MAGIC_MARKER),
};

