/**
  ******************************************************************************
  * @file    network_data_params.c
  * @author  AST Embedded Analytics Research Platform
  * @date    2025-12-10T15:07:22+0200
  * @brief   AI Tool Automatic Code Generator for Embedded NN computing
  ******************************************************************************
  * Copyright (c) 2025 STMicroelectronics.
  * All rights reserved.
  *
  * This software is licensed under terms that can be found in the LICENSE file
  * in the root directory of this software component.
  * If no LICENSE file comes with this software, it is provided AS-IS.
  ******************************************************************************
  */

#include "network_data_params.h"


/**  Activations Section  ****************************************************/
ai_handle g_network_activations_table[1 + 2] = {
  AI_HANDLE_PTR(AI_MAGIC_MARKER),
  AI_HANDLE_PTR(NULL),
  AI_HANDLE_PTR(AI_MAGIC_MARKER),
};




/**  Weights Section  ********************************************************/
AI_ALIGNED(32)
const ai_u64 s_network_weights_array_u64[4625] = {
  0x7f806d00187f3aU, 0xe3b1e9dfe3bf1132U, 0xf3c2dbae2db6da12U, 0x6aed91c06107fcbU,
  0xf8e9ced6aab2d3d8U, 0xd494e4c1d79ca9f6U, 0xc3bc86dad8c698adU, 0xb4dacbaaafcf1780U,
  0xf2c3e6c11bd188daU, 0x2fd1293329d9ca23U, 0x56dae1d5e20d04efU, 0x1aee120136f442dcU,
  0x4a1b12e9087feab9U, 0x251bdcf83209204bU, 0xfb915114c0b5826U, 0x11e9515a1eeb03f9U,
  0x373005d551b23befU, 0x1ec4d71302ef2eb4U, 0xb34defb04cd8022U, 0x5a037506daa6e379U,
  0x158831f0dbd5e05aU, 0x4f14693dd8331b4bU, 0x3660844ee7fefdaU, 0x9a779c270d06fcceU,
  0x2d4afb0826ec214aU, 0x3452087fd910af1bU, 0x30fcbbd9d2cbd5a0U, 0xf8a6273e7a1b8109U,
  0x7fd9f23ad2438b46U, 0x18ebdf4d1b13d2ddU, 0x30b0cd582166394aU, 0x4801a7b3ce49a17fU,
  0x43ae8112c2222554U, 0x1d31e6a6691552aeU, 0xe7ac22f117424bc4U, 0x399bd696537fef7bU,
  0x482f36fcf5599594U, 0xe8c7271b7f4f6c46U, 0xac6fa5106b952495U, 0x8d7fba3427650ef4U,
  0x839fba7f618f2b95U, 0x6ea47c3cf6e1d165U, 0x24b87f58ad402665U, 0xfc168e158fd54cadU,
  0x3ea1c244a6f556b0U, 0x70327fedf86ff781U, 0xe4e92cfb9185c19fU, 0xfd8f4fba0e2dd7ffU,
  0x382de3c0ab96f81U, 0x68ccaa7f16949022U, 0x349b729be50ded5aU, 0x7501494e53035fe9U,
  0x343006ba287f30e4U, 0xbe7a5c05457fedc8U, 0xc39761b3f2c0d08cU, 0x5dfe5b5681096d9dU,
  0xb622461d9518aaeaU, 0x353619bd7fe71e9fU, 0xc37f89f20268b94aU, 0xde25b9c8de078403U,
  0x4723d0790b13c831U, 0x58d4a17fa199a124U, 0x5681261564aebc2eU, 0xccd028ad0cdf42e4U,
  0x42db5664e40361cfU, 0xc27f44d4148cbcf1U, 0xa0a19e3681b1e34bU, 0xea58a66dbb906892U,
  0x5e4f3eae2b38a5aeU, 0xccc6209981e5f55cU, 0xb8cabed267dfa678U, 0xb6437cd766f38170U,
  0x2413649df8c0757fU, 0x1e8bc57b5ad847fdU, 0x849e53b1fa814a9aU, 0x81dad56d8619c3b6U,
  0xba34e6b561bb0962U, 0x81ee83daf79b2dcdU, 0x126522cdf94c62caU, 0x5496fee2d54b5767U,
  0xb292987fcb0cfbacU, 0x250795eed5b4f10eU, 0x8f63c9d545816212U, 0x6bc66c28fa7fb60bU,
  0xdd8cd99ad10f5e81U, 0x1ffffffecU, 0xe6ffffff7eU, 0xffffffda00000080U,
  0x2a00000038U, 0x63ffffff99U, 0xffffffc8ffffffadU, 0xffffff8e00000013U,
  0x2f0000000aU, 0x200000068U, 0xffffffa7ffffffc6U, 0xffffffff00000036U,
  0x940000002fU, 0xffffff78ffffffc1U, 0xffffffa1ffffff3fU, 0xffffffc500000078U,
  0x2e00000005U, 0xf14def8d0e58cb0fU, 0x81e11b0dcae8e6fcU, 0xbaf4092a15bf9b3aU,
  0xb944b522092434bfU, 0x5f171deb9f65bea9U, 0x4a3b382ff5bfc540U, 0xebf021c0f7f50264U,
  0x4c4097a5f1d523U, 0x290bd411fac3e236U, 0xe3241c314fee89fU, 0x12e5dcc3ebca89e0U,
  0x38523a152306083fU, 0x9ca0e54196cf52b4U, 0xc6d60bd6b63a0a50U, 0x12f40b4e75050acbU,
  0xf749b304fa5c0352U, 0xd8caeef28b2bbdadU, 0xb15260f1d8f21626U, 0xf4f044681902e132U,
  0x99e4f5f2341d2a37U, 0xb1b3f024e8d93775U, 0x6ef51e2df1baa41aU, 0x1dc078d64cdb2efeU,
  0xad60b2143147f0fbU, 0x2c82de200052d19U, 0x2d2918e0ef5b14cfU, 0x11fd66c8491ba038U,
  0xd44362a3a46267e4U, 0x2d62ce113d154a20U, 0x30c2025538d2d6c9U, 0x37fe466f2656d8ffU,
  0x3f2523ce44eed4a4U, 0x52603af44e42eefcU, 0xb7c7d11d492e6328U, 0x7955dd07d6ae5ba3U,
  0x56b8dc15c0ffa262U, 0x1331a6db25a61428U, 0x17c0abc514e2dffcU, 0x58d8050f08b93a4bU,
  0x419d338154baecd3U, 0x6b69734e7613b0fU, 0xf1e052d5439a14d7U, 0xbef15022362119e2U,
  0x2dc9cdebea5129d5U, 0xb4d72fe20dadbb00U, 0x4ce565bed01ced49U, 0xfd56663856b0b7ceU,
  0x530a11c244648e9U, 0xad41c8b518f136b8U, 0x6b5729d0e532d42bU, 0x2c19de12fdd5bc11U,
  0xd1eac2d01dd2cf49U, 0x139ed6811a2be835U, 0x63bb4a5b3eb23fc2U, 0x1a51d3cb20e04ae7U,
  0x24352f150d242cd4U, 0x4cce2cc0ee1314a2U, 0x2403b8422c18dff5U, 0x282ec4e400395e29U,
  0x14d6f1efba47d5d1U, 0xc0e27293cc43429U, 0x13d80a08fe1c280dU, 0xd9fd0fea20fa81f7U,
  0xc21fff22fb19d0f5U, 0xe2372ae8dbe1f0e0U, 0x20b1b19d9f0e4f3U, 0x1636ea372a1dc40eU,
  0xd21910eb1f08c41fU, 0x1335dfe4f80c38ffU, 0x3508f0e6f016e030U, 0x283605dbfafee111U,
  0xd5d5e6d00e15e916U, 0xe6eeefe23f14f313U, 0xec171cd11518f618U, 0x1be8e5271e11feebU,
  0xf2fd15050ce5181bU, 0x1c14c719eaeed228U, 0xeef3e20f1af80418U, 0x17f50e35e12fed06U,
  0xf2d11c1cd9df002bU, 0x41182ade3c035fffU, 0x56c7db21a5f34b17U, 0x37b402fbece1f252U,
  0x5ed9c5e2e92b3dbbU, 0x4d301a370a475bc4U, 0xe2452c0274de34aU, 0xc2dcf0fcf7e41308U,
  0x291bbf2c16ff3f4aU, 0xc230ec3446d7a7fcU, 0xfeefdbd30fc9fa0fU, 0x33ceb9f44913e71dU,
  0xc6b738f1df51d64aU, 0xfd0cc697fcd3b737U, 0xdc0509f23cf5131eU, 0xb4d3d009e20f86faU,
  0xe32c0f15bce119c0U, 0x1d1bcab81b85a634U, 0x1fce81cfe70337e5U, 0xef653fcdcbbae0bU,
  0xb36003a3bd07ea16U, 0xf10e18c454b61fe4U, 0xc0d0ddf29acbe9f8U, 0x8ec1b402da211b9U,
  0xf9d2130c50c9cc14U, 0x1926d66824dd42e7U, 0xc00260193cec178cU, 0xd51118afbd3b0924U,
  0x84b5b1502eb60129U, 0xb2370d1df4e8ce04U, 0xe7cc56cdecfa57f7U, 0x30c7071b17bbde00U,
  0x330cd20cf7d351b4U, 0x38b7e40158dc7018U, 0xf55b3e4199d6ca1dU, 0x9f32f0339d2b30e3U,
  0x2d375de843d1bc8eU, 0xf4ac1af657dfb4d2U, 0x81c1ba0c03c5dd32U, 0x2246a4570d38c630U,
  0xed94225ef5d6c6edU, 0x33dc3df6ef22a323U, 0xc42a6ba4fc016b2U, 0xfd0754e131cbf0d5U,
  0x15d8edfc1bc4bdf4U, 0x3143dac512f1bf02U, 0xe577d501f3f75f44U, 0x51046da34839345cU,
  0xe802001ef558d52cU, 0x1c19b8d4099dd96cU, 0xdbfefb12f1e533e3U, 0x1400c3230ae224bdU,
  0x16a4a5f5eef1571cU, 0xe52813ca34ffba40U, 0x37463927245381f3U, 0x5012da57d55623f2U,
  0xee17530f5cf6c149U, 0x25cb8dbdfae3116U, 0x77c324e8f813a7c5U, 0xe71ef00235249f24U,
  0x8523da5523461eaU, 0xc89a2f7fcd9affe6U, 0xc611bfdc5432bf69U, 0xb514ffb40a68ed0eU,
  0xc9ebc44e3d4e2b11U, 0xdde947cdf8ae4228U, 0x9297b64b25f9fdc1U, 0x2ad60b10e4a87efbU,
  0xaee32cde41ebfa3dU, 0xf92de987030047e4U, 0x4a6ca3aa6f12122U, 0xf62eb7f9cadc1913U,
  0xc835fd01f9014ecaU, 0xc52ce62cbdc7c2e7U, 0xb148ed90f4a301dU, 0x1cb6831afefa2e03U,
  0x23b0e919e44f59e7U, 0xb44d24003d33372U, 0xcfb34ffcb9fc30f4U, 0xfebff1d82aed48eeU,
  0xc4e2fc23c3244f34U, 0x21eaafbd43a8b730U, 0xb79310f72df18117U, 0xe2df0712f649b833U,
  0xfa2a47431cbf20fcU, 0x388160c231c4004bU, 0x36b02754293920e5U, 0x330d4b07500de906U,
  0xaab231d906de46d0U, 0xb2d32e0c171b2c23U, 0xd0b413b7c7f12916U, 0x17dc1ced07ebf834U,
  0x46ec484b09edb9b4U, 0xcf337f734d0440bU, 0x2adff823b356e23bU, 0xe8a64ee4edb0eae3U,
  0xd4c84b0beb3c27c9U, 0x25d7bc24edf611e3U, 0xf260673eb5bcd13cU, 0x134259dd423a234fU,
  0xc5abf4360f352061U, 0xf213e1b581f31a0dU, 0x4a0ae1ccd706c920U, 0xae883538acc006eaU,
  0xfd8bee0ecef14891U, 0x11b74ddb03f94737U, 0x31f86512d2f6ef1bU, 0xace4149c610c9ecU,
  0x91b802ddaf1ed6e5U, 0x4628504f2c625112U, 0x4f11dee7e9bf10baU, 0xb7520adb1a1cf001U,
  0xe2a4d0d034b52115U, 0xfd3e22f32d21251fU, 0xeae0c719dc3a0d18U, 0xdb505dd43526d8f0U,
  0xbce60cfa09cc08e5U, 0xfcc1accf40a3edbdU, 0xc33c549e1820cfebU, 0xe9dba55ea09f0e27U,
  0xd8e1103abaac66fbU, 0x21d8c7d544d7e122U, 0x9ecbb2d11cd44ed4U, 0x9fd909d0a9182cc5U,
  0x15fe04bf2bd3b512U, 0xd31ee3c916f1d3daU, 0xb5fe251f2929cef0U, 0xc9c7c7cedd35293dU,
  0xca0926d2a9c7ea09U, 0xf004cb25352005ffU, 0xb3fbfcd5adca03dcU, 0x22f7271fc1257fd5U,
  0x1f150ce4c011a10cU, 0xc6e6d5b8cfe30f02U, 0x9f9a8143ecbcc02U, 0xd22b0f00f9b65bfaU,
  0xd918efb417b513a1U, 0xc82fe44e3ed53202U, 0xbc5dec03adfb316U, 0xcaec0b34cb3859d8U,
  0x506273b35da2102U, 0x4a1804ff41aba4c2U, 0x608110604c070dd5U, 0xc1eaec7610ded991U,
  0xbe02451458ba0904U, 0xf62e2ee1b825eacaU, 0x51324f501b4ef51eU, 0x33360919c5e1369cU,
  0xb25825c33e47ccdcU, 0x461c50c21905bdf6U, 0x51064ae7fa3cc754U, 0x50f1f6412a3b426aU,
  0x9b2ee9cfaaeb0631U, 0x7dc4756ec25f9e1U, 0x4f5510aebb961b6aU, 0x3424c541a6502c17U,
  0xf048a5d1d13032d8U, 0xc74ebc8a3ccef44bU, 0x3cc45f402e85943U, 0xa8590ed8f315fc0eU,
  0xb8e5eceee7eaed2cU, 0xc045bdf11ff01b05U, 0xbac907e4e54bcdfaU, 0x6eba46ddc10f48e2U,
  0xd79d52b02a525ae2U, 0x3b44f8b6eb65a23cU, 0xdb531be3c40c19cdU, 0xe4a809b525c50b46U,
  0x4b50b2b42f49eabdU, 0x2ceffd6f883af296U, 0x2b0cbf3ee4a2410U, 0xc6860609bf62a51bU,
  0xedd361c5aaf01f18U, 0x53782965345f4d95U, 0xfea26813d22f9e2U, 0xc0b1c15439cd67c6U,
  0x31ced9ed3842eeccU, 0x2212ad0ec86647b5U, 0xef7651d23cc2ceeeU, 0xd4d1d62c04a94156U,
  0x4039d8e5e0087aeeU, 0x3ac300a933fe53b2U, 0x1eae351e10b80fc9U, 0x505f41b6ea0f345eU,
  0x44beff2f1451324U, 0xc11cc940b3eaffd1U, 0x1520c53fefd720ceU, 0x10b732e13ead4aeeU,
  0x53fa2781e0a9c9a2U, 0x282605e1b1b6eaeeU, 0x1a94cfed27563817U, 0xde4e353f159622a2U,
  0xfefc48abf624e2b9U, 0x23f6ef92ccb5ce3bU, 0xb3d3e1fc3c1c3a06U, 0x405ce03af1ce407U,
  0xc5fa37b2d2185025U, 0x1a9a3751184b1bfdU, 0x119bd33ae054d951U, 0xe7afb271373a4cadU,
  0xb95f321dcdcae7e4U, 0x50c359c3d12a5809U, 0x24451fa9f016e4d4U, 0xb27e1a6ac4945cdU,
  0xc8373a97bd0b405fU, 0x25d805932c36c7d6U, 0x7f0ffb1ec1f9c2feU, 0xe4541ef41a10e9c1U,
  0xf25410b760dec8e7U, 0xd731d4a3c6404596U, 0xb1adbfc451ecaf7U, 0xf1f2bbbe03ebd922U,
  0x123fb8ccc23dddd5U, 0xc32cf9dfda41db00U, 0x318b72add6310ddU, 0x7024b6d827240228U,
  0x2b414fb428d55839U, 0x481847fe1b242dc7U, 0x5ca542b60335cd58U, 0x394dc3f22a3ccf1eU,
  0x354748040ef4cd06U, 0xe91eded7c4d3f41cU, 0x87e8a9c20ee7c1abU, 0x1a673fae4ed8f31aU,
  0xb2070c6a09d96addU, 0xbaffa67af6bbd440U, 0x2cacb91c417c0c15U, 0x4ef8e9f700342614U,
  0xfc11a8de96e23f3dU, 0xeddba3f1706a1babU, 0x3a5ae80644f3b7c7U, 0xbe902fffcdbb316U,
  0x207f0f3905e1cc5U, 0xf43e5a009c5d839U, 0x45364709daac4c3cU, 0x5baade174a21d114U,
  0x9bef3cc7e8ac0e25U, 0x2a5b12e0191e254eU, 0xfc43b4d0af7fae1eU, 0xe024ab77db53fdf9U,
  0xd4fd3dff1c18c7f7U, 0x44a73b2b9afc4ec2U, 0x571f97cb194496d5U, 0x5ec40ad3a40e412bU,
  0x1c25ee626c140aa3U, 0x6daf00642fe20106U, 0x44c615dcd8e73dcbU, 0x12aed70b11675181U,
  0x3ab8ba2d415dc072U, 0x4cbae8ddb33c9e50U, 0xe5a1ccf259e6ebc0U, 0x1c3249c219b443f8U,
  0x9c6289c14045420U, 0x5718bb4b9150b1d1U, 0x238bb0bb393c62e3U, 0x156b53f3f4e562d2U,
  0xf2c3cc3dcc15de11U, 0xc73137b028b2671cU, 0x932342098f60cae6U, 0xc7042a1057695360U,
  0x6b04abe8e427301fU, 0xcfe6f8400fdceb1dU, 0xeac2ecea113a2ec6U, 0x70c2bf3fc23e509U,
  0x511ef2d1126d933U, 0x30fefc172b2db7e2U, 0x16c5d40136253116U, 0xd32a06ee0827980cU,
  0x26f52e3c02c5f2caU, 0xebfd2d17d6ee041fU, 0xe6db1af4d4294612U, 0xb2b3fcc12d981cbU,
  0xea2ef618d7213817U, 0x2100eb3f01f7fbddU, 0xcbd13c261906e844U, 0x15d703cfdb459d4eU,
  0xc218dc3e31f7f01bU, 0xeea90fe8ba14c217U, 0xaadef7be08b7cb2aU, 0xf22101ebeee4b317U,
  0xe4f2444cf8c7c6c2U, 0xf3c133072ffae534U, 0x54db1753da0e07beU, 0x27415acdd5b702f0U,
  0xe8ed09df26eac313U, 0x63db29eb02c00491U, 0xf5d8ab1e06370dd7U, 0x4eff2ff3fdc00050U,
  0x212e4b731ce4e50U, 0x7f35c42634e511f9U, 0xe13714533fbc18eaU, 0xdf25ecb74df9c5b2U,
  0x9fb106f5a3c24208U, 0x63598e4c283fef33U, 0x18f2041cc844ba41U, 0xc3cf1fdd5ed9fa3bU,
  0x9b0fe4341e1451d2U, 0xebd714effeddfec0U, 0xd51abe104dc4c9ebU, 0x2d4fcae9f7d6dfe0U,
  0x98f0e0f0d90c40d3U, 0xd81c3ef72707f74eU, 0xbdffdc9ff9201156U, 0xea03ca5df040f842U,
  0x23b01019fcb91427U, 0x44ed4e80c0920d3U, 0x2334bebbcbcfe55U, 0xafb06beeaf9e1cfU,
  0xb9e9e8e110200bd5U, 0xc61c1c35f9cd2eafU, 0x2d356d50107efeeU, 0xdfc6e2c7c463aaa7U,
  0xbafce611cb49fcafU, 0xd64711f8cedad50cU, 0xce021beec5bfbe3cU, 0xae373d4bccddf620U,
  0x152fd52d0a0e01bbU, 0xf315cb9e7f11161cU, 0x911e33e80ee1dd2dU, 0x830b3c42a714a345U,
  0x811f31229d451ffeU, 0x44201a0d03444645U, 0x4543e901f7ae2c0dU, 0xc03523b2974320c6U,
  0xeafa42e5fcf2fe43U, 0x2bd49895f43213afU, 0x702b736f6d0f1ecU, 0xbe42cb3f12f1714U,
  0x293dcaa4f0f15702U, 0xd4ec2f02a4e0f117U, 0xf0e9e9195645a6c5U, 0xccdbde853c537f33U,
  0x2963fcb30eeec6aaU, 0xf021b9eb14fe4bU, 0x2f0d3c604330229U, 0x783fedf03dc8e3ccU,
  0xfaea1bf22f481bc7U, 0x4f5fa41f4c182ceaU, 0x34ff01c80801fed5U, 0x24de02f4c6c4fa10U,
  0x99dae805ab56283cU, 0x15cd190327271d0dU, 0x12f55ba1550f9568U, 0x4f75e9194eb355c7U,
  0xf7045253e1b2990bU, 0x7b12a020373e2eb2U, 0xbe0c373e55bfd90cU, 0xb7d550c62b6ba7a8U,
  0xe7654b3eeb2949faU, 0x3258d2c51a8e3185U, 0xb911bb2e383302acU, 0xdfbc8bc1cdf2a41eU,
  0xdcecb1e84abd67c5U, 0x23d1fc2800040ba4U, 0xa04e7ac304341263U, 0xe13f297b5d7fd34U,
  0x39d55941c3556e65U, 0x2ccb9c174b16bca0U, 0x4cfd2d28da50a7f5U, 0x1d57f4725be0c4dbU,
  0xb22b0ce5d9437fa8U, 0xc5e717231a3481e4U, 0x26bc2a145bf445bcU, 0x4c22f4fbe4423e0cU,
  0xddd339511cd1e84U, 0x55f63a2ed033262dU, 0x26cdc011ece1efc5U, 0xefad37275725e4bfU,
  0x67fc1dd2e4494821U, 0x429f2b3b002aa12eU, 0xcf3ad3e510d21fc9U, 0x30fa45fdee478d32U,
  0xd1e64061bfc755e0U, 0x10c5b42aca4ede0fU, 0xb83dce370a2ac40dU, 0xde4c2c344a4e0df5U,
  0x604497c04319cbe6U, 0x420411244744dc2eU, 0xdde1033beff9f4d8U, 0x11ed69a8ca32d406U,
  0xed27a8d0283d0b9bU, 0xa1fe5baf7e0d3f3U, 0xf5213926f5cd26d1U, 0xf03dfb81aa444a09U,
  0xcc0f301ebf0cf60eU, 0x20cfe02e10200c00U, 0xda26e949b433e538U, 0xbefe1aa9b70b2f2fU,
  0xcd27d8c517ed2726U, 0xe24420eafa43c7feU, 0xe9170bc9391b1e39U, 0xd6dd3c0611dc2ffeU,
  0xdd092719d6dce123U, 0x25c8fbed1633e33bU, 0x2937e33fc7c0dd4aU, 0xb8e521fa37292e07U,
  0xd6d0dbc243d42cf4U, 0xecaa0cb2ece2063cU, 0xcdda044dcad9f419U, 0xcfddd1fddf7fb3aU,
  0x2534fa0432e902baU, 0xf73019ec39d81bfeU, 0xe4eaefc7fa182202U, 0xf929050fd0de3910U,
  0x82117fa0fec1c22U, 0xc4360c2b3ae10f0dU, 0x22303ef40b15f421U, 0x3aced933e6e0431eU,
  0x332fdbeb0b031111U, 0xfa35110b30222d27U, 0x34feee09f21816c0U, 0x3a1bd6f04b31040aU,
  0xf20df2cb36151312U, 0xbed223012c0f150dU, 0x26f80ee9e4fed2c5U, 0xd31ee015ed1a10U,
  0x17f006e6e5e3f7b4U, 0x12fb0ad2051315d8U, 0x2a12142131f5a90dU, 0xfc2008e821e0f1d9U,
  0x7f18d1d144e5fa16U, 0xfbaa0de9e319cdb1U, 0xd59213dcd9443d2aU, 0xcbd7cc11092f45d4U,
  0xb5264aca241d1365U, 0x1e9d04d1c4922fe1U, 0x149ce74440f7d4d9U, 0xbc48e3f3a236362dU,
  0x1dd124d39e42e7d3U, 0x8a2ad1eaa8ad90bU, 0xdd8149bbcf55c6c1U, 0x1bcbdc09a83f04dbU,
  0x33928e53cf8f1b7U, 0xf83aad2a7bed715U, 0xc624044d34c9e50aU, 0xcfe8e0f037ba2142U,
  0xd2e33ac84bb34e11U, 0xd6992e890bcb0004U, 0xcd08bcfa18cbc520U, 0x4eeb13e945db2600U,
  0xcf06d1c54c12e33eU, 0x9e09c930e8dc14cfU, 0x2bea330ff0054a41U, 0xd0c8f435370fdfd6U,
  0x323125814a175ed6U, 0xc5171536451c55e5U, 0xd0f3fbc2e4ce3d33U, 0x561024d22d332331U,
  0xe73be5ad1dedc9daU, 0xe9be281dbd1dd0e5U, 0xc4433d46d33b33b0U, 0x60cff6c8cc34cfe3U,
  0xce16210fde4de339U, 0xf0d0ec2703bce733U, 0xd82198ef061a23ebU, 0xc2e41e0dd5c3d831U,
  0xb7b51d1de9e5e507U, 0x1aa930d50eccd5c5U, 0xeb18aab61aed2bedU, 0xd4101b06f7e6ab91U,
  0xf9313a36c108cc37U, 0x455d5e5d45bcfccU, 0xa905d6c1fe0c5bb1U, 0xf0001a3f05b9a9b3U,
  0xc2e9e12aa7a4ed20U, 0x1e00b2e9b5274fa9U, 0xcbe4dffc0f251de0U, 0x300e171209fce7e9U,
  0xb9d9f6acabc43a2cU, 0x8a7d9b1c0f90bbeU, 0xe65640e11e1707c4U, 0xdb04d2ddb408aabbU,
  0x2a4029f739024502U, 0xc847f0ac0641f9edU, 0x3ff80d06df56e7a5U, 0xe74bea504b343417U,
  0xafff0f9f352fcf25U, 0xda03e9ec0f69fbacU, 0x27356dbd29d5c84aU, 0x1ef8d320d8ef2dc8U,
  0xc8db062bb7f87f49U, 0x31cf318ce31505beU, 0xfcca2d3b03eb3547U, 0x2840441806207011U,
  0x37b745520b4f4746U, 0x4eedf0ccf6e508f4U, 0xd0b9ebf4e4f47055U, 0xf44314c395c895faU,
  0x24e0bbb6ed40d758U, 0xb5065e9ad6a936e4U, 0xbfd9c416d2447f37U, 0x3d1e28bc65b8d508U,
  0x2b4e1fa1f8b0aeb4U, 0xf7c70d0a2e0a0b52U, 0xf230e643aff4f9edU, 0x48060aee561328b6U,
  0xb122d7e919cd1899U, 0x3a00d883301a234eU, 0x20c0d341c123d9f6U, 0xb2098ba2fa051e31U,
  0xad0349bfe9ddaa3eU, 0x3fdbfb3aa4ed5957U, 0x63a581e38660db26U, 0xc22fc211580de5a3U,
  0x31438f67d993b72eU, 0xc92fc24bc7eceb13U, 0x19461b4a07cf6b38U, 0xee441fd97288af2aU,
  0xe2daf5130ec12f2cU, 0x9d5f0a20b51bd522U, 0xb067f859f107a4f3U, 0x2c182729d5d25298U,
  0x4bf6da4932ab4b0bU, 0xad17d8a0d862c6a6U, 0x222687dbabf266e6U, 0xc7d14632d54ae6a4U,
  0x811c1b48242c1334U, 0xfbcccf20a510c257U, 0xffccee904961e3c4U, 0x16f74c8653118c41U,
  0xb9cad842b4d7fffbU, 0x88c308db21f3cecbU, 0x83b1d0ebea1ada27U, 0xa90ae0dfa62cf91dU,
  0xcafc11312a271eeaU, 0xed081561fcca2f25U, 0xfcec6ebeef43903U, 0xc6252fad15d4bcc0U,
  0x9c5fc1eda3d81fcU, 0x2a33c9c853bf4bbaU, 0x73f15eba6f7a635U, 0x3fdbbce8e8e9e6eeU,
  0x36e1ffd508283f18U, 0x3536050767bff81dU, 0xab36f0f82fc9b3d6U, 0xee19c91b3f2caf1bU,
  0x902aef113714e5acU, 0x292f37d7f0abb720U, 0xe129b10afae7f0b8U, 0xaef0492ef8d2e0caU,
  0x3208f517e0de9713U, 0x2616fd07513001d8U, 0xeb05270cd82d6c9aU, 0xe4d2da3954eeb2ceU,
  0xe10845b30757209fU, 0xde4f97fe7c5a8f7U, 0x5318dd12bde90c46U, 0x364643cc291cedfbU,
  0x3b38d8e913cb991bU, 0xfd05ab76cbe51a4dU, 0xf527e7ad2fb42740U, 0x27d5f5b20997c2efU,
  0xac1cea5fb2eb14d9U, 0x2bc01920003a02f5U, 0xfef033eaded72cc2U, 0x34293c1d0b304af5U,
  0x8bc7a4c3e94bc8a4U, 0xa2d79d5e51e4e6fcU, 0x36f0b99dab71e343U, 0xefc227cd25d01d0aU,
  0xf0174056aaebf1a8U, 0xe23842475505f11fU, 0x377f293db8e2001bU, 0xc21b5758e4b8b1c5U,
  0x4e3b2806d22e163aU, 0x23ee3c27d33bced1U, 0xefbdd1b6eb3a3951U, 0xefdee2de1bfdd5c9U,
  0xe1e7b49cbce3253dU, 0xa10253fad8091214U, 0x53f2d1a2414654d6U, 0xc013c54040b1c847U,
  0xba255841eaa1d4c1U, 0xbaa232f5ce31de0eU, 0xeff48b72f2dddcfU, 0x2ad614fc303cd6c4U,
  0x271fd5f9412e1eceU, 0xc213b147b82018b4U, 0xa2111bace7d4d027U, 0xa2e738edf6f81722U,
  0xc52fd5ffd040ea36U, 0x3b56f505f2df09dcU, 0xf57d3b5c8554fd1U, 0xdf2b084802e206faU,
  0xbc16331cb7f031f3U, 0x38f4a1f499cdb635U, 0x1f8aedeec42daf4U, 0x12c1b0422d04d7ddU,
  0x29c22c27b3df3040U, 0xf1d930fff4c854c5U, 0x3e16dbbb3d1017f8U, 0x621fce1631ec22c8U,
  0x36f5d1b6f2a3e03fU, 0xc7e9d5ea36fa5d01U, 0xb5d006386158f4cfU, 0x70d71e4cee3835c9U,
  0xe681fce8de00f5ecU, 0x9d6320a913ec1135U, 0x349cc64d351b4238U, 0xb5bc8a05021e1f2dU,
  0xdf212cc9c6e155ffU, 0xb50e17f9cc41b122U, 0x13b4e2eb2ec78107U, 0xbdffad51f02ea16U,
  0x15bd133adae31a90U, 0xeecc040ef53525cdU, 0xe1c6143a3aea30d0U, 0xe7ac31d30d3106f1U,
  0xb508226ac9b6c393U, 0xee5c51cb385ddd4cU, 0x3ac5c0b52fc34dd9U, 0x40103d61b2bfcfbbU,
  0x1b171ecdb73ca50cU, 0xd3eb38005455471eU, 0x285f27ddbd47ebc3U, 0xc040e816ec3c27e1U,
  0x5bd23636dfd9ad2fU, 0xbcf1e9ef52afbcdfU, 0x29bea058142e6af4U, 0x1bf3c626db5996c2U,
  0x227d62828573e39U, 0x1231f00a1707b920U, 0x2b61515c343b0a28U, 0xc1d35e53facaf87fU,
  0xea0cd85023f46630U, 0xe60ddc1ddbbc1fefU, 0xebf70ce8dae64524U, 0x1eede0faabe0b0ccU,
  0x34470ee03ef1efd0U, 0x90ed3cdc2ddbf5eaU, 0xe82f2bcf1eb133d2U, 0xa70ea0bc3c05ef1dU,
  0xfc341b81102a7d3U, 0xa0afdba2d5abac34U, 0x22f8c86ec02cdad7U, 0x2ee9ab9cbf170918U,
  0xb14945c4ba4830f9U, 0xca03fbfa049eb7d7U, 0x22ca06a930a0623bU, 0xd7d557f80050aff7U,
  0xecaba1d483e0d2d4U, 0x1c2a4ffc33b0fd44U, 0x91edea2904103ac8U, 0xb1d0dc63f148f49dU,
  0x3233b35bc3b4e606U, 0x4506d706feb9ccdcU, 0x4807bf3af6023102U, 0x334d1aa12c35480eU,
  0x2bebc83df6eee830U, 0xf7eed398263c0211U, 0xcc34ebcdf04464e1U, 0xe508aaebe3be865bU,
  0xc1edf9acd8632fbcU, 0xc65db5ef2b8163f5U, 0xc7e2d4e0555d5d33U, 0x6b1c2267031c37e7U,
  0x4216f0b8edd60cfeU, 0xdbad132ddd9e331dU, 0x39039a1ddc30d4b6U, 0x6cfdc04f7e930daU,
  0x18d6c7d0611bba82U, 0xd6ba413eba8a3774U, 0x2ade30563c22a71fU, 0x9cc6f7f32c993ad8U,
  0xa2ba04d7fcfbfb11U, 0x19086227ec5bcb47U, 0x36860afffd0842e5U, 0x737fede772d4bac3U,
  0xc91ec86a6c452aa5U, 0x42520862c2ca4738U, 0xa945f020dec0e0fcU, 0xe0e71ec765347e5aU,
  0xf80a0203da3a0fa0U, 0x1599854267ee9d06U, 0x3f1c48cca7fa01faU, 0x6d531230eff6d91eU,
  0x2f2eda6812000efdU, 0xa9e313504048a618U, 0x62c0ab3899f25a0fU, 0x76dfed57b7be4866U,
  0x1fbfc353df1bc0dcU, 0xc50c65b8240600c1U, 0x2e891c1f06a69527U, 0x3932edbf19c8dadfU,
  0x39481ed5085dd417U, 0x28fb1c9fe83883c5U, 0xd5ecc30dcc42f137U, 0x3fc7184039533f5aU,
  0x39cd2435314b542aU, 0xe4f6eaa1bd21c8fdU, 0x43a8dc0e05b3ab39U, 0xfaf5602ef102df5bU,
  0x5f0f194146d23832U, 0x3007bee5f3fba5fbU, 0xd60527e736a854c9U, 0xf660adbcfbdee34bU,
  0xbe34d1ffcdb6600dU, 0x40fcb001bd0895b9U, 0xbee47f9eab235deeU, 0xc4fb6eee527e204U,
  0xf020fcd51108d5f5U, 0xf92831e5f8d63013U, 0x3c07490312e90c25U, 0xc6b8c8035412e035U,
  0xf7edf30ab13e1715U, 0x4236a505f9d21e4bU, 0x30d2da70bd64cf8U, 0xde3dba2905331124U,
  0x22fa0227c7dbbbfaU, 0xd7b5f02bcb4b18c6U, 0x36549bf8a82a6512U, 0xc801fd9b1209fe26U,
  0x1b1fe1013defe236U, 0x1e10f5f28194d3fU, 0xf6e9c4fd31b539b4U, 0x1ee440bd32e47d0U,
  0xbd0f1cc7ea070e08U, 0xb0bfe5c9d62f47d1U, 0xb17d63e5c87bc4dU, 0x1e3efa845d268e08U,
  0x43e4beafb8e3811dU, 0x1cf0019267f2e1c8U, 0x3771b6250e32ce9fU, 0xcbe840c8e3a544e5U,
  0x13adc8f7264549faU, 0xaa64ae4dd02edf5U, 0xce382bdead0c149bU, 0xf108e4d20c50d7eaU,
  0xab0010f63f5dc6acU, 0xcbe0226be8092030U, 0xe393dbec0a4fe806U, 0xb3dfc73ace4b5d0aU,
  0xe5a6ab5a48a9e7cbU, 0xce1554f2bbbd06bbU, 0x41f4d9eb5414bc38U, 0x2f660c1eee4469c2U,
  0xd8e3281449a538cdU, 0xc351259e1f81ee45U, 0x1bba0ae309e9e206U, 0x47fba71ecf99101eU,
  0x333b50b6c0ef12bbU, 0x1f1b06d5f2290711U, 0x4d11d4fc5de1936U, 0xecd41f0bc4f214afU,
  0xb8c7414311c32cdfU, 0x2e3434dbce2e07cfU, 0xc8bef2cdc9f337f0U, 0x135bb33ec03ec07U,
  0x4ccdb0f8c645ead8U, 0x2ac7f7c6e4ed20deU, 0xb7e953ed014c213eU, 0x3137becede15c8faU,
  0xe81eeaf8fc310dcaU, 0x6f2cd29d6cb0e02U, 0xcf3c6eb20c1306faU, 0x494eba06164e8110U,
  0xd1e51c1954d3c93eU, 0x2dc12ddc25f5ca0aU, 0xacd50f33cae2b2faU, 0xf8071520f7e88516U,
  0xb1300314dcbc3f63U, 0xf903e0a315df06c2U, 0x2436c337f53723c9U, 0x3c0d1cd4caff3bcbU,
  0xdb0bcfc5b5d2dce5U, 0xd5020933e340db29U, 0xcac1c623f2fe1e09U, 0x3412dbd318404bcdU,
  0xbe41e31530f43e3dU, 0x6210c1f1ad2cc0dU, 0xd62c0fd5de36ee30U, 0x2033bcebc9d82b38U,
  0xb7e5321719fbcf27U, 0xcbdb2ece154a3dfeU, 0x12f7ff27f40e00fdU, 0xe826cd310ae4c81bU,
  0xafe00636e11ef521U, 0xf9e3bfedf0357f17U, 0xedd0042bee2e1916U, 0xe6e11a0c28e50ccbU,
  0x21ffef1e33b8a308U, 0xe6d71ae2f3dc38daU, 0xeecdf94d2600c0feU, 0xcc4a08fd0d0b42ebU,
  0xf51b3f25fb272726U, 0xcbda4a2adf20e5ccU, 0x26f4f4ee08c2f8f0U, 0x1dd9e3dcd5d51002U,
  0xc5f2e1140ef005caU, 0x1826fd0f1316e7fdU, 0xcb3226fd17dfee3cU, 0xcd0f40fe2305f20cU,
  0xdd3ce9d61339111fU, 0xc614c0c6b5092909U, 0x96ec35ca1b0edccaU, 0x112533fa050282d6U,
  0x1e06f0f73cd735d3U, 0x2d19fa1814eec3f0U, 0xb2cbe5ddecd3eb3dU, 0xb7e72ae909d38114U,
  0xf7ca11fb190f4014U, 0x5023f83b1942faeeU, 0xf540ca0d01247afbU, 0xf5fad148f31488d8U,
  0x350609e4bfd7fe32U, 0xc7f3d6e01004efe7U, 0x50b4f44108e8fdabU, 0x141d472e0131d1f0U,
  0xd3d64d32bfded50eU, 0x26aafd00a816926bU, 0x5ea8fcdbf6483e06U, 0x6319c9e1f8009d53U,
  0x162bfb54d2375ba0U, 0xd9a518090fbc9cf2U, 0xef8342f212a0aceU, 0xf9ffc0d1ccab9cc6U,
  0x3fefb3ebbbf10f37U, 0xb81a10afa13b51dU, 0xfdb8de4fe2ca11c3U, 0xd509113209e9d6dbU,
  0x50f4db29c539893cU, 0xfa44bff2ee1bfb1eU, 0xa404853372d9b18U, 0xbb1f1dadd3d9144bU,
  0xe8bafbddb6c11eb0U, 0xed1ebaf4b6f1e2a0U, 0xfa361fdee8d2b1c9U, 0x2105d1c62ad98168U,
  0xec4b04e5a81200e0U, 0xb9d4baf5e6402f1dU, 0xce0ef610c1241bf8U, 0x4739ce1d42c95e14U,
  0x4fc950eea242dad3U, 0x6c27f6e40610ffd0U, 0xd834f23d57e495cbU, 0x3907f102b5432c28U,
  0xbacfe7c528c50c55U, 0x790fd12aecff2bddU, 0x33511f33d1511663U, 0x121e1e254615e819U,
  0xca04ccb025413e35U, 0xc403edcbe4b44d3eU, 0x131937eef9d54d1eU, 0x1b1d1e0d2f0d3525U,
  0x1a171f22e81723caU, 0xf7ca132742c21303U, 0xd01b24f83c08fe2dU, 0x3de7cf283aee2737U,
  0xe92ff6222bd6c90fU, 0xe4f84328d507f031U, 0x10fdd027f302f8dfU, 0x6827f1292b4408c7U,
  0x222707d73b25fde1U, 0xcd01e533e2f832e6U, 0x2c01f9dff10d22e0U, 0x1618fcee4025553eU,
  0xdbed304df022c5c7U, 0x1c44ff3bec0dde0aU, 0x1cc0cf2303d412dcU, 0x7f2e552a4a0d02d4U,
  0x351319fee4000ef9U, 0xa305361281c7084fU, 0xfb590edee50cbefeU, 0x4e623d0cc3206eeU,
  0xceab4101e4b550c9U, 0x2ad4ed0eacfae443U, 0xe3351c314dd32afeU, 0x60d40030433dfafbU,
  0x64c739d1e11614dbU, 0x4ee9e1ad0527e708U, 0xdff0efc33f06eae0U, 0x33f140509381cd2U,
  0xcae10b0e8f530aeU, 0x4b29dd3fd3e33db8U, 0x93c6220754feb2d2U, 0xd12e30f207ce5fe5U,
  0x2d0df9fec7ff4031U, 0x4dda931ed2afca3U, 0xcdee2b23230c2010U, 0x2db31c0de1244457U,
  0x1e38ef47623fca28U, 0xe253495af830fdd1U, 0xedd1640c46eab334U, 0xdc81962ef11f9e3U,
  0xd5def5b7d3e43265U, 0xc9c1db4cff5012fdU, 0xcb4276d9e1e112e7U, 0xf229faffe13e0d62U,
  0xeacf24ca4bcb1744U, 0xe619f75612080ec6U, 0xc217fdcce3d026c1U, 0xdfc43a5050e7ccd5U,
  0xeead2551a3d4c649U, 0x32c6d4a311e21c1dU, 0xe7011dd5e429e415U, 0x3cf4c4b0bde61144U,
  0xad1432a02dc6c5e5U, 0xe1ce6c81b2f5fdf3U, 0xa852b45818fb4703U, 0xdc0e19e4231d9850U,
  0xefbdfaacb33cbad2U, 0xad4c730bd473528U, 0x2f14d2e3e9c414efU, 0x2ac6b5dafd16e9dfU,
  0x18e43538c73db6deU, 0xa3fa25d8241d22f7U, 0xf6e0c24ebc3e2f22U, 0x2adbef400015812aU,
  0x3fb43f446f6bccbU, 0x2221d51d394af8ccU, 0x413bd02b1d0a3b31U, 0xac61512d24bdae7U,
  0xc9330f4007cb56beU, 0x12de11081af9250bU, 0x19fe2f1fe805d6cdU, 0x3dd3caf43749f12cU,
  0x200437e8ea29bf03U, 0x6314c2bed5e6e7c3U, 0xda1dfd47f022c32fU, 0x3318311dbc01d00fU,
  0xdaeedae73ab9f138U, 0xf135231d255222e4U, 0x1ce06cc8ee1730efU, 0x6024e83103b3df41U,
  0xf927fd28de2a0bfaU, 0xf1def5cbd3f7cf12U, 0xfcff2b2309ddd60bU, 0xe7fa2dd71034b1cfU,
  0x32efed2933dddae9U, 0x3e3dbbe5eedd2c05U, 0x4efbdfd5c72745d6U, 0xda1f0d4733f6fec2U,
  0x131c27bfe5f1ccc5U, 0xd00e34d627c15aeeU, 0x5af6033946d2eefaU, 0xa6d03cd220ec812bU,
  0x5c0addfde7e1114cU, 0xe3123fcab6c6c4dbU, 0x45f0312944db571cU, 0xf3806be2e14cf2fU,
  0xbdee1ee825fdb848U, 0xf7aed05b09aa86f2U, 0x430137cec6ddd97fU, 0xd31ed404f2e3df3dU,
  0xa0fdeb651fb8e5ccU, 0xb0e81b2ac834ffd5U, 0xdc6baf7f93f0f1bU, 0xe4e166d9ee2603cbU,
  0xce3046c53a1443d9U, 0x2a56d626ce2e964aU, 0x253e39071349271bU, 0xaede5a36bce5cfddU,
  0x8d262bbbc112ee8aU, 0xbb032d0e164d5ec7U, 0xc03dfb6358422713U, 0xd2df17b506f6b814U,
  0x13c813c1cf399ec1U, 0xd9190af95f392230U, 0x5d1ed65a5627e0deU, 0x26e8c6c3b7c80898U,
  0xebfd98ba323029cU, 0xc7aba3edd5afd251U, 0xdee3180a4f4e0fd6U, 0x1f1dccc52b59d0fdU,
  0xcb1c331f3cf79122U, 0x9b0254db4dc01095U, 0xaad14a282718efe8U, 0x28afb5de3aaffebeU,
  0xf6262911d2f0e432U, 0x55644fd80041362bU, 0x3901ee5e1afb6461U, 0xdeeee522aa019addU,
  0xf8f1e246313c280eU, 0x3a4b93ebc8330cdcU, 0xbf586437f9ede9f7U, 0xa4eb4fdff506ccaeU,
  0x2b26250ea5fe25d7U, 0x8921d9210fb6d8aeU, 0x81be53b684d2d1f6U, 0x3031ecdabd1eccdU,
  0x602dcdd8d306244bU, 0x34363a2a3c0bc43aU, 0xcc1f1819d6f9f9e3U, 0xdcd9e24cfff4a8bdU,
  0x3e07f11231d1aafaU, 0xc8e0fb4b44cfe01eU, 0x47d3f7cf15fe6d34U, 0xb1ba1605e0e4bc11U,
  0xf74b130abf20bef8U, 0xfdd00366e4d713ebU, 0x46f9282b29cd13fbU, 0xffcdf9f51ecfe500U,
  0xaeb8c3f3f30b231cU, 0x162d3006bad8f9c3U, 0xbfd8e024f1ccd9dfU, 0x3b34e6f1c0c1350eU,
  0x4ce51b3af8dfe709U, 0xc615fe8bca19bd25U, 0x90fad4c20d2dad0U, 0xd92ce9d6de1fe2acU,
  0xc0bf328140f0dbd5U, 0x633325dbefbc3911U, 0xeed7c3ddfa1e6ddcU, 0x31a41040ad07fbc3U,
  0xd81fe3b2a1b5fa56U, 0x492216e70fbaf121U, 0xf7bf140c65b9b7e9U, 0x12a2f008fd0fbeU,
  0xf04425cfadc0f1c9U, 0xffee34334416fc53U, 0x53e649f821cc1c12U, 0x3ac20640cc43d00eU,
  0xb2dab3303b1202fdU, 0x2e06cffcd8b529cfU, 0x62c71454c1cef03aU, 0x24f6d4301216bc32U,
  0xdb033d482e0346daU, 0x43e5b67ff1232bf2U, 0xc4507dc240334f0U, 0xbe2e4d0ae0bb450dU,
  0xb6da48721d49ebbeU, 0xcb1bd00128fcec14U, 0xc501fac8232b0906U, 0xf90f281c0dd19ee2U,
  0x1beaccfdd3c3e4U, 0x16d8ddf8291ad603U, 0x6f8e51ee233e217U, 0xda01e1dede2fb6ccU,
  0xcdf8d1ff140bdbf4U, 0x27e6fbeef8df1d29U, 0xf3e5242417151825U, 0x1623e12028ecc0fcU,
  0xd61623d813e1d717U, 0xde2f122e70a0cffU, 0xfcf8041627de30e7U, 0x1bddd914d4f581e6U,
  0xf5d028ef0dfd2521U, 0xce07f5dce5e520eaU, 0xb1e627e2ecdc25eaU, 0xce120218e5f0a204U,
  0xc5c208ccc9dfcdefU, 0x2c070c26c2361202U, 0x13c8dc0f263d3d32U, 0x50b6bc3cd7f7e9c5U,
  0xec23dbafedf5c323U, 0x4dbc3f232e3fe3beU, 0x21b745421ecccaebU, 0x36b3c5cfdbd337f5U,
  0xba30f6bf49ba52b8U, 0xe9e42e3a0cd02af6U, 0x47061c03e82d0afbU, 0xfdf530f565c0f90bU,
  0x24aea9e6cdd90a35U, 0x6d9d838c7601824U, 0x4fecd73f35252941U, 0x2acf37240fdf12b8U,
  0x21cabeb1d0f5d719U, 0xc14df5c8a1bfd447U, 0xafb004c52a53b81U, 0x2ae408b8b3edfd27U,
  0x4513f81e16262715U, 0x21f9a18d5d05863cU, 0x56f92d9dbadeec46U, 0x170d26d69ccff13fU,
  0x2b63b4e4a9f972e5U, 0x2f05d8f4c69f0fd2U, 0x1040c2072cbbdc91U, 0xee31eef454e71aabU,
  0x508564417fdb2a7U, 0xb8c9dcf4cd3023fcU, 0xcd165a45c449e2eaU, 0x151dd1340aa64aaeU,
  0xb408fbd746e8b456U, 0x94552a8152f9a743U, 0x2cae21a63cea9c43U, 0x48e53abcfbe8f224U,
  0x4628ffd637ea2b50U, 0x3d2a4d0ac15e04ceU, 0xc435b2186c45d5b9U, 0xb140200de15e5733U,
  0xa5fffcd102f83d39U, 0xcd62ce02dddd9f7U, 0x4f0834f0d0cf24f1U, 0xe4e60b2e09c90fd5U,
  0x1a4e01c3f2ea16ecU, 0xcc3321df2abd1204U, 0x1ae6bc4712d0d0e9U, 0x1f3b25120118c50aU,
  0xb4f2bed4431d3b7U, 0xfd36ccdbe7fbcc23U, 0x35febf0a0d05c223U, 0xf52a33dbc3070dfeU,
  0xd6320200d82fe0e8U, 0xeae530dd09200322U, 0x1eda1bf64e019e0aU, 0xc00f2dfbf707810fU,
  0xca0edbf43a4feae6U, 0x160add3830dac5d7U, 0x2debd83104f9f3c7U, 0xc315d6dcedf6f421U,
  0xef3343dcf84bc7f1U, 0x6b6eb070cbd1fc6U, 0x3e0dab21cdf976f5U, 0xd30accfcd5c70df1U,
  0x3f47f306d425bba2U, 0xd2f8e67ef6ee3dd6U, 0xdd4e3e0004e03bb8U, 0x1ce9e40f2fd61bfaU,
  0xb4e8e8dfff21c9c2U, 0xba01ceda24d42911U, 0xeaff00b2d50b08dcU, 0xf0cf4930ec48e8dcU,
  0xbcd3ed1443f33c28U, 0xe64e3cc928e5161fU, 0x37f73bfcd2bc1ef0U, 0xdc4b311dba39e9f2U,
  0x2bdefd810d37de1dU, 0x33d03c050ba3c820U, 0xf202deff43cbff48U, 0xe53a002810c89fdeU,
  0xf417dfe422f1b0c9U, 0x410531731028ba7U, 0xd4550143fa220f38U, 0x2498f1b4f5fddf37U,
  0x6ba04636c93ac060U, 0x7f05dafe6c5cbe2bU, 0x4ddfdfb33555e27U, 0xa7f322853ec8afcaU,
  0xc7293e181dedba07U, 0x1b65aebce7400dc2U, 0x7d4fa94d29d183eU, 0xda5a039bc650ff9bU,
  0xe05a2149e252fc27U, 0x3272393ae93406b4U, 0xbc261eb7a7295429U, 0xf6bcd4932141e3eeU,
  0x8be60623ce611749U, 0xfe65a2d5becf9d69U, 0xdc79eb19da266905U, 0xe759b4379f200f51U,
  0xa5323250c33a6a92U, 0x1ef4b53435e0cbdfU, 0xac3081caf9b80e0aU, 0x123fb8260725e4d7U,
  0xb943e530e1bba0ccU, 0xc3faf21430c95a02U, 0xed27db38080bd82dU, 0x22d5c6e8ee05380aU,
  0xffe907da3b45beb4U, 0xc5f4c7ffc7264820U, 0x37e3e2da042be843U, 0x21f3fe0a1ad33bc4U,
  0x30bc0316033e2606U, 0xcace30efebe2fa1dU, 0x13204cce0634d912U, 0xfe0e171fdc222e2bU,
  0xb7c8f21c43c2ec31U, 0xd42d1ceb521e20fdU, 0xd61f221cd4daf5eaU, 0x361229f0311af6e4U,
  0x32ff010b0f27450aU, 0xdbe258074db25dc3U, 0xe1ebd9bef4bb0747U, 0xfcf62d50780df99dU,
  0x3c61bed8194d3619U, 0xb83fe7103b553fbeU, 0x6c120f18cbfcb523U, 0xfc00a4170f1cb151U,
  0x1866b54110d786b0U, 0x2ae0dffa1a4fd5bfU, 0x374329be8141c4f9U, 0xed0affc500dad0f6U,
  0xd32e5f224217a807U, 0x1901fa413fe9a0f7U, 0x791df3d9b5cae1cbU, 0xfa20f50720dedcU,
  0xe71de7fa10b59a30U, 0xdd43c759d9e2b28bU, 0xd3d741c5aabc4cc6U, 0xd5d5b6c2da0bb2f1U,
  0xde990ab1ea48d22fU, 0x32264a271116b31bU, 0x1db7a73f55af1cb5U, 0xc02cb7efe035cd1eU,
  0xf700cf3c9c11b4f9U, 0xf40cea96a2e4e5a7U, 0x42a5cdbdf94d3bf3U, 0xb807d8beee20c6aaU,
  0xde27a5aee7ad25e6U, 0xc43fda36f0bf049dU, 0xbd0ecbf1f5af7e9U, 0xffb1fab1151a3b22U,
  0x21294cfbea49c902U, 0xd1fd283df9412212U, 0x995bfd01e4580803U, 0x41673bf2afdb94fU,
  0xc9270eea6bfa652aU, 0xe225e1e1a71da66aU, 0xf81064f8b3c9d649U, 0x1123d770bcfccc7fU,
  0x1f322f4234bf5438U, 0xb0000001fU, 0xffffffd6ffffff94U, 0x2d00000014U,
  0xffffffa0000000b1U, 0xa600000009U, 0xffffffe20000003cU, 0x32ffffff4eU,
  0xffffff9fffffffa0U, 0xffffff99ffffffd3U, 0xffffffc7ffffffe6U, 0xffffff3e0000003aU,
  0xffffffe9ffffffacU, 0x150000001aU, 0x37ffffffedU, 0xffffffe9ffffffaaU,
  0xffffffe100000009U, 0xffffff44ffffffe1U, 0xffffff9cffffffc4U, 0x6dffffffd3U,
  0xffffff9affffffe0U, 0xfffffff9000000afU, 0xffffffc9ffffffccU, 0xffffffd9ffffffdfU,
  0x4800000004U, 0xa0000000fU, 0xffffffc5ffffffedU, 0xffffffe3ffffffe6U,
  0xffffffd4ffffffb4U, 0xffffffff0000006bU, 0xffffff85fffffffdU, 0x19ffffff8cU,
  0xffffff9bffffffceU, 0x30cc0abb01cbf454U, 0x140b29242ff7323aU, 0xa30feefd371b4615U,
  0xb3ee0851e10911b0U, 0x632a147fe11321dU, 0xed92411e3fb3ebd9U, 0x72c0ef01fbb2c8c4U,
  0xb09c4e8f558d602U, 0xad190aaebcbbd86cU, 0x2d60ad522152abcU, 0xb3f6f5b8d216e28eU,
  0x251e0c8d852a54cU, 0xb232f1143114fd0eU, 0x329fe35318b8f924U, 0xfef209114c5cc3abU,
  0xc91cce1ed1e31b22U, 0xc755f5cc3beb391fU, 0x212d2de658c94b51U, 0xa9fae1dba22965c6U,
  0xaa50e3d85343c263U, 0x12121c0bbdd1162fU, 0xe2de0747170901ebU, 0x4102d7512e38edddU,
  0xe63d390d812808c8U, 0xdb47ce51e3ee233eU, 0x1cd3ed454815c248U, 0x63b3b26b45b4edbU,
  0xa004d473f501a5cfU, 0x3bc7101057e34bbeU, 0xd1ad318ae71dc9e5U, 0xec8f29e4f357bef0U,
  0xb0d4266fa5b4d415U, 0xecd8f8ec0c0caaf0U, 0x6c401bd2171ffbc9U, 0xc9cf8ce8a33de10eU,
  0xbb2ab719e6f114cbU, 0xc53ec6a3f8ac292eU, 0x1adb1d318c0d05d6U, 0x2d125665c1be432dU,
  0xf12845410a2fadb0U, 0xb03216fddbb80b35U, 0x10f3904d5266611U, 0x3d9ff5fb49ed0b81U,
  0x22e5ca1b5d2229e5U, 0xac60394cb7540b97U, 0xd536969b07c3fb2eU, 0xb1b3d7ee8844be18U,
  0xa590d9cbcbfce4ecU, 0x3ed6d42216ec1dc2U, 0xf6be254ba2ddc8f6U, 0x3cb5e7053f381adfU,
  0xeb084765f4ea24cdU, 0xc91cbce52cd0bccfU, 0xcbcd38bdc6eccf0dU, 0xdc2a3c1444341368U,
  0xee4aa5d0efe0b6f0U, 0x5cfeefe8163615efU, 0x5a551304003621b3U, 0x48fe293abd1ee3c3U,
  0x72bbfd181b312943U, 0x7c5150adf81fe16U, 0x1ab6ef1d3714ce19U, 0xe02b24ff0d0f36daU,
  0x11502bfed6e617e1U, 0x34102619bce71c6cU, 0xcb072d63f7d1a816U, 0x7fd71cc5f133d0fdU,
  0x722bf326cf1a2142U, 0x933c281263080ebdU, 0xb3b91b192c03d6d4U, 0x58ebae0f05a4309U,
  0x2238f11dd940efbaU, 0x1447defdd7a638e4U, 0x68beecf3e0fddcf9U, 0xb879230356e6368aU,
  0x97d7aa1f07a1e287U, 0x68dbffe0bc03f009U, 0xdcaea9d35592573dU, 0x1abd56d74b3af9a6U,
  0xcaee08f8e4c20ce7U, 0xa54721244aaa0036U, 0x49eb4dfd1d287f3fU, 0x9dc746f2e7471732U,
  0xbae30612394bd394U, 0x4002b11f0667f3b9U, 0xd926d8013b2d2940U, 0x271a5341c24e41d3U,
  0xac1b0473c0dc908dU, 0xffb2c21dab2c35bdU, 0x55f7b5ee440e3531U, 0xc0c5ea3f5a378dbfU,
  0xd1ffd9d5120d48f3U, 0x3e05ded2cb38f133U, 0xe0fbd8299a576a9dU, 0xd2e136f863ec15b1U,
  0xeb010b082e672d8cU, 0xf223f05806fbd1ebU, 0x2afaf99c57fcc3feU, 0xb8e20c35dad93e0dU,
  0xf2f6dcf742c23e2aU, 0xb11efccf1e0b2907U, 0xf3bd17f148f6e0d5U, 0x7ff4fcbdfac212e3U,
  0x29e42ae43051be16U, 0xe9e8122a41730bf3U, 0xcf23daafeb53d4faU, 0x955113e4f1183c2dU,
  0x79eff5fa13070938U, 0x9e08d1e9c1ef32e9U, 0xa03110e609ec080fU, 0x39c839eb2aee3934U,
  0x37feb526f62621faU, 0x4018f50b4eeb2228U, 0xf7ebdc2fc0d1fc0eU, 0x133fd7c48d4510e7U,
  0xff2d2cf42ad1d2eaU, 0xdca031f7ee6ae8d7U, 0xbbd9d6de180558eeU, 0xceb4f809e6c921caU,
  0x19003a54d6c2f217U, 0xbe1cd81d090efff4U, 0xf906c83a0e2bf0ceU, 0x9e16f400e00a1b33U,
  0xc41fc133271bff0cU, 0x1b8a81c7faf395cdU, 0xacc7f4013a001a56U, 0xb8a552ce3ed7094bU,
  0x121ebc053aea0fabU, 0x7f21145301946ffU, 0xccfd26f1033da9d7U, 0x912e05fd2e4deb20U,
  0x2ac0e3cce9db21cdU, 0xdd031dd9d7b0eb27U, 0x13f7e6cfe8e5b7e6U, 0xfd520ebc9bdd3ccU,
  0xd615c8da4d37bde1U, 0x49fecf0d284f1932U, 0x3f48ad3636efe6faU, 0xc8ba092412ec33adU,
  0x22edc2262bedeefaU, 0xab1e3bbfcb6eeddU, 0x1d012fe6220a2fb2U, 0x2dbba4452be54035U,
  0xd7e649f61a572403U, 0xd3385587ff002bdaU, 0x2b1ae9186fe2f0deU, 0xd023c02c32ccfbb9U,
  0xc02fec41d1d21efbU, 0x3600c4390fc01d2fU, 0x98d6c6f2e39dfae0U, 0x3b6463d24042b07U,
  0xabc3f3800d225ffU, 0x10240da0d8e2f93fU, 0xe42fdce8df503e0dU, 0xdb3920e0f7d0becbU,
  0xc92811b5e204e050U, 0x2fc18136d424ebddU, 0x2e50fcd4f0ac0cbU, 0xd5de239710d60afdU,
  0xfbb14f4c20c724d7U, 0xc65ae2930b09ab28U, 0xcb15c2f75f622ee2U, 0xe8fad80dcc0afbf5U,
  0x4af32706f03d2ddfU, 0xf2cab8a1279bffafU, 0x597183a2ce333fbU, 0x20088abc1438fb53U,
  0x861dcad1d3101018U, 0xb04ec61534dce845U, 0x11b0e97ffffce405U, 0x30e505f8b91e4c6aU,
  0xf43e1a613cd2febdU, 0xbfe0901cd3f278e4U, 0x2f2b30ce4fb3e8c5U, 0xfe93f8b9ffc1d01dU,
  0x182da0f0b8f9c2edU, 0x73b20cd289ab4c5U, 0xb6cb222e7fd25349U, 0xf528a329d5ea34d7U,
  0xfcdced1d2915633aU, 0xab2d1bfd0558082eU, 0xd9101e2066ccc635U, 0x31d40d9601c75d8cU,
  0x9d18e613c160c76cU, 0xf065420526b4e57aU, 0x59adef6de125dd2U, 0xfbecf431c1f007c7U,
  0xdc4d89a50f55dfa5U, 0x954f1cb3dd4fbf7U, 0x14092785eabbc86fU, 0x70ec171fc22460d6U,
  0xf4e4ad46f451e6faU, 0xb923ebf848c63d07U, 0x49c33b11b78df725U, 0x8931f332f35bc8aaU,
  0x3e4d4183f04c4c9U, 0xcd1cdfcbe2e4e2c0U, 0xf6c1002af5b125d5U, 0xab83f4ec242f152cU,
  0x399921aca249c6ffU, 0xbdb3d43d470cf70eU, 0x221d32e106d3efb0U, 0x15fdeddd3c7de61bU,
  0xf1f9d826f111f6adU, 0x1510024dd9f802f2U, 0xdecb00cdcae9162dU, 0xd5ab02fb640d29eeU,
  0xbce908f0eb2305f5U, 0xd315440dbcfadcdfU, 0xfd02decb0113e6cbU, 0xfe48c73406e5e813U,
  0xc9e62a14503edbfdU, 0xa70fbc38c5d0e5e1U, 0xfecde4f7e719e93bU, 0x698104f623eb2930U,
  0xdc3c183547e6f7f1U, 0x508c8bd2ec3d85eU, 0xe1583b5adffee5a9U, 0x815be9aa033e29e2U,
  0x24bd6f2d70e3707U, 0xaf06baac0d95041dU, 0xd2e9e697eec30110U, 0xed9c2a0442d4de2cU,
  0x1216df3ff121ded8U, 0xec3ad918ef5ebdfbU, 0x1cc0aadf5bf61fffU, 0x903a3e03e07561eU,
  0xb8224bb435120e5bU, 0x2cf2c1f7d4b83d15U, 0xecd429fa060201daU, 0xda0e17010e04ecfeU,
  0x2d321239f326f6e2U, 0x33192a6c0e1162eU, 0x21512755a41506cU, 0x12cc9a3e3fb8f4f0U,
  0xd541b93d0d72510bU, 0x5c2dbb0bdc16f5e8U, 0x424b2ed32428e5d7U, 0x1e84a5e5a64cce89U,
  0x6612e919b4089201U, 0x345169f1c54f45d5U, 0x9ef71c8d9a5e73e0U, 0xe6dd43d24a0204f8U,
  0x4d26293fb6d2cdfcU, 0x124dcd8858ee05cbU, 0x5bf4c0add1deda98U, 0x918c6e74139206fU,
  0xfb9c81259834dc16U, 0x73f0e2150a1641a8U, 0x3f4accf3a8cd09bbU, 0x15a3c940f50ad035U,
  0xfb252856e4aac8aeU, 0xcd3646b5dcfd32c3U, 0xabea982f0e0d6cfdU, 0x21ecd1303ae0ef17U,
  0x41b12b1b08e8e2e8U, 0x38e9e6311cea65e2U, 0xe9ad49a32cadf0ccU, 0xd9d6d612f509a9d3U,
  0x4123e70a3450c94dU, 0xbd4cb5f331ebccf8U, 0xd1ebc3e8b29620e4U, 0x52e121ffcf10924U,
  0xf026f00bf06731dfU, 0xdf371b8c19e2af26U, 0xb0a009d226d51a22U, 0xaee51334bc49a3dbU,
  0x332f37cd4822ec12U, 0xf57f2f3132bdd128U, 0x9aae434b2230f13U, 0xee18fe66b506f62cU,
  0xeb98d9f6bcdc1927U, 0x224efda1c60596e9U, 0xfb3832cafc094fc5U, 0xe51cea5a314006d3U,
  0x2932c2021efbe699U, 0xf4e5efebc822080eU, 0xf5b8cab8a8060b14U, 0x1cd3aabdb943dd2aU,
  0xf1f065222ffe1330U, 0x4fc01c5dcc7310fU, 0xce4e1ce760b8f9d9U, 0xdce9e60edf363da9U,
  0x220afcfdd237e3cbU, 0xee6e342e21b0943U, 0xfa92023733cfb1c9U, 0xaec340cabf22318U,
  0xc51053d119cb45f2U, 0x1b331af21915ecddU, 0x21ed05db3006bc07U, 0x814de727e844f9eeU,
  0xe1ed232117052debU, 0xf7b6104acb060eddU, 0x3428cf3302d34fcfU, 0x67e52223ac04ebf0U,
  0xc2d224ceab6f819U, 0xd0cb11d216e8ddd1U, 0xffab2138d11e4c0dU, 0xf7ced234fd5664b9U,
  0xfd33d1fcce1fe7c7U, 0xfe390316d6472511U, 0xc70b0b131bc74217U, 0xf6f04a0d1bde2fd0U,
  0x516e7fcddecd7d0U, 0x444ce1f2836f31cU, 0x23d0b6274dc7233cU, 0x9a5cfeef33f9f8bbU,
  0x5a2ae2ff142cfc17U, 0x3e5240fc030c3fdfU, 0xbbeac72f27f70d2dU, 0x4cee21143f3afcb5U,
  0x1117f4450b05e3afU, 0x1d28f2af2d0240f3U, 0x16bd4a37e8954b44U, 0xacd388bd4a13021eU,
  0xa34124ef80d5d99U, 0x1654b2fadfdab117U, 0x7ac608b2048de0eaU, 0xea34f3db4f53580eU,
  0xbae24dcff2e1628U, 0xaa659137b9d0d4d3U, 0xd7f4bed6efe4dfd9U, 0xb73ae1812076e5d7U,
  0xd845d4c6370ef3f0U, 0xd8d3bced27fbaa30U, 0xab0412aae41f1cd5U, 0x2d322d807d328e8U,
  0x29dd1117c52c1af8U, 0xe84b5d36f156c4c7U, 0x10143803e5aa5614U, 0x234dcc12e6e7d1d3U,
  0x2eeacdfd3e1209dbU, 0x8fb6b6ee4e221522U, 0x94cafd3bf330bdf0U, 0xe696d6c955e029eeU,
  0xe0d951d1271ef7e8U, 0xdacaeabbd13c16e6U, 0x3509fc04483ffbb6U, 0xc24604d0d61c1be9U,
  0x2033d6edf9efbc29U, 0x41f61d0227d3e40fU, 0xa9911cde0a0dd842U, 0x3ef5ee30e7d309c9U,
  0x32bf11f4c2d8250cU, 0x14b14e0bfe14391eU, 0x83a55d1f9e608cbU, 0xc407ee332e5935f8U,
  0xe8f35d11341244c0U, 0xd305d3fab02025d7U, 0xb48fcaf61b2103e0U, 0x2ea5502a0e2044d1U,
  0xf3f519041c10d7ceU, 0x2440fbeadad4a8eeU, 0x31933f3306406dfU, 0x221f1b26c40642f4U,
  0xe30cab18b306dda5U, 0xd4c070b2d11e45dU, 0x2ea6bd7be0920ccU, 0x20c815c0613fb062U,
  0x81edaf300acb02d9U, 0xb30ac19e8e044dfU, 0xe5e1f93eee2cc4d4U, 0x26d6da3af8bc220bU,
  0x20d6c1e41d3ee4f9U, 0x52f9cf14d718d1ffU, 0x3ae5d403d6a112deU, 0x310a1e81f71707eeU,
  0x1caccae5b9c3290dU, 0xf612a10606dd1f43U, 0x4b0423cf2f2044dbU, 0x514d10be71cf6c4U,
  0xe331e03527e40db8U, 0x2c25e208e6c212e0U, 0xcc70e09dfa1ed0fU, 0x40f2f46d019200dU,
  0xb22b01181dd341e4U, 0xe22d1504f31e14ffU, 0x2dc00922f5e55416U, 0x907bcf0bb0f02cdU,
  0xfb47e444fe2157adU, 0xcffd1ee8e0181a13U, 0xe21a4fc3fed5cc1fU, 0x2cd52847e9f23a17U,
  0xb4e8393f1ed1c93bU, 0xb1bcee413a162f10U, 0x25ee1b2631ca5631U, 0xa5c4e51ad8df21c3U,
  0x1c47fabdcf03e83eU, 0xda3efcdfcf49d7eaU, 0xa0cfe9f9e10e0d31U, 0x23f4bfc70802fb27U,
  0xb50cfaebb71ff6f5U, 0xf5fd44fa0abf2e38U, 0xfdb3c2b6e4ed14f7U, 0xc641cbd483130f19U,
  0x23153c1dc532d1feU, 0xfaaf253d193e1bb5U, 0xd8e0e50cd92a1225U, 0xe500ded448fe37e0U,
  0xe7cf2e58011748e3U, 0x23e7cf2d364b1502U, 0x13e02787140ffbefU, 0xe0e81449fcd83dc7U,
  0xfa410fe805f2f6ebU, 0x98cee1cb2e1f05edU, 0xded7e3f62cb44803U, 0x65fd3845420fe2e1U,
  0x811ae4eb2740dcceU, 0xadeaf19c3fe60debU, 0xd7fecfa2e4b6a94cU, 0x89e1431e46750907U,
  0xa8eb000032bb28d3U, 0xd9fe95f402c9762eU, 0xcc19ecdd670e38f6U, 0x5ad43623fb363d5cU,
  0x11434fcce7bce4c6U, 0xe8255da0c60dea2bU, 0xbdf72243042824ccU, 0xa36020cfaa4338f4U,
  0xd8e8e867a2e0460fU, 0xa26f3c2fc02670dU, 0x45ab41e837373407U, 0x5bc9edd53db3f213U,
  0xe3b7bb0981dbf4baU, 0xd54d2ede40e2c636U, 0xc440f80f1127364cU, 0xc0e71dbbfc4efe21U,
  0x9e12c8111ff6b3c5U, 0xfa13903ebf5f2cf0U, 0x45ab41440dee0faaU, 0x14d2de1c5aba512fU,
  0x821cf9bcdd0f3098U, 0x1520723fd05e927U, 0xc2fd086dae54e026U, 0x2c16c70daeff3a39U,
  0xf819b2210805ac18U, 0xaeba5c1decc4681U, 0x51384d3e4ae6a100U, 0x2b9e05d3cacb1a55U,
  0x140edc121309fdc9U, 0xd42643fac95baed3U, 0x3036d93224e9c9cbU, 0xfaebafec1c303b18U,
  0x1b2112f2fcd40d15U, 0xb9f52140e7f2020aU, 0x4920f4214ea68fe0U, 0xedb725b627c42adfU,
  0x5e89c2f3de9e2a8U, 0xfa034a2c063cf80dU, 0xcac1f858c6bec0c7U, 0x15bc4745e9f730baU,
  0xf844fe06eee03148U, 0x26ecd73c23f6340cU, 0x1545e4cbba8adde9U, 0x3db5d45d13ebc7e2U,
  0x7dff221e9ff6b1eU, 0xa22e7e7313c1931U, 0x634415fefde0c2eU, 0xe11800dc06081c08U,
  0x301f7c7e6b8eedaU, 0xff16c91fee0520e3U, 0xbc1de34b35d00e01U, 0x24af00030d31d422U,
  0x362827c2fa1d1de1U, 0xeb011d8106cbe01dU, 0xd6e6475d264e02edU, 0xbcf036ef101ef734U,
  0xff16cf07e8bb2803U, 0x6e6b50522d12ff1U, 0xd71c0a4aceebc336U, 0xc70c28c709e2cc1cU,
  0xea140ae504fd05d0U, 0xf74bf98734bfd817U, 0xcad9d438db4a4200U, 0xfd373f2deb3bf5d5U,
  0xc21cedc81912b331U, 0x16272f313f0412ceU, 0xf91334eac7bf0cd4U, 0x27f20b0128061e05U,
  0xba28c72ee304e325U, 0xd05eaf8391e09e2U, 0x3e2ca260fca1a37U, 0xd2afbbea2d1af383U,
  0x19cfd904d3ca2c0fU, 0xce1b4c1fdf8f9f9U, 0xf8e9111ef1aaeb05U, 0xd003ee053d2c3ac9U,
  0x32f4220136e1eaaaU, 0xcb0e431c3032cbd4U, 0xd9fac7c0d142f9d3U, 0x18afa0d0d30e2c96U,
  0xbe2e23daf5eb04d8U, 0xd513e1cf14eb0cfeU, 0xe742e1b91ec2d524U, 0xefd5ba1809e11cf4U,
  0x8f1f301f140ebf7U, 0x3b293e1f09312b11U, 0xecda30330d212114U, 0xf2b581c01318b187U,
  0x37e21224c6e016ddU, 0x1b0ec4cd0cd8ecf3U, 0x5d8e1b6d0b9befaU, 0xc2dc4ae341bfe910U,
  0x82030efea031f1eU, 0xdc3bb927f85c2d04U, 0xd9f71a0db5023c06U, 0xb6e7b31f1c6c10e2U,
  0x43d30826ff2f2bdcU, 0xeb3b16e24f0f9e19U, 0xc41dae08de57967fU, 0x43d0edc957bf25e5U,
  0xcdfb1f0e233296U, 0xd63e362d164a10eeU, 0xce21dccac816b0d6U, 0x87fb12e5cc0ffd1cU,
  0x221e27e6fafffd47U, 0xe3b6b3c35425b689U, 0xf80d02bbde1313f2U, 0xe92a05e5ffd9e8d5U,
  0x932e3229f1f0fbU, 0x510712f43a07c96cU, 0x3e09c6b61617dfU, 0x12e3e9ef3b4a1bb1U,
  0x1f0da5fd3a45d71cU, 0x23e003940d12b60fU, 0x192a12b1baeed5eeU, 0xdf460c50e40ffbc8U,
  0x14e148fa131618aeU, 0x49f4c498cad5e6c8U, 0xe0fa21c715f319c5U, 0xcffa40b5dd20d718U,
  0x3f3ffa17f928e4eeU, 0x28ab17f2d8c813adU, 0x1d81eab722cd24bdU, 0xc1f8271eb9d82b30U,
  0xf3d224050c39e040U, 0xf92111bd034d36e2U, 0xb1e9fa0d313507d9U, 0xfe22f7c6fb07d026U,
  0x20e325fb01c12e31U, 0x150020d439cdd711U, 0xc4f5e8272c29341eU, 0xe30064df657c656U,
  0xccac18ccacf049d1U, 0x2000500a2ec71aU, 0x260016c5f0fb3602U, 0xa20cfecd22ec19acU,
  0x1c2f3042abd9b5b7U, 0xcc2bff112f0721eeU, 0x23dc053e28280113U, 0xfbeeb5f2324f461bU,
  0x99f033f105dbecffU, 0xf93edeaafaeee007U, 0x471fe130ed255c2fU, 0xcd32ddfb124be5dcU,
  0x18eb1a152f1c11e3U, 0x2a18e620e01a3bcfU, 0xea1a2f0c170d0aecU, 0xdfbd13d00de5131dU,
  0x5013f74ec106dffbU, 0xaafef9ee06c90713U, 0xfc1ef5e5f0d8322aU, 0xbd5a2f824e71ff0U,
  0xfe14d8e32f3bf9ccU, 0xee01c5deb4fe1fc8U, 0x17ef1809fdc21bfaU, 0x16f4f1fdfef30ed0U,
  0x18ca220bd70081cfU, 0xc544f415ec062b46U, 0xd401c4eb40e14517U, 0x8fef72bc8f32a26U,
  0xea1b87ebff3b01b4U, 0x6042707f805ec10U, 0xadf1001e630fa5fU, 0x15c8f4d7111b1bebU,
  0x18fef9dabce0fc2cU, 0xdf1f2eafbdb021dcU, 0xf538ef00d029ccccU, 0x7d6c101cffc3f9cU,
  0xe63b47b5c9b6ecd7U, 0xc9ba072ba405b9eaU, 0xad00f0b1e91e12edU, 0x35bbe108ac33de05U,
  0xc3cd0fe911d73205U, 0x40fd22ecd935f525U, 0x3b6c8211b321c0cU, 0xd609b2d318f2b281U,
  0xdaced8410af83dd2U, 0xd22db8fb33e900d7U, 0x3d7e1f20faa1448U, 0xc62611262e3f0709U,
  0xdbfa20c5f610300bU, 0x2e455ac0644db92eU, 0x19ff48e4263df0a5U, 0xf3261159d04107adU,
  0x171f2f33e412dbdbU, 0x30bef4ece7d393fdU, 0xe5253ad435edd805U, 0x1814349c2a4ffd65U,
  0x8adbc616e338e616U, 0xbfd0e307c1f815c3U, 0x47095bdff4661fbeU, 0x1fd14560d2851bcU,
  0xc9d95f07e510fbfeU, 0x4521ea3e8f28c1U, 0x1fc4b9c93cada7bdU, 0xef811f49e3ddca15U,
  0x93c2be3ef3cd3dcbU, 0x53d7f2e2c4173618U, 0x1d1347c963f25521U, 0x29a5912b031bfbf1U,
  0xde3def0d475acd32U, 0xd1520efd209564f1U, 0xfc91ab0da5cda420U, 0x2be4b8ec9f2df6f8U,
  0xbbfc05eee4cc1b09U, 0x50f7feee33c8fbbaU, 0x33272ad33bf8d140U, 0x39bdb72f2aefc4efU,
  0x600c2a42db061d07U, 0x1e11f33cfacd4328U, 0xb3f91e9d9f29bdcbU, 0x193f39d4d16eec37U,
  0x3a31fff8be3dff0eU, 0x2dcbe138fe4b1ffbU, 0xbfdc02c0bf26a7d0U, 0xe0bb2ae2ee54231bU,
  0x1852d5bededec268U, 0xdd4809925745cf09U, 0xf3e2d24703d4321cU, 0x190f11fa37d630c0U,
  0x4886e62581fb43afU, 0xa0723e2e309c849U, 0x1b20eee62b0e24e5U, 0x3608ceddc2c19acdU,
  0xf10bc42d4e6a1d3U, 0xe2e161ce562444dbU, 0xb6ff02fc43e31eeeU, 0xbf1fb3152d496a0aU,
  0x2171f474737e0a5U, 0x2d3eadfb203fdfe6U, 0xf3493c32c62348d7U, 0xa438f0df5a44f3e3U,
  0x602bcc1c2e34fed2U, 0xeefb09f26111c3d5U, 0xc8469bd9b9c51ed7U, 0xf9f40f5ebcebd638U,
  0x5e327ebbec70f12U, 0xc5121ff7f53df6f6U, 0xe4cace26e6f208d4U, 0xd520b07c8f8d0c9U,
  0x201240d08fbca13U, 0xdf10eef7473a81edU, 0x210eeecd1107bbb7U, 0x3b7dffff8c5ff37U,
  0x46a1fa1c0e04d831U, 0x35f235ea061623beU, 0x25e40abfe216db07U, 0xc3be17daff17fe2bU,
  0xef0e133ecd5d5eaU, 0xe6c3b2e2f61f18f4U, 0x2c3ced1b534021cU, 0x324200b63ed40c03U,
  0x14122914093a1e05U, 0x17fbcefaef2dc1e1U, 0xdcf8361a1fdbd8c6U, 0x143195e9344f20b1U,
  0x141b27c61d011dd4U, 0xc714aff01efbdbefU, 0xecd9e2112abbfdecU, 0x58c5dae8413e542aU,
  0x8fb3af6ff0420c6U, 0xea0c1c2b4e3ee3ceU, 0xe0a02fa5d14c4a45U, 0xf7badfe01f35ef0eU,
  0x212dd4c92e5f1eb3U, 0xb2bfd5e34767d833U, 0xcc2451eebec406c5U, 0x27e21f3343d55c49U,
  0xa4fce14014d7ef1dU, 0xb7c8b9111b180d0bU, 0x2dccd5fefec7f6fbU, 0xf9cfa1278100e49aU,
  0x32c16202b001cbbU, 0xe6051ef7b15fecd9U, 0xa7bfec1ff1a1d8c3U, 0x7e0426ebc1f54652U,
  0xf6c70df2e1b501c9U, 0x36d6c832470b1e49U, 0xecbd032945b7b2cbU, 0x3b318fbd8ddc391eU,
  0x19192f24b466a9d2U, 0x9cecce2bd4dbfe0eU, 0x17e8d96707b249e2U, 0x75ede80cede0343dU,
  0x2de93d46490020b1U, 0xd431b8e81743d60dU, 0x1e1ad6240eecd6f9U, 0xc0362426ec343723U,
  0xe7e91c0afb0e20eeU, 0xd6cd16ca03025eedU, 0x570208f92713190aU, 0x3d820fbfcc31dcbU,
  0xf235d65dda1ee4d4U, 0xea17ee42ea16d20fU, 0x1224eabeedd52aeeU, 0xf5d8e3e6acffd5c4U,
  0xd3f5e3d13109e1f4U, 0xc31f0433cb19dfeeU, 0x2b21030fdbaef0e9U, 0xdec816b1d6d922b6U,
  0xf3fe23f60c12dae0U, 0xc20426170a4eb844U, 0x16c7e9ee20e12b1bU, 0xedded10ee83022d1U,
  0x18f7d3f9f2f9de37U, 0x8107b9c3c2c40cffU, 0x47f5edde061c113dU, 0x4f5f3d625ea0cbaU,
  0x21ffd528fb27cfffU, 0xf4d800bbdc1b0521U, 0xb04d3e5231d800eeU, 0xf008e4caca4de517U,
  0x310a1da5aec24f15U, 0xcb32c420ad38e126U, 0x4fbbd6c01428523dU, 0x8115a98f400c024dU,
  0x5121dd3624f4f647U, 0xe1e84cb2e6ddc25fU, 0xb7e63b7a4b20bacaU, 0xba0e2fc0fcc6e721U,
  0xbe00143e34333d0fU, 0xd5f4d01f26b1d5e6U, 0x60afffe438d144feU, 0x9c312021ac2de82bU,
  0x4a40d837d8073febU, 0xf4b8a91e0e33e559U, 0x3e3849d33f19c810U, 0xc1cde94d7108f1dfU,
  0xde5e18e3b0b039c5U, 0x1eaa9f0a22e3d0ddU, 0x7d0082a37d9c0edU, 0xeb1a2f71cc141f2U,
  0xea223ae2f049e443U, 0x3a2eb345d828b9feU, 0xe61c4cd8536ed341U, 0x2af9d35eed41c6bbU,
  0xafd2662ed2306fdU, 0xbef5f7bbc522bfa5U, 0xa8b709bad5e713a4U, 0xb8b20b92aa07951fU,
  0xde9a361b8f543c31U, 0xeec6bd14c2aee71cU, 0x53d633d6c22c0d05U, 0xd5fbf7f751f4fbe6U,
  0x1549cfb4fd15db28U, 0x5eabb3627352e2dU, 0xbb8e820a8c3e020U, 0x36b9c3440cfc212fU,
  0xaa0e0649a7e1c5acU, 0xe64e47b9f82ae83dU, 0xe615fe1bcde14626U, 0xfbe8060b3f345d0bU,
  0xdbe0a25a33014bc2U, 0x901e0c25df264b23U, 0x99b091811412bfebU, 0xaa32cd9f354313eU,
  0xd012a93bebccc5baU, 0xb3c5625601c4cfd7U, 0xde1f4f18ae041c4bU, 0xf726d532e4cb2a92U,
  0xd91a34e3ecccf9d1U, 0xcb68021734f61a89U, 0xf51e66ff7ce01ce5U, 0xe2062c410bbddee9U,
  0x8101bdc885fbed11U, 0x15c094154dfd41bU, 0xf5f854620a3edf14U, 0x325334268d1bb417U,
  0x45221f35b001d537U, 0x811f0fef021032bU, 0xcec1d64be2e14129U, 0x32b9fdb2e14b0630U,
  0xdf3a2129ecb2bcf9U, 0x1e52ccb34a02ab38U, 0x2552f400d7cd4449U, 0xd6b24cddc61d3ab8U,
  0x1337472a6894eeeaU, 0xc033b255d673fb2dU, 0x29a7f72f0f03cc0aU, 0x15c9d8c9d242d2acU,
  0x3b143eae9ef163dU, 0x2215101fc6100df8U, 0x20d8f8d01129020aU, 0xdf1b2bd13d1f4527U,
  0x1a361bd630cd2708U, 0xb3dbb4e23c0370dU, 0x23f7d5184b03ffd6U, 0xbb0b342e031d2d46U,
  0xe6f3d727e03cfe07U, 0xd42046f2e0dbebc4U, 0xc132cf12f46f6c8U, 0x1bc6de1d22c63702U,
  0xe002fcd4cae5d3eaU, 0xeb21c8f9292431cfU, 0xe505c6f3f5d6c1b7U, 0x10811721e5fe2b22U,
  0xe3e80923f1400ca8U, 0xe52734c81f00b8daU, 0x162ed5e81eddc902U, 0x13f6ed01d91b0ee7U,
  0x21e3f5ccfed7f0efU, 0x11ed23073101312cU, 0x383bfdd214edbaf0U, 0xd4ab5005fe31ec15U,
  0x17dce0f727023815U, 0x10c81b083a161936U, 0x25033eb4ed510e27U, 0xd1d643c5424631eaU,
  0x341eb218dedfdc31U, 0xade6c1076856e0c0U, 0xe4f3d6c2d6fbe8d7U, 0x312cc6351748bdf8U,
  0x29d95b31a9d3253bU, 0xc92b1d305a5446d1U, 0x4c9b617f1144038U, 0xb052ae1acc2fc6c3U,
  0x585469e43ffa07fdU, 0xb6255e385364c1e4U, 0xe0c59628f9cd3edcU, 0x2a36e1f8ce475136U,
  0xebfa16ddc515df21U, 0xec5a901dcf2a7c4U, 0x629763fc5fd045d5U, 0x9feabe25c6e1ec3cU,
  0x602e4281ff8113dU, 0x40e6c52be5dbc02aU, 0x81e4afe2d5dbf02cU, 0x111215ccba10c1d6U,
  0x8adf2da6ec3234c9U, 0xe3fbe33e32a74b29U, 0xdea95512c7bbf41eU, 0xddf9e9cdf703d8c3U,
  0xf4150e11e05822b9U, 0xcdf10538e13dbae6U, 0xdff4d0fc8ee93914U, 0xc41717ed4a4905d6U,
  0xcf8d2bc023c90506U, 0x2dcf206133cd4233U, 0xfeb44d094714d2ceU, 0xc602bd42c942e7bbU,
  0xeb4f07b7f8582f2fU, 0x80fb9c21437a513U, 0xb41bf5ba13c45141U, 0x161134dbca20eaffU,
  0x1dcaceef1c0a3c02U, 0x2724cd0d012f4521U, 0x16a3b596233a49ecU, 0x50e0902f0e31405U,
  0x24340f37257f01ceU, 0x3bdbda28afe7f8e5U, 0x3d106e9bf2ad71aU, 0x1c9507d3d0dd3edaU,
  0xa5ffead4c53e0f0eU, 0xea29f922fbf3cdf8U, 0x3fcbf405cc4217c6U, 0x8d305b4fe480debU,
  0xf9f0c11458d9d434U, 0xe71a07db342962bcU, 0xd3ece5ed0eb5dde7U, 0xf4b12a5625c9d6d7U,
  0x223ff4120d152a08U, 0xbd2cef3414e3e316U, 0x2f02204709d00ef5U, 0x3b31f600b7ea2548U,
  0xdbdab8cfe5d7d2f1U, 0x94d5acd2201108eaU, 0x3d2e2b0ef9ecda06U, 0x29be3208c50b1ec9U,
  0xe2013b2cd1c4c50eU, 0xeb36cd142e19bf1eU, 0xec1b04fdeaf4dc3dU, 0x10e429f4c92c1cf0U,
  0xd91ee92c25c61504U, 0xad3312310ac20602U, 0x3b2918f55381ff16U, 0x6596e324d4ea06e5U,
  0xb7ded8d70037ba03U, 0x8117e7f8f90c5bcfU, 0x49413e3f26df23d3U, 0xfb2aeae95524d8bbU,
  0xc70307f001295dbdU, 0xf91ab80f00db1d06U, 0x1fc537e6e2d934d6U, 0x98552f6fdbfe629U,
  0xa21920d49e27a3b4U, 0x8e04b5e80bdbff2eU, 0xd3ab1e2e4ae23124U, 0xb62e37d0ee6d39d1U,
  0xfe33ad2a0608dfb3U, 0x11248f04dedf3442U, 0xb4b0f30924dc0558U, 0x15e9d4bd44bd2b32U,
  0x1840a4fd5bf917dbU, 0xb7fe550d111a3101U, 0x1805b4bf092610deU, 0xc61dde41d810ca15U,
  0xf0b42412d6e5dbe5U, 0x14aef73b20eabbe5U, 0xacaaea02df3fda18U, 0xd9eeedf404092de3U,
  0xae16f3fceb0c0403U, 0xfd5e1f040a5531f8U, 0x33c84bab07c036d2U, 0xd9438caac03ce59eU,
  0x36cc5734e5d4b83dU, 0xf2bcddf11803c6ceU, 0xeed1a300fddd14b5U, 0xc81dfab4ae8f2ceU,
  0x2c0b42d4f83de7e1U, 0x8ce2aff0325cef4U, 0x28fa26295abe25dcU, 0xb9b231b8c40327U,
  0x2ede33d21fd92bc2U, 0xf2f21cd00920e1b8U, 0xd1100108debf0d2cU, 0xeee02c9657f8df0dU,
  0xd9cc28bfdd2be790U, 0x52210a1de4e23b3dU, 0xfa3d270457fbeacfU, 0xbbdfdf0c294f77f6U,
  0x240250a2d5d42bfbU, 0xff8dabc808e25ad7U, 0x3b99dddfee270babU, 0x4ae7ec2467b62f1bU,
  0xd59f20c6a04f7daU, 0x36c4e2f00c20c2cdU, 0x520639d0af3da909U, 0xa9a3eb2a14f92bedU,
  0x6312d8402dccebefU, 0x1d45e52dc649e0f0U, 0xd3dbddc5bb631305U, 0xe7030e2cb4cbfe8eU,
  0x3c52018f135e3adU, 0x8510659e1e54a4bU, 0x22a0d09eb11dfc57U, 0xccb1c41abb3a1b94U,
  0x13ae29ea27c2b1faU, 0x46e022104acae51fU, 0x27cedcc82509e0e1U, 0xecf607bfa24819ceU,
  0xc2f8ed28da36e3e3U, 0xdf4515f361f1d227U, 0x672a30ef067f11f9U, 0xe31a0dc7fafc2111U,
  0x2a93b4ddad8ff937U, 0x402313041a5c08bdU, 0xbfc9a52bea1cc865U, 0x8071992ba17394eU,
  0xfba2e90aa3133ca9U, 0xe631fd22fd07f42dU, 0x3cdc2728e3f251d8U, 0xe5f8f9fce9e10ec5U,
  0xf736e64045fbcfd3U, 0xd3430f31d6e80eefU, 0xcebeea194a13d7d4U, 0x2be5c3b6ac150721U,
  0xe1e3122e1acaeb00U, 0xfa02e3f303d92bf9U, 0xfdb8f81eeaf2042eU, 0xdd13ff2781122624U,
  0x3942d646e415ded8U, 0x91ec3ddfb22f226U, 0xc4d215d72a200700U, 0x58fcc732d7f6d3dfU,
  0xfee9120bbbfc01cbU, 0xd911d3f0eec0193dU, 0x2fab17daf6ebede5U, 0xd0c1f32cf833e717U,
  0xe82d03ff4a20e939U, 0x1b2a132e15f03db7U, 0x2ff42c2cf32a2809U, 0x1aca29ee0f00230fU,
  0x3ba542e02f1f0daU, 0xc7474f140301fffcU, 0xdbd5f84a071938e4U, 0x3e635de1a476ddaU,
  0x3e02762d0bad36b5U, 0x10071e42cd40631cU, 0x9ff58add53b64a00U, 0x5d5d57150a29f158U,
  0xccfce510e9f409c4U, 0xd034d83243db0d23U, 0x50c00d2119fa1b5bU, 0x9c61b6de030bf9f6U,
  0x825508ea068ada2aU, 0x3f28163ac3500bbaU, 0xd61c02000a534b0bU, 0x40e526cf53d64729U,
  0x12a39aec8444d732U, 0xc9ea00fbd806bbd7U, 0x130904bbdd3755e2U, 0xc3ff06d1f64bd909U,
  0xc117fb4425a544dfU, 0xfb5a9a32202b5b3aU, 0xcc3dc36ba807f61aU, 0x223928075ffa47a9U,
  0xee8147ff1efa324fU, 0x8a2cc7e7e6fe07e4U, 0xc920f2fe62c867b1U, 0x81cecf26df3a1ecbU,
  0xb823d04f6548f5d5U, 0xb6328be424060350U, 0xfbc45a160c1cf95bU, 0xed081c18225eced5U,
  0xccd5d0f4b619f240U, 0x1b0421d51735d225U, 0x3adfe1dd37dc3efeU, 0xfd5ec80e1d28f31cU,
  0x95430af2281ac0ecU, 0xd22c951e16b5480bU, 0x41d3e5f33fca101cU, 0x7ca1b35d442c413U,
  0xf90d5b1cf12edde2U, 0xfbd81951c8c3b96cU, 0xffbe305e1da054eU, 0xf7fb1a00f93713b3U,
  0xfb05e4efec375ba2U, 0x4c2ff134b41650f5U, 0x2fbb33e70d17ee14U, 0xfacb58590ee9ce25U,
  0x5dd555e131f42503U, 0x601107fd532a2442U, 0x4a1819dbd0fdafffU, 0x8748e5f9d847e7beU,
  0x392520f41feb05eaU, 0xeb13d1323f463283U, 0xe648961de4cc2052U, 0xf71e370e42000b0fU,
  0xd831de102d3cdb0aU, 0xf21600cce5d6093dU, 0xf8e0ccb4e1ef403cU, 0xcfe1ddded246b9feU,
  0x11d608f61df21827U, 0x35e908c0310ace82U, 0xdc13d844d6377f05U, 0xe1fc1bf9301f2eebU,
  0xb2d834e2c6e0d5bdU, 0xa133ca6f65d72cffU, 0x43ec0a29cbfe29f5U, 0xb9313a0f3c4c4808U,
  0x1c14e10ce906de11U, 0xe1011110dec81ce1U, 0xf3e4fb011807f21aU, 0x69bc622626be48deU,
  0xed4adbd32333c0e0U, 0x211bebf6f8a75a2bU, 0x29f5d2734ddc0558U, 0x1d1ca0e45cce24b9U,
  0x1028f032ebe2c95eU, 0xea11c0f6fc98a81fU, 0x59ac14bfd701343dU, 0xe9af198dbb3711dbU,
  0xf581ea29a31cd132U, 0xe3bf1bafc9d6a43cU, 0x25e11155651b1dbbU, 0x8530daf06f130687U,
  0xa43de6e0d1683adeU, 0xf20fdff3271f2f01U, 0x1046ec29ba9aeb49U, 0xe531ababf4275296U,
  0x371487232d3d481dU, 0xe30f18b89afd2fd6U, 0xcc543e70b5173b70U, 0x8e2b2f195c1f26e5U,
  0x98185dfc2bf50012U, 0xc0a027e2d2b59805U, 0xecaddc64f3ad0dabU, 0x1eef68a2ae0dc0e9U,
  0x39b6c33497b7bcd5U, 0x5813f417ac33e32fU, 0xd8f811fbd6481fddU, 0x3b3fcdf50d56461bU,
  0x23f530d02cfbdbfeU, 0xbad1bece28fcebb9U, 0x1702a313b3c0b034U, 0x75aee726cc0f54baU,
  0xcae8413a290c2ae2U, 0xd8c83b2e2e20fdd2U, 0xeec9aff53de33c43U, 0xfd09eb3c3cd1b0b7U,
  0x549e839c8cacc04U, 0xed2ab9270de50b00U, 0xe200f54cd49f0401U, 0x8c2c43924d3f03fU,
  0x40ee4ae308e2d6baU, 0x410c279efb34ef24U, 0xd31841cc05bcb1deU, 0xdfe38c03c1f4ef1cU,
  0x36403bce2f06df20U, 0x88bf54eacc30edf7U, 0xf8101e1ae9812e0eU, 0xddebd5c9a6d1fb5bU,
  0x4f03344bc9cb1229U, 0xa1dee0212ff9b40bU, 0xf959f1d03f170508U, 0xc2ff370ddc6529c6U,
  0xe14355f368d9b7f7U, 0xbfd11bead5212254U, 0x4bdfeef1010807f4U, 0x49932e6129f535c6U,
  0x4a2bd2cff3fcb028U, 0x325043b6c924fc30U, 0xc81a4d3fc6bc2716U, 0xbabc1e5a252ac742U,
  0xbb0fdcd8e7fa2eedU, 0x19f010c74b02530dU, 0xfc031f0e26c6cac5U, 0x4d81fa34eadaefc8U,
  0xbd0e1241313fce4eU, 0xf14828abd7e5dcdaU, 0xc9e451eaeb03cec6U, 0xb5d529403137c4ecU,
  0xf03acc1bf9c33818U, 0xea18601207afc32cU, 0xd0052737d6ed4af2U, 0x7a311ca6f53f211U,
  0xa0560b26b616ad30U, 0x27201786cd0bf316U, 0xafa751d1f043dccdU, 0x3d12ff1a20cf5ad0U,
  0x815ee431fdf919cfU, 0xd812bb1ec42140c6U, 0xd51c4de02792d81cU, 0x382d5d44df383639U,
  0xcbddf0222142dd0cU, 0x2af02cf0f91ee40fU, 0x409c3e2a404a3002U, 0xcc3bb1412f0f23ccU,
  0xf4c22c33f0e22eb0U, 0xeedebc0f1af848b8U, 0xbfc0fd5b624d9cdU, 0x10ebc4c42bf3a922U,
  0xfb1c2812efd8df6aU, 0xc3272fe009faeb4cU, 0xbc5f5020f55d919U, 0xb5d2ea72a70232d1U,
  0x381f430fcb3bcafcU, 0x16fe078c2adfa10bU, 0xf1d5253fc1610df4U, 0xe32f1e22541fa40dU,
  0x9921efeacff2d4b8U, 0xefbb65282920ce36U, 0xeff402e42343f8b9U, 0x1422f438a4eb1599U,
  0xdd2d62ff0d12d13cU, 0xd05723cc09411f00U, 0xb5e3c6fef1d9f2f0U, 0x661e2de9cce1f034U,
  0x99e17ffdc5e727b7U, 0x8d9e764c3d30529U, 0x2f43e6460ef5ad10U, 0xe03dc5f59c54e227U,
  0x80762f5f0113f37U, 0x25e315a21818ae03U, 0xb79c180817ecd818U, 0xf9d1bcdcedfa28ecU,
  0xb4db630d95f92eb5U, 0xfdf622fd2c26f857U, 0x3abc4e1118e3f7f7U, 0xb3529dfb351a4ca7U,
  0xdbf53be006041b08U, 0x2f2d3c263ded031cU, 0x9bbb2845cefa3731U, 0xf14df8232c5f4102U,
  0x58e7ead2bf41d304U, 0x32d905e6220fdbc4U, 0xf1c5c1efd55330feU, 0xf61138dc1a024ad6U,
  0xffc0a04f3f3df9eU, 0xf2e03f24362717c0U, 0xe0b41a2124fa811fU, 0x60fed8d3f91f1bd4U,
  0xcdabda282ef73dbdU, 0x2010caed20f7feU, 0x3e0cee3737d0d2fbU, 0x312eac91518d6c2U,
  0x351fd0e3d9bbc7c8U, 0xfccff4e922c20911U, 0xecf9050ad10ec8e3U, 0x2fe2fbd3e6f919c8U,
  0x6b62deafe2eecf4U, 0x7410ceaf22b07c9U, 0xdbf11d20e2d2f0f2U, 0xee1504d20716e4ffU,
  0x385de7c3c9cdc707U, 0xe25442eb02c6dcefU, 0x1120e4ebc586f796U, 0x1704d7d7d7251a45U,
  0x2fb815321034f8ddU, 0xb9fc40c40c55e7f4U, 0x341428b025f40eefU, 0x8f1fe535433ff0b9U,
  0xc5010207f7c30a29U, 0x294aea15150fb81dU, 0x4ad2e0816f9f01cU, 0x1ecc565028f70048U,
  0x13d2de820171ea2U, 0xbb244fce033eb5edU, 0x15d7dd06c51b2cecU, 0xb819560de9695d45U,
  0x2df3250b3de4b6f1U, 0x3056fa3245c3262bU, 0x1afa3aad16aae127U, 0xd6ec7f53180bd2c9U,
  0xd6ef40c6ad27019cU, 0x2020d64345efe446U, 0xfa0fe4100358d0f2U, 0x11dd15400610ea06U,
  0xd8620525420a23dbU, 0x50fed203ed0f0fe1U, 0xe9e8062728b92f27U, 0xe7891cf0f04b0a59U,
  0xef0208beabd6b000U, 0x172323f93924f648U, 0x2de33bfbec0c1a00U, 0xe91dff331bef10f9U,
  0x2016eb2c543027fcU, 0x1110aaeee9dad8ddU, 0xbccd4c596fad82cU, 0x2df416e8cb65c01fU,
  0xe0cbcdf3cce50c03U, 0x140c14091c4c1e2fU, 0x18b5232abec92903U, 0x21153701db1427f2U,
  0xc81d4310e3f10ee3U, 0xea0ef94cd6e4eeecU, 0x12b3e1cef0e0030aU, 0xd00b013808e809ddU,
  0xe3b837e0f0e20447U, 0x6ed1305e3d3fa13U, 0x450f0dd51a37f70eU, 0xe907fedee81af4dcU,
  0x7f0093b3af5f4dfU, 0xcdd90af525e3e305U, 0xbf012905e7b4293eU, 0xe0fb311fbcd20ed2U,
  0xe21ce5158d1e1881U, 0xaec01d1ccb2dc3f8U, 0xe2d2b33edefed5c1U, 0xf1c9c90a58eb17cbU,
  0x24e3d422cfc02843U, 0xefe2ea30d0a618c1U, 0xe802d7a7cfb2e324U, 0x39d043ea15f1db37U,
  0x37d4e706004c25e1U, 0xb61f0cf2ad4ee6b4U, 0x201e06fb34d1d811U, 0xae268d1e3b29172eU,
  0x18c0c5cb26d829baU, 0x2bb715d1d5aba199U, 0x3db00729eedefcbbU, 0x206744f1c27fe01U,
  0x6f3ff61d015f16f7U, 0xb63c432a30da15e8U, 0xdd222d43c1d4c215U, 0x121d471a03f1dfbeU,
  0x9df63ae40d1405beU, 0x144b810d61d41406U, 0xf118df773bfffdf2U, 0x1f9c47ee3f1b5808U,
  0xfd192700faf4bac5U, 0x22fb4ec0e015233eU, 0x6f19061f1951df39U, 0x813705f6f83e5042U,
  0x304430ee2f3ab12U, 0x3f30c6d7caf9402aU, 0xb4c5b73516d355d9U, 0xe4d22f355ed503c5U,
  0xac3d38fa0e1711efU, 0xb81ff15664b73ffaU, 0x6af30a2218ce4f17U, 0x8bf5bcb24144f827U,
  0xe6e9dc1224250b1cU, 0x48c7c4cbe3c312deU, 0xd8e4b8e40ae70f36U, 0x67125106de21ecc6U,
  0xb324a203bb5a2cd7U, 0xe348c12f38f23ffdU, 0x22c1a8efc4ec840U, 0xd6d7f0c8efb42721U,
  0x33dbc04a3dcfebdcU, 0xd4f6cd1db624ffefU, 0x2dc630e63eeec655U, 0x63e0d7f20d03dce7U,
  0x7d6b6fa374ec82aU, 0x47bff497092204d8U, 0xc1f6100de413dd10U, 0xcee70b2f083ad022U,
  0xf5d1ec094727e9d3U, 0xd693d1c4e11200daU, 0x112e4ffdccc125ebU, 0x8d42ef4d91dd70eU,
  0xea37353e3ec414eaU, 0x1db7f7b1f7b2bdfcU, 0xd342f1474f0204c3U, 0x261ae2f0fceca826U,
  0x4a0396da73390833U, 0x60ffd23dbd509efU, 0xe7f0d83c27c6b404U, 0x9ae203debabdd3bU,
  0x9b06c216d6c633ecU, 0xdcb0eaf3416ef38U, 0xc2650af62cca220dU, 0x1e228e7ff403134U,
  0xffd1e4ef3215c5dU, 0x413d1f598d4e0f1U, 0x110a35a9d8002b27U, 0xdee2d327a43b5002U,
  0x81e0c32af506e833U, 0x3fb72c16ebf2f719U, 0x9efa2c5302012819U, 0xe5c8d13f08cee129U,
  0x84ffe1c2a2b11bdU, 0x5ca62ab9ee09f142U, 0x14aef0ffdd0daeddU, 0x1d39cc3fd525d31eU,
  0xb1bc3faad0feeb54U, 0x372c1fb0c71538d0U, 0xc83b20f1f801eed4U, 0x8cff07e8cd0ea643U,
  0x22f438c56cd7e8c6U, 0xa4ac0ac33403e2U, 0xcb8113a0002066U, 0x189ffc369403d939U,
  0x99320fb0d35619deU, 0x213218901421d354U, 0xe802f2f244cb4e03U, 0x39b6db62323e9fc6U,
  0xfb1ef90dd1d74d4dU, 0xfb39f4c5f497e112U, 0xb61e21c51519b813U, 0x2e050ecb0c24077fU,
  0x94b9274e97bd081bU, 0xdec21106bdc12f00U, 0xf0cbf5c644caccebU, 0xaeeaec1ff5fe2a18U,
  0x3cfcc81b241b2c03U, 0x24f0e5c80bf2bfe2U, 0x3a271ed8fed83b49U, 0x410ddb3180ae00eU,
  0x93811ede9d674aecU, 0x3ecb3bf2b6cdd10bU, 0xdcef9d7aed86019U, 0xf4cf94f71c23cb2bU,
  0xb02348e316eee1eaU, 0xb5d0a6e00effabd0U, 0xf633d6e1d2e3e128U, 0x1b232fd1a351111U,
  0xc5990133e61808caU, 0x4f1010f108d567d3U, 0x42eb00080d41ffdbU, 0x2adbad304f129fc0U,
  0xffdf553a3ffc1700U, 0x16efffd187363c17U, 0x8e6d42aab3dfec1U, 0xf1b9c094fe19c4eeU,
  0xf3ebd1c31d24c6bfU, 0x935d0f6ecde09U, 0xf7fdd1fe9df5e3fdU, 0x421cecbfa0e1c11U,
  0xff0ceae9be18d7c6U, 0xbb2eea06c3051110U, 0x1b1013cf24b621f4U, 0x906eaea4b0c3916U,
  0x2fce24d146cffaafU, 0x2633390426d51acaU, 0x14d5f0b9b5b21b3bU, 0xa0eb3e4211a4f05U,
  0x13e5fc0beb1befb7U, 0xde0c26f1041a11d6U, 0xffdb0335dbf331f6U, 0x30f11bebf70d3916U,
  0xe806e0c9cb23f0c6U, 0xc7c8fb281ef80dd1U, 0x28fac70ce8b01ae0U, 0xee2ddf1cdf14ffd1U,
  0xf40409160d0c27d5U, 0xf01fbbff711ddf0U, 0xf1e40e3ae4c93203U, 0x322021813f0513d7U,
  0xd009f20a13344021U, 0x5aee0e00301b8eadU, 0xb961537dcbd23dceU, 0x2b37bea80913e8ccU,
  0xe4ba04ff25c7ea56U, 0x9d18dd5b2c2dd03U, 0x1bb41fc3d9cb63ebU, 0x1adfe2f51a68430aU,
  0xb600ed26ec252bd6U, 0x41b2a04cf334ad5U, 0x3132c0f00f57ffb5U, 0xbceaa538772f2638U,
  0xf35edcecda982ffdU, 0xc307dba3cf98a1bbU, 0x62fee61721fc2360U, 0x29f349ca0728bcbfU,
  0xff142e52aa22c1b8U, 0xe331ee99ae2fc920U, 0x1e14dcd819a6bd7fU, 0xafccf32e18a7f9b9U,
  0xb1391ddfe9261438U, 0x38f12340aea7fb2bU, 0x3673c60e17f80dbeU, 0xc337fe4ce1ab533fU,
  0xf2d5a62646c7ffaeU, 0xe6111eb604e14acfU, 0xfd0e172ece4d2afaU, 0xbb2026f6a9403843U,
  0x4600c9e7b1b1ff01U, 0x30d47ed2aebb6c9U, 0xffa8dfe931aad481U, 0x1bbeffef07ede4aaU,
  0xf9ef7d20c902f00eU, 0x3bc92133f058ed28U, 0xef0be735ba27beU, 0xfdbdcbbe0bf80ac0U,
  0xbb2fb12122ccb453U, 0x181cd8b825163cb3U, 0xd9c51532e12c43deU, 0x139da9b425cf3ffeU,
  0x25966b2fc6535904U, 0x3a370f3c06181dc9U, 0x100a00d3c9c4c215U, 0xadfcfc2838e1ca30U,
  0x31100bf21904becaU, 0x393b27b13eede586U, 0xa5bfcb141b27ffe4U, 0xb051e160a000920U,
  0x38cfe30f4025d9d2U, 0x423bdfbddd25e529U, 0x810548fc51d6f5a8U, 0x21e1b7e73041e89cU,
  0xa400e8ac2aebcb13U, 0x15abf360802fed0U, 0xdd06e1260dd4d8eaU, 0x36c4180000ceb336U,
  0xc8e2fee6fc2a4494U, 0xeaecf903bdfe18d6U, 0xa9b64241614ff2f0U, 0x39c5bcdfd125e11dU,
  0xee0c9ab04fe1d812U, 0xfa0a2e2c9c392c4dU, 0x96bde739e5e7261dU, 0x19a6f1020f0b23deU,
  0xf7f6584717253dd4U, 0xdd2d0ab4d31703faU, 0xe0312b520cd5da19U, 0xe648f411fb4d0b1aU,
  0x5c3cd70e0a60f221U, 0x142c2298ccf7cfeeU, 0xf4cc52b3b21fbb18U, 0xcbdc03edcfe620d5U,
  0x9f07fa21c6ca2920U, 0x9e3c7f9e7074019U, 0xece8e917e01e1f2cU, 0xcdf135eac8f73cd2U,
  0xd2ec91354f9fb17U, 0x14ecfc38393333bbU, 0xecbd0bf12a43f01fU, 0xe8c1e1e08122f7aeU,
  0x8becef10ca0a0b18U, 0xee0e82d416c8f35bU, 0x3dc1cfe60653dfc9U, 0x24361747c44f14e4U,
  0xdac21110f0e31916U, 0xeff2d737d3c8eefcU, 0xcd411300c23ea11U, 0xfa9f0ff79c19082eU,
  0xfeb418e803e930f3U, 0xe8299ec21035e056U, 0xedec2d0d22e30af4U, 0xc3f93827210adebfU,
  0x2c9cb1235d3041cU, 0xb810e4223f1b2f68U, 0xf9030e2fb6e51a02U, 0x3c1d230bf801d7d3U,
  0xc3d919f9f7fa141fU, 0x59d0b9ed4c1f471dU, 0xe13e0c2dd91af112U, 0xb62a81d0e00cbbb4U,
  0xd7443810ff141ec8U, 0x2ff60cbd07e8fa09U, 0xdce6c2b9c2d432f7U, 0xd83600110f14eed2U,
  0x3cc63717f501ab15U, 0xc4ee0e232d072b5cU, 0x183ee5adf8c903c1U, 0x9f0e20be2616b531U,
  0x39f1e3fd2b0c4bebU, 0xcf0b0945dd19b8edU, 0x17d7f4abbd3dcba6U, 0xc7151cd3fabdd933U,
  0x33ece0f53201d81aU, 0x10cdeccdee21db0cU, 0x32de1fffefea481fU, 0xd1ffdd09ea601931U,
  0x30f7012ef6eed1c6U, 0xdec0ded22514f4b4U, 0xfbbbeb1e26f80d06U, 0x34d2ffde26ec541aU,
  0xe3aefef7d72156d4U, 0xeb4a0ecf211de9c7U, 0x30beaf009040cbbU, 0xd0a89eec2025de9dU,
  0x2ad410460ae716c2U, 0xb9c8c3ad27ef013bU, 0x2fc9dc8de79f19e9U, 0x4036df16da144c29U,
  0x3d0e3e23ead9c20fU, 0xffcc09e02cf833efU, 0xef2317d4b0d5fb27U, 0x37140a01a9f734a7U,
  0x3f3a17e6c5130641U, 0xd8ba35c8321adeebU, 0xe7d3ca0505aeeed9U, 0x372a87b438404de8U,
  0xfce61a1d954dfabaU, 0x1429fc34df2bec50U, 0x14b635f7eacfe3d5U, 0xf24c8322e24d9e37U,
  0x331a182d1917f6f2U, 0x81fdd9283e27f41aU, 0x3bbaf635200f320aU, 0xdff309f20620f90fU,
  0xdbef04c133e6dc1eU, 0xa9131a2acd09d3ffU, 0x310b2313088114dfU, 0x111ce4de2a284300U,
  0x32fb982316561297U, 0xd7ed2c0a033bedfcU, 0x1b08229ce429f21aU, 0xf1b6bbd7100636e5U,
  0xeb99923f6470a2aU, 0xfdf05628cfdc071bU, 0xeba8e8f7e8d6471cU, 0xf8dce52ce02de6e9U,
  0xc8e0c4f9e8e201d6U, 0xaf0ea2210c701f8U, 0xa1f21cca0c16c5d2U, 0xd7e312e90f372910U,
  0xd1b1fa12b51b2210U, 0xad951181b20f84aU, 0x452a1ad7fd121a07U, 0x1149dbd4d152d8c2U,
  0xda0c1530fafdf831U, 0xe5fb0441f30ee0edU, 0xb2d0bb0dc3b20a34U, 0x4daf4df00bf2c6ebU,
  0xa626ee57170a9bb4U, 0xc307183b732ff7cfU, 0x3604f99edbd3c83cU, 0x96df1d1d11b956eeU,
  0xe1f746b6efed01b1U, 0xb5baa3dad804ba24U, 0xa33dcce8e43950cdU, 0x39fc3cae409dfb9dU,
  0xbfc54a37320de5deU, 0xdb15e3242a375e12U, 0x4be3efb5d449d528U, 0xd063ae37a84e39eeU,
  0x4b1845cac64cfbf9U, 0xc410a913cf4e4cbfU, 0xc8c433e7eff43636U, 0x7fa70ec44b083f24U,
  0xf2531d3c043609abU, 0x8c9c94ce6ed10d6U, 0x2a42eeaa35eb143fU, 0xca24bf45fc2f2ccbU,
  0x494b0ee8e87dcadaU, 0xbfdcadf914df2ae2U, 0xcceef7cb0bb93119U, 0x21fcda1fea2ae535U,
  0x2e4a9800460f24e8U, 0xe00ff39ed6c4a05dU, 0xb4c7fe56f7e6aa2bU, 0xda27316068d0f7c8U,
  0xe02988f8a53a3a2dU, 0x3a2a8110561fc9f0U, 0x42cb77e64f314bc1U, 0xc192c9e64916fdd3U,
  0x53f24659ff0c46f0U, 0x3a2210b812f913e5U, 0xf55ec668e627ee43U, 0xe63949f4e05ad9b9U,
  0xd2e2dda8f20e6cdfU, 0x36da9005279ae702U, 0x240e7f1eac353d6U, 0xc6d739e0f2e32a28U,
  0x151817f8f13f41d7U, 0xd13c1608a4f0ea04U, 0x8face61ea3db6baU, 0x2bcec1c3eb68c60fU,
  0xb420ee37abfd2e42U, 0xc9dbda0ac7063316U, 0x562675a61c9d163cU, 0xd8c4ddcfba09fe35U,
  0x1f42032fee5ed235U, 0xde2deac9230edcf9U, 0xf4022f44622c510U, 0xe5c1b00b0119c517U,
  0xb28fe26f4fb0b22U, 0x25e4b749b8f9e1e0U, 0xf171b1218fafecbU, 0x1b9bd523030a421dU,
  0x410aad0081d7a3c9U, 0x61a311f311e01e8U, 0x29a6f4b4479c3c2aU, 0xf526d4d8113a06daU,
  0xc4b9f1d7f9f31800U, 0xdebbb6c2c73f3e10U, 0x481aeac7f2b2d528U, 0x27cce69f26d327b4U,
  0x6205c3f7b1e30218U, 0xe4b3313f817d649U, 0xeab1d6480da551c5U, 0x3ff1d5a8da4127e1U,
  0xed22ae3225520900U, 0x2b44b932b58ee7e3U, 0xf61d2a1910edba00U, 0x2ea806da5dca2de0U,
  0xe7e2d12e3426cedcU, 0x811dbc54f028f31eU, 0x54b35d074f22253eU, 0x4a5c0735a201f4b1U,
  0xfd18aacb221610f1U, 0x1244bc072414090eU, 0xe7d1ebd913eb12bdU, 0xeb96ffd7e125ceefU,
  0x20fa3c31a403041eU, 0xebfeb61fe3f6f31fU, 0x290f01c51114c43cU, 0xedebab05f919e6dbU,
  0xc23eecdc51ff25c8U, 0xc51bb540f217e430U, 0x12ff31dcf1e724b3U, 0x498dae5bce90b1bU,
  0xa221f42bc0f3d8d6U, 0xcbdae9fc3c16e7fbU, 0x3ddb2d2740d847dbU, 0xf8380123106014c8U,
  0xad2f150d3a4be39cU, 0x13f7d615e20467feU, 0xcacde5c02eb5f254U, 0x4f9815529a4030d2U,
  0xe9b41b2513f3ff2eU, 0xed0f2124f307e303U, 0xf637e601cf262c21U, 0x2613f7f4051742eaU,
  0xdbde0617022c2e23U, 0xd1dc0f71e0b4081U, 0x304d06c2f9b9e4d1U, 0x22a753ddeceecdcdU,
  0xae5fe3c0f492ecfU, 0xd6f3efd4cd03ce36U, 0xe1f3fc5006e23cb4U, 0x13e02126cd0e27d7U,
  0xa903f0eefe2ec938U, 0xe80d25ed1918d3U, 0x1402ebf1e6ccbd02U, 0xfc6e22efbbaee10U,
  0x19fae50728f9facbU, 0xefe4f12014263009U, 0xf4e9e64546ea33d6U, 0x3a16eb3a3110f83eU,
  0x9eae3e7e9b8dd3cU, 0xe6dc061a0b133bacU, 0x28cd4420f4bf00ebU, 0x38c00ae7c412c696U,
  0xed33323e00250e2dU, 0xf03dbd5511dfc3fcU, 0x45135712283af4d0U, 0x42df7f3396a3739U,
  0x392619313920362cU, 0x3c53ad7033322d7U, 0xe8eaedd3e6df2da0U, 0xee1107433c4c1c47U,
  0x41ad52d0b543c513U, 0x240bb71edde5d71bU, 0xdd0037cdfdd836c8U, 0xdd410c3dfadf27e9U,
  0x1d3359f8e0af0e1fU, 0x224ca14313cd1d48U, 0xb292312320444ac2U, 0xcee21eaff52fbf0aU,
  0xa2ef37becf2631adU, 0xe9f1b6fe4032265eU, 0x2ee20ae94a3af70fU, 0x81e7d6c04210be3cU,
  0x9e1a56c0e228de3cU, 0x2624fcba3d1503b4U, 0x9dce9f2e162f2431U, 0x3c9bf6ec1c17dfeeU,
  0xcdac092423faec09U, 0xbe1c14e9fc3bf908U, 0xc028c640e6242b07U, 0x930ee8d10f252139U,
  0x1bddec5b4be61bdbU, 0x3b39a8b3f1d5f5cfU, 0x6f0426f9110e8fb8U, 0xcdaaecfcea3f069aU,
  0x660ddb20dc4022a3U, 0xc5e6d5ef1d1a2d15U, 0xfc4a0f65c41e0d1fU, 0xdcf2fb353f42bdU,
  0xa9d8efc51848c0e6U, 0x4f0c1916012d42e7U, 0x33a31b2f81f8acc4U, 0x361053d4f128bdc7U,
  0xbf1bd867e2dcc81fU, 0x12f118aec42335faU, 0x1f40da61c0262d1fU, 0x3842cd12e843fbfbU,
  0xbb3fc457dd47baf8U, 0x2ff7a829c2d434d3U, 0xe419281fbfdc0211U, 0x5af14c30b8f1282eU,
  0xb3eb2368bcd2d7f4U, 0xf2a8cad5c9151357U, 0xe2d0c859ef2bb423U, 0xf5d5c93be1f9ded9U,
  0xcccff7bc19a5cb64U, 0xfb0ae2d4eaf12ae2U, 0xc1ebe2efd7ed1ff6U, 0xe0ae1508113ed30fU,
  0xca39b8c6e9383002U, 0x27d2ce81d8eb1e52U, 0xaefd4c0250cdffb4U, 0xf1ea0d3cdef50f20U,
  0x3ccbbfc14a0fac63U, 0xbf23df15d3d010eeU, 0xe61dd043dc25d9d8U, 0x42fc2e05d9134b34U,
  0xd1b534312a171df5U, 0xcfe2d98befed0813U, 0x2230e222e444da2aU, 0x2d2d1341e7d23aadU,
  0xc8231a2230dd1ad1U, 0x223703d0dde626f9U, 0xe435200026d918faU, 0x4ab25be5ad210f3fU,
  0x88261c23012dff40U, 0xe1808f1c1131e3aU, 0x39ec58b2bbeff3U, 0xcebbad2e1eeeeebU,
  0x11fb9d907fa4914U, 0xd2d0f7fe11ff088fU, 0x311f29daeebffdc9U, 0x5cac4530a5a2116U,
  0x46eaad280dc112f7U, 0x20df0f060feaeb08U, 0xf9fab4d2f505d841U, 0x72804021f401702U,
  0xea35f63b23f7fc4bU, 0x1313f2faca2c6cf0U, 0xefd13deefc7bf2bU, 0x40c7ebfc17bd0e33U,
  0x3c00e746eadcc4d4U, 0xbb3705d9d031d70dU, 0x1e4fb63ecbc509e5U, 0xc5d09a2bfb0d1fcaU,
  0xea30b920ce1459d1U, 0x1ddefebeb1cc06ccU, 0x375822ccf416e920U, 0x8b61dc37fb61bf2U,
  0x2d4cf2f2edf5b819U, 0xde1949f934d65c08U, 0x1514acc5f60b6320U, 0xb1ecdf0ce039f2b4U,
  0xdcd2d906e03502e3U, 0x3eb0300f2400cc8aU, 0xeccfbf26c4b4101fU, 0xfdae2c2a1acf4124U,
  0x18cfd720d13c020fU, 0xecdbe1e84cd2f9f2U, 0xc2bfd1ed497350dU, 0x2e62d6dfdc092eadU,
  0x2405e51d1fe7da06U, 0xc9de0de652c631aaU, 0x7d708f4f3373e2bU, 0xed76829312c5745U,
  0xc330daaffbce0016U, 0xaced152af32de4d4U, 0xee9fed4f00c1fbaU, 0x3debec4af4026fbU,
  0x31d3b0e8c56dbee2U, 0x54d453e91a42aec6U, 0xed11ed2cc2edfc2bU, 0xf30311bfcf0323c9U,
  0x81ec023a1e420e0eU, 0x22d157ed313759d1U, 0xf62b1b3081e9070fU, 0xc1cbad13df3f113U,
  0x691c42bd0bc4e442U, 0xc8ddf3d2394b014eU, 0xf69e250a1cdd21ccU, 0x20e3d10c02ca0313U,
  0xeacd5202f602ec4fU, 0x2b0eeeee0c003835U, 0x23b508add4cbe932U, 0xdc17fe16bc10e919U,
  0x27390ff2cfc81517U, 0x1fc83bb01af9efe4U, 0xd8d5c1b3c4defba0U, 0xc05c31ce1ee2a10U,
  0x46e52526cedef158U, 0x5b04d14d2164d904U, 0xdae71c1b0e46f426U, 0xd50096e5d30015edU,
  0x325773c16f21002U, 0xc7ecc7162e48eff0U, 0xe58105b7f9b647a4U, 0x2aef2ed81ad22bf7U,
  0xb7a233eb241dba0cU, 0x750c4f4f50217c6U, 0xd22ab118bde1e4c2U, 0x110bee1d3000dcd0U,
  0x4ec8f4fa29fde833U, 0x1ae8280520dff1b4U, 0x13132ac5d4cf131dU, 0x99314b82bad1142U,
  0x1f390edee80119e8U, 0xd2e507072c380028U, 0xdf3e1800ebfce9bfU, 0x8a1cc548c6001137U,
  0xf8d0114108812100U, 0x1bb9450602e1cad5U, 0xf7ecd4dacdba0234U, 0x46efcd2dffe3d52dU,
  0x4925c7bb0c2c92e1U, 0x1128f9f3094ff226U, 0xaa1dc710eff8ccd6U, 0xb013fd25d965c0c3U,
  0x22e9ecf6fba3ee34U, 0xf7f3291d311b2fb4U, 0xced30205e40f4b0bU, 0xff1d30312700e4c3U,
  0xf040e9051218e5deU, 0x4a26be03cee30827U, 0xe60000331149e3e9U, 0xea4443bfde1df9f9U,
  0xd099c3de19407e6U, 0xcfd8ee0f330cb1ceU, 0x11abe1d8f5b3bca0U, 0xeba81a43d8181714U,
  0x21cd3040ba06d7c4U, 0x331b11161b4937d4U, 0x1b9f3cc121906a2U, 0xc7bc1d2a2814ca30U,
  0x3900b820df3bc8ccU, 0xa51dda6534c30e7U, 0xd5e0f2283c4d14ddU, 0x1bd0ec0c251b14d7U,
  0xf3dad60737d576ccU, 0x412111906210960U, 0x1ffac9c9fedafbd5U, 0xfae4bac323eeb9e0U,
  0xe274f163001e4d7U, 0xfbfd2181111498a4U, 0xf30dc811f5f01b02U, 0xff15f3cb20d45347U,
  0x1bec4909e84105d4U, 0x922401506ef3dU, 0xbbdfe21ac608f8eaU, 0xd2c9f7220c2df6e5U,
  0x50a1b2fe40cd5e6U, 0x810625a538f6ec08U, 0xefe215b5f4d1cdd9U, 0x3fbed1b3da152323U,
  0xbf15e54a25dcccU, 0x41007e1fe2cef00U, 0x1d34181cda02d1U, 0xd73ec3d2d603e8cdU,
  0x2d3f1e26291211eaU, 0xf02a31ddc4f01901U, 0xeef3f602d2c9f209U, 0xd51fef16cb002120U,
  0xdd0c18f2e0f116f8U, 0x18dec3c3d118db13U, 0x61f46decae5100cU, 0xf1123314473ed602U,
  0xe2e0e2f4111ece1U, 0x160212d245c0bad7U, 0x1c0bcf0fc12e905U, 0x17c70927c92701f6U,
  0x18e11ccace09261eU, 0x6601cb315e238afU, 0xf5bce808f517e700U, 0x8122d5aee0fb3496U,
  0x4501ed4c41dfd621U, 0xfadfdfde160816c3U, 0xe82dfe2fd503f522U, 0x40fe663bf1e0d030U,
  0xb74fab49ba1df433U, 0xadda3bd5e3122c04U, 0x617cbb8d9cdcd11U, 0xb3df061a6a35efecU,
  0x39474cd315f0e0e7U, 0x7b8f93b30dc15ecU, 0xd022c932e20ae6e2U, 0x209503181ef22000U,
  0x7d4cfd3e03ad926U, 0xae1c0aef2443e4daU, 0xda2344ff04111904U, 0xf2f03a1efe674507U,
  0xfcf3cdc61112aec6U, 0x6fd3f033f41111cU, 0xb27a6362a1e2c0eU, 0x25070a6167372bdeU,
  0xd0232473d74423acU, 0xdcfa1e2fe6294c30U, 0xb93256d9210e4044U, 0xefeddfdb9b1d390dU,
  0xeed9fcddbeaa2effU, 0x2cf7f03cef3d49e3U, 0x23fbfa07cd0009edU, 0x342006f500cd5339U,
  0xaf7530c802effa8aU, 0xcfbf56ca66230230U, 0x30ae1341d50ac6e8U, 0xb9ec272afd1844c4U,
  0xca18fa315eabcc06U, 0x627b264055361b0U, 0x1aa71bdc0f389dbeU, 0xed151702c4db01fcU,
  0xafcfe7e5b8c1ee01U, 0xc94e04c832f1e3b7U, 0x17e8253c6a59feddU, 0x44e01da4a245cf2U,
  0x4202331145b2051cU, 0x1c6c12d26d21f64eU, 0xafddf9ff591dafccU, 0x2cbd7ffca614bafdU,
  0xbdb7dc5109210910U, 0x1136d30be30d3011U, 0x9a3371836f84320U, 0xbc23f4a17134025U,
  0xc93426053917ef1dU, 0xb97fd022162dea0dU, 0xeece3e37a5d20a00U, 0xade4d298a11dfceeU,
  0xffb0e0bf16e7cf04U, 0xcbccabe1e52fc2f4U, 0x1137d9f11001f7c0U, 0xbb4a09eced291d15U,
  0xe9cf25163afa31e6U, 0x3cf8391519e4b436U, 0xfbb5c7dac6892d43U, 0xf1ba3a01cc39cdeaU,
  0xa2bf72fed55654c0U, 0xca0ddcce26411c1bU, 0x2c190e56d9515e01U, 0x942ff0f10869c5c6U,
  0x53e13e0f504f2bcU, 0xdae80208c2b3362bU, 0xd6924ad510be38d6U, 0x10241b28b81f2914U,
  0x2dfd4ce204f00018U, 0xd60d3c304af8da11U, 0xdbcb0f0e1f22fdfeU, 0x811e08d9de301cc6U,
  0xf7fd201a5022f3U, 0xbdddb21e4ea00ffU, 0x1509c32edfdc29f1U, 0x2bfa410d0b1c04faU,
  0x80b3a3b13dad5bfU, 0xd223d9e520f52d1dU, 0x28d40fd2d1fdf4f9U, 0x961a0714bb0c06ffU,
  0x1d413101072828e0U, 0xeb0de0d90c20cdfcU, 0xec12e4de10f31b15U, 0x2fb92c0af1dbeccfU,
  0x43222c8ebf016e4U, 0xf51d1d2afe14e21cU, 0x2e15c3e527e6182bU, 0xc233f33c23f80ee1U,
  0x32f8172fcb100426U, 0x49d71302cb4c02f2U, 0x24ea0fd60624181aU, 0xfe0cefc7e7e01cd3U,
  0x27321edb1a14f0f4U, 0x2add204048dccb3aU, 0xe9095cb2b9eae820U, 0x371426dad43c34c5U,
  0x46d32836dbd1c3e4U, 0x19f8aeedcf03d9e9U, 0x1dfca60e3d2719f3U, 0x76ea0ae91fd55140U,
  0xea0feb31da1003d5U, 0xf8ff31faea3a0ae7U, 0x10d9c4d6ed3201fbU, 0xf6564124ad3b0bc4U,
  0xec41e44721960f25U, 0x293c45292de83f07U, 0x26e6fde60f215ac4U, 0x46812dd6ea4b02c3U,
  0xd443abeff526d816U, 0xdc2a03c7fc30502bU, 0x38c21c1c160ff1c9U, 0xf5e80e2ef8f1f5edU,
  0xbe30d4142fad2e2cU, 0x1f05bc2dfa1916fcU, 0xe2ffda17a9de12e0U, 0xfeba35bbdffd5d25U,
  0xb0c3de20df414d10U, 0x1acbf80514bd1fe0U, 0x1a3a16ed260226d8U, 0x2214feecfff2ebe6U,
  0x3944e309e9131500U, 0xe6032734520e122fU, 0xf0cfdfdf4cd5e317U, 0xd534a219521d3831U,
  0x24112242813d392fU, 0x66df29fcd407c1f3U, 0x26db22c82b0111d4U, 0xd8e8ffeebfd0d9c4U,
  0xf6122bfcc5dc34caU, 0xd914c5c468fef40eU, 0xdc0cc802476403bdU, 0xc023e214e0f2df2cU,
  0xe1eff51bb6122ec0U, 0x6dfedb1be1c43ce1U, 0xf61b49d2010de60fU, 0xf4c51ec8d7f9e4b7U,
  0xe2e01443c612ccc7U, 0xece7edd3ecca3b35U, 0xa9c115b9f03217cdU, 0x47e82cd23844ef4eU,
  0xff017dfda0c21dcU, 0x1a455a0112fdba49U, 0xfd36e00bde0251ebU, 0x12c29ff1e033c2deU,
  0xb603d519dee0edceU, 0x11eb51ddf34e2afbU, 0x39e6352e12c7fc2eU, 0xfd840b08e1e94301U,
  0x2332d031b20a9abeU, 0x39f9ed1c11a61c62U, 0xf52dd420ffed7144U, 0x571b174358352a1eU,
  0xfcdd6ffd1341cccU, 0xc9a8a2f71cb10dcdU, 0xe8f0080fd3a5d8f1U, 0xf4eef3c420d11febU,
  0x1de4ca469ce10b0cU, 0xb254d20440153cb5U, 0xaad42bd711fd11e8U, 0xdfd083f2fb512d97U,
  0xb04a88f7e3ed2926U, 0x2dac7f500a41481U, 0x393d0c9f3b0ae424U, 0x34003215f5c61912U,
  0x7c3cff6154bcc22U, 0x2823d3411dd6c426U, 0xdb1d21bede4a46e6U, 0x8de4f4ec3ece3298U,
  0x3601202d20fbe5b6U, 0x55f6cf2df720e409U, 0xfa441f5dfb30f857U, 0x2c2e56f23e2437bdU,
  0xd6c8fffa1ffc0225U, 0xc2e0e1414206d2bfU, 0x10f94dcf52313e23U, 0x81fcec00c77023e5U,
  0x2a20e9dcd72d0732U, 0x20b3042d4f0dd7c4U, 0x1dc9dd7ed1bf2e1U, 0xdaf06bc2da4357adU,
  0x22d5dbe809e3adcdU, 0xfaeee90b65c12870U, 0x2e4a12d8efbf4d0bU, 0xa748da98046a39feU,
  0x333fe43bad550cdfU, 0x1db3f02ed925ccbfU, 0x5d6261120fd6ae6U, 0x29b63a33c6f450f3U,
  0x941d63cfd4b20f6U, 0xe003efe949fde9e7U, 0xe328ebb41c1ff114U, 0xd048e12ff7e908d3U,
  0x232c8cd17eb1a31U, 0xda13d621d92b9b06U, 0xcf32cbfc5712ce03U, 0xf50f3edc0b240526U,
  0xce080c2e4c1df5dfU, 0x133c1947e32accd1U, 0x4ad0f5c1ea14dce1U, 0xc03f06eef553f5d4U,
  0x4d38d22440e1d335U, 0x1fcd2cc5422a99fdU, 0xcbde7d398cce50bU, 0x1830f6bc01ee12bcU,
  0xccb04111d8caf1c0U, 0x2012f8084a4553deU, 0xecde535bc2fa7ff4U, 0xced9fe01d76c32e4U,
  0xfc03e3be23093a21U, 0x5fa3c0732eb2df1U, 0xe9b318f2f1f0150cU, 0xec5211c6430140d8U,
  0x6202692dfd152606U, 0x52dad7d40d28d6dbU, 0x7fdc2fa2c39b5e0U, 0x1c1c8ee10f0288cU,
  0xe4e5d30418d1b3efU, 0x4b5280fd0d5818bU, 0x512f9fe11d341ceU, 0xce28cd0738453430U,
  0xfa9649bf36193ad1U, 0x1950d02b380a1d62U, 0xa52d3fd6e34bd5e7U, 0xe536eac53afeb9ebU,
  0x2c451ad0fdfdd11cU, 0xd645e9a44d132817U, 0xfddcda03f7eb0c0fU, 0x2e1de1ecfde83dd9U,
  0x10d5cffbd841d818U, 0x4e3f3a41f021f0e8U, 0x24e5de04c3c6da1cU, 0xa1e81314c706deefU,
  0x6b202d062ab390ddU, 0xf620b7f336fc229cU, 0x16b8d107daeff2caU, 0xe6ed2bbf0fda2e2aU,
  0x5f27d911532636f5U, 0xcad423e750fc08dbU, 0xe7e8d4f9333a22e3U, 0xda51ee0bc4d909b9U,
  0xcbc015d301c54e0fU, 0xd0d7ec2c43e463d0U, 0x461600051817dd0fU, 0x52f772f1eed634b2U,
  0x4bf6f94ce0efac9dU, 0xcdf47f3f45d204f9U, 0xbae9cf2bfd431d41U, 0x3915ca02e64b0d1aU,
  0x9293d259a2c0eaaU, 0xdd5baa5848e56b13U, 0xa9cd04215ff920d9U, 0x2acd35ccc4ce3145U,
  0xdc111656b06324d7U, 0xcb5d24f8e5c8fcf2U, 0x2d124b17d4f2bbf8U, 0xd2a3329e30d5ab9U,
  0xa4e9c7ece142dec4U, 0x242208f26e06f4d3U, 0x1315ce402b09ccc8U, 0xf4ce16e308f1ee1dU,
  0xcecec943fcfad1ecU, 0xc124060d3afa0538U, 0xffe9fbb4ebe450f4U, 0xc61cc1dbd92e27fdU,
  0xc1deecdbf72813d9U, 0x3fe706ed2113dbfbU, 0xe741f0f801d1f4f9U, 0x26bd2b0d2ee9e802U,
  0xdd0a1d0581ca25dcU, 0xf21a1cf4da0dd605U, 0xd6d4edff38ddead5U, 0x21410e1ac5dc10b5U,
  0xee26e33ac737180aU, 0xee3dcedbdd3343c2U, 0xc7e5f8193519f1dbU, 0x47f11b4ff41a1c3bU,
  0x3d17c4d9bf24ccf1U, 0xb93724f33b04e922U, 0xdcd5fc1a21ff0228U, 0xdb1fd6c136fc0128U,
  0x113b4ffbe0ebebfdU, 0xd0b100600f53826U, 0xd83440e944d317d7U, 0xf7050947441df42aU,
  0x2b27d12e273014ebU, 0x813d390fe2cdda05U, 0xe3dcf90c2334eb20U, 0x2e22d1eefbe337e5U,
  0xc0d21cc4d7e2203eU, 0xfce0c0f0221533d4U, 0x2920dd4c101b62f3U, 0x5c8a3b6812c8ef01U,
  0x3f21f1fee4e315dbU, 0xd63bcf2d2b0f36fcU, 0xb2de3fdf8e31fd4U, 0xca17e623d7123aceU,
  0xc0e0cce8b8efdb45U, 0x8efd1f6192502e8U, 0xf5ddf4ff651926bdU, 0xe5dd4a35fe1005d8U,
  0x5e0432cf4c406dfU, 0xcf11cfeef239ea57U, 0x1ddc101be30cc1ceU, 0xea1b0bd0f80b48daU,
  0x1313dbace902f6feU, 0xf639eff2243e51e6U, 0x810ae10e5331001U, 0x716111abdffc4b6U,
  0x10562901c4f305e4U, 0xef3cd0c1ecf1169U, 0xfc3f26ead3a7fc17U, 0xe83bfd17b0e6131bU,
  0xc34f9dbdc10c1c1U, 0x93a129edd0070ee6U, 0x1de5fb3cd9eef01eU, 0x2fd657b72510f9e6U,
  0x1817dd37752fc819U, 0x1843190d17d2e6d4U, 0x40f3b70e29ae0724U, 0xab001eb4e24113caU,
  0xe1e20beb01af72fU, 0xaa311829f52933afU, 0xed05060d2e231f14U, 0x25bf000c080ce706U,
  0x404e5dce0d710caU, 0x8141e5f8cb38e0ffU, 0xe5b7cac9d3a814eeU, 0xdca61ccdb7bdd1d6U,
  0x4a29e13d1e47ee85U, 0xe2e4f02024f331ccU, 0xcd082d04281012c6U, 0x5ca653a8df06491fU,
  0xf9eea06ab6210d10U, 0xc9cbf9e43e48cdd2U, 0xd1b104d06d4dd33U, 0xbdcbfd8f741c1edU,
  0x4213162b070015f5U, 0xf7c9bedd1027fb9aU, 0x8f0c9f6f1903c16U, 0xa94290a26c30e2aU,
  0x3dd8ef2c07d32213U, 0x2020be0dfc27de07U, 0xfa20fdf2eccdf5abU, 0xe6e6d1febff0d7ceU,
  0x1f25092134f3dbc8U, 0x36f12d9eee4e13b0U, 0x12d7f2f002a4d723U, 0xe9f8fac6fc0820bbU,
  0x1c1c03d4c519e0dbU, 0x180d1a1517272127U, 0xe8dad9e4e6120ae0U, 0x81122443ff33e0ebU,
  0xc3dcf20aeab303f5U, 0xc6ed0da826f842baU, 0xfcb7d7dc91e339daU, 0x33d0fbe43b3fd9cbU,
  0xe1db18ff25d0c0b7U, 0xf0ec05a41c0008fdU, 0x1706e3fe084112d6U, 0xeb30204fde4e0febU,
  0xcc2fc6df0b19e8b6U, 0xb82bf01dcbc44a20U, 0x1cd544e8eba6e9f7U, 0x593efc0743c3e8efU,
  0xc1cbfc1ed5d0a907U, 0xd34cefe5fe603000U, 0xfec071f0062eb5beU, 0xea3ecb600cf74d36U,
  0xe9190cd8f5093b38U, 0xda23b5aeffccec03U, 0xe50026f9bdb2d7b3U, 0x3ba822f9dfe118deU,
  0x11e7fd2a2702c034U, 0x13ed5e00354eb40U, 0x57ec37eabc4406b3U, 0x2bdde90481095909U,
  0xc80610b5071f04cfU, 0xc622cf264ce70d1aU, 0xc99d09329ffd4a08U, 0x33ce4341b7abc245U,
  0x1d51600da7020cb0U, 0x10270ebcea2bfd2eU, 0xe5ea37e80ee832d4U, 0xf70ce8f5ed22d0caU,
  0xbb14fc2c26e1e8e0U, 0xfd3bfff71ec914e9U, 0xe4d9d5f808cf2d13U, 0x1b2bc81ed8002ddfU,
  0x81ccddd9f9dd13ebU, 0x16d016aee50bf1dcU, 0x1413fecc06fc1c0dU, 0xf4163b0e1a0eff0cU,
  0x13eaf91dddd0faf4U, 0xff7ecca16b6d200U, 0xe1e4f4f0c834cf41U, 0x1bf8172701e61dddU,
  0xd621301bbc2a21eaU, 0x2bf416b104032e2bU, 0xf1cb0c3ddd0f040bU, 0x110829fcd3f4c90dU,
  0xf230e7db3c3a0bf4U, 0x2bcf34d4d7dcf4faU, 0x26eff5f5bd0525feU, 0x2025fbda090cffecU,
  0x203d7f2971dcf0aU, 0xffffff4bffffff7aU, 0xffffffb8ffffff03U, 0xfffffef9ffffffa6U,
  0xfffffeacffffff34U, 0xfffffe81ffffff43U, 0xffffff0affffff17U, 0xfffffebbffffff9eU,
  0xfffffef6ffffff0dU, 0xffffff38ffffff8cU, 0xffffff99ffffff32U, 0xffffff6fffffff7aU,
  0xffffff12ffffff88U, 0xffffff0effffff91U, 0xffffff63ffffff5eU, 0xfffffebdffffffbfU,
  0xffffff70ffffff6cU, 0xffffff5affffff79U, 0xffffff57fffffeeeU, 0xffffff87ffffff3aU,
  0xffffff95fffffee6U, 0xffffff94ffffff66U, 0xffffff91ffffff2dU, 0xffffff71fffffedeU,
  0xfffffe91ffffff67U, 0xffffff5cffffff2aU, 0xffffff4cffffff2dU, 0xffffffe5fffffe56U,
  0xffffffa5ffffffc0U, 0xffffffbfffffff34U, 0xffffff8dffffff51U, 0xffffff80ffffff43U,
  0xffffff57ffffff1eU, 0xffffff25ffffff5cU, 0xfffffec9ffffff4dU, 0xffffff34ffffff5fU,
  0xfffffe9dffffffb6U, 0xfffffef7ffffff7fU, 0xffffff54ffffffeaU, 0xffffff5ffffffec5U,
  0xffffff33fffffef7U, 0xffffff3dffffffaeU, 0xffffff89ffffff7cU, 0xfffffe66fffffef3U,
  0xffffffc9ffffff67U, 0xffffff5bfffffed0U, 0xffffff98ffffff95U, 0xffffff35ffffff43U,
  0xffffff7effffff1bU, 0x1cfdcdfdfcfb0c0bU, 0x16d3b70646f5ec00U, 0xfbfb1002180c05ffU,
  0x89fb17f7f21c0fc1U, 0x1daf7d5f90e080bU, 0xf70cfe02051509fbU, 0xfcfbfea3811b01f9U,
  0xc2180a09f802fdfaU, 0xff09092ed00111e9U, 0x7a81406f30714f7U, 0xff0826f701025305U,
  0x2e3dbfa080906e5U, 0x22fc0f08f1ffff4eU, 0x6bcb1a0b09051feaU, 0xfefd05e1f3fafefcU,
  0xd70a7f035d0c08b9U, 0x762f8de00f90200U, 0xd0201e9f8ef04fbU, 0xfbfe0034b30e1813U,
  0x171b040209fdffffU, 0xf9f0faffb90506f5U, 0x5def8fe0efe150fU, 0xfcfb7703fe06e000U,
  0xf9351d0d0b030608U, 0xae06e601eefdda81U, 0xc2bd22f8b9134015U, 0x1ef6110deef0ee0cU,
  0x5706dc02580bfb2cU, 0x62301b10c16f2f2U, 0x15eaf5e2f8bc04ecU, 0x40409a9540e1102U,
  0x565ffd2001fdfcf6U, 0xfb07b8cefb11f2U, 0x1460c1313fd04fdU, 0xe046ef6f2064f00U,
  0xf3dbcc0df5e5e705U, 0xf2f6aeee0cfbb912U, 0x2443490325f9dde6U, 0x30010703ffec0705U,
  0x3ffceffcf4030cfbU, 0x569f6dc01e6fd02U, 0x65011f10f3500610U, 0xfd0102c993ca2101U,
  0xeefaeef42008fd08U, 0x12010d5e69011325U, 0xf6810bfb0d04eb04U, 0xf800b7fdf8fe39f5U,
  0xb3de412f9f3f900U, 0x81170af70804f6bbU, 0x2d4718f90907d0f6U, 0xe409fe2d06f6fdfbU,
  0x5101c9fd6eff0d0dU, 0x33b04e7fe01fefaU, 0xfc080dfefde0ff18U, 0xfb02fb18e5e7170cU,
  0x3310fff80a02fe0eU, 0x309f9bab1ff0505U, 0x13306ff0afee204U, 0xefc9b03fcff14fdU,
  0x122490104f7f721U, 0xfc00f6fa0301eeebU, 0x241ae8fbebfb0604U, 0x12f9f70ffb000502U,
  0x205ed0481e6f3faU, 0xfed2fa01fdde00fdU, 0xf607f508fc1a00faU, 0x201fd0ee21fef07U,
  0xb5c6ff03ec00fffbU, 0x700fafb2f06fe0eU, 0x3efe8fefbfd0904U, 0xf4fee601fefd1effU,
  0x406c2f303020203U, 0xdd1807fffdfd45e1U, 0xdec326fddf071af9U, 0xfc0b041bcf0707f7U,
  0xea0a28f33a14f2ddU, 0x3320dd3f815fff8U, 0xe7010e12fbb800d8U, 0xf8fb02d80fad1a16U,
  0xd82cf9d3f5f10704U, 0xe409e5a54a02f70dU, 0xf07ffefa07f705faU, 0xfcfed101f3ffe7faU,
  0x9c3e10c03f9022dU, 0xfe150210feff1b62U, 0x2f1503061712de1cU, 0xfefdfa13fa03f608U,
  0x30202fc7ff8f0beU, 0xff792809fb0a0606U, 0xa0a00e0021d08f3U, 0xfe06003605ea03fdU,
  0x174d02f70c0404eeU, 0x1090a454303fd07U, 0xa2160e1203f806U, 0x2092d0208063304U,
  0xf9ebfd110bfcfa18U, 0xeffaeff0ff0089cbU, 0xfd4304f5d41113e4U, 0xea0e0908fa0300e6U,
  0x410509dd8104ead8U, 0xfa41fde7ecd80903U, 0x53f31cf3effa01d3U, 0x103fbf8bbe6e605U,
  0x1af4f6f20aeefb0fU, 0xff08fadbe806df04U, 0xfa7ee3000aef1000U, 0xfff7e50105ea0006U,
  0x626bef303010810U, 0xda22f1fcfff7de25U, 0x54229b0723f803caU, 0x5fb00e70dfefdfdU,
  0x1cfac7ffa017fe46U, 0x4da030cf6fffe00U, 0x9c04f2fd041c0014U, 0x8fffcd4c7f3e005U,
  0xbdbbff1eeef1fbfeU, 0x4040d2394fa02d5U, 0xfea009fb02fbf204U, 0x4fc81fd04012103U,
  0x13238e00200fb13U, 0x20f926f806fbe339U, 0xeea3500ee08faf5U, 0x4f5f8e4ee00ff02U,
  0xeef7100b34fbf5c9U, 0xfc25fcfc01f4f6fdU, 0x2e010f1105f503edU, 0xff03021abbf9f2d5U,
  0xfbe3fc01eb090107U, 0xf8f604085300010fU, 0x81f5000afc0bfaU, 0xf2fe22f8fefee9faU,
  0x81d2a0901f7fd00U, 0xf2d9f50402008c0fU, 0xd3dcd602b7fbff05U, 0x9fe00f5fbf20305U,
  0xb4fdfef83715f1b0U, 0xff2df610fdfbfcfbU, 0x9bf3080502d400f6U, 0xfdfdfe1098e901ecU,
  0x1100faff0afc0204U, 0x701f89bf3f90609U, 0xff9e13f90afef7fbU, 0xfa00170100ff82fcU,
  0xff812b0cfdfffd09U, 0x1d1b49f8f1feeec2U, 0x2aca3aed2dfce10eU, 0xf201f11c10ebff17U,
  0x280fcdf91a13fa0eU, 0x2cbdff8012203fcU, 0x2fe8eaf1f318f5efU, 0xeffa06ff8ed41f1fU,
  0x50610fe7f6fdf8ecU, 0xf9f802352204fffcU, 0xed7f21fa12f300f4U, 0xee06cc09fcf84f01U,
  0xf24137ee04fa0ae4U, 0xfd1a0c0b0306171cU, 0xff4f00fcea062d26U, 0xfff0602e7f7fe0cU,
  0x1c08f50cf1041038U, 0xfd121503030bf1f7U, 0x1afc0408042efff1U, 0xfb01fbf27fe3fd0eU,
  0x2e1a00ff030101ffU, 0xea0502294d02050aU, 0xfae7f802f90806fdU, 0xf7052c04ff050af6U,
  0xff11e0f6fef30007U, 0xae3050b04fe2311U, 0xd0cd2b02f005f603U, 0x6f302f4fbfe0201U,
  0x1ff82d150907fae1U, 0xfd3a0a0d07fef903U, 0x7f80efb03e3fe03U, 0xf5fdfef081e6e80bU,
  0x1fc6060200f100f4U, 0xfff9f9f0c9f406ffU, 0x270c0306030d02U, 0x8031f0302fde306U,
  0xfd0ee90e06fdfe08U, 0xccf706fcfa01fcd9U, 0x29e1efee50e8f5f5U, 0x6f606d30506f907U,
  0xbefc1d016eecfa9aU, 0x20e06130813fc04U, 0x81f9ecce059605e8U, 0xff00fdd6f0182208U,
  0x244ffd0a0ded00f4U, 0x3fc02f6250013f8U, 0x4f71509ed0af8faU, 0x202cbfe02f6f9f5U,
  0xfa88e10cfb00f823U, 0xf0d7f50a09fbdc27U, 0x7f1308fa300eb7e3U, 0xecfafaf7f6ff000fU,
  0x26fc13128f0f0b59U, 0x38e0fe2f81701f6U, 0x2d12160a04b7fe20U, 0x1fdfbbd63ebf7f4U,
  0xfccf07fb1bf907faU, 0x504f450aaf4ff03U, 0x903ddfd1100dafcU, 0x4fdf3fd010439ffU,
  0xf71d3bf7fcfb01f7U, 0xdd73302fd05ad0aU, 0x97c524fdf4f9f3f4U, 0xfa0bfc16dc00f50bU,
  0x1302f7077f1c0123U, 0xfd6218ea071efdfcU, 0x50a04ff00b305ffU, 0x2fc07c3e4ab1df4U,
  0xff0fcecfd000101U, 0xf5040703fd04fd17U, 0xf32d3dfc170112faU, 0x2fada0df8ffc0ffU,
  0xf8a2e4f4f501f812U, 0xf404f7fd010113f6U, 0xf308c901fafed1d9U, 0xe7fdfd0ffe0202fcU,
  0x2ff0300c9060410U, 0xf3e206fd0403fdU, 0x8fffbff01020002U, 0xfeff000ceb060607U,
  0x3ea0403fd0400feU, 0xff0002d28100fae0U, 0xfefa0600fbfffc02U, 0xffffb9fdfffd0803U,
  0x10ddbfdfdfdff01U, 0x15fef302fe037fd2U, 0x56440306220c220aU, 0xb0702f4fe07fa07U,
  0x3f00f5faf604000eU, 0x2060d12fcf8fb09U, 0x210e1405044e01f8U, 0xfb0405411f31fdf6U,
  0xe8e2fb020107f803U, 0xf904fe2404f8081dU, 0x7c0ff0610030901U, 0x804da05fdfd2dfdU,
  0x1fd0c0f06faf909U, 0xc9e229030107edd5U, 0x321f9f4fc03fb13U, 0xc0b0b1a02f8fefaU,
  0xcdfbde011006fe07U, 0xfb0e01eefdf804faU, 0xbf90b0c032400f5U, 0xfffefeeffdfbff0cU,
  0xcd12000809f9f604U, 0x80105fe0cfdfd08U, 0x2ffe010f010706U, 0x6018105ff032e02U,
  0xfce0d900f9f6f316U, 0x30ae505fb01d7fbU, 0xe802ddfa1ef5f900U, 0xf1fc02fe0c030206U,
  0x2fde0f3f2e900d3U, 0xfedaf3effe12fb07U, 0xf7faf3e10406ff0cU, 0x4fc05d27ff7fafbU,
  0xd20efa0a02ee03fcU, 0x7fafc2af9030003U, 0xf7e307fd040afaU, 0x502ea0706fc1d00U,
  0xfbe1f7f7020405efU, 0x21f0f107fbfff929U, 0xe105fa05fef01502U, 0xf4f0f9eafffd0105U,
  0x2b02e605dfdafb05U, 0x1f206ff00eb06feU, 0xe0afb05fd1c0307U, 0xfdfe02ed0c0bf8eeU,
  0xafbafbfcf7f603fbU, 0xfaf8f93d19ff070bU, 0x581d7fcfcfe0500U, 0xfe012b0104000206U,
  0x4aee11fe0205eeU, 0xb3f402fffafccbb4U, 0x18eee0f91002f102U, 0xf60803ec070501feU,
  0x1fbf54f0701ddU, 0xfe39eadafbe9ff00U, 0xa4f811f6fafbfdedU, 0xfffe0107e6ff1103U,
  0x30d7f9f30b0c04fbU, 0x201fd0598fff704U, 0x1912020dfb0704U, 0x5f781fcfef925fbU,
  0x5f1bbe9fcfcfc03U, 0x651c1a0505038435U, 0x2be68101cffacfadU, 0xde05fed4f702fefaU,
  0xe7ff88df8c12fef1U, 0x1d48c0afcf30507U, 0xe305cff3f9a701dfU, 0xfd000021820cf605U,
  0xdcd60214e9080506U, 0xf5ff0588a702f2c3U, 0xfcf300fafcfff9fdU, 0x505a1ff00f7bffdU,
  0xfc3aed1201fd091bU, 0xdce5fdf800fb7137U, 0x7f600e022af419f5U, 0xf808f9d613f6040aU,
  0xfaf9fbfa09efe926U, 0x2af101dfefcfefdU, 0x46f8f91ff722ff0dU, 0xf7fdff2f7534ef0eU,
  0x6fc06e6ebf90504U, 0x70bfb5a11f5fb11U, 0xfb0612f71608f701U, 0x7fcfc03010a2cf8U,
  0x32f0b16fe05fa06U, 0xf41aed020008fcc7U, 0x3f11f5f0ec0e09f8U, 0xa03ccfef10103U,
  0x81030b0052140433U, 0xf7b7fffcf10cf9f4U, 0x1c01ff1afed7f7d4U, 0xf5fcee4b9c0ef8f7U,
  0x5d23ecebe5f601faU, 0x110106b713fafe04U, 0x4c9f20809012300U, 0xfa01c400fffe20f5U,
  0xfd29becff7f6f614U, 0x4afedb03ef0135d6U, 0xb64faf3a8ead6f6U, 0x307fb03191904eeU,
  0xb20d0ce01c0b0714U, 0x6ceeaebf4f7fc0eU, 0xb7f600b00a64fc07U, 0xf2f603e2fa141a23U,
  0xa1d104f31dd204dcU, 0xfaf1f3778100f4d2U, 0xf8d8fef61c0205f6U, 0x80b09060bf4df0dU,
  0xe1df4820fbfb0808U, 0x6dcfa050201f312U, 0x46240b0113f20300U, 0xfef505fd05fa04ffU,
  0x1601e102fdea0417U, 0x4c8faf3fcf8060cU, 0xc5fcf4ef02040008U, 0xfa0108d5431cf211U,
  0x2715fb1518f8fef7U, 0x8ff04d601fb04f5U, 0x27f020300fef708U, 0xfe05bb0200ff01fdU,
  0xfc31f0f3fcfb040bU, 0xf9ffe2fff8013a1eU, 0x382bf404f5ea0a02U, 0x7fffffcfc030104U,
  0x47fc08f581f103bdU, 0xa1090202fafe04U, 0x36f5f2e6fe0bfff1U, 0xfafc021cda220407U,
  0x98c203fdf2f1fef6U, 0x80801ee0f0009f0U, 0xfcddd204fafc02ffU, 0xfb00dffdff04f005U,
  0xf42ccb15fd0500e2U, 0xdc14e0ebfcfb3f27U, 0x30f505f9070225fdU, 0x1715f0f8fcfb00fbU,
  0xab0538f2fd19053cU, 0xfaf3f8e504f00207U, 0x640e1bf5f06902e7U, 0x7fdf6e77be6fe1fU,
  0x2a01f7f4e210fd00U, 0xfafb013d3ff4f403U, 0x6dffff2fd00eb08U, 0xfcf9f3fe01ff1df8U,
  0xff7fcae2fdf4f609U, 0xdfaf501fc02083cU, 0x2c0fe0fef0fbf9f6U, 0x1020304fcf800feU,
  0x26fffcf681f90808U, 0xfec5f80202ff04feU, 0xc7f5fa0b051102f2U, 0x10100f617ff0102U,
  0xa5b705fbf2fe0104U, 0xfe06081ce4fcfdf8U, 0x1fdf00601040503U, 0xfe0bff00fee200U,
  0x253e101fdfffff1U, 0x23100cfbfbff0507U, 0xee1af7035614301aU, 0xedf907e706f2eaf9U,
  0x2908ec05540217efU, 0xfefc0fe100ecfdffU, 0x350912ea0161080cU, 0x5fc080ccbea240cU,
  0x2e37010400ddfa00U, 0xf910055400100014U, 0xf7a222fc090b07fbU, 0x1204100006fc5fffU,
  0xd87f13fc03eff1U, 0xe030f30b07fff3e4U, 0x1a4206f9ed0bf60cU, 0x18060704ff010305U,
  0x77ff13112c110d01U, 0xfbc717c8ff080705U, 0x61161013fa2d0000U, 0x103fceb0119e40aU,
  0x6a40a1cf8f6fe0dU, 0x80b12ec2bfe1013U, 0xfe7fdffc0afd0708U, 0xf802d6fcfb011dfbU,
  0x6f0dff6f80809f1U, 0xc3113226020d35f2U, 0x510cc5f84bde03fbU, 0xec02fff5f4edf208U,
  0x150ea6f37f3f1634U, 0xfc2bfdd2f625f5f6U, 0xeaee18eb01fb0411U, 0xfd09faa644edd313U,
  0xb647f6030fe60502U, 0x1a1afe7067151408U, 0xddf6130a0516edU, 0xfe0143fc0b0bdd00U,
  0x166527c4f5e2f416U, 0xd1fec208040106eaU, 0x9617870e15eab7c4U, 0x2508f7dd16fcf9eaU,
  0xacf9dc0f08150c24U, 0x5f3e13404240c0eU, 0xf80defe6095308e5U, 0xf0206e781161b18U,
  0xb0480c111f0f0af0U, 0x6190d6192fee3c1U, 0x4a627fcfa061301U, 0xa08fe130a03ce07U,
  0x9aa4edd050901d6U, 0xdf1d1efafdfe4c9aU, 0xb31802040f0f0401U, 0xf003062f03070406U,
  0x42ffbceed4070140U, 0xff5e11effa19f6f4U, 0xb709f920f90f0205U, 0xfbfef81edf32fb11U,
  0x53bff8ea0e0afdf8U, 0x2fff8f9a602f7fcU, 0xff7503fd0b00f8fcU, 0x7058104f8f90a01U,
  0xfddcd4e100f4020cU, 0xc4f4fef9000209efU, 0xec07f0fcf407e600U, 0x3fe00f801f2ff01U,
  0xf2fecd06061605f6U, 0xfff3fbe4fffd0300U, 0x4f9fdf900eefbf9U, 0x2ff02ee03100bfeU,
  0xe9f804fc04fafe05U, 0xfbfffa0fbefbfdfaU, 0xfe0dfdfcfe01ee00U, 0x2fd81fffcff19faU,
  0x322d4ef00fbfd05U, 0xd1fd32fd0208c781U, 0x8f6c4f424efe510U, 0x3040ee6fd01fdffU,
  0x15f317f6d7f1021eU, 0xf765ebfa06fff705U, 0xe10c120902d7fbe6U, 0x504fd17a219e316U,
  0xd64af7f6f5f5f0ffU, 0x1fa103ff7f2f51dU, 0xfbdbe807f602190aU, 0x1025ef0070308fbU,
  0x11d33e2f1ecec13U, 0xd9e8f10afe049ed8U, 0xf1f1ed06ee0a0a09U, 0xf90106d306fcfcf8U,
  0xc8051aed140b02c5U, 0xfedb02f7070dfc01U, 0xaef509e301fe041cU, 0xfdfd050a810c0411U,
  0xe128ff080504f903U, 0xfc03fceaedfdf300U, 0x340fb0407000e05U, 0x801bafd00082f07U,
  0x3c207ef02fdfdfcU, 0xecd7e4050701f625U, 0xd6e3f408bd011bfcU, 0x11f7040d000501f5U,
  0xc90116f6ce03ffeeU, 0x154060903ff01f8U, 0xb6fefbeeffcffafbU, 0x10404f881d509edU,
  0x373afdf4151103f9U, 0xafb03dd1ffe00f8U, 0x99df9051104f906U, 0xfb0506fff803f502U,
  0xfa8f44010001fb11U, 0xf9f70b0005008ae6U, 0xe9b020010fdf305U, 0x50202f3fbf60209U,
  0x802d607ce0300bbU, 0xff2909f50205faffU, 0xfe04f3ff85010eU, 0x203041281cbf8f1U,
  0xf6f301f50ef00102U, 0x5f409cd32000505U, 0x1a2e40404fd0005U, 0xfb01ed03fd03f0fdU,
  0xfcd307f304fc020fU, 0xb1baf3f503f51369U, 0xe51c6510e320e4ebU, 0x1fe09ab04d30101U,
  0xcffa9a107f04030fU, 0x558e1f6ffffed0eU, 0x4f0f227fb0803f1U, 0x907029caaebdf14U,
  0x52a5f7e8160c0708U, 0xf80fec52e8fc020eU, 0x943ec031501e104U, 0x218090206b1f3U,
  0x5e627290307ff1aU, 0x90004f900030af1U, 0xcedb1606edf611fbU, 0x6fbf9fffe0bff03U,
  0xb8fd26050bec07f4U, 0xfbe209f3fdf001f4U, 0xd10010fb0022fd0bU, 0xfdfc23da0212d9U,
  0xdf0bfbfefd03fe00U, 0x5ed0bcaeafcfb0bU, 0x81de0202fbf801U, 0xf5ff3efdf904f604U,
  0xffd3f003fcf601f6U, 0x5e8d104fffdf40cU, 0xda6d2e0405f4f8eeU, 0xbf90dc9e903fb02U,
  0x77ffd41be80a012bU, 0x4ea0fecfd0df8fbU, 0x420706de022cfc22U, 0xf3f806e381f4f11dU,
  0x622d08f60fdd04f8U, 0xf10aedf236f80bfdU, 0xf81d21f80bfbdffaU, 0x13fdd60afe0ad4f7U,
  0xfe3bd318f8fd0b22U, 0xd0fe0d080ffdfd81U, 0x13644a07f9022d19U, 0xfd05f8e505de0116U,
  0x56f7fe074123e2b7U, 0x1a1f5a70c19f60eU, 0x750affe403cf02f5U, 0x70400d1041df100U,
  0x463a04fc05f7fcf3U, 0xedfd04be1706ef10U, 0xfc99220e04f71203U, 0xfd0bbcfa0bfa05f7U,
  0xfdc7a401f6fdfd18U, 0x25f4eef9ff00d72cU, 0xe5d79ff82206b5c3U, 0xd603fe0b030bfef6U,
  0xbf04e4ebb3ff06e9U, 0x2fcc2f1f80bfe02U, 0xf209060b010800f8U, 0x20003d6f312eff5U,
  0xf1b0fa0008fbfd02U, 0x40004ee8101f9ddU, 0xbd1901fff50bfcU, 0xf600ae0502f6d0feU,
  0xfbe2e706fd01fc1cU, 0xaeb9dd0e01ff5f48U, 0x970ec40101f70cd0U, 0x1cf6f5221f0ef9f6U,
  0x1801ecf1930f14a1U, 0x4b7d91bf7240a0eU, 0x21420e7fa1e0505U, 0xc000dcb03421323U,
  0xf41708080df806f5U, 0x19111cdd29f309f3U, 0x62f05fb0401e902U, 0xfc018af90a022306U,
  0x7f06d509fa0511U, 0x9af32002fffdd9bdU, 0xf447de04f6fdf718U, 0xb0a0ed1fafefa06U,
  0x23fd0b061806ee0dU, 0xfd201df3ff0eff0aU, 0x9fa02f4fede04f4U, 0xff03fdd2cef200ffU,
  0x34320d0f1900fdf8U, 0xf80fffdab5f80110U, 0x67f29040f01effbU, 0xfe02900101082402U,
  0x3111509ff040410U, 0x1af706fbffff90e2U, 0xd2e90bfcc01008f4U, 0x20000fcf80cf903U,
  0x81fef40a2c17f4abU, 0x12ef0ffefb01ffU, 0x9806f7e6fce802ccU, 0xfb00021f91f5f6f5U,
  0x320cfaf801fdfcfbU, 0xf7fc05c82800fb05U, 0x6ce030606050204U, 0x20125ff0201b302U,
  0xfb90430505000303U, 0xfaf50f05fd02a8fcU, 0xc0c5f401d008e90eU, 0xfdf7051606fb0200U,
  0x9800180207f5000cU, 0xfb280504fef3fcffU, 0xb102f60002ac01fbU, 0xfe0001e4b9e8fcecU,
  0xe9e8fafafd000005U, 0xf7fc01f5dbfefbf8U, 0xfe810605fa04fffeU, 0xff0045fdff03cdfbU,
  0xc710fffd020315U, 0xdad1ed08f503e9f0U, 0x2ad1eff5d8251523U, 0xffb0fbfeb06ed04U,
  0x6a0a0c0a6c010118U, 0xf26beb16f904fffcU, 0xd81009d5087ffae9U, 0x505fece81e5e5fcU,
  0x6ac8fe00f112f1f3U, 0xa0200e233070c00U, 0x839f10d11f824f7U, 0xf90618fd0cfceefcU,
  0x42be0ccf6faf535U, 0xfd362b1004010e09U, 0xb460f80916f51ffeU, 0x1bfc05effa0df10aU,
  0xfff20047f1d0ea9U, 0xff183f1a0c10fb01U, 0x2e0f1ed403b6041cU, 0xfcfd02e9cb231609U,
  0xa1f03fcfe0802f9U, 0x1007ed22fd080aebU, 0x2cd0706ef080f05U, 0x1304f7090a065c01U,
  0xab82506fd09fcfaU, 0xfee7dafcf6fc130dU, 0x8b1d301f9f71416U, 0x20206d8fff5fd0aU,
  0x18fd12047f060491U, 0xfdf60906010300feU, 0xc0f9edde00befaf4U, 0xf5fbffdaf612fbfcU,
  0x12fefef006e500efU, 0x2f8f43804fcf6U, 0xfebc19f9fa0302feU, 0x2fe1ffa05030901U,
  0xefd43d010503fd02U, 0xbc171201fffb8c17U, 0xf618fe0a12f0d4daU, 0xeef8f81302f30302U,
  0xeff7a9fe5605fcebU, 0xfde207ca0216fff9U, 0x5b040f0e060e02e5U, 0x202fefef01c080dU,
  0xfd0cf507f70a03f8U, 0xf502f5f881fcf4edU, 0x37d13fa01f9f8fbU, 0xb00d5fcfa030902U,
  0x60ee6f0fe03ff07U, 0x2923e40702f8c5eaU, 0xf4c1fb0bbedef609U, 0x1df608ef08f2fd0cU,
  0x13f7511ae108ea2bU, 0xdfeec0dee0503U, 0x42fd09f1020804f4U, 0xf5fb00345b1ee601U,
  0x81310916f7f305fdU, 0x80009ba3202ff10U, 0x7ecc903fa100afcU, 0x50878ec01080606U,
  0x2020ffb030906f9U, 0x27c40508fc01ffecU, 0x9f40103fffdf00bU, 0x14ff01d00f000607U,
  0xc1fb2b04041bf19dU, 0x4e7fc1dfc1003feU, 0xc4010dd5fdf303e7U, 0xfc020023a0e2ee15U,
  0x1010f60e0de701eeU, 0xa00f92a6002f900U, 0x3d308081a0af1feU, 0xfa087fff02fe370bU,
  0xffcf5afb040706f3U, 0xf4ef0cfc02fed9edU, 0x1f07e6faedfcd1f8U, 0xef04fff5fbfdfd00U,
  0xc2ffdbffdd06fafcU, 0x1daf7fb0009fdfdU, 0x20fdf504021a000bU, 0xff01fee812f20402U,
  0x2080201fffbff01U, 0xff07fb1bad03f9f4U, 0xff0cf8010200fd02U, 0xff00810302fff4fcU,
  0xfdfc01fc02fd0200U, 0xdffbd7fd01ff12b9U, 0xc3f484ff0501d1daU, 0xe808fefef9ff05fbU,
  0x7afcf0002e07f300U, 0xffa0dee80308fb03U, 0x1d07f70bfa040704U, 0xfefd021ad1fffa0dU,
  0xc61a05f1f0050102U, 0x4070a0581f808f7U, 0x6e3ebf900fedc07U, 0x600de0401001c02U,
  0x907aff802ff03e4U, 0xfe5e806f6fdf7e0U, 0xe44ecffdef6fc06U, 0x9fd09140df10204U,
  0x81fd0e0d240c1612U, 0xfd1ceeff0114fc00U, 0xeaf5ffef00440126U, 0x3fbfce33ed6fd1cU,
  0x2b06fff515f80004U, 0x8fe011907000307U, 0xfcfcfc060f03f20aU, 0x804cb0c03012302U,
  0x2013f1d0601fbedU, 0xf6f7e3fbfbfdb1faU, 0xcf1101f611fd15f4U, 0xa08fee1020304f8U,
  0xbe06e4fb19fffbcfU, 0xff2608f6fbf302fdU, 0xa1f60d08f90203fcU, 0x2fcfdee81f614ffU,
  0x2ed0104f6fb03faU, 0xff0304e52806fa0cU, 0xf8ae0d02fffe0cfaU, 0xf9fa23fe00fb03fbU,
  0xfd01fcf10102fe12U, 0xea133600f601d4e8U, 0x9fe1f0cd8010e06U, 0xfa0d08000b03fbfcU,
  0xe017ff7df0d0fc4U, 0xf911260dfcf700faU, 0xe80a041206ce00e6U, 0xfc010113d52d0e02U,
  0x45fc06fc0608faf7U, 0x1104181151090effU, 0x8be01ff0b0a11feU, 0x3073605000303feU,
  0xffea4f0c0501f51aU, 0xc4102206fafddcf6U, 0xdcdf4afaeff20ae2U, 0x60703f8f1070404U,
  0x4f6f4ec69f20d0dU, 0x234f9c50aff02feU, 0xdd090ff908c301e4U, 0x3fc05f87f131615U,
  0x17e5f90b0b09ffffU, 0xeff6f22016fd0b0aU, 0x57a1201000b0605U, 0x5fb4af604070dfaU,
  0x6abc7fef9fdfaf0U, 0xfc15e7060000bbc5U, 0x9cfd301e903c5d1U, 0xc80005f402f2ff05U,
  0x8100aff0dc0af9faU, 0xfccfd1ecfcf704fbU, 0xf708e9e701ae01e9U, 0xfffe020f8cf9fd08U,
  0xdc06f9f108f50101U, 0x90bebd3c9fb04d5U, 0xfd25fa02f1faed04U, 0xf903adfb020319feU,
  0x1f312f205050112U, 0xffffffbbffffffcbU, 0x2700000085U, 0x4400000021U,
  0xffffff630000007bU, 0x7d0000009eU, 0x7500000031U, 0xffffffc80000006aU,
  0x4000000003U, 0x3a00000055U, 0xffffff8d00000056U, 0x240000001cU,
  0x7f00000031U, 0x2f000000a6U, 0x5c000000a6U, 0x620000000aU,
  0x230000005dU, 0xffffffcfffffffa3U, 0xffffff69ffffffcaU, 0x6200000059U,
  0xfffffff90000005eU, 0x2800000010U, 0x70ffffffeeU, 0x180000003aU,
  0xffffffb20000007cU, 0x28ffffffe8U, 0xffffffee0000003dU, 0x61ffffff3cU,
  0xffffffe500000067U, 0x48ffffffddU, 0xffffffd10000006aU, 0xffffff9000000053U,
  0xa500000017U, 0xeb51cadd2d20bff5U, 0x3e2935015d2c22e1U, 0xc9e5e3e2f9a334dcU,
  0x81e4c5c5ac12ddd5U, 0xe317aee7e20cd909U, 0x19b6f813540b2135U, 0xde19270e1f4f64deU,
  0xd1232418dcdfb00aU, 0x47bae532d8db2d11U, 0x56d781d7cbe7605bU, 0x37eefaf42b55dedaU,
  0xeafd0be7ea2ded01U, 0x5353111b3de6fe4bU, 0x2b08f0dc13c6c0f0U, 0xde42c63158f5e938U,
  0xd5ca4b301ddc1e32U, 0xed38ecf4605589ebU, 0x4f221eff92b2de1dU, 0xec9c162713a3480bU,
  0x816cd024e41247f9U, 0xd6236022b8502a50U, 0xe0a45143d22b99d7U, 0xb942fb151cb9a323U,
  0xcf26c9dc04ddf794U, 0x5c05ca133cbaac5U, 0xef39f88124ea12U, 0xac424fb42a93c7ecU,
  0xfe5651fa28fa4ac2U, 0xc8f1a48f08e42b08U, 0xd0ccfeec5cd08dd6U, 0x26c5c319f0d6bab8U,
  0xdbfc1ee8d9bcd713U, 0xeda6b9ef020cba32U, 0x3455b6f032d060d1U, 0xd82021e6fd0fdf18U,
  0x9fb261404ca2f0fU, 0xf7fdfff4f9fcfa0bU, 0xee00628d03ef4f3U, 0x305433d1ac133001U,
  0x4020d48113362039U, 0xf7e7fc2a07d0b212U, 0x44e8f7390edb4c3dU, 0x3d312dd9d5390915U,
  0xc70646f73ddfe909U, 0xe2b1f2fffbd11eceU, 0x2831e314eb47e6e7U, 0x3237f11beca1ddcU,
  0xfd9de26f90df5feU, 0xc4ec4c0cd0ca813eU, 0xeeb5c01f0ffb3e38U, 0x1d2825f91b3afae8U,
  0xd00cbdd2da07e650U, 0x4265d5f8e717c6eaU, 0xe05207eced69cc10U, 0xd74ff8d44d3e2ee5U,
  0x442adcfece083dbcU, 0xffffffb100000092U, 0x1ef00000047U, 0xffffff9effffff98U,
  0xffffff44U,
};


ai_handle g_network_weights_table[1 + 2] = {
  AI_HANDLE_PTR(AI_MAGIC_MARKER),
  AI_HANDLE_PTR(s_network_weights_array_u64),
  AI_HANDLE_PTR(AI_MAGIC_MARKER),
};

