/**
  ******************************************************************************
  * @file    network_data_params.c
  * @author  AST Embedded Analytics Research Platform
  * @date    2025-11-13T02:30:28+0200
  * @brief   AI Tool Automatic Code Generator for Embedded NN computing
  ******************************************************************************
  * Copyright (c) 2025 STMicroelectronics.
  * All rights reserved.
  *
  * This software is licensed under terms that can be found in the LICENSE file
  * in the root directory of this software component.
  * If no LICENSE file comes with this software, it is provided AS-IS.
  ******************************************************************************
  */

#include "network_data_params.h"


/**  Activations Section  ****************************************************/
ai_handle g_network_activations_table[1 + 2] = {
  AI_HANDLE_PTR(AI_MAGIC_MARKER),
  AI_HANDLE_PTR(NULL),
  AI_HANDLE_PTR(AI_MAGIC_MARKER),
};




/**  Weights Section  ********************************************************/
AI_ALIGNED(32)
const ai_u64 s_network_weights_array_u64[18004] = {
  0x3e36d9f83e327bfdU, 0xbc4210913c9dddf7U, 0xbdade8bbbdbdcc32U, 0xbdc52aa4bd079746U,
  0x3e164117bd3724b2U, 0xbe002ecc3dc25777U, 0x3e2e045bbe184039U, 0xbd9ba12c3d3ea0a8U,
  0xbd6a57723e246504U, 0xbe058eb4bdb0d839U, 0xbdffb5e13b8d161aU, 0x3e25c457be528656U,
  0xbcdf00623e2766f4U, 0x3de6b2373d616f34U, 0x3d81293ebdf86eb5U, 0xbe5808d3be09a932U,
  0x3e36e4b5bd1d639aU, 0xbe20fcb63e683b04U, 0x3d94a148bd38fa15U, 0xbd3ec1703c99c813U,
  0x3db58376be085a4eU, 0x3e43bb65bd5f0acbU, 0x3e0883eebd037731U, 0xbd75029f3e21b8edU,
  0xbdb499bcbc9959c6U, 0x3e2fd74abd998ed7U, 0x3d3524b53e65c7c6U, 0x3e1229693df0c5d5U,
  0x3e4ebd973d568946U, 0xbda174b2be82853dU, 0xbe21f7ad3dba042eU, 0x3e3f2d81bdca27bfU,
  0xbe0f083ebe3b107dU, 0xbe7b712b3dad726fU, 0xbd80b268bd321e5aU, 0xbe0ed5e83e236555U,
  0xbdcc5566be20e73eU, 0x3e068a28bd20a5f4U, 0x3df3cdd9be6abde1U, 0xbe0f74da3e3229efU,
  0xbdb45e16bd86b186U, 0x3de2ad1ebdd9e28aU, 0xbe5334d7bc7022d2U, 0x3e052cbf3dfc5063U,
  0xbdb7fab9be014cacU, 0x3e36aa8bbe223b5eU, 0x3d75fbda3d6f5b1bU, 0xbcfae2ef3d5d2b1eU,
  0xbdd863ed3dc86820U, 0x3e3a16cd3db64338U, 0xbbaadfc2bdc4609aU, 0x3dcb90483e0c23dcU,
  0x3df87fd6be1bbca2U, 0xbe022e39bc2d1888U, 0x3e27071c3db934b9U, 0x3e0c9eee3e232a02U,
  0x3be4e2f63dc8efd5U, 0xbe05ebdf3e407864U, 0xbcebe52fbd0aac17U, 0xbdc2adfb3c7005e4U,
  0x3e63291fbe0bc1aaU, 0xbe179da83dbdcc48U, 0xbbe9301ebe2a25baU, 0x3e1619bcbd42e23cU,
  0x3d227b133d895e72U, 0xbe0ca1283ca18820U, 0xbe759805bdc24796U, 0x3ddfed0abd702d12U,
  0x3b86a458be0da0dbU, 0xbe6e57953cfdf240U, 0x3e0cfb1bbdcde448U, 0x3d9e497d3e6232d8U,
  0xbe4a24703e23aa24U, 0x3d63f1a83d445987U, 0xbe00bb9cbe01ae47U, 0x3db9f3e63e273e8bU,
  0xbc1b700ebd78edd0U, 0x3e140a2dbdd4dfa4U, 0xbb964014bd9c84ceU, 0x3c75c774bb7bf618U,
  0xbe20d75dbd8d46f4U, 0xbe2470613ca95c60U, 0x3e0c5ab23e146d44U, 0xbda8e413bc8957cdU,
  0xbd2a0101bdf046fdU, 0x3d1e2666bd3b216cU, 0x3e03f3a83e1d43c3U, 0xbcd2173f3e3970b9U,
  0xbd957cd93d8be7a9U, 0x3e2cb3773cc8d365U, 0x3da507383d2cd7a9U, 0x3baf9649bdb81818U,
  0x3a4afeebbe5f2bc4U, 0xbd98048f3ddbb109U, 0x3d0e6f853e096907U, 0xbd8811b3bdfa6470U,
  0x3e3f9bcfbc4304f1U, 0x3dfa5eae3defa748U, 0xbc3e41fd3daaa17cU, 0x3d97c14abe0eced1U,
  0x3d0197733d7c1a54U, 0x3b8c407f3e73d04dU, 0x3dbc8d933df57f87U, 0xbd8ac255bd96a35eU,
  0xbdc517ce3cba3a27U, 0x3df320e6bd397314U, 0xbe2e19e33d3e6a84U, 0x3e09ff603def20e6U,
  0x3ddc2feb3cf2db9eU, 0x3d62705abcfd474dU, 0x3e28b1fc3ad2a6c1U, 0x3e63ec6a3e1d1ed5U,
  0x3e3bdf16bdd0eaeeU, 0xbe037199be3698a6U, 0xbcaf264fbce2f2f6U, 0x3d8ad43ebd1e250bU,
  0x3ded66363e2b9610U, 0xbb7df8f53d1ffffdU, 0xbe2636bb3dab77a3U, 0xbac9b002be32e6c3U,
  0x3db8841d3d0418d2U, 0xbc0a44183b13e9e4U, 0xbde96ccbbdbdd540U, 0xbde559ef3db7036eU,
  0x3d3b154abd6625dbU, 0xbd1ee1a13d7edab1U, 0xbe133531bb26d2ffU, 0xbc96fdbbbd9540a3U,
  0x3dd95a793dd35681U, 0xbe5850523ccbecf5U, 0x3de4636c3c0bb7b0U, 0xbdba4801bd5f80ceU,
  0xbe6ecc99bd3d6d99U, 0x3df58eeb3aa5b090U, 0x3dde90763e078e94U, 0x3e6c74cb3d42c86eU,
  0x3e1b044d3e18b471U, 0xbd246d473e07ccf4U, 0x3e1ab07b3e191a94U, 0x3b770b85bcca4655U,
  0x3e1b40a3bcd1c051U, 0xbe6be183be34b513U, 0xbdcc044d3dc286c4U, 0xbc8344bb3dcb59aeU,
  0xbdd4ddf03d9a1770U, 0xbcb85cf2be2a6dd3U, 0xbd5af3503d5dd876U, 0x3e76047ebd2db16dU,
  0x3e11ea193d7e1922U, 0xbe19e7b13dd80366U, 0xbe0237af3c0cfae1U, 0xbd8ffaadbdc5f3a4U,
  0xbda3cdb4be152283U, 0x3e1d13a03d407010U, 0x3d70d51f3ca1033aU, 0xbd4f51d73dfa7b2bU,
  0xbd691d7c3db4f320U, 0xbdd06085bc9c5ee6U, 0x3e2df29f3defb9fcU, 0x3e3fcecc3daff227U,
  0x3de07f5b3d9f3f7cU, 0xbdf7df2fbe02d80dU, 0xbe61bdd7bd896f71U, 0x3e1d7874be112a7eU,
  0x3db7129e3d18f9e4U, 0xbde08d0bbe266b6cU, 0x3dad6b54be10071aU, 0x3d7e21e5be2b8e36U,
  0xbd047de53e22d175U, 0xbde817883df85333U, 0xbddfe03b3ce138daU, 0xbe5f7badbcefd868U,
  0x3d1a8f5cbdc4403eU, 0xbd1a07d5bd976a71U, 0x3dad95d63c66a498U, 0xbd895f1dbdce42e4U,
  0xbe31559d3e79db40U, 0x3d3e5cf13da01ad6U, 0x3d752015bd986bfbU, 0x3aab5866be724ca6U,
  0xbe0bd2b9bd1eebe6U, 0x3e29275e3d3af240U, 0xbda0800ebd9be19dU, 0x3e2e35e8bcedef88U,
  0xbd85a6f5bca1d3a6U, 0xbe0495023d923f9dU, 0xbd0716f73d16156cU, 0x3d5ba7c63cc39ed8U,
  0xbd41319f3e549638U, 0x3e3ddef53ce20728U, 0x3e157aef3dcf253fU, 0xbdd54f2ebcec3e57U,
  0xbe6c1b333c764928U, 0x3de450bfbdd96c28U, 0x3e2a01173e6b826dU, 0xbe4fc6023d6b59c5U,
  0xbe2a848bbe2c8b13U, 0x3e08ed993dbd3cecU, 0xbcd85f413d357397U, 0x3dbd9cf63d299369U,
  0xbd4e52973d90d7f0U, 0xbe3fdc5fbe2aa694U, 0xbd3076aa3d560e87U, 0x3e0e7d16be22e6eeU,
  0x3e10bfd4bdacd6b4U, 0x3db2a505bc824ed3U, 0x3dadb591be4495e9U, 0x3dddf6a7bd5443abU,
  0xbde0c34fbd8f43b6U, 0xbe0e3daf3ddc51b1U, 0x3e5af1733e15b009U, 0xbd0c94c63e117a71U,
  0xbe1ea6483e5e66e9U, 0x3e7127263d9847ebU, 0xbe25853cbd48d8daU, 0xbe1998043e34595dU,
  0x3e440518bd02eb23U, 0x3d41c37ebcb0d6b3U, 0xbd8b0ea73e29c86fU, 0x3d933fecbe1078ecU,
  0xbe02ba683ded6a68U, 0x3d0aff35be2e7220U, 0xbe66cdfcbdb55abdU, 0xbe35929dbc945d57U,
  0xbd5b0991bd6ce8c3U, 0xbca533cf3e486a98U, 0xbc6eb47fbdc43e0fU, 0x3e2265dbbdda1221U,
  0xbda095cf3e0ce4d6U, 0x3cfdc23b3da48a51U, 0xbde6bca83c97da66U, 0x3e550d97bd8c71beU,
  0x3df3c3ef3cf90e62U, 0x3e18ccdb3e156e62U, 0xbd08753cbbf33525U, 0xbce4e276bdfe81e8U,
  0x3e053078b9c0ba06U, 0xbdd5c0c3bd52ec1dU, 0xbe33437dbe032772U, 0xbdd5e672be68377eU,
  0x3cc52d57bf7f8217U, 0xc0aaa3903f840b32U, 0xc043cc1cbf83b7a5U, 0xc08de1f0c02e6a30U,
  0xc087987140682cc7U, 0xbfcc2265bf7f39abU, 0xbf11cce8bfc89342U, 0xbf58c40fbe8d7214U,
  0xbfdfc1ecbf9cedcbU, 0xbea664abbfd51e28U, 0xbfc98814bf710e6dU, 0xbf5d4bba3f15fd71U,
  0xc04aa11fbf199a89U, 0x3ff9abf03fa2909fU, 0x408c35293e386b10U, 0x3fb22970c024673cU,
  0x3def40143b839ba8U, 0x3d8d4048be17118bU, 0x3b81887f3cb79f48U, 0xbdc084473d9c6a90U,
  0x3dac220cbe56028cU, 0x3e9892edbe4dd504U, 0xbd837f48bdef9305U, 0x3e6a0da63954cf0eU,
  0xbd8f398e3dd7d09eU, 0x3e248b823e2bec14U, 0x3d8772d7be1dc706U, 0xbd751ca9bca5c08cU,
  0xbd1e2abe3ddb53faU, 0x3e278c99be8947d6U, 0xbe29285e3df054a2U, 0xbe5feb7b3d7921fbU,
  0xbe229d77bddef188U, 0xbcda570a3db83e96U, 0x3e0b8b30bd0c15c3U, 0xbe3639f63e0a0db7U,
  0xbcc71b98be47d751U, 0x3e845bf23e72ecddU, 0xbdd01ba4bd894c10U, 0xbea7e80cbdfcbe58U,
  0x3e19197bbe083211U, 0xbbedfce23cbf56c0U, 0xbe209d8fbe816febU, 0x3c8dbf64be058d6bU,
  0xbd62b7d83ec339beU, 0x3e627d53bea3c46eU, 0xbc243987bcbf9a56U, 0xbe8e242a3d7203ceU,
  0x3dfa8b2abdca93ecU, 0x3bfbd7a93e4135b3U, 0x3d84af91bbaf35e0U, 0xbe04f963bd9a1815U,
  0xbc7cab8ebdb89d24U, 0x3e17d1d53e576d0cU, 0xbdad4df6be1fb402U, 0xbd9fc7a7be11d779U,
  0xbe579e91bcf525fbU, 0x3db924123d7c24d1U, 0x3ea54599be4ae9e2U, 0x3d06fee7bd73ddcbU,
  0xbd9355e83e31419dU, 0xbe7eba7dbe307882U, 0xbe280ef33d9d2805U, 0x3e5fc5463e745582U,
  0x3ded52533b04a439U, 0x3df650803e5a4df2U, 0xbdc06a57bd09532eU, 0x3e50dc383e0567c1U,
  0x3dac62c3bd9aa27cU, 0xbd5f09cabe15162fU, 0x3e23a6e8be7279c6U, 0xbc89e4603d5bf345U,
  0x3d45de56be139760U, 0xbdcba8a4be2f2570U, 0x3e3bb1943e684be8U, 0x3e33e70a3e2180b0U,
  0xbe11a7453da14040U, 0x3e84ebccbea8eaa1U, 0x3dcf777b3da02cb2U, 0x3ec49d16bbad765eU,
  0xbe0d68b23cc5867aU, 0x3e032c3dbe8776daU, 0x3dd7a65a3dc46da4U, 0x3d9903a9be181e0dU,
  0x3c12bb99bced0ab9U, 0xbeab6a3dbd39aeb5U, 0x3dd92d45be9fd55cU, 0x3d567c08be1da423U,
  0x3e872e6c3e25576fU, 0x3e3f9e9dbe0fa22eU, 0xbec3b8b9bdea4da5U, 0x3e44336c3dbc32c2U,
  0x3cf4458abe258345U, 0xbe3b46bb3e63b022U, 0xbdd7401d3cb533daU, 0x3e072edebe3e85bbU,
  0xbe0726cfbd6257d0U, 0xbdcb7db3be70d623U, 0x3d0b3c7d3de157d0U, 0xbe1e746bbcdf1f87U,
  0xbe0e26e3bd4ebb9eU, 0xbe83e38a3e9da7f7U, 0x3dfaf16abd7ca6cbU, 0x3dccd934bd3d6118U,
  0x3d88807bbcfd142eU, 0x3dcb7f463c02ca71U, 0xbdd806953e0eab7dU, 0xbd4e8c6c3dec5a63U,
  0xbe19c31a3e30c847U, 0x3e41820cbe8ff7eaU, 0x3da6de40bdfc464eU, 0x3e6d50093cb187a1U,
  0x3e27d2e2ba7d6400U, 0x3dcd84353e617104U, 0xbd31501f3dc7db90U, 0xbe3bbbadbe0d97d0U,
  0xbdf95809bd90bd9eU, 0x3eb154f6be0c0fb0U, 0xbe6815753e456290U, 0xbdfb6d043e1c5f81U,
  0xbe282fcdbe548cebU, 0xbd6f539ebd5f0018U, 0xbb3f7bb83da70473U, 0xbdc5f3133d260282U,
  0x3dcba62c3e422d97U, 0x3dcebe45be4cdd78U, 0x3df713913dce738fU, 0xbea7078dbd110ea1U,
  0xbd9981e6bc674cc1U, 0xbd960e593e9d936bU, 0x3ae28a8bbda5085fU, 0xbdbd1c30bde70d9fU,
  0xbcf780c73d752d59U, 0x3df456ea3deb0a52U, 0xbdbcd5683eb7918aU, 0x3d160dccbe26e484U,
  0x3d85b87abe90e881U, 0xbbd745eabd6fb032U, 0xbd7c8fe23e8adf33U, 0xbe0cb6c6bddf1683U,
  0xbe836739bebb0447U, 0xbe937876be4c82b1U, 0xbdd01d143d9ab653U, 0xbe91cf2f3e20cde3U,
  0xbe40dd2abeaa7bfbU, 0x3d30dd99be315e56U, 0xbdf428d33c0a1137U, 0x3dc30a6c3e217eb7U,
  0x3de341063e2bdeeaU, 0x3de0be1dbe82a8e5U, 0x3e189a663dedcc6aU, 0xbdd798f33e3b58a8U,
  0x3e051099bdb4f4afU, 0xbdc914f03e3c61ceU, 0x3e9f96e3be7ba348U, 0x3a27c80d3e2bae56U,
  0x3d9ff95d3e763746U, 0x3e0f153e3e35ca68U, 0x3dbcf73d3d19a32aU, 0xbd57e989bdc9468aU,
  0x3cc68acebdc53510U, 0xbe3eb8e8bea4c59cU, 0x3d2856203d5b839fU, 0x3e4508f63e30ff01U,
  0xbe0f93243ca209daU, 0xbea08ba93e598c9eU, 0x3e334ecebe84d5e8U, 0xbe1333babe0d439eU,
  0xbc3862a93e8fc9ceU, 0x3dd85a183e210972U, 0x3e846c9b3d983c1fU, 0xbc292be83e320ac9U,
  0x3df0f8e13cbb61aeU, 0x3cf2c08a3e6d3527U, 0x3dda46f0bc9691b4U, 0xbd3d12053e70a025U,
  0x3df3cf483d2ca90bU, 0x3d588473be644768U, 0x3dd1bf8c3e0714a3U, 0x3d67e4383e3aee70U,
  0xbdac0c5f3dd728dbU, 0x3db979e73e2f4ed8U, 0xbe52f5c63b1d6fa3U, 0xbe36b9ee3d7baf87U,
  0xbdfe42d7bd53bfd5U, 0x3cae864cbcc0ff68U, 0xbe688f093e1d3c6aU, 0xbe2b2bb13d9312c4U,
  0x3e08cd75bd9e0920U, 0xbdf1f153bd9e9ac2U, 0xbd6d930cbd3f6d4bU, 0xbc3f30603e8007d8U,
  0xbe45e447be304c09U, 0xbe20efee3d7496a5U, 0xbd9bc97aba7f0a04U, 0x3c56fb853e39f044U,
  0x3c1c8fd5be1d9eb0U, 0xbe6647c63ddfa67aU, 0xbe55cffd3dee514aU, 0x3d7494de3e1023e0U,
  0x3d898b203e337274U, 0x3d853262bdac9292U, 0x3e60ef29be0d4777U, 0x3e3178453de93cb4U,
  0xbe7027a53c979d62U, 0xbe45c049bdd2f564U, 0x3d93752dbcf72b1dU, 0x3d8e2b56bd8fc2f5U,
  0xbdebfe2ebe9ba4afU, 0x3de5632e3e6509e8U, 0x3ccdac83bcbe2792U, 0x3d045fef3d866d55U,
  0x3d6365183c8c2d7cU, 0x3e83dcf5bdb85c2dU, 0xbd9495ab3daf19a6U, 0xbea3c777be4fa4bbU,
  0xbdb3fe243e7d303dU, 0x3e24fdf4be6ef16bU, 0xbe9c02e7be608da0U, 0xbe2d56c13e291171U,
  0x3d98dcc1bec5fc7dU, 0xbe86d3f8bd3cdaf2U, 0xbd8dd3633d63d136U, 0x3e907cfdbda0115cU,
  0xbe531cb6be98e3d4U, 0xbd4b5e3dbe96e51bU, 0x3e097a573c926635U, 0xbd928660be69998eU,
  0x3d7131e5be02d3b1U, 0x3c75eda03dc8e51eU, 0xbd7dc870be642d2fU, 0xbd1a9acd3c5a14f2U,
  0xbe013eeb3dcf5391U, 0x3d0713f0bc067c85U, 0x3cb76a71bdd429d2U, 0x3e34d1133e2e57d2U,
  0xbe3c7450bdbf1b8eU, 0xbea864733dcff4a2U, 0x3d3ba3bc3d102ac9U, 0xbe965822beafb7c3U,
  0x3dab701ebe505cb5U, 0xbe4e6a34be157c66U, 0xbd40bd803d562098U, 0x3e22b3333ddd7ca5U,
  0xbd6b2edcbe27455cU, 0xbe5097a0be135a16U, 0xbe52cad5be26625dU, 0xbea9d7273e222f2bU,
  0x3e60b899be3f2f40U, 0x3ce99fad3e19f438U, 0xbea71e893ea1a0fbU, 0xbdeeffd53e3ab34cU,
  0xbe8cc9ba3eac3eebU, 0xbea34fad3e0fe5f8U, 0xbd992f703d31baf0U, 0xbea46b003e24c5b7U,
  0x3dbb0345bdd87ab5U, 0x3e2928723e38a7ceU, 0x3dd29dfc3d8e9993U, 0xbe121473bd1176b7U,
  0x3db5c1dcbe47348cU, 0xbe25d65ebc3e8026U, 0xbda66f333db7d028U, 0xbe9c1118bd8411eaU,
  0xbd9658b23bf23813U, 0x3d770bc73e8007f1U, 0x3e4cb5243e211e5fU, 0x3dd74ca43e42ecdfU,
  0x3dc5f7b9bec9fe69U, 0xbe4470a33e753577U, 0x3de2604d3d17ed3eU, 0x3e06c061be820a7aU,
  0x3d8adccbbe2d0976U, 0xbc55f504be9cb9c3U, 0xbdca36bc3da78608U, 0x3dbe6c333e214afbU,
  0x3e1addb0bc0b6a2aU, 0xbdb1eea63e7af0faU, 0xbdbc8e8b3e9461d3U, 0x3d960788bd8d86aeU,
  0xbcc00318be2d6caaU, 0x3e035004bdba6cfdU, 0x3e97896f3e6e9aa6U, 0x3df188413e1dbd7dU,
  0xbe3e8ddfbdd395acU, 0xbea2c112be875429U, 0x3de5a336bd5643fcU, 0xbdff1020be3b0edfU,
  0xbe0db2e5bdb14c62U, 0xbcd9c9f8bdc9d67cU, 0x3d77c1d13d9a8cddU, 0x3e4a949b3e17e9b6U,
  0x3e04dbeabda8fcb1U, 0x3d8f8b633e5f21b5U, 0x3c8e0c263d004ef4U, 0x3e267d973e70f216U,
  0x3e8328593d51bdceU, 0x3cc970a53e484b6eU, 0xbd168cc8be1458c3U, 0x3d27948bbdb2c1e2U,
  0x3da3e2413eb4390eU, 0x3dff171e3e83cbbbU, 0xbd8a3f023dbfe002U, 0x3e92e4443de6ff07U,
  0x3db21fabbe570453U, 0x3dbc229e3e4e98a8U, 0x3d1dad69bab29a3aU, 0x3e0ddb8d3e3c2524U,
  0xbddd923abc7af6acU, 0xbd7748123c849673U, 0xbca87515be33fc55U, 0x3e40c8f53de5d08bU,
  0x3b7ccf5bbe270d32U, 0x3d1f41df3e51c3a9U, 0x3e7170b43e127831U, 0x3e22e06dbe14ea01U,
  0xbdee84aa3ea88894U, 0xbe83ff60bc1f8ad7U, 0x3d8515ccbc379f78U, 0xbe0cd047beaf2b46U,
  0x3d99d0ac3e5e5cc5U, 0x3d8ab1d9be1bd44eU, 0x3dccc6c6bd698a93U, 0x3d7eb12dbe45bb60U,
  0x3da1aba9bc08d94cU, 0xbe6b1ccebd8db063U, 0x3e4c85a0be00c676U, 0xbe38daf13e6d6909U,
  0x3e8ca6cdbcbbcd3eU, 0x3e0e7dd9bda4f4b2U, 0x3e4d94ec3e669b7bU, 0x3e74468d3d62e6d5U,
  0xbd2e7f3bbe8ad1d3U, 0xbd0107c7be553d85U, 0xbe04b7cebd94dde1U, 0x3e6259813dd3dd54U,
  0x3dbbd73abd64ef81U, 0xbdf14d22bdbd1cdcU, 0x3dd806643dbfbad4U, 0xbe65a823be54df75U,
  0x3d928fb73d19c9b1U, 0x3cf49bf13d900073U, 0xbd5b096c3e92823bU, 0x3e46ae593e180883U,
  0x3d1e73173e7e091aU, 0xbcaf878d3e0c3026U, 0x3e5e43b3beaf63f0U, 0x3d818512be16ecd2U,
  0xbcb3e0e9bd81d895U, 0x3e28d0233e5b45fcU, 0xbdf7dd7c3d555938U, 0x3d23acb83e166f77U,
  0xbd9c91c0bdc1993aU, 0x3db7f1fcbe68b061U, 0xbb6a3b56bd790a58U, 0x3bb847473df4e80fU,
  0xbdd0457e3e4b5b0fU, 0x3e582a2ebe92476eU, 0x3e15d2053d8d1f10U, 0x3da91889bdb3c79aU,
  0xbe682c763e0492f9U, 0x3d7d2dfcbd941037U, 0xbdb38827be3a49e9U, 0x3d8be9f3be110bd1U,
  0xbe1946003dc3f1d1U, 0xbd8e68d73e078927U, 0xbd62a6283d018f00U, 0xbd8529c13e86c1a1U,
  0x3d58914cbe6ef287U, 0x3d37aa97bc918368U, 0xbc7de5d8bdd22cceU, 0x3dbf79d53dfdb3ceU,
  0xbdaaa3973e29b0daU, 0xbebcd2593e40c81dU, 0x3e516bb03e4237edU, 0x3c12df813d969fd3U,
  0xbd07674bbdf51e58U, 0xbd029a483e07abedU, 0x3edcd69dbd3a0e3cU, 0x3d80e64fbc73d153U,
  0xbe3d08193eb009a1U, 0xbdc4aa4d3d5ae3ddU, 0x3db224e7bd538f7bU, 0xbc9c514fbe2b1a65U,
  0x3e570a7a3e106204U, 0x3c035712bd22ecc3U, 0x3dd772273e031eceU, 0x3e1303ff3ce76488U,
  0x3cf5a0553d590187U, 0x3e314a56bd5d88eaU, 0xbe64e31abd4b13a4U, 0xbe45338dbd555c22U,
  0xbdf40ddbbe572b1eU, 0xbde0aa183d950ca4U, 0x3eb3d175bdd6c7ecU, 0xbe0a0d993e2b14b2U,
  0x3daffb9f3e3c388dU, 0x3e2ce259be1793a7U, 0xbccb13203c906a0cU, 0x3e5b66d5be2eff58U,
  0x3e242ab13e00fecaU, 0x3d247ba4bdc46a7aU, 0x3ce215883d9cb25dU, 0x3cfce15f3d675ca1U,
  0x3d4d29cd3ca22145U, 0x3e216e54be31afb5U, 0xbd5fef20be5ed847U, 0xbe732b503d89f8cfU,
  0x3e8cc344be44722cU, 0x3e385bba3dcede7cU, 0x3f12d0103e54a72dU, 0xbaccc4dc3e0a125dU,
  0xbce80eaabe5f2df2U, 0xbe998d98bdf042c3U, 0xbde50e663dfb285aU, 0xbbf00b023e759954U,
  0x3e47e69b3da7810aU, 0xbd9cb6d6be8f98cdU, 0xbd800966bdc4898fU, 0xbd11287a3e0a6f7bU,
  0x3dccb25dbe01b24aU, 0x3eb1eedb3e8e4483U, 0x3e03bd2abe273198U, 0xbd15353abdc87616U,
  0x3daf140f3e1c0bd6U, 0xbe01a5d83d1cabbdU, 0xbe8f1ea93db87433U, 0x3d9a24063cb2b3d9U,
  0x3e1597053dcfcb11U, 0x3e5ec5ac3e70dfe2U, 0xbd63646abdb21853U, 0xbce79bb53e6059e2U,
  0x3d1ee5823e788f03U, 0x3e3d5090be8294a6U, 0xbc06d7adbd3c0e12U, 0x3e58c4dabe6fd0b5U,
  0xbdddf58ebd8d43b4U, 0x3b354d1f3c893de1U, 0xbe56257d3d078cbdU, 0x3da67405bd730a43U,
  0xbd2575fabdf7dbd3U, 0xbd82c09fbdc09f39U, 0xbe5125b43d9cb9d7U, 0xbe600786be621285U,
  0xbdf666f0bec689b3U, 0x3d46906cbe695f89U, 0x3e312fe6bd9b4a24U, 0x3d204f22bcda6ba3U,
  0x3e29abeabd87e584U, 0x3d02071abe2879efU, 0x3da55016bdd889e2U, 0xbe1117c33dfd4ebfU,
  0xbde58502bdab6facU, 0xbe0c3c6cbea326baU, 0xbe77be12bda2c11fU, 0x3e68a9543dc8e382U,
  0xbe7fc4213d278f3eU, 0x3e1e3ffdbe05663dU, 0x3e5b7a66be89db91U, 0xbe0910c9bd597ffcU,
  0x3dcfc65f3de034c7U, 0x3cdb8e0fbdcd0e3aU, 0x3dc480503dc17ca6U, 0xbe3cfdaabe34e9b8U,
  0xbe360818bdd0d543U, 0xbe2fff8f3e3bcf6aU, 0x3dbd58103d9c9accU, 0xbd9ff9e2be0a82ffU,
  0x3bd3a881be04e4d4U, 0xbe9024b9bea7583bU, 0xbde3220f3e64c68aU, 0x3e0f2fc5be4eff95U,
  0x3e74700abdd0ce8cU, 0x3e3e077fbdd6ea25U, 0xbe388adbbe8f3766U, 0x3c641e93bdd1c56fU,
  0x3d1aad5bbe8c2c0aU, 0xbe2305d2be96da82U, 0x3d92225b3d2fbd38U, 0xbe08ac183e2e4c49U,
  0xbe129227bdf62d89U, 0x3cd7d5e7be32ef13U, 0x3df5e2bdbcbed83dU, 0xbe5bd5dcbe5e561bU,
  0xbe35e851bdc197f1U, 0x3e0b7f773e7dafc5U, 0xbe5b1eb6be1c83a5U, 0x3e96a7b8bd0f19d4U,
  0x3ddd5db9bdc9a582U, 0xbe2c6663be62c290U, 0xbd41df32be5ddcb8U, 0x3d524d22be380a24U,
  0x3e3048763ea39356U, 0x3de84f48be2ae92bU, 0x3de67a163d5a8a13U, 0x3d371fa13da15ae2U,
  0x3d8dd7db3d96d14fU, 0xbe1a031cbdf0729eU, 0x3d36ecdfbd6bb4b9U, 0xbe49d7d3be3720f4U,
  0xbd2c62773dbe4442U, 0x3e93b7023e3189e3U, 0xbda3320a3e1fa2aaU, 0x3ded1ef4be2320c5U,
  0x3dbbd99b3e898d4bU, 0xbe0f99dbbd2a5eb1U, 0xbda43f3dbdc7f867U, 0x3e0fe1223e2474baU,
  0x3e11903d3e1ae9cdU, 0x3db363e1bdce83dbU, 0x3ce60edf3dab3114U, 0x3d4bac5e3da80765U,
  0x3d54426bbdfb7f65U, 0xbc6a6c3bbe542618U, 0xbe19cdcfbdbb88bbU, 0xbe61053dbe1665bbU,
  0xbdfa0b6f3c12031aU, 0xbe42955bbe16bf4fU, 0x3d965dde3da14d63U, 0x3d309f90be4fbf7dU,
  0xbe944c593dd7af63U, 0xbc1ae6d9bc760f28U, 0xbe10e0b63da666b5U, 0x3e2f92643c7a95a1U,
  0xbe88d83c3ebee224U, 0x3e3dfb2c3e0ba4f7U, 0x3d641ddcbd993730U, 0x3e069a4e3e48fac0U,
  0x3da8df98bd94af17U, 0x3b6fc1083da069e2U, 0xbd70e4d73cefdf98U, 0xbe2c499ebe813433U,
  0x3d2d5a9d3dd51573U, 0x3e8047533dcaed45U, 0xbd627d813e4c4a72U, 0x3df632b4be3682e6U,
  0xbe483dd53bb75ebaU, 0x3e1813e1bbd26c57U, 0xbe6b66dfbde184f9U, 0xbd1d91f4be3344b9U,
  0xbd326855becd6741U, 0x3e7885103e8c6d1cU, 0x3d6779843d758660U, 0xbe91d93b3e2bd49aU,
  0xbdbe011abe244e6eU, 0xbe48bf99bde0d6e6U, 0x3de5b04ebe18d160U, 0xbe413a433dbd11e5U,
  0x3cfb5d723d9b0a36U, 0x3e15b288bd28a3e0U, 0xbd5e5f1d3ebc0ae8U, 0x3e13a0e93d8152bcU,
  0xbe4822ff3e00438dU, 0xbdc489e33e1e9acdU, 0x3c498f9fbde0eca9U, 0x3dd6dccc3b0283a7U,
  0x3e5ab0113e914fe1U, 0x3cde6fa1be847826U, 0xbddca1d33d4bd653U, 0x3e469fe73e030d64U,
  0xbd9c7db6be5a2399U, 0xbdc7150c3e45c4b8U, 0xbd0ad9debe0e2468U, 0xbdc4916d3e3b47f8U,
  0xbd629e563da7d418U, 0xbd945600bace6f63U, 0xbd9dbb33be7f87e5U, 0xbcb20b05bda232caU,
  0x3d251c51be65b93fU, 0x3e2de1d43d7bce98U, 0xbe9817ae3d84a71aU, 0xbdcb412e3e00ba3fU,
  0x3e433ce8be75f173U, 0x3da0d75b3dd9be54U, 0xbe071399bb9e64bbU, 0xbe7e1c543e847d5dU,
  0xbe0efe18be15a7e3U, 0xbdad65633eb9c757U, 0x3da983d1bdbc01fbU, 0xbd0bbe473d9877bbU,
  0x3dd3d0b9bd4f09b8U, 0x3d8fdd31be1e567aU, 0xbc87c1c3be8fe086U, 0x3ce302953e5a4daeU,
  0x3dc4e445be484193U, 0x3ca5491bbe5b76c1U, 0x3e093b7cbda82095U, 0xbd191a93bdd66c45U,
  0x3e3d6491bedda711U, 0x3deca307be85962bU, 0xbd64f5e0bce4b759U, 0xbdc6938bbdc7969fU,
  0x3e652e18be29989bU, 0x3e45debe3d2921fbU, 0xbddb8ef03dd76e8fU, 0xbe717d0a3d9e6d1eU,
  0x3c9f67263db5034eU, 0x3ea21da23e3d1577U, 0xbe01e3cebde938aeU, 0xbe7da2ecbddb5457U,
  0xbe063caabd8af791U, 0xbd73b660be61f82eU, 0x3e4f3f533d8bcdb3U, 0xbe351cd9bdef0ed9U,
  0xbe52abce3e8e279cU, 0x3e58beb83e7cf3d5U, 0x3bd165213d5c6829U, 0xbe71fcacbeca1c4dU,
  0x3c2af60bbe2605c5U, 0xbe22486ebe7191daU, 0x3d855c6a3df264c2U, 0xbaf94930be1bfc52U,
  0x3cf7d625bce5e807U, 0x3e98902cbdf4e7e9U, 0x3e2712bdbda11404U, 0x3ec901dcbd781283U,
  0xbe5ae2f8bcbdb578U, 0x3e18bd33bde4c44fU, 0xbebcaf633db5b218U, 0x3da3e8983df1d40fU,
  0x3df8971ebea3fc03U, 0x3ddf3b92be32a53fU, 0x3d4df6ccbd63b159U, 0x3c461799be676259U,
  0x3e36f436be5ffe16U, 0xbdc339483e978ef1U, 0xbe08f5d13cadfc3cU, 0xbe0b2c41bd9e73adU,
  0xbe329f88bc3c1a3cU, 0xbdf631d43e4ab193U, 0xbd3cfa5f3e9d149dU, 0x3e13fd233dd6c2c8U,
  0xbdc08788be2c6e7eU, 0x3caefc103e28431dU, 0xbef99a2abdc59af1U, 0x3d6819493cb4a5deU,
  0xbe0e8410bea20309U, 0x3ea5855fbdbc96e4U, 0x3dadb07d3da11ca6U, 0xbdda1b353e473c3cU,
  0x3d2bf128bd445615U, 0xbd8f4aafbd7c971fU, 0x3d6778c4bd8cc00fU, 0x3e241b84be381f8bU,
  0x3ca34f863e027559U, 0x3e6ef17d3e78b9d1U, 0xbe2cf35dbebdf210U, 0x3e9aec4cbe2864a6U,
  0x3e78e694bd8680ceU, 0x3ce6899cbd389106U, 0xbe05d5553e145761U, 0x3e0973fdbd0bf066U,
  0xbe4b49babedd8b93U, 0xbce98b0c3ea14d4cU, 0xbc9c4fb53b3cd7aaU, 0xbe83db073d991cc9U,
  0x3d7cb3793e1ea6d3U, 0xbdcb89cdbe0fc678U, 0x3e14609ebd908348U, 0xbcceea8bbe7b9ce4U,
  0xbbc553ce3d94522fU, 0xbea7ea1dbead9decU, 0x3e3391c1beb507aaU, 0xbcfa88e5be4e2217U,
  0xbe9ed9babd8a4a96U, 0x3dab2dfebd94722cU, 0xbe9822be3ea02361U, 0x3d2e6fc53e3ef2ceU,
  0xbd597321bdcbe635U, 0xbe4ae5c4bcf40b97U, 0xbdd6b0c3bd96d300U, 0x3dfd6773bdbe4b0bU,
  0xbd6825183dea1e28U, 0xbd6484aabeb5d71dU, 0x3c66e996bb2d2110U, 0x3d17408dbd8184afU,
  0x3d251c103c50fefdU, 0xbe431594bd1983b1U, 0x3e0528e93e8ec718U, 0xbc3a2fdd3d899508U,
  0xbe09af4ebe4af899U, 0x3c8899593ddca6a2U, 0xbe036852bd3dfdb5U, 0xbe3caaca3d1e8003U,
  0xbe13f1ae3ebadd33U, 0x3e8a8b11be296270U, 0xbdce7389bda67b7aU, 0xbe761c89be6d92adU,
  0xbda68dd1be099577U, 0x3d83c87abe3067c9U, 0xbca5447bbdd5ef7aU, 0x3e1c6c89be27c92aU,
  0xbe0b8b2e3be431ccU, 0x3dfc8d673da98a44U, 0xbe1caa90bd97aa3fU, 0xbe8d7e39bb9fe842U,
  0x3e7ed24cbd4d6814U, 0xbcecfdca3d55991eU, 0xbe7cb2163e4f36dbU, 0x3df7554c3e2b2c21U,
  0xbe4129f33e06ac5aU, 0xbe4570c33e8060ffU, 0x3d18bef23bc63dcfU, 0xbe4ac4c23e805967U,
  0x3dd31841be63db25U, 0x3e11ea44be5feaefU, 0xbbefcfdf3d4be5d5U, 0x3d5190babcc45280U,
  0xbd5fde13bd148bb0U, 0xbe41ec003e3fd423U, 0x3e4a111b3da336e4U, 0x3e4256a8be1cd225U,
  0x3e3466b5bd893ad7U, 0x3d7e02253dfd2b72U, 0xbe952fa6be68f8b7U, 0xbd9a2794bdddc6ceU,
  0xbe51656b3e8ebdecU, 0x3e49bce6be14b056U, 0x3d357bc23d86062eU, 0xbdd91f27beb3fc8bU,
  0x3e2fd955be53d687U, 0xbe213da7bdf863a1U, 0xbde25deebd947f2bU, 0xbe011744be51c296U,
  0x3d420073bc940345U, 0x3e80bef6be50afdcU, 0x3d9cf40d3e44cb46U, 0x3e7469103e17f443U,
  0x3e4979dabccd3cf9U, 0xbe2fd4c73da2b841U, 0x3dd16386be92da31U, 0xbe04ee3b3dd82088U,
  0xbe510d053e6b6401U, 0xbe4186d33dc0f86aU, 0xbd615dc1bd9b1044U, 0x3e093e02beb90ec2U,
  0x3dadd7143dc41890U, 0xbd8544993dcd6eaeU, 0x3dadabd83d417a8aU, 0xbe2cd6b33e077966U,
  0xbe092fc33c28eeb6U, 0x3cca4d7e3e891d81U, 0x3e5071ec3df9e271U, 0x3d3de9d1be7761bbU,
  0xbe51b7793e464943U, 0x3e28a0b43c62a042U, 0xbe91ebecbe1013f8U, 0x3da1e028bdf1012fU,
  0xbd2aa538be3ac115U, 0x3ea0a5693b8370eeU, 0x3bcab45dbdda73c3U, 0x3dfc9995bda671d5U,
  0xbe2293513e9ec845U, 0xbde8fa67be1edef7U, 0x3c92e22f3d971ff0U, 0xbe3c8676be00f456U,
  0x3d7e7beebe246c78U, 0xbe82c43c3e5a8720U, 0xbe4ea79b3d99a4e9U, 0xbdba16ddbcc99474U,
  0xbe61e9e63d19ab35U, 0x3b91b5563e33a6d6U, 0xbe2cac483dfac660U, 0x3e22e29f3dc6b320U,
  0xbe4eaa5f3ec3e21bU, 0xbe1b87e83e90213aU, 0xbd654228bdcf5de0U, 0xbbdb530e3df2ea84U,
  0xbe00d0ed3e4e2e3dU, 0x3dd59edbbe3248c2U, 0xbe0b90823d5b7665U, 0xbd833e123e0f0551U,
  0x3db92b743e494d1dU, 0x3ea03abe3daecc5dU, 0xbd98803dbd8c3b2cU, 0xbe10de26be25b49eU,
  0x3e96bbb73e0ba833U, 0x3e22a5b1be2f78a9U, 0xbea071a33e538707U, 0x3df91ae4bcb786b7U,
  0x3e5125c43e3b3914U, 0xbe4e7c0d3e9093c8U, 0xbd3a595c3d7e7c9bU, 0x3e4d73ca3b1a3e0bU,
  0x3e2a782bbd8dc277U, 0x3d8ce000bd88daa3U, 0x3df678bcbd4d632fU, 0x3e60b13abdb21aa4U,
  0x3d736151bdee8c64U, 0x3e84f1913d7d1fedU, 0xbdb7bd103e402250U, 0xbd8dcee33de85296U,
  0x3c284bde3dc16172U, 0x3e0d94ee3e28c5d7U, 0xbd87336dbe112223U, 0xbe52a3a1be0ee1cfU,
  0xbe15d6b2bea9577bU, 0x3e7e06ff3e5ff98bU, 0xbdd6bae13d0b7c64U, 0xbd05c8383db15628U,
  0x3e215b01bdca42b3U, 0x3e50582f3e4b5bdcU, 0x3d2d054fbd32a907U, 0x3dcd7514bc7a7b5eU,
  0x3e445c403d48fad4U, 0x3e58eaba3eb16e37U, 0x3d1605c7be80fe89U, 0xbdf82679bda62bf9U,
  0xbe54f319bd82929eU, 0xbdaff5a7be12a84fU, 0x3d4267c7be6641d6U, 0xbe3a778e3c1e10afU,
  0xbe1fe6f43c7f617eU, 0x3e22a1a23e661fe0U, 0x3bb78ba3bdfd4a1aU, 0x3e6af8e43ec0783bU,
  0xbaafa80fbdb129efU, 0x3d3825d0bc5e57c3U, 0x3d6199a5bb324d68U, 0x3dfa294bbe1205c9U,
  0x3e368872bc267132U, 0x3d87973d3e8f19beU, 0x3df68690be34e8e0U, 0x3e339087bdf2f9bdU,
  0x3e0064dc3d070fafU, 0x3ced5771be305b7eU, 0xbe6bd463be51ee72U, 0x3e07d3aabe10bf37U,
  0x3e328ec7bec1996bU, 0x3e2143f9bddc149eU, 0x3dcd7d043b87ae30U, 0xbe04db713d5a611eU,
  0x3e26b29dbe25d5d2U, 0x3d1fd0943c982c6cU, 0x3e09cf3cbb21bb35U, 0x3d1b95cebe724becU,
  0x39fe9c673d550d79U, 0x3e3da8893dd768a9U, 0x3e48929abe0b8684U, 0x3e8f18c4bdef9f4fU,
  0xbd25ba883d56a866U, 0xbdba5b20be735e10U, 0xbd68b7323d00f313U, 0x3d8382a5be091696U,
  0x3e1072d7bdf17c7bU, 0xbe84505b3ca35047U, 0xbe1028cb3d95ae8aU, 0xbe8e01133b19bb18U,
  0xbdbaadf43d80341fU, 0x3d5e97003c6efa4aU, 0x3c8e1e9cbba3209cU, 0xbe121b6a3e1c950cU,
  0x3dacb5933c80f14aU, 0xbd5a99b7bd3ea271U, 0xbd919019be8a0bd5U, 0xbd695232bcc0bed0U,
  0xbdb766ed3e15a7e3U, 0xbe17b731bd14dc7dU, 0xbc0852193df98ca0U, 0xbdafa6c83de6f77aU,
  0x3b9410f23eb5007dU, 0x3dd7d72fbea6541fU, 0xbca7cc1ebde16eeeU, 0xbe935c4e3e1146b5U,
  0x3e182b88bdb96bd8U, 0x3d9dc21fbde9292fU, 0x38264bbabdd0b0b2U, 0xbe3532ebbd946ebbU,
  0x3ddcd30e3e2c6131U, 0xbea187f5be56ae1fU, 0x3d5a53e73db37644U, 0xbea6dec9bd0dc965U,
  0x3e4bb66ebd9ad804U, 0xbe03b51ebe28094fU, 0xbc293a123e3d4fbfU, 0xbddea1153c0270d1U,
  0x3cb3109e3e89f218U, 0xbc8262c9bd7ff974U, 0xbdea5505bc1c1482U, 0x3e461ea3be80dd05U,
  0xb9f289e83e474406U, 0xbcba01c8be606319U, 0x3dbc9ae63cb9cbc3U, 0xbd406e2d3c3fa87cU,
  0x3d6251823c976f96U, 0xbe5715fb3e4555acU, 0x3e0d52033e1dada9U, 0xbe977164be6ac30cU,
  0x3e27b8b53e963fd1U, 0x3e4df7323d7be449U, 0x3e8d9d7f3c824e7cU, 0xbda8b8943e0e6c50U,
  0x3e6f41d4be2dbf7bU, 0xbe04e9483e0e6a26U, 0x3e1736523c177554U, 0x3e0ce833bea39d80U,
  0x3e079724bdbbb179U, 0xbd4ef0623b307248U, 0xbe0890853cec1a66U, 0x3b89f1013d2d2a60U,
  0xbcbcd795bd4a508fU, 0xbce4cd41be0f50e6U, 0xbe1ca17fbece9493U, 0xbed24d3cba07f040U,
  0x3e4df458be6d152eU, 0xbdf295273d5f96a4U, 0xbebc32183e0ecd2eU, 0x3da47ce2be2c3779U,
  0x3d471a153e8516abU, 0x3ce2b2883c1699b2U, 0x3e0df16b3ccd5769U, 0x3e5acdf9be9661e4U,
  0x3de03f01be38b6a7U, 0xbde0d764be82ae93U, 0x3df20d3c3d365919U, 0x3e09a9c6be30ff9cU,
  0xbdf0f8b03e189273U, 0xbe274ce5be62430aU, 0x3dd709aebdd3b5ecU, 0x3e97d6623dcec41dU,
  0xbc515d023e0b9fe3U, 0x3cf1db8cbdec04f9U, 0x3e431436be740698U, 0x3e2c5e773e2d25b6U,
  0xbe2dda65beb813fbU, 0x3e3dfb1bbe95af71U, 0x3e09f92c3da39cbdU, 0xbe9f054ebe5be4fcU,
  0x3e386d9fbe0a568cU, 0x3daaf3b6beb5975eU, 0x3d40f1adbdeb063bU, 0x3d9c144a3cd3facaU,
  0x3c9b54f3be2d989cU, 0x3e26fdb83e8c5f9eU, 0x3e61c2e33ea85d10U, 0x3e0f18a13e20e4ebU,
  0xbe72bc253e80bd8aU, 0xbd9e977ebdf34eabU, 0x3ed4c4253d942380U, 0x3db5ca713debfafcU,
  0x3e0245d33e907217U, 0xbe2c415a3e88b97bU, 0xbb749f9f3d049288U, 0xbdb1437bbe9e10d5U,
  0xbd821be5be19247bU, 0x3df3c86c3df29a9bU, 0x3d5f83da3c13e715U, 0x3decb683bd9f3a39U,
  0x3df45f0d3dc48067U, 0x3e0388f73d3aeca8U, 0x3e5e16edbcbc784eU, 0xbd8d35b23c3eb17dU,
  0x3e40cb953e0c9ac0U, 0x3ddf7242bdba6876U, 0x3ea3beff3db7ea80U, 0xbdbe1ae63de4427fU,
  0xbdb722903e6d23bbU, 0x3e91827b3cfcbdabU, 0xbe0d35a8bd9c00fbU, 0xbdbe4bb7be02bab9U,
  0xbe0a33273e8739f0U, 0xbe15d1ecbe856afdU, 0xbd36f0c0bcc36d43U, 0x3e0364ff3ded9582U,
  0xbd96ce95bd3be0a4U, 0xbcdceb9dbd658be0U, 0x3dd71651bde49624U, 0x3dafd7963e2de56bU,
  0xbe2a1769bd6ff8f1U, 0xbbaeb5d33dd490a5U, 0x3e7c746a3dd263aeU, 0xbe3e7a2dbd136500U,
  0xbe238eebbe4ee4dbU, 0x3e23deb5bd8490b4U, 0xbe0c63dabdc30350U, 0x3dd408773cc4dc9aU,
  0xbd7c2db2be59f0d1U, 0xbe1b29fe3e456312U, 0xbdaab0b73d6dce58U, 0xbe4f4dbdbdf7d74bU,
  0xbe2016363e327f70U, 0x3dc66bb0be1151aaU, 0xbe03a1cb3c6fd564U, 0x3d291b863b3c46f7U,
  0x3e23e215be58d965U, 0x3d6d2d92be271975U, 0xbe33a8b2bd9a941dU, 0xbc023d36be1b9637U,
  0xbe83f242bde08b7bU, 0x3df78353bcb5c720U, 0xbdecdadf3d2bd7e8U, 0x3e0f897dbe47a3d1U,
  0xbca7b350bdc2cb73U, 0x3e1e23ac3e43b12dU, 0xbd0f8cf5bd0b257dU, 0xbe2a42f5be6c7604U,
  0x3e1df6073e128f85U, 0x3dd918f1bea41ccbU, 0x3d2f2d58bea4be05U, 0xbecfd4eabdaa30a0U,
  0xbe25bf40be632278U, 0xbc55559dbce31e49U, 0xbdf973e2be915155U, 0xbe23023a3e40a349U,
  0x3bb1bef4be7fe454U, 0xbe43065b3de5cae5U, 0x3bfc6daa3cfa99e6U, 0xbe94aee7bd96577fU,
  0x3d1f2d43bc94b671U, 0xbdae76d0be9d72afU, 0x3dbce5fb3d39995aU, 0x3de3ce4c3e127fbbU,
  0xbe10aa443d5b09baU, 0x3de77ae33e3981cdU, 0xbdbc6f5ebd4f2493U, 0x3d1ea632bddf7896U,
  0x3c14c6b93e6c4addU, 0xbdc966333d52bf2fU, 0x3d8b7f283e4e43c5U, 0x3d2febe43e464193U,
  0x3db333b6be9cc65aU, 0x3db3bb75be9dea8cU, 0xbdd8b432bcb1fd29U, 0x3bd89c3bbde942b0U,
  0xbd8028aebc198c69U, 0x3ddc6f083ddabe2dU, 0x3c4952973df6b8c9U, 0x3dc865a33e364fabU,
  0xbe00cd90be01e74cU, 0x3e2f57f73de8d6f1U, 0x3ab3922bbe4f1dbbU, 0x3e76d4cebd75efceU,
  0xbe49d97c3dafd927U, 0x3db6cbb1bdb23254U, 0xbe287ef2be9a0b07U, 0x3e033bec3df87755U,
  0x3e3cd4843e945f6eU, 0xbe279ce03e3116e2U, 0xbe0b892dbd8e18c1U, 0x3e1cb85f3e919aabU,
  0x3e2b76dabd9e2888U, 0x3e1fb530bd660393U, 0x3d230c153d9e5384U, 0x3c18bf0fbd711702U,
  0xbdc02ecf3e0c5ac5U, 0x3dff004b3e046030U, 0xbd4a90613c79c34eU, 0xbc91eed13e363024U,
  0x3e9b296ebe39966dU, 0x3d6fc8f73e004d12U, 0x3e80629bbd1d82f9U, 0x3dd69ddfbe06d6d5U,
  0x3e627a493c12cab1U, 0xbdc61202be92aaffU, 0xbdaacdd9bd93e345U, 0xbe1d3d4dbda6fef7U,
  0x3ddc4c5d3dc002cfU, 0xbc64650f3de01bedU, 0xbc41b345bcad1485U, 0xbca76a1cbe5dcebbU,
  0x3e1c82ef3d8c2319U, 0xbdfb610cbe9d89c8U, 0x3e1994fdbc0449e9U, 0xbe0888a93e35fe19U,
  0x3e28b46b3e4f2cc3U, 0xbddba0443dea3818U, 0xbe5222c0bd8a26f6U, 0x3dc47b653e38ffb4U,
  0xbe16ef3fbea02262U, 0xbdc0dae43debf6d2U, 0x3cf9ee503db7cc37U, 0x3ce2dc06bc9a3f62U,
  0xbd75acefbe74f792U, 0x3d9dbd84be37437cU, 0xbcf1667fbe0b409cU, 0x3c8e77203d117e80U,
  0x3d0a2c2abdd6b7f7U, 0x3d86cab4be223914U, 0x3e50d55e3e976dadU, 0x3e501d31be25853dU,
  0x3ce5c215bda8a602U, 0xbcb22cff3db41c95U, 0x3dd82522bd4d95e8U, 0x3e29b43bbdc631e3U,
  0xbd2c77e93dbe2152U, 0x3d9bb6b2bdc4a3c7U, 0xbdd05d043ca601efU, 0x3cabd4663e1c5815U,
  0xbdbcee24bd2e3c91U, 0xbda29ec1bdab6e0aU, 0xbbada37b3e06c290U, 0xbdfb67653e1597abU,
  0x3e0e661f3d7ded90U, 0x3e4bb8e03e874868U, 0xbc5e03bd3d1328cbU, 0x3e2c9a053e1ff07bU,
  0x3dfd84febe65169dU, 0xbdbc8037bd2562f7U, 0x3ed26f79bd043e81U, 0xbe0c35aebe2e8119U,
  0x3e81ae48bd1a410cU, 0x3bfc162c3d2690a1U, 0x3d2e0fe23dd516dfU, 0x3dd401393e8ed3e1U,
  0x3d8f195dbcd06a51U, 0x3da791043e7c3013U, 0x3a80714ebd08d074U, 0xbd1fdc11be0ba9d8U,
  0xbd280c733e0e9a40U, 0xbe9576d1bc16c695U, 0xbe4e7d273e7423feU, 0xbd9280873dd7acfeU,
  0xbe8693423dc9db0fU, 0x3c10b5e3bd8af597U, 0x3e487ab1be815e35U, 0x3dce3b16bd12d715U,
  0x3cdd119e3edf77d4U, 0xbe563529be28ad2eU, 0x3d959652bd8276f2U, 0x3e916dab3df2fd55U,
  0xbe4435933d7ed4eaU, 0xbdbe02893e1a58eeU, 0xbd66ca6abd6c86e1U, 0x3e19de72beae91eaU,
  0xbcceba193d97afc3U, 0xbeb02365bd98c188U, 0x3dd81e58bcb1d3a6U, 0x3ec21b8fbe455e61U,
  0x3dda313bbe379c48U, 0xbce74fac3b89704aU, 0x3dc0911e3d0ce41aU, 0xbc7814cfbe0665ecU,
  0xbe5de3273e0c3659U, 0xbde42080be46db6bU, 0x3d2959d3bd0ea87aU, 0x3e6433b5be63d7faU,
  0x3dad9b733d93e6b8U, 0xbe13f44cbe9ada01U, 0xbdcaa69f3c8d72efU, 0x3e735e6ebe3d0c65U,
  0x3db9416d3dee7345U, 0x3e500b0c3e4e2b7bU, 0xbd36b985beb571ddU, 0x3cd4ac283e309ba1U,
  0xbc95ba103e51311bU, 0x3d5394b83d8defffU, 0xbdbb1098be3c60a3U, 0xbe022ce03e10d9b3U,
  0x3e0a4e9a3e914e7aU, 0xbe7f2b9c3e9bc15bU, 0x3c5019ac3d3d51d1U, 0xbeaa3dfdbe4925aaU,
  0xbdbf2b093c340624U, 0xbc8bb2783e1cf249U, 0x3d380ab73c91bcb6U, 0x3e1cd930be05d831U,
  0xbc184e4e3b346facU, 0x3dedad59bc859de1U, 0xbda860cebdaa5524U, 0x3d9c3a3cbe424586U,
  0x39f57d93be4548e7U, 0xbc99a5dcbd9bc27dU, 0xbed657223e5ffa91U, 0xbe2233733c5b381cU,
  0x3e4cad58bea1a9c1U, 0x3dd6eaccbaf85a3fU, 0xbcb685fc3d6f495fU, 0xbe787b3f3e432d82U,
  0xbdb3a70dbe19790eU, 0x3ccfc8f33de9be54U, 0xbd74f5e83e0e3692U, 0x3e5582debd8f03b3U,
  0xbd7f951d3e1293beU, 0x3d8ea4a5be871524U, 0xbe3eb40b3e90fcc3U, 0xbe2dc4763e3a8fa8U,
  0xbc5dfca53e89f5b9U, 0x3dd906aabe4ca94cU, 0xbd01f6373ce63a45U, 0x3d73f09cbd2320baU,
  0x3da58d27be1da3c4U, 0xbeac5df93e4bb087U, 0xbddc5e04be05c66cU, 0x3b88a7e8bec25b29U,
  0x3e288a693e00a4e4U, 0xbcc17cbb3e2f169cU, 0xbd8b029d3ce5a1e6U, 0xbdc2d5e23df6984bU,
  0xbe1306abbe1c97bcU, 0xbe2f88333e3242fdU, 0x3e242bafbd7a5849U, 0x3d793396bd0152a1U,
  0xbde62bd03cf6844aU, 0xbd7cecca3dabad18U, 0xbea9c42e3d528839U, 0x3e107cfd3dc8e106U,
  0x3d921d58be6f229bU, 0x3dd78772be401fd9U, 0x3d0e10583d880f38U, 0x3deb6c0038981ce3U,
  0xbcb97082bd3c1104U, 0xbe024633bdaf8f33U, 0xbc97b833bddf0f7eU, 0x3d0571f4be56c1feU,
  0x3da4354cbe6cc487U, 0x3eda8785bcff8d50U, 0x3c5607803eb8d930U, 0xbe768ec6bb409090U,
  0x3ddeedc53e53988bU, 0x3dece706be0116b7U, 0x3da3a983beaba6a9U, 0xbdd719d2be18eff0U,
  0x3e1a962a3e0dce48U, 0x3d9f4b113e1fff39U, 0xbe1050c3bd1fd398U, 0xbec86aa8be257939U,
  0x3c507afa3e14b174U, 0x3cb33d043d482ce4U, 0x3e211c1dbbb29a1bU, 0x3d136ba6be193d23U,
  0xbde063933e2b7697U, 0x3e4aa3c1bd8eb133U, 0xbe308df33ebc409dU, 0x3eb8746fbe559b2dU,
  0xbd93ee9abd8eeb48U, 0xbd0a8cc3bd4a56fdU, 0x3eb806bfbd1a1a52U, 0x3d76c182bd90abafU,
  0xbe34b831be290c0dU, 0xbe58f334be91d5bdU, 0xbccc9285bd500177U, 0x3e82615a3d7a7502U,
  0xbcee7aa73def0144U, 0xbdb23967bcc6500eU, 0x3d8722b03e07871cU, 0x3e00305b3df25794U,
  0xbd08d78f3da1580dU, 0xbcecf0d33e9accbdU, 0x3da26e9b3ebe162eU, 0xbe653c9ebd3867a2U,
  0xbdef5dd5be255bbcU, 0x3dec20803d9466a6U, 0x3eb566bb3dcc7620U, 0xbd8aab023e33fd8cU,
  0x3e1f58793e4756a4U, 0x3e35f9203da749e8U, 0x3c390eeebd9cc822U, 0x3e8a2b85be5fde9fU,
  0x3dc1fd68bdc2930dU, 0x3e3e86da3dee5d4fU, 0x3b8ca7233b98d921U, 0x3e2ade6f3d9ad277U,
  0xbdc0f0ee3e2ca78fU, 0x3e81fc6abc709eb0U, 0xbe591f65beb1b172U, 0xbd9bbf173daec5b1U,
  0xbe593ee1bcbb2a98U, 0xbdc1fbbabdcf886bU, 0x3dd5fb31be7224f1U, 0xbe323f47bd9d0a9eU,
  0x3dc409dabe88e4abU, 0x3add3feb3e14014cU, 0xbd7ea3dfbc4c6da1U, 0xbdde4d18be45e3a7U,
  0x3e5115b5bd2d7d61U, 0x3e4904bfbcc87690U, 0x3de17543bc9b1332U, 0x3e3ac4dbbc5faea2U,
  0x3e02c8663cad291cU, 0xbded2723be38ec81U, 0xbe21566c3db0f505U, 0xbe76a61c3cf54e25U,
  0xbc205ac23e8aeba5U, 0x3e3f87f33e416181U, 0x3e1dc6473e723a6eU, 0x3e3fa93a3dbaa487U,
  0x3d6fdbf23e5a1147U, 0x3e6c1d0e3cf239adU, 0xbe1ca4743cded6beU, 0xbe85f5ae3e225d3aU,
  0xbde65405bdc4fc24U, 0x3e34e820bd8e190fU, 0xbd14b3adbcd0b8deU, 0x3c52f22d3dc90cccU,
  0xbd1df5343dd30550U, 0x3e7cec933dfa102fU, 0x3e233e9abe6be8dbU, 0xbec89ca03d45ad38U,
  0xbe0004bc3d9254bfU, 0x3d0dc8ae3df05202U, 0x3e8507dfbe01bf96U, 0x3e01f89abd9a339cU,
  0x3e565a15bdfa842eU, 0xbe519aca3e7be93bU, 0x3d1980243d435f1bU, 0xbe59f456be068bafU,
  0xbe0e68693cb41623U, 0x3d195fc0be19c646U, 0x3dfb22f1bbe2d0c4U, 0x3de1318c3e4e5e03U,
  0x3c36974e3a15f9efU, 0x3e518cfe3e39e1aeU, 0x3e18e2be3d71ba5aU, 0x3d97982ebe2582c1U,
  0x3db0a8083ca39319U, 0xbdef72ba3e20affaU, 0x3e6ce5323dcb6547U, 0x3d902dc4be5e2f21U,
  0xbe472f6abd96c165U, 0x3e2943593dc13b26U, 0xbcd00f2e3d090eb9U, 0xbe8c44d63df03fb6U,
  0xbdb32156bc68b1beU, 0x3e258d6f3d038bf2U, 0xbcb2b8cfbdf63c13U, 0x3e1bd05d3daeb378U,
  0x3c12ad0c3df2264eU, 0xbe9942763e6b9c0bU, 0x3e8e26e7bea66eebU, 0xbe144513bd2500dbU,
  0x3e04f9fa3e4f953eU, 0x3dc250a63e306583U, 0x3d0a4ccf3e20a772U, 0xbdc2e89b3ae9ffceU,
  0x3ccad2b93ea25db9U, 0x3d2cdffb3e394c65U, 0xb89a1be1bd06e1acU, 0x3e7227d6be0fe96fU,
  0x3d671c28be2a6e85U, 0xbe0ced9c3d96d71cU, 0xbdbda1a9bdea2466U, 0x3dfdac563d3876edU,
  0x3c23dd71be5a8061U, 0x3e1291a73d361c2cU, 0x3d4dc5b53e764ee2U, 0x3d76e0babc1cd8caU,
  0x3df2d9b3be28bba5U, 0xbd7239b9be28326bU, 0xbd64d1243e84b27eU, 0xbd95a0873e196907U,
  0x3e3f9b0c3db31594U, 0xbc17dad4be16e781U, 0xbd9a0c37bd722b22U, 0x3e2f964ebe210adbU,
  0xbdde574ebe2ba7e9U, 0xbb15f12f3e6305fdU, 0x3d39217f3d87aa15U, 0xbd0768f3be590cfcU,
  0xbe18be0dbcef3c09U, 0xbe4548b63da235e7U, 0xbe6602d6bdc5423eU, 0x3dc8272cbdabe1faU,
  0x3db674ea3d934c26U, 0xbdfa6c51bd32a5e5U, 0xbeb7cdedbe0f994dU, 0x3e0f94c23e3677bcU,
  0x3e21ca97bec45613U, 0x3ea22966be649344U, 0xbdf4b96b3c326b7fU, 0xbe151d2abd87f7b8U,
  0xbd36f50bbce07d52U, 0xbe1adf8f3e8a0ae5U, 0x3ad8553bbdb50757U, 0xbd2e81d1bebf3446U,
  0x3ca108f13d2a892aU, 0x3dc26ba1be1b03a6U, 0x3d39103e3c35546aU, 0xbe3491fabc21375bU,
  0xbe614d27be7747d7U, 0x3e15e24e3e1c7eecU, 0xbf5caf8a3b301f38U, 0x3d54eebbbda3dbc2U,
  0xbe79dfed3e9c3725U, 0x3d90b0663e83dd1aU, 0x3d934fd13c88d115U, 0x3e87d78c3cb90bb4U,
  0xbd93292cbdefe8f4U, 0x3a875a623d6577f7U, 0x3b182a31bdc101bcU, 0x3d95f37abe536595U,
  0xbd6739c23d929b65U, 0xbd98bddbbe8a83ecU, 0xbcb3ef183eb1087cU, 0xbe0499113e281d99U,
  0x3d8504c83e3bf1c4U, 0x3caa00453cc8b722U, 0xbf04a20c3e4c2463U, 0xbe3042fd3e02e7a6U,
  0xbd8b00efbe09fe0dU, 0xbdd616b6be1fa8bdU, 0x3cc88c0a3d7669c7U, 0xbdff4d0d3e835a1fU,
  0x3d1a299f3da73802U, 0x3d5766663e28d0caU, 0xbd627839bc8cd35bU, 0x3e21a1283d901e1aU,
  0x3e03a6ce3c8ae910U, 0x3e0e0dc83e70bc81U, 0xbdc6eeef3d8d129bU, 0x3d2cc354be1f718aU,
  0x3e304fa3be688a8aU, 0xbe19bf54be0b6fe6U, 0xbea66a4cbdd80126U, 0xbe123eaebdd779c4U,
  0xbe6d93323e81e7acU, 0x3e04a0a33e95aa9eU, 0x3e0b409f3d4da932U, 0x3e49ded33dc74d8eU,
  0xbe2f17ce3c6c60fdU, 0x399bcca6bca67aecU, 0xbd45176e3e058e75U, 0xbd8a4badbdfc4c38U,
  0xbc073c5a3cc07cd1U, 0xbea378f6be8c4203U, 0xbe165260be1e2243U, 0xbcf753663dfa3f87U,
  0xbd0bbc60bda0dbe2U, 0x3e08edc23e12bdb2U, 0xbeb00ada3d990f6aU, 0xbdbcbcf73e4da2d2U,
  0x3e1894a23eab5fa4U, 0xbd1ec329be4b08b8U, 0xbe0a0a0d3de11bfeU, 0xbe4c1540be30c831U,
  0x3b0437423d755b4cU, 0x3dbea2e2bd80061dU, 0xbcc6fd71bda49ca2U, 0x3d9d76de3d5ca7c5U,
  0x3df43582be084c69U, 0xbe4b0f59bed7d214U, 0xbd174ce9bdbd8bf1U, 0xbe97bd693c6d2dbbU,
  0xbe760bb4bdbe5294U, 0xbd5a4a17be53f37eU, 0x3e2a77053e0fbb73U, 0xbdd34d9a3de20290U,
  0xbe8a0b2ebe36d07dU, 0x3dd3eedbbdaa8ccbU, 0xbd9065163d468e8fU, 0xbd1370353d64030dU,
  0xbe00f0163e8d989dU, 0xbd200e9a3dc86bcaU, 0xbd676ada3db72eb9U, 0x3e4e290d3e25ee62U,
  0x3e0f6bb63af8d92fU, 0xbe9a532d3d22cc53U, 0x3d1a11dd3e95a6f7U, 0x3e3cc0e03e03079cU,
  0xbd32f2253e0f8729U, 0x3e13cd473e266730U, 0xbe252f113e77dd6dU, 0xbe0df2a73e0b4ea4U,
  0x3e360c8b3f0a3f65U, 0x3d4be94ebeb893ffU, 0x3dcf4c623def65f2U, 0xbe003f91be489ebeU,
  0x3e3249fbbe2cabedU, 0xbe2cf84bbe371bddU, 0xbd922e0c3d5d6e94U, 0x3dc2eaf33e5f57d4U,
  0xbe2e040d3dbf2145U, 0x3e9e80cebca44b76U, 0xbe92f1debdeebe8eU, 0xbeb8aa8c3de6e081U,
  0xbbdbf304bdfcf5a6U, 0xbcf030333ddc9d73U, 0x3ebbe6d3be14d030U, 0xbd8ba903be3e07bbU,
  0x3d64b906bcfa8e9cU, 0x3e6dd1a3be658e74U, 0xbb080fdebe132717U, 0x3c8b794d3e373361U,
  0xbdb5e0d03dc96a03U, 0xbe5e6cf23cbc511aU, 0xbcc36c113d5db5e7U, 0xbe4bf76d3daa79d4U,
  0x3d6dbe8f3d91ca31U, 0x3e4ecbe03dd8fb23U, 0x3dce03df3dbee98fU, 0xbc8ceaf9bd985af0U,
  0x3e1e2cd13d91f50cU, 0xbc17200f3d0b5ba2U, 0x3ebd517b3e6e117bU, 0x3cd68da0bdc0d5ccU,
  0x3e48938e3ebd7b02U, 0x3e61326bbdc628ebU, 0x3e0509a3bd716b65U, 0x3d814ed6be6c42caU,
  0x3dec87493d80e435U, 0x3e2a44063cfec69bU, 0xbdbadf6bbd9ab35eU, 0xbdf59ffd3da5ceecU,
  0xbd990edebd95523dU, 0xbe604effbcfca247U, 0x3dedd5443c3d7103U, 0x3c963e123d38c8c5U,
  0xbe4c8308be8c5226U, 0xbdd95e4a3dabcd0bU, 0xbeb0c9a4bc80cd7cU, 0xbe179a6ebe63acb6U,
  0x3a77024abeab4e9aU, 0xbea6a5ae3e557db6U, 0x3dadf7d83dc59feaU, 0xbcc2d5463e8ee67dU,
  0xbded3c233e953fb8U, 0x3ddf5365be37bcb5U, 0x3bca3b893d8a6661U, 0x3dd903ab3c533c8cU,
  0xbc529ecf3da85b94U, 0x3e8c7961bcfb968aU, 0x3e760bebbc484723U, 0xbe4d987abe0ddaa2U,
  0x3e76c406be886608U, 0x3e1cdf62be17ededU, 0x3ea7e62ebe267e49U, 0xbcb7014c3ddd97f8U,
  0x3db0e7dcbddad119U, 0xbb7d979cbeade4f6U, 0xbde724623d423c51U, 0x3e3fa2033e347a56U,
  0x3da87f3cbe41dbf6U, 0xbe02b7ab3e1304f9U, 0xbdf93beabc3f4ee8U, 0xbdc7c33b3ce2f144U,
  0xbdc8763d3d0aae75U, 0xbe275df0bd7559f5U, 0xbd8740b8bdaf7a2aU, 0x3d14bfd03d365c35U,
  0xbe6d8d093d14178bU, 0xbc8d025bbe2a5e2bU, 0xbd4f4e96be3e0ecfU, 0xbdf814dbbcb61abdU,
  0x3e54b5063e2a8724U, 0xbdbd3d20be406ebbU, 0x3df689a8bac20ac9U, 0xbe7484173dc01ac0U,
  0x3d8404913e88419eU, 0xbabcd850bcce590cU, 0x3cd45a51bd77d131U, 0xbe3c20d4bd3df530U,
  0xbe10ac4fbcf1c6bcU, 0xbeca7db3beade4e2U, 0xbd2b68723ba6a958U, 0xbe5a181c3df2de4eU,
  0x3d5300a4bca41362U, 0xbe2b4a49bd919af8U, 0xbefa71033d613c37U, 0xbe5b7d7e3ceb4deeU,
  0xbe1f895c3e911ae6U, 0xbe65e9de3b981ab3U, 0xbc8313633d60da6dU, 0x3e446e25bd76ace7U,
  0x3c39bc6a3e66f2c9U, 0xbd99d0dd3de423a6U, 0xbd9441943dc39aa6U, 0xbe39a250bd07a5deU,
  0xbda7d96f3cc9ea2bU, 0x3d9dda6d3dbe2c2dU, 0x3cbfac7db80674d1U, 0xbd60ca0dbe22dffaU,
  0x3e2d9e363cc2e3ccU, 0x3db67d98be3efbe2U, 0xbe5a9d6fbb8ebdb9U, 0xbd1efae23e15512dU,
  0xbe557a523e07a495U, 0x3d465b203e145fc8U, 0xbdf07b7ebda80ff4U, 0x3e496b023e2c87efU,
  0xbe33860e3dffbb96U, 0x3d8e5c96be15771cU, 0x3d83ac963d864bf3U, 0x3c7f95fe3e6615ecU,
  0xbdf79f7d3e0b3178U, 0xbeb2e9773da82fdcU, 0xbe4ad8df3e95480fU, 0x3dfb84a73e009608U,
  0xbea164e1bd089e08U, 0xbd5495773e3bf1d1U, 0xbecc09fb3e5b60e0U, 0xba979dbd3e58db3fU,
  0x3e6b57a03cf1856bU, 0x3df672c43e519638U, 0x3d62dd3fbd491ec8U, 0x3e8ad2f23e8438f5U,
  0xbc95df383e89441cU, 0xbdb1a4e43e09930bU, 0x3daac41dbbfec8bcU, 0xbd907ac93e3fbe27U,
  0x3dcce0133cb43cb0U, 0xbed030cfbe1ba5edU, 0xbdda69d6be9ec7acU, 0x3ea1a5003d4931b2U,
  0xbe201084be50d14aU, 0xbcacc468bde50f98U, 0xbec21f87be8fbc4dU, 0x3ded2b66ba877789U,
  0xbe6bae2fbe92a757U, 0xbe56897dbddad9d8U, 0xbe157de5bcd5561cU, 0x3e4484d83dfd486bU,
  0xbe04848bbd085c05U, 0xbdccc2813dc0f44bU, 0x3d635da73d19603aU, 0x3dce9813bce9aecdU,
  0x3df5d55e3cc671c5U, 0x3ddd388cbe5d706dU, 0x3e7e1b7abdd2e321U, 0x3d9d137abc018fb7U,
  0xbe950c3bbdeec18dU, 0x3ddc7c53bb81844dU, 0x3c9639f83e890c19U, 0xbe1d9e1f3e4eb502U,
  0x3e2cd516be2469e1U, 0x3ca86f643ad6ec15U, 0x3d02297b3dafa461U, 0xbe12d8513cb63015U,
  0x3e7181853ddf6539U, 0xbdde50d4bdc395a7U, 0xbd0a1afb3d8e5d54U, 0x3e1168e43dee51abU,
  0x3bebe15abc33b4c3U, 0xbebd64293e3b40a9U, 0xbd042ea0be7e55e3U, 0x3e882325bdc5ae8eU,
  0xbe0966fdbdac7df0U, 0xbd09a8f53e1f260cU, 0xbe0d74da3e90f7d5U, 0xbd2939acbb7bf509U,
  0xbe299ef43e7aa6f0U, 0x3d4c4511bd0f1001U, 0xbdb489dcbc6aa741U, 0x3daf16f1be219e6dU,
  0x3e1c4067bd69e7caU, 0xbe2ed3e93e9e27c7U, 0x3d28278a3d873d9eU, 0xbd9e487f3e915610U,
  0x3d97c7b5be087311U, 0xbea4cec43e7f5031U, 0xbd96b696be8d3528U, 0x3e85db4e3e17672aU,
  0xbe14f8e23d5572ecU, 0xbd3bb0dbbc0f9312U, 0x3e99cd703ea10609U, 0xbe37b6913e66fc2aU,
  0x3e8cb1583ec290e1U, 0xbe1e18a93e62aa75U, 0x3d086b61bd90d711U, 0x3a045bbd3e220433U,
  0x3cb810443e60bf07U, 0x3d8f87573ce2677eU, 0x3da808513db259d4U, 0xbd324ea3be1513d1U,
  0xbd83cae7be32f961U, 0xbe879c853de9fe5aU, 0xbe57b257bddc1bcdU, 0xbe7e162bbe0b632cU,
  0xbdea4d9f3e0b8fbeU, 0x3e1d3c6f3d4a4aeaU, 0xbecb0e3cbd863b77U, 0x3dc34da3be2a3e3eU,
  0xbda5c57a3e5cf038U, 0xbc0074813dad037aU, 0xbdfdc1533df10844U, 0x3e263c523e377388U,
  0xbe3bdca2bcdc3344U, 0x3c23c82dbe3bed90U, 0x3cd03006be1a43caU, 0xbe5c7e183d4c85a0U,
  0xbdc2790f3d8f064dU, 0xbe372753be0e897eU, 0x3dc6e913be4330cbU, 0x3eb2fd7fbdba965bU,
  0x3dbd8920be529196U, 0xbe347ae2bcdd5ba9U, 0xbea72eec3e07b84aU, 0x3e171026bde632e4U,
  0x3e15c1fa3e8ba94dU, 0x3e9996b9bdb9fbecU, 0x3dfb8f633e01fff5U, 0x3dedd97ebdbab09cU,
  0xbc991ba6be3b1df8U, 0x3d8857f8be7d215eU, 0x3d0ffc183c515b0dU, 0x3da169623d08a212U,
  0xbe122b473e1b9eecU, 0x3ec6c1a0be347c99U, 0xbd01065a3e24e399U, 0x3e9201643d99bdafU,
  0xbd17096c3d7d8b90U, 0xbd6e2bd43d5c1b8bU, 0x3d471655be8435e6U, 0xbe065afc3ddefc03U,
  0x3e3c6565bedd695aU, 0xbe45a7ed3b8709c2U, 0xbd8f823abd2a22f3U, 0xbd99d7efbe2f5907U,
  0x3d4d42843dbbe697U, 0xbde95bbfbe8385a1U, 0x3e18af1b3df0de7bU, 0xbbab6d25bda84bb2U,
  0xbd346d7ebdccc4f0U, 0x3ec378bdbb897f1bU, 0x3cd6b7dc3e1bd9f7U, 0x3e8f7b5abd30eb52U,
  0xbe5c68193c3964a0U, 0xbe4130d43d4c4529U, 0x3e9f5b193e09b82cU, 0x3d6e2b77be45516eU,
  0x3e48a51b3e5853d7U, 0x3e9e24393d38c6edU, 0x3d92b7a2bdfa15a2U, 0xbd5e5aa83e4cde15U,
  0xbcfbab48bd8785ccU, 0x3e1b708abe62f4e6U, 0x3cf11a9abdf9a50fU, 0xbc714b0cbd63b34cU,
  0xbd20e1243d0e8f0bU, 0xbb976cc2bd62d5b1U, 0x3d9ba2ca3d84058bU, 0xbe5acf153e670d80U,
  0xbdb8d00a3e04d610U, 0xbdca7731be207151U, 0xbe598ab23e3374d9U, 0x3ddc21363e390c7bU,
  0x3e8593883e9d6bbbU, 0x3e6afa163eba8e64U, 0x3df02fcb3d092e94U, 0x3e6ff1b4be440531U,
  0x3e62de253e38737aU, 0xbdc90af9be86d19bU, 0xbd9bc039bd51a01dU, 0x3d93cdcf3e37222eU,
  0xbda204973e03420dU, 0x3e103f6fbe879fd3U, 0xbc9f93ccbe969060U, 0xbd962058bd24d11cU,
  0xbe1fc0883e270a67U, 0xbe48775ebe1415e1U, 0xbd317943bc516270U, 0x3e2db9c53e31911bU,
  0x3e7ea397be903e39U, 0xbdc7797bbe0e7b50U, 0x3e0c835a3ae5c0acU, 0x3e3f7726be7b02b9U,
  0xbc9d97833e86bf6dU, 0xbe0ff11c3d6e1dffU, 0xbda93b903cb2bc4bU, 0x3c3377a33e8e61f6U,
  0x3cc8a2c43d1971edU, 0x3eb670b83d460f0aU, 0x3db08e0c3d4a4934U, 0x3c07748ebe002e68U,
  0x3e9a03c73d63b59bU, 0x3e437c59be25fc63U, 0x3e400f713e5a2f8eU, 0x3c68f91d3e1d0e58U,
  0x3dd8ddbb3cd42a66U, 0xbd5a79243ea47288U, 0x3e0ad68d3d0fa570U, 0xbe4ab8cd3e41d675U,
  0xbc9f149e3e4f61ddU, 0x3de9e0b33e80e265U, 0x3db745763e215cdcU, 0xbdc699bb3d8981f1U,
  0x3dfd58403cce2844U, 0x3ed1843cbd09cde6U, 0x3db63dc03e497e4dU, 0x3ea9bd023d93f126U,
  0xbe5d3b9bbceb3844U, 0xbdd071d4bc9fc208U, 0xbdf3d22a3d940044U, 0x3daef6fe3c9663bbU,
  0xbe74a1b6baf1ee59U, 0xbe94881dbc967f50U, 0xbd15970e3c898333U, 0xbb32278c3e4219d7U,
  0xbd06c39e3ad7f28eU, 0x3e225ba6bde2d849U, 0x3d3bd9fe3da6aed1U, 0xbe1c1e573dbbd8f1U,
  0xbc7c93293d6e5fb5U, 0x3d15f9363d0722f6U, 0xbe3b35d43e987469U, 0xbd17ade9bdd52d49U,
  0x3eb4f5f9be1f6c13U, 0xbe2a49b63e4fca38U, 0xbe170444be609249U, 0xbe2283a8be6a1238U,
  0x3e097184bf01fcefU, 0x3dd4fb51bdf076b9U, 0x3d53821238f32856U, 0xbe2e5d6bbe8f7b87U,
  0xbd0ad807be68b59fU, 0x3df37e873e1b2cd1U, 0x3df38b2f3d53793bU, 0xbd3a8da8bd9dd11dU,
  0x3d373f1b3e0470b4U, 0x3e3a8904be6c8924U, 0x3cb38ecebe87f367U, 0x3d6f91393d206d6aU,
  0xbe3a9c543d466f9fU, 0x3dd50858be0102b4U, 0x3ee563a6be12b449U, 0xbd7874c0be0e56f8U,
  0x3dfb0c763ec51c64U, 0x3d921976be6b2617U, 0xbd006281bd863a25U, 0x3e651578bdcf3052U,
  0x3e1aede0be7fdaacU, 0xbe0819ed3d04ac01U, 0xbd1add0f3d28593bU, 0x3c8eea7fbdde13d8U,
  0xbc90fc1bbc172b54U, 0xbe64b34d3e424bc4U, 0x3e1e0d7dbddd7d20U, 0xbe8d59c33dd9ab8cU,
  0x3e9a0906bc8a203dU, 0xbba472293de01fa6U, 0x3ed33a693cb7caaaU, 0xbdbd0a0e3e17a17cU,
  0x3ce6e34e3e92f910U, 0xbdb0bdabbe70de6dU, 0xbda25be7bc72f0daU, 0x3e85c0e23e24b522U,
  0x3ce9dea83e159c15U, 0xbdf28bb63e2c86cdU, 0x3da3b4123c58d622U, 0xbb0ca7533df88952U,
  0xbe1aea51be1c2ed8U, 0xbe0e81f1be28ebc2U, 0x3e1967113e0ab67fU, 0xbe8af708bd5dc92fU,
  0x3e00e4293e10aa16U, 0x3d6561ec3e41a06bU, 0x3f15d8e4be424543U, 0xbe18fd153e2b7fbbU,
  0xbe125c733e1a0b80U, 0x3dcf1aa13e6dbae0U, 0x3c9e0c393d8ff06fU, 0xbe1e86b4396798c7U,
  0xbd5ca794bdeee198U, 0x3e0e71093e57e1cfU, 0xbc8e8eb6bd2ae3beU, 0x3e08143c3dbe84e5U,
  0x3da478793c40ee98U, 0x3df5b6c1bc9c3509U, 0xbe0416923da6933aU, 0xbeae21aabe29a99fU,
  0x3e65fe1d3e49bf5aU, 0x3dc048da3cd7499cU, 0x3d748c3c3e9cc30aU, 0x3c30814a3d06a7b9U,
  0x3e339470be2c8ca8U, 0xbd77fef6bdff4b60U, 0x3cd4dd3a3b10ff1bU, 0x3e9083793d9b0b77U,
  0x3e1710afbeaed1b8U, 0xbd9d5432bcddc518U, 0xbdf8f49ebe0968f6U, 0xbdfe6dd5bdaa6a87U,
  0xbdd09298be1f8c5bU, 0xbd4c3a3dbcebf82aU, 0x3d935613bdc4dea4U, 0xbe2677a63c47f7feU,
  0xbea628103e22d6dfU, 0x3c1c86cf3c1216f5U, 0x3e8f6c3a3cbe1ae9U, 0xbda3ec44bda609c5U,
  0xbe2fbb27be120409U, 0xbce1318c3e419da0U, 0xbc9214fbbdb2ac0dU, 0xbd566591be067cd6U,
  0xbcadf981beae574eU, 0x3e3df36b3d46c3c9U, 0x3ccdc2b73c61a25eU, 0xbde35386bd822b63U,
  0x3ddc5a66be2df2cfU, 0x3e54f32cbe7cc764U, 0xbcb6dd653e3f31b6U, 0x3ea65f86bd92ebfdU,
  0x3e57887dbe9ae89bU, 0xbd890d2fbe3c7316U, 0x3da94a8f3e54d4bdU, 0xbe10b81b3e4fe3efU,
  0xbe6b7f41bc914b9aU, 0x3e30538bbe69e703U, 0x3ccbf5e6bdf0c969U, 0x3e08e55abdb7d7c6U,
  0xbd6a7813bd18b4daU, 0xbddcd6353e1921feU, 0xbdc91dc63dcbb334U, 0x3e4d75053e0dac86U,
  0xbcf24bc23df36616U, 0x3e9cac853dbd1f3aU, 0xbdae12eabe1a3f0aU, 0xbe2083783cf7b13bU,
  0xbd726adf3e4f30faU, 0x3e0b3d1ebe1963c4U, 0xbdff320dbe2240bcU, 0xbe1c70eebd0beecfU,
  0x3e35be88be6b5099U, 0xbe94cbefbd370abcU, 0xbda9eb9f3c430727U, 0xbda1309bbd00551bU,
  0x3de4c0173dfae5a5U, 0x3c31966d3e87bf2aU, 0xbd439dd0bd2613adU, 0x3e3ce2823d2dcfa0U,
  0x3da606bfbd8424c0U, 0x3e13de20bd4b66f3U, 0xbe8473e3be8b7fbeU, 0xbccc3a0f3d9213efU,
  0x3e1dafd13e68d8efU, 0xbdbe8b853d35162eU, 0xbdfd8443be5723d1U, 0x3ca802ccbc9d79afU,
  0xbd1b9f62bec2311bU, 0x3e3f5d8dbe3482e8U, 0x3ac0925abdacb9e1U, 0x3e76cc95bd936694U,
  0x3d1f250bbd91cc7eU, 0xbdb2b5b33e618aecU, 0x3dcdef86bde3354bU, 0xbe1e20e3bceff170U,
  0x3dcd55cb3d7fcc30U, 0xbdfdbb5ebd2444e0U, 0xbe922cad3e0a479eU, 0x3ed056a0be65f8afU,
  0x3cf915babe532d04U, 0xbe5d2ab0be0e82c1U, 0xbec04ba4be996877U, 0x3d9b6ed93c4114c3U,
  0xbe9093f93e11507aU, 0x3d5dfeeebeb02056U, 0xbe0573f33cf8d8d9U, 0x3e5b4f983d0814e8U,
  0xbe1a5bdc3d428032U, 0xbdd750d73e1ef5b9U, 0x3db23349be1764beU, 0xbdf1e01d3e8e96f5U,
  0x3dff403e3c9c2830U, 0xbe5b74293e48362cU, 0x3e38ac753e36be0eU, 0x3caeb1683df96f71U,
  0x3e290e1a3e5bd4f0U, 0xbe11de64bcfef76cU, 0x3e81da39bde7a697U, 0xbe11d1503e21e176U,
  0x3d7c0d71be8f6f6cU, 0x3e80d01b3e6815a2U, 0xbe25ef2b3e00c243U, 0x3e281c2cbe22422cU,
  0x3d37b92bbdb53c34U, 0x3d411992beacfb81U, 0xbe048c9b3ddb5eb0U, 0xbd8f6646bdf16c03U,
  0xbe2af9243c8b3067U, 0x3eba60333e1cc6c8U, 0xbd3f207cbe702971U, 0x3da78b88be23137aU,
  0x3e374c0abe527fb9U, 0xbd704db4bcb2a6a4U, 0xbea269ad3c9a2fe1U, 0x3da337223db05028U,
  0xbe10b36e3d1cc2cdU, 0xbe44f45d3d3ab183U, 0xbe078dc9bc4cd052U, 0x3d38ede0bddd28feU,
  0xbe604a183e092ff2U, 0xbdbcd2f0be049712U, 0x3da58991bd999deeU, 0xbe1b9d78be2b6cf5U,
  0xbd30e212bc44e816U, 0x3edb306dbe11662cU, 0xbe0e956c3c84d801U, 0xbe4b6377be58ed11U,
  0xbd4698d2bd301a35U, 0x3e35f3623e1841ebU, 0xbdb09e2b3c93d786U, 0xbdfb3d213d528925U,
  0x3e80481cbd06e1d7U, 0x3e22d3b03de78945U, 0x3d846303bda9e8b7U, 0xbea478493e9a8124U,
  0x3ddb3d6c3dab1676U, 0xbc03139e3c1f13e6U, 0xbcfd535d3d69535bU, 0x3d5930e33d0c4053U,
  0x3db0930bbd9696efU, 0x3e49a412beabbe68U, 0xbc82e645be633feaU, 0xbe2e60cebe548c29U,
  0x3dbbd2453d5db196U, 0xbbe248cb3e26b67bU, 0xbefb35a2bdd9f5c7U, 0xbbef708fbe5b6ab6U,
  0xbdbbcd813e2511dfU, 0x3de9022bbd832320U, 0xbd7bdad4bdbe5a71U, 0x3e7a777bbe1c2891U,
  0xbdd56016bd5dda62U, 0x3c8a81a7be4f6d22U, 0x3d98d0423dd8bcebU, 0xbc93f43cbd97f99eU,
  0xbe28e8cc3d171509U, 0x3bf3ab0b3e1e68d7U, 0x3cedb79d3ed481e9U, 0x3e880a883e25ad02U,
  0xbd1e45693e0a62a7U, 0xbe0d9fe13e1512edU, 0xbf07c621bd35b040U, 0x3de232f43ddc02a1U,
  0xbe0cfa203ec2fe7eU, 0x3e7fcb45be06a529U, 0x3e2ad8de3df9f229U, 0xbda2bc1ebe0d63cfU,
  0x3e1184e1be98fbe5U, 0xbce426b1be964ea6U, 0x3e18a674bd5964faU, 0xbdfb63b2bdf33de6U,
  0x3d9316bc3dc386adU, 0x3e42b5f7be97d3c2U, 0xbd5d2651be1cfad5U, 0x3e8480713d431e1eU,
  0xbd5350f9be334980U, 0x3d9bedeabdcabfaaU, 0x3e82489ebe471526U, 0xbe2fb125be1f0176U,
  0xbe1fda9cbe81599dU, 0x3ea57df53e5b952cU, 0x3d383f463d8ce10dU, 0x3d862ccabcbe3fcdU,
  0xbc1253f03e654677U, 0xbe965fdbbd9033d0U, 0x3e138163bd92b54aU, 0xbd93c107be6d77bbU,
  0xbe13faa7bccd4163U, 0xbbb360dabd136650U, 0xbdffc9c43eae11b5U, 0x3ca1394bbd32e770U,
  0xbe418591be6d44b2U, 0xbe04550a3e0af7c5U, 0x3e022085be818831U, 0x3d104dfbbe05511aU,
  0xbd14c2a9be97d14bU, 0xbbbe72b53e7e40e5U, 0x3dbe484bbd02f841U, 0x3e8c445ebdbfe688U,
  0xbe2a548ebe2feef5U, 0x3d83bb01be9885d2U, 0xbd98cc77bd9cf429U, 0xbe5a0b0abc57ebffU,
  0x3ca5baecbb9fa2d2U, 0x3e65e660be89a0c1U, 0xbe60bd9dbe977b72U, 0xbe824e3e3e306715U,
  0x3e8903583dd51844U, 0x3aa781c23e3fe07cU, 0x3e9a0aafbd032d1aU, 0x3d0bea593debf6cdU,
  0xbe85784cbe9bacdfU, 0x3e609c67bdc780a5U, 0x3c29e9253dd988d8U, 0x3e6a65c03d054655U,
  0x3d100cf73e14b2e8U, 0xbe3daad1bb138481U, 0xbd1a31813d828495U, 0x3d963b243dc57c7fU,
  0xbd1f8d8cbce2d945U, 0xbd12f3b1bd3b7621U, 0x3e05e545bcf4be93U, 0xbe863d6bbd9a60f0U,
  0x3e815e763e3f0e1dU, 0xbe507022bd7ca900U, 0xbda100c8bdba379bU, 0x3da9943fbacebee1U,
  0xbb3024923e0a9a6fU, 0x3d49915dbe924b53U, 0x3bc281e5bd7cc179U, 0x3dadb7efbda13027U,
  0xbde87e863db529d7U, 0x3dfe4254bd08c9c8U, 0xbdcb3481bd58f4a9U, 0xbe3798943e146b0aU,
  0x3cc2ce7dbd90947fU, 0xbd7365c03e010276U, 0xbe4c6b5c3e7f2c86U, 0xbe66c586be5d1330U,
  0xbe73ac5fbda02becU, 0xbe1a80a4be611410U, 0x3ecd08dc3e923bb2U, 0x3e1fe9d33c8a98c3U,
  0x3e32cb09be0a840aU, 0x3e4db11dbe0aeae9U, 0xbc2f477a3db3030cU, 0xbe578d4bbe3e0f4fU,
  0xbe0e07aebdbb50daU, 0x3e5debbebe630678U, 0x3b56acc23e1f7d9aU, 0x3e182d413d926f99U,
  0x3d6f9836bda2c6a3U, 0x3ebdd4c7be16ba8aU, 0x3e44f0d8be61433bU, 0x3e042f6c3d2e625fU,
  0xbe79b8203dbb1b6fU, 0x3d84deb4bd41653cU, 0xbe6065e5be7033b3U, 0x3c96ddd13c94af65U,
  0xbd7d78633d7b90c2U, 0xbe5c022c3c976f9aU, 0xbcbc6dde3cec7fc4U, 0x3e26295b3e3c3a34U,
  0xbd86cc273df7cf2eU, 0xbdc4eedc3ea68b36U, 0x3db59e623c6f6657U, 0xbe03fa13bc4c8fdeU,
  0xbde1544ebd5cb322U, 0x3d862c52be6441d1U, 0xbd80450a3c067cfcU, 0x3e10f6f5bd7bf5d0U,
  0x3e8f4fe23d0cce38U, 0xbc59a8473db43aa6U, 0x3d22a2f63df661acU, 0xbdf9f0283d2a454eU,
  0xbd2a0acabe4edc54U, 0x3e0df7a53e15a6a7U, 0xbdcbc435bd3a99acU, 0xbe52d0703e3fe2f1U,
  0xbe236aab3cf1614aU, 0xbda5604bbd7a8191U, 0xbdf76193bd30f8f6U, 0xbd8e6a4b3e63fad3U,
  0x3e11ad8c3d1e876bU, 0xbe4e61143e92bb07U, 0x3d98b4f23deaf96dU, 0x3e507073bd4a959dU,
  0xbd6cb5d8bdf45284U, 0x3e13fbea3dd174e6U, 0xbdc3bb44bbd84ceeU, 0xbbaf12183e500287U,
  0x3e0a8e9d3eeab579U, 0xbe2226d93db3de16U, 0x3db9adb63d78b9d5U, 0x3e24926dbca54cceU,
  0xbcaee58d3e845266U, 0x3b7672513e6ea565U, 0x3dc1490c3dc24312U, 0xbc8fc142bc25f9e4U,
  0x3d117921bd36cc7fU, 0xbe533c4fbe013feaU, 0xbe6f14a2bc0d2b3dU, 0x3e39224c3e0d11eeU,
  0x3e0bb828be7735a0U, 0xbd92995fbe4a21e8U, 0x3df1e7c9bd513badU, 0x3e0d02583ddbe7d7U,
  0xbdfc149c3e10e4a4U, 0x3e229d9d3e028fd3U, 0xbc76ddd7bc6b205eU, 0x3ea84874be4f63aeU,
  0xbd880ff5be1cd854U, 0x3d301b0abdfbc32fU, 0xbe0657f03cb7d6caU, 0xbe2b981fbe0c725eU,
  0x3e0f11f93d8de65bU, 0x3e03d77c3e23af1aU, 0x3e461eb8bdb4f67cU, 0xbe8f9129bdaa1805U,
  0x3e2018e23c8c75d6U, 0xbdb55e953d87dc3aU, 0x3e0af18bbd17fb5bU, 0xbd93a5e9be0b0199U,
  0x3bd2437e3e8e7bc4U, 0x3e5b728a3e941c32U, 0x3b322e463dacb27dU, 0x3ea63a52be8df3feU,
  0xbe19336f3d9873d3U, 0xbc96cbcd3da92574U, 0xbd8520c0b9088b76U, 0x3d978460be3e3b47U,
  0x3de747afbe06dfe7U, 0x3d1d7448be2859deU, 0x3cdaf9e63df7f667U, 0x3e377a973d036967U,
  0xbe535d9a3c6b285cU, 0xbe316fc1bcddecc1U, 0xbed02635bdbf2778U, 0x3d9ed92d3e18670aU,
  0x3e6d258cbe3e10b7U, 0xbd8aee9cbea4b268U, 0xbe0fb413bc257468U, 0x3d7767ee3db105bbU,
  0x3da65b35bd874f72U, 0x3df3c9d03de664ecU, 0x3d926dcdbce4ab25U, 0xbd0bcd24be88ed0fU,
  0x3dfb55e73e155ef6U, 0xbd04a2663bbe823eU, 0xbe4558c63e61ebbbU, 0xbe5f03223e2ff78bU,
  0xbe42baa23dc3aec8U, 0x3e4af3ee3ddbd52aU, 0xbe14b7a03e2cd9feU, 0xbdfd3850be1a12b0U,
  0x3d8092b2bee1c013U, 0xbdf1d0bebebb6326U, 0x3dd6c118bbf08be9U, 0x3d971839be7e83c8U,
  0xbcef307ebe06f06cU, 0xbe00a2613e95bae8U, 0xbd88c1333dda5371U, 0x3d367b2c3da4d090U,
  0xbdf164babe24d753U, 0xbd3e58023e886574U, 0xb98e6b6cbe680764U, 0xbe650f23bd94abbfU,
  0xbce0db24be5577f3U, 0xbdce90223df08428U, 0x3e74fc7ebe8cbbc3U, 0x3d9df48f3e3699eaU,
  0x3de3d18d3e372977U, 0x3ec1ffd9bd4b1aa2U, 0xbdea4a1bbd3be582U, 0x3da49364be1d4bdbU,
  0x3dd1c033bd83b2b5U, 0x3d84f0f0be04719cU, 0x3e0251683cbac360U, 0x3dfa05b63ea0d7b7U,
  0xbd6c2dec3d049226U, 0x3d80489f3e808d61U, 0xbc3cbb5e3e880603U, 0xbe01b6fdbe10e54cU,
  0x3da9393bbdff6732U, 0xbd8da971bbd752d4U, 0x3eaecc42bdebd880U, 0x3db9c9933d2cf97cU,
  0xbe3b730a3e991624U, 0x3e86381d3da2aa21U, 0x3deb57dfbd70b6afU, 0x3e13ccbb3bc2ea52U,
  0x3d886243be27dbbbU, 0x3d848a79bd6bcdd9U, 0x3d85b758bd9844f0U, 0x3e0ec4db3dc8e7ceU,
  0x3d8070d0be3f33cbU, 0xbb4ca8cdbd25267cU, 0x3e7c5c4a3e32d2ffU, 0xbe46506d3d089e22U,
  0xbe4d1a893e0461f2U, 0x3e446d3fbd6a9758U, 0x3e22c400bd6a92dfU, 0xbdbf415cbe425f4eU,
  0xbe2aa8ba3eb67b77U, 0xbe5a9fa23e03f36dU, 0xbde5fa3cbce68af7U, 0x3e80e74d3ead788aU,
  0xbd006f1ebe7c1eddU, 0xbd2dcf9b3e596c30U, 0xbd9e2a6b3d752187U, 0x3d927b403e190bd7U,
  0xbc2c9895bd5a4d69U, 0xbe7ada7cbec7bd10U, 0x3e30d0723d2cc8f8U, 0x3e6fb185bda8087aU,
  0x3d8dc2b73e5a085cU, 0x3e1bed92be28866dU, 0xbe3147133e41fea0U, 0x3cac93c0be2345e8U,
  0xbdee59bbbe897eddU, 0xbe4be871be89c219U, 0x3d7b7142bdc015d9U, 0x3e59efde3e53d9d0U,
  0xbe418873be79cc8cU, 0x3c4f0c3abdf52a4bU, 0x3e047830bdb4633dU, 0xbe221aacbce271fcU,
  0xbd658bf7be11d404U, 0x3d8476483c8e3c5aU, 0x3e7cb6f33ea54a9cU, 0x3e7fa377bc44a2bbU,
  0x3e1095233db33d54U, 0x3e191d20be2860e2U, 0xbd8842d93d7507feU, 0xbde6956e3e5a9f86U,
  0x3dc681aabdc815c0U, 0xb8a1c31fbcd32c46U, 0x3dcf506fbd9195a5U, 0xbc7683fb3e72aa55U,
  0x3e3f725bbe88e4c2U, 0x3d51b5e7bda02200U, 0x3d0aafc1bcf66cbfU, 0xbe48fdcdbe205774U,
  0x3e0ed933bcf0d405U, 0x3e4a335dbd442580U, 0xbda7ee0ebe702dc8U, 0x3ea9cd1ebddc36ddU,
  0x3e66932f3e5d250dU, 0x3d89edd83e5a8863U, 0x3e7a51eebe731de7U, 0x3da3f48ebd00fe08U,
  0x3e3793173df49acfU, 0x3e5b473ebe797b0bU, 0x3d592ec43db27f12U, 0xbdef24d13e27509dU,
  0xbddf73533d64a2a1U, 0x3e37ffdc3db2a23eU, 0x3df7de0bbe063f14U, 0x3e5c6bd7be2b16d6U,
  0x3e302d933cad3fa3U, 0x3ea144ccbe01de36U, 0xbcb4c112be977ab5U, 0x3ea17cc3bd0eeb16U,
  0x3e4402433e094d33U, 0x3e421bd1be2cf6ccU, 0x3e2e8da4be5bc11bU, 0x3c42702abe4fe63fU,
  0xbde2ba393d1e7f19U, 0x3d9f7e7c3de758b4U, 0xbbf9d4cebd9c8119U, 0xbde64e48be88d86aU,
  0x3d42e327bd8d26ddU, 0x3e1ef2553df7f6bbU, 0x3adb1c77bc771857U, 0x3db5d89b3d321540U,
  0x3d5ba3ab3e51b7c8U, 0xbb350207be33fb61U, 0x3dd3c17abe821cc9U, 0x3e0d9b623e19749cU,
  0xbdb5f8b3be37a652U, 0x3e2f545d3e30b5acU, 0xbe96e739bd85b647U, 0xbac5977fbe00caabU,
  0x3dc78ac03d730620U, 0x3d27bfe1bdc7f7f7U, 0x3c6e1aa93c063badU, 0x3dce193f3e137bc9U,
  0x3db1a2dcbdd610cfU, 0xbe57c8b2bec4d7cbU, 0xbb968693bccbf9d9U, 0x3e0b03e13d89b52fU,
  0x3cfe7b40bdec7dd5U, 0xbeb4070dbe8e81bfU, 0x3e479092be63b6e4U, 0x3e9190553dc1824cU,
  0x3b5b04883e59b0e0U, 0xbc80c32cbd7371f1U, 0x3ed9dd0abd9376a4U, 0xbdce89b3be43c900U,
  0xbe392ff6be256bd3U, 0x3e0392a03df65d41U, 0x3d518a29bdf5d916U, 0xbde2330b3e99eb9dU,
  0x3c31f5fdbd544003U, 0xbdaf1158bec23a85U, 0x3d7c2823bcc93e14U, 0xbe41357e3e45dcddU,
  0x3dfdce0e3a325c1dU, 0x3e3c2c4dbd416f9aU, 0xbdd20379bec93184U, 0x3e18687ebc6221e8U,
  0x3e2396ed3e8bdd73U, 0xbdb9fea7be5e5f9fU, 0x3e9a2b1cbe6d1ddbU, 0x3da0b3063dd9d68bU,
  0xbd7867053e669463U, 0x3e0f53c6bda0c33fU, 0x3dc40aa53d938a7bU, 0x3e3b91293e058a8bU,
  0x3da866f0bce0e064U, 0xbd07dba0bddbb206U, 0x3db1229cbcceceedU, 0x3dac9172be70a9a1U,
  0x3dec0bf8bde2b31cU, 0xbd2a99503da0060eU, 0xbde3916cbec709ebU, 0x3e84073c3e0cc3c1U,
  0x3d33e6803e3c6145U, 0x3d0019ea3d303971U, 0x3e82d404be4dc608U, 0xbdc7e742bcc9da2dU,
  0x3e6b2f243e512f6cU, 0xbd0d0ffcbea9ffc1U, 0xbda12fe43d8c61c8U, 0xbd988cff3dfaa390U,
  0x3e172f7a3c9fa63dU, 0x3d1e8128bd98070dU, 0x3da26b60bb2448b0U, 0xbd3f5f853e22c4ceU,
  0x3dacdd05be280710U, 0x3c1106a5be7fde7cU, 0x3e486aafbe0d4dfaU, 0x3dfd632a3e003a3aU,
  0x3bfcae90bd4f00f7U, 0xbe1cd8233deb6137U, 0x3e119f2d3bb1e0d0U, 0x3e05efd4bd092121U,
  0xbc8d35b6bdacc96eU, 0xbe789147bda6feb8U, 0xbe14de163db2fea6U, 0x3de113413da10b0bU,
  0xbe0ac3d13cd5046cU, 0xbcbe768c3e651598U, 0x3d5652d93d9e80d6U, 0x3e1c9638be6d1809U,
  0x3ce03ce0bcb4a14fU, 0xbdf1e6523d2e8399U, 0x3d9df3bdbc9c21b8U, 0xbe888582bdb5d28fU,
  0x3d05c42c3d8465e9U, 0x3e0d7886be6506e1U, 0xbe98a0823dc56a06U, 0x3d8916cbbc335015U,
  0xbd35e9a7be363a99U, 0xbebc00e43e4eaaa6U, 0xbda09eab3dc3c5c6U, 0xbe4e48683e72ca56U,
  0x3e2c74af3daf32dbU, 0x3bd06cdebd324507U, 0xbe01b8e4be032594U, 0xbaeb9057bcbc4d21U,
  0x3dfcbae7bdcee3bbU, 0x3d3d54dd3e4deaa6U, 0x3e3f92183e913ba4U, 0x3d8171acbe2d41c1U,
  0x3e934e703e086b02U, 0x3da2e994bd14f40fU, 0xbdad0555be341e01U, 0xbcf603dbbce340d6U,
  0x3e2f70043e027ec7U, 0xbe91b3af3cbfd5f5U, 0xbdce3985bdf2f2cbU, 0xbe8e490bbe35d4c2U,
  0xbde857413e1ae7cbU, 0xbe0d03bcbe457079U, 0xbd82f4323d184eb4U, 0xbda9ed893e291dc0U,
  0x3ceb9348be57ac8aU, 0x3e06b8d63e662740U, 0xbe0dcb42be5b6b45U, 0x3dae766dbd0ede69U,
  0xbe833abab9ed5288U, 0x3b6361c83e48fdaeU, 0x3ee347923c665011U, 0xbb88a542be6f592eU,
  0xbe5980f1be843ed2U, 0xbe98138ebe9e1374U, 0xbd9d24683c1b4372U, 0x3dbea8e73e86d14aU,
  0x3d024ebdbe3d62d6U, 0x3b5440513e4a7b71U, 0x3de2254f3da0f8ccU, 0x3db42b273e20916dU,
  0x3e154168be0958d8U, 0xbe7c22323e8a5d3cU, 0x3e554862be288c1bU, 0xbe8ebc023e4263c7U,
  0x3e3e58f53e84260eU, 0x3adccedf3e14c5daU, 0x3e111d323e80ace5U, 0x3afeb2a3bdf96389U,
  0x3e3320d63e616ad6U, 0x3e3c9a3a3d03591fU, 0x3cca0fbf3dbfdc44U, 0x3daabe4b3e89698bU,
  0x3de762833e82081eU, 0x3caad358bc66604eU, 0x3c975d07bcb373a3U, 0x3db777453dbea97aU,
  0x3cf8dfee3d74739bU, 0xbe8fdeb3be7b4b92U, 0xbe20af2fbea22886U, 0xbe411a3ebb95b4c5U,
  0x3e35dec3be790303U, 0x3cc86b77bdadda4dU, 0x3eb967fdbe26df50U, 0x3d2c8b68bdaeafdaU,
  0x3d60ccb03d49b7e9U, 0xbe62a4afbe0d6c48U, 0xbc4942adbdbc7ad5U, 0x3e6352573e3deb06U,
  0x3bed31c53d845614U, 0xbdad564bbe63eeeaU, 0x3c1d4fdf3d0f891fU, 0xbdaca812bdae7608U,
  0x3e04406e3db5aeffU, 0xbe80e006be84acf5U, 0x3e81c252be11a026U, 0xbc86a16bbe24dcceU,
  0xbd86e633be2e6447U, 0x3c41feabbdac2710U, 0xbe23f3dd3ea6819cU, 0xbd9886823e460048U,
  0x3dc9aeb63e52055aU, 0xbcb26566be24a76bU, 0x3c3c3643bbe6b84eU, 0x3c7f9d8c3e0ac22dU,
  0x3d536337bddce855U, 0x3e0022ef3d9ce47eU, 0x3d577a37bd83810eU, 0x3d90236fbdb7731eU,
  0x3e05f88c3e22de95U, 0x3b91d1f93c66e6d5U, 0xbe35b4353e0fa9c3U, 0xbd35a004bdb44fe3U,
  0x3e689d5a3e1506b8U, 0x3dcceb1d3e2edf8dU, 0x3d482f8abe56a9c5U, 0xbe03ffcdbdad2463U,
  0x3e49e695beaf4d23U, 0x3dd70ab0be89b1fcU, 0x3e07e3273c39058dU, 0x3e5ab8f83e26f422U,
  0xbd1a3d953d5bb3d9U, 0x3ca56615be28008dU, 0x3cbf3f303d7dd846U, 0x3de3645dbe499cc3U,
  0xbc4bf63dbdd3c761U, 0x3ea1ad82beac1a74U, 0xbe829cbebe93f9dbU, 0x3e2b93eebe4108c3U,
  0xbdcae9d1be38704eU, 0x3d3b05463e6c641aU, 0x3e0ed4023e9c85cfU, 0x3d433bc23ddc4875U,
  0xbe5affa0bd376709U, 0x3e57c7a63ea59b58U, 0xbd90b8343cf0953eU, 0x3deb6272be7c2dd1U,
  0x3d801c94bd23dce1U, 0xbd915c473e669a27U, 0xbd83f4683d414e7dU, 0x3e2032d2bd838080U,
  0x3d4f6fffbc536acfU, 0x3cdfbfe8be365dffU, 0xbe648ed5be5f7630U, 0xbdecd6293e0e5260U,
  0x3d2cc842be592cceU, 0xbe25cd60bdd79ff8U, 0x3dee5f8c3e9ed4ffU, 0x3e13243cbd729ef8U,
  0xbc2951c6be0a786aU, 0x3e164659bc2f6776U, 0xbd4867a83dac1a1bU, 0xbe4d29cfbe10ddedU,
  0xbdb636393e2de2faU, 0x3d0c5bc1be943859U, 0x3be91481bc98d1f9U, 0xbe2834df3e76dfdfU,
  0x3e3278ae3e14a936U, 0x3ebc284e3d46c69fU, 0x3e095312be234355U, 0x3de9e14dbd87af56U,
  0xbca931883e885b55U, 0x3b3d2864bda6f7aaU, 0x3dc5fac73e4cee8dU, 0xbdfdf2c7be1d7953U,
  0x3e5ae2f03e281838U, 0x3e8c16453d4d56fdU, 0x3dfe86353db4539cU, 0x3e2aa8ab3ea7c675U,
  0xbc6413d53e74e8bdU, 0xbe1995133d46f7a1U, 0xbdfeb7213d4143e8U, 0xbde8e06dbe063150U,
  0x3e0123cb3e2872eeU, 0xbccc55df3d6ba60cU, 0x3def98b13e378b34U, 0xbea21b7abe21490eU,
  0x3e43853a3e141b67U, 0xbd08742d3e13e9f7U, 0x3c26bb84be0600afU, 0x3da2d9ea3de95226U,
  0x3e2a0d9fbeb133daU, 0x3df757adbe3ec495U, 0xbbb27b82bc308319U, 0x3e3cb4e9be20471bU,
  0x3d3b7c1f3d024c38U, 0xbdd276863c2e4467U, 0x3e25ea63be079303U, 0x3e546ff4bdd23462U,
  0x3d679dfe3daceb19U, 0x3e75ed413df4f3aeU, 0xbc4ab7003e11cc6eU, 0xbce986a93cf2a2b3U,
  0x3e83b0ddbd82bd8bU, 0xbd7533643d937f28U, 0x3e42f1293e205ee1U, 0xbc5b9f023a5326ceU,
  0xbd7306febe7003c3U, 0xbd8f6a2fbce88f3eU, 0xbe0512783d419cbdU, 0xbe457d993e2938bdU,
  0xbe3407aabe00611bU, 0x3db0afd63e4ee28cU, 0x3dab2593b973903cU, 0x3d72046a3dd02628U,
  0xbe3d08813dc21ad5U, 0xbdbb25853e949676U, 0xbe679b2d3d6fc03bU, 0xbe29523abd3ae833U,
  0xbbeaf5683d227273U, 0xbe3feca9bdad36ceU, 0xbe3d0c60be9dd2fbU, 0xbdb04087bc38e058U,
  0x3e525580bdf86cc4U, 0xbe84b68f3dc106d9U, 0xbca6e35ebcb4830aU, 0x3a32fef8be38a29cU,
  0xbde4c121bc56b49bU, 0xbe47e9693c571e31U, 0xbd25ecd9baee8aa9U, 0x3e03741ebdd64dbbU,
  0xbe2398aa3db4871aU, 0x3db59c803e964e61U, 0x3e4a6558bd9dd204U, 0x3e138b213e2bee26U,
  0x3e4e17753e6c8c53U, 0x3e202139bdd2be09U, 0xbe31bd5fbd85a3aeU, 0x3e03a045be113851U,
  0xbd4f3d70beb6d945U, 0xbe1f8f2b3e70d38dU, 0xbdf328a43d905f6bU, 0x3cf4f4b53a3bbac9U,
  0xbd4d25443e3e3a08U, 0xbc6a02c9be20788fU, 0x3c42bb52bd5414f0U, 0xbe1f7c9a3da8d733U,
  0xbe4143d83daa1abfU, 0xbe508e0c3e4ab370U, 0x3d8bb908be487dd3U, 0xbeb6dbf23b7c3e26U,
  0x3d1e81f63e261f43U, 0xbe42c6553e2939ccU, 0xbe3ce1a5be7e7f99U, 0x3e2d2f233c5c19cbU,
  0xbe890dc23e52492bU, 0xbe8ee4eb3d019429U, 0xbdf19771bd9bf8acU, 0x3dc2e26fbe13d138U,
  0xbe26f383be29fc49U, 0x3d9109e63e79222cU, 0xbd93c35d3e174f65U, 0xbe075dfabdce9094U,
  0xbd8347afbdbdd87dU, 0x3b8d8b7dbe0919e3U, 0xbdd9f0d8bdb3d261U, 0x3e60563bbe07af70U,
  0xbddc39723dd674ebU, 0x3e0a27893e39263bU, 0xbe8f0cfebdacabc6U, 0x3d2d633ebcaca28cU,
  0x3dfef94cbe27d00cU, 0x3ea275ad3e43a27fU, 0x3dccc1c53d4280e0U, 0x3e8a6132bdf08721U,
  0xbdabd5e4be314771U, 0x3c61a385bd0cc4beU, 0xbac6752abdd640f8U, 0x3dc9d5643d2962a9U,
  0x3dc71a293cfc9bd9U, 0xbd85d5af3e0e5208U, 0x3e4dc77ebdba7b5fU, 0x3ea15423bd5b1e10U,
  0x3e26f750be79e238U, 0x3cbeb833bdf1bfd5U, 0xbe16c4e4bec0cc0eU, 0xbe1105de3dc4a6ddU,
  0xbe5e7dd5bf179d72U, 0x3e31250abba1c249U, 0xbdd08c86bda3cfa8U, 0xbde4ac4f3e225215U,
  0x3d89c8053e0b5866U, 0xbd10c9a1bdc376caU, 0xbd8caad13e133ca9U, 0x3e44ca7b3e67963eU,
  0x3c8f47913e353455U, 0xbe0f3852be2897feU, 0x3dfa61dd3e01575aU, 0xbe31e9c13d9f7530U,
  0x3e2d481f3e75bb16U, 0x3e2a31e43e334091U, 0xbdcc6b28bd10ecbbU, 0x3db14bf9bdc7d973U,
  0xbe65b7f7bafa778fU, 0x3da579213e4e9a72U, 0x3d604b04bc8aa98bU, 0x3e3de8b93df080caU,
  0xbc2d019a3def55b8U, 0x3e10627b3d514a3cU, 0x3b2fb1353e155b0aU, 0x3d53c8a4bb52db22U,
  0x3ddd1d11bc604394U, 0xbdbd47473e861d36U, 0x3d273684be9e2233U, 0x3ebb4cfabe372792U,
  0xbdceabd3bd61df32U, 0xb9d6a9eabd3be27dU, 0xbe9b7c8cbdc88bdeU, 0xbe1905cb3e18385dU,
  0x3e144e68be20145dU, 0x3e8ce070be979f41U, 0xbd371e05bd2432ebU, 0x3e84422ebe5148a7U,
  0x3cd063d13e88b21eU, 0xbe3b1444bce3ea7aU, 0x3d86711f3dd8db48U, 0x3d90e4163dc07b9bU,
  0x3d04eb4fbca0c2ecU, 0xbd0d39cdbe587be6U, 0x3e0b5cad3ad3f62fU, 0xbdf0ef453c69e1bcU,
  0xbde74db4be08c530U, 0xbe2a30da3e312980U, 0x3bcfb5213ea4ff9aU, 0xbe3605153d3f271fU,
  0xbe1f47dbbea5bb62U, 0x3e2d793a3e8d85d6U, 0x3d6069cf3d2b8c93U, 0xbdb183703ea3f25fU,
  0x3e3db1e73e276a22U, 0x3de92ab8bde313c1U, 0x3d36e72f3def6bbaU, 0x3ddf4bdd3e52fe83U,
  0xbe185b4fbcca9af0U, 0x3e80838dbeac4542U, 0xbccbad0ebd2222bfU, 0xbd66fa653dbd9d8eU,
  0x3e0d3776bda0e7e7U, 0x3e5d06b33de26459U, 0xbe5be516be63b560U, 0xbe143ab5be54edd0U,
  0xbdad1934be6449d3U, 0xbda2c663be183375U, 0xbe1d6bcebd7f8e0aU, 0x3c6213363ce1cd70U,
  0xbcd18415be843d54U, 0x39d30c72be82f3c4U, 0x3d261237be0a1591U, 0x3e2cf7edbbf4fa05U,
  0xb931868e3e46513fU, 0xbe3b9c913d9c4ac9U, 0xbe1dbefbbe6528a5U, 0xbc669b4b3e4e4ae6U,
  0x3e17130bbdd54124U, 0x3c445ae3bd739cdfU, 0xbe6580ea3dd91baeU, 0xbd59ec6dbe31dbafU,
  0xbe62d28c3e8c51ecU, 0xbd589a183df19f52U, 0xbdceb38abddb665eU, 0x3ccf37f63e4f5674U,
  0x3d9eb559bdb78aceU, 0xbdd692d83e221eb4U, 0xbde4fd98bb107dfbU, 0x3e32c732be318de0U,
  0x3df0ed26be018ba3U, 0xbe79803e3dfe35b2U, 0x3d22ab613e104ecfU, 0xbea444593e233949U,
  0xbce5fbc7be797f8aU, 0xbe2e7f15be446c8aU, 0xbe6e6f4f3d2756ecU, 0xbdd7d6213deb0125U,
  0xbe7f3d783e7305cfU, 0x3e70a54ebd956d10U, 0xb9be5a6fbc34641aU, 0x3e2b3ce8be00b957U,
  0xbd9cb5723ea0db11U, 0xbe080df93e6700d1U, 0xbdbb4e65bd03d2c5U, 0xbe21d15b3d841264U,
  0x3d66e7dc3dfe22a1U, 0x3e12463ebd436622U, 0xbd9365573eb70b8bU, 0x3e94b1aebdba1385U,
  0xbd5f762bbdecade5U, 0x3d345f183e3a0a90U, 0x3e8bc12f3e10116fU, 0x3dd45c67bce7ac6eU,
  0x3d1553c13ecaf5d5U, 0xbe36b39ebe0d6763U, 0x3e28ffdebc1b9377U, 0x3de02bcebe4971b9U,
  0x3d47e2103c98bd6aU, 0x3e29068cbe585d55U, 0xbd34f544bdc343e9U, 0xbdee4cca3d0175abU,
  0x3d6192e43e4523e3U, 0x3e4c626abc6bea0fU, 0x3e3e61bbbe11e7d4U, 0xbc1b821dbb320ccaU,
  0xbe9dbd343e727c87U, 0xbd347b68bd24ff8dU, 0x3ec282243e7358adU, 0x3d678ae4bcb36d09U,
  0x3e2ea407be7b0597U, 0x3ea9172fbdd246a6U, 0xbb6586863e0105cfU, 0x3eb64c96be85c347U,
  0x3db8f399bd886fd7U, 0xbdff5e75be10b963U, 0xbd56493e3dde978fU, 0xbe39b171bdc7ecf1U,
  0xbdefc8ec3e2b3ce6U, 0x3e5d4ac1bda8518fU, 0xbddd7d663ded25caU, 0x3e979c983ca9b8f6U,
  0x3e19adde3e52988dU, 0xbd58575e3deb8db4U, 0xbe26ebb53db5eee0U, 0x3ddb266ebe46f9f3U,
  0xbe9e1a6e3e05bf85U, 0x3e2d0b10bc953f72U, 0x3bde38b3bc2e9c69U, 0x3e19400ebe20c0cfU,
  0x3df6e4bebab9dcd6U, 0x3dd665843e49dbc1U, 0xbd151af83ca6fe52U, 0x3e235dbdbd82fbd7U,
  0x3e2c96023dff52e6U, 0xbc4152efbec52943U, 0x3dd960d23e71ab05U, 0xbe9c4fe3bde3acbbU,
  0xbe0d2ce73e72be41U, 0x3dde5d3abd9bff00U, 0x3ebfa5203de9f1e8U, 0x3e2f25bdbdf14aaeU,
  0x3da53d72bd9b43d4U, 0x3d26e9eebe4aff4bU, 0x3ce81d8bbc84258cU, 0x3e8c1af43e584ca5U,
  0xbd4a835dbdde3c41U, 0x3e2bdfa5bccb48a1U, 0x3d686215bdc0877cU, 0x3dd06a4ebd24fd9bU,
  0xbb26ab82bcb9fd1aU, 0x3ea7bf8a3e804b1fU, 0x3e24861bbe62bb53U, 0x3de16fec3de26c56U,
  0xbded62c03db05422U, 0xbd63009ebdb8d5c6U, 0xbe860a703e8eb5b3U, 0x3dc8d51bbe05b34dU,
  0xbdccc27dba50cc9fU, 0xbe8d08d53e8615adU, 0xbdedb4413cb7e5daU, 0x3e77c284be420d3fU,
  0x3e077a903e2656aeU, 0xbe1a7dbabe3e0086U, 0x3d9527e33e060e3aU, 0xbe14fc063e23f9d0U,
  0xbdf36a9f3e23f924U, 0xbc7fa1723da4abc8U, 0x3e12d19bbe8eab02U, 0xbc598a7fbd64f7d1U,
  0xbe6e7c633e310877U, 0xbdacdc653cb8fcadU, 0xbecbffe53e351d28U, 0xbca8db89bbfe46c9U,
  0x3e1488d0be2ba1ebU, 0x3c85b7833e8b686aU, 0x3db27b9fbdaef439U, 0x3e9fba5d3c6066ceU,
  0x3d4b2d5fbe272992U, 0x3df73e7b3e831d58U, 0x3dfe7f58bdf00314U, 0x3e208aa83e36883eU,
  0x3de14f2b3e5c8a15U, 0x3eb6deec3e2d6a20U, 0xbe6120fc3d8a8405U, 0x3e94018dbe1db1d6U,
  0x3e12149abe66b897U, 0xbdb561343e47a1dfU, 0xbd9819603e4ecdc7U, 0x3e15229f3b85808aU,
  0x3d7732fa3e827aa9U, 0x3eabb179be261579U, 0xbd45eac8bdd64f21U, 0xbd852b943e826b9dU,
  0xbd8eee223d675221U, 0x3ab85cf63e1554baU, 0xbd1b2ea3bbe5bd4eU, 0xbd56c5273e7af51bU,
  0x3d1063283d65c2a9U, 0xbe1a7840be97438bU, 0x3e56ba1e3d6a8c15U, 0xbd4c0443bd4d27f4U,
  0x3e576065bdf0c629U, 0xbe42544b3e1017cdU, 0x3e015b3bbd16e4e0U, 0xbe1f7f5bbd84e68aU,
  0xbdf9fffabeb1a567U, 0xbe5a615d3e9cc9faU, 0x3d0193f23da45d8aU, 0xbdf8da833ddec4e1U,
  0x3dbd13ccbd485793U, 0xbd9bec72be92a4b1U, 0x3dbb890a3d724a5eU, 0xbd22e1bc3d891430U,
  0x3d1869963d1f0e38U, 0xbe0fc6bcbe2e19fcU, 0xbdc6b1ebbe68fcf3U, 0x3c01431b3d613df9U,
  0x3e1d11203e11dfbeU, 0xbdb4ba2abc9acfa7U, 0x3eb2e9a43d649d52U, 0xbe2b6aa73de6b4c8U,
  0xbe4dd7d4bd5ae899U, 0x3d8f4ba63da11e2bU, 0xbd011debbd3567d6U, 0x3da727eebe416ef0U,
  0x3ba767fdbe64ba92U, 0xbba14c38beaa4044U, 0x3c455efbbd36aab6U, 0xbce38106be49eb67U,
  0xbdd5818abde6b766U, 0xbe6263b73d4cb4c2U, 0x3e0c18a5be58eb81U, 0xbe7f28b23baf6a08U,
  0xbc0177173dbe6cb4U, 0xbe0807ef3d4bd964U, 0x3dffa2313e4cb18fU, 0xbb2332c33e0d6217U,
  0x3d3b04a73e47c1aaU, 0x3e703b96bd00088fU, 0xbe0bbaedbdd87a87U, 0x3e230cf93adc770bU,
  0x3d0e6c5e3d886482U, 0xbb498b003e210b2fU, 0x3dd5e613bcc2cd95U, 0x3d820eb5bdf577f3U,
  0xbe02e8093d2de60bU, 0xbd428986bd6584a9U, 0xbcc57ec1beaa85a1U, 0xbe1ceff23e0081bcU,
  0x3c07027dbe4263f9U, 0xbe27244e3d7a6637U, 0x3ce1623c3e20aa24U, 0x3cb885083da141a7U,
  0x3e14f3853e53e9d4U, 0xbd9a688ebe519857U, 0xbe396da13d7b7877U, 0xbebe5d9cbe68ae77U,
  0xbd15d7f9be71f154U, 0x3c651cf0be1009abU, 0x3c87dbf1bcae8aa3U, 0x3dd24483bd586204U,
  0xbe0841c4bcedc0c0U, 0x3e033ca03e2a22b1U, 0x3e797d24be8a1101U, 0xbd24096abcdb6a59U,
  0x3e5e94d83e193471U, 0xbc44cf513e37805aU, 0xbe065aa1be2dd3c1U, 0x3db6d421be5958abU,
  0xbe024e193e66138aU, 0xbcc3330dbdf44029U, 0x3d870f8ebddc44dbU, 0x3d86b477bd65013fU,
  0x3d7bceb13e5fd465U, 0x3c9d3891bea06f22U, 0x3d3f337bbdfd47dcU, 0xbda7ddbabdad899eU,
  0x3db73041bdb877b7U, 0xbe37efa63d582312U, 0x3e62bc133e77c732U, 0x3e9eae333e195355U,
  0x3e288afabe7cf328U, 0xbdee478a3e00a21bU, 0x3ed959b5be436398U, 0xbe44800c3e432658U,
  0x3e0069cb3e62fa79U, 0xbe8e6b65bd98bb16U, 0xbe2edb9a3d5c4b54U, 0x3e2cd75cbde5ffeeU,
  0xbe2e48a33e0a8586U, 0xbe4f16f9be08f7f8U, 0x3d9afd54bd61cb88U, 0xbe66af17bad0a783U,
  0xbe1aa0983e27f3b2U, 0xbe6251bbbe92d95eU, 0xbd334e04be214902U, 0xbe6541423cd938cbU,
  0xbe97831d3dfd6f22U, 0x3d45b89a3de0bbceU, 0x3e60527f3d6b9d4bU, 0x3d3eecccbd503334U,
  0xbdfde8c7becffa99U, 0xbe5b6f7d3e4ce292U, 0x3b8c3c16bc531745U, 0xbe243258bd887563U,
  0x3ca51ead3e74ce14U, 0x3d39f2a63dee4518U, 0x3d9792783d84a0ccU, 0xbd1a8d6b3e4eba2fU,
  0x3d0cddf13e1dd506U, 0x3dd2a72c3e938a67U, 0x3d003613bd882139U, 0xbeae0bb2bd9f6d8bU,
  0x3e60b88b3e3fb4baU, 0xbe2733e9bd195794U, 0xbe65dcc13e06842eU, 0xbe0d686bbddbbc1dU,
  0x3e34824a3ea00ce1U, 0xbe6cbfb7be081b3eU, 0xbd2b89afbd231cf6U, 0x3deb103ebec3ccefU,
  0x3caf9c28be7d8b15U, 0xbe1dd392be79727bU, 0xbdcd8cbabd9dac6cU, 0x3ddc1f673e0e750aU,
  0xbdcce7dd3d0edca2U, 0xbe09cf713e33df73U, 0x3e5300443e76d92bU, 0x3e8f262ebcca9b3aU,
  0xbe2c45313cce9994U, 0xbe340b443ac8d04eU, 0x3e9ba75e3d5410a0U, 0x3d7b0b133e15a550U,
  0xbdb3ebbd3e8542e0U, 0x3dfb85273e712ed8U, 0x3d02382bbda1a646U, 0x3df5acecbe122041U,
  0xbde9623abc9a6d2dU, 0xbcac51ec3e945552U, 0xbd5da3643c92933bU, 0xbb30a8c03d411883U,
  0x3d9fcf683e0b0848U, 0x3e97b252bd8ca022U, 0x3e26653a3e2f0f5cU, 0x3d2644b8be627404U,
  0xbe9313edbe7169e6U, 0xbdbd6e453e3019baU, 0x3d8483dd3e81ab98U, 0x3cfeabee3e01c05eU,
  0xbe0a1163bec7e267U, 0x3e2c36f13eb1e9eeU, 0xbe05855d3d819222U, 0xbdac6ead3c50bc6eU,
  0xbdad92033e0749c1U, 0xbe67a15ebe1d982cU, 0x3c911dcfbe095727U, 0x3d95df98be691f00U,
  0xbc1cf425bddb4133U, 0x3df5b6ae3e8b19abU, 0xbdcd31fdbe02f6bfU, 0x3eb82d103c80095dU,
  0x3d991ef23e54e017U, 0x3d1f0e143e1fb5abU, 0x3dc558fd3e839585U, 0xbdd2869cbe053288U,
  0xbe8f5643becbe24bU, 0x3d8212303c4f0c6dU, 0x3d5be5e33befdbf1U, 0xbe4ef2703e272857U,
  0x3e432778be6dd55dU, 0x3e0dd8bfbd1e18fbU, 0xbdf0aebb3d2eae4cU, 0xbd2d4d55bce1c96eU,
  0x3ba4f5253d6372b8U, 0x3e1aff943e767b20U, 0xbe45625c3eac4608U, 0x3eb3c3e33d5bdbe2U,
  0x3e94aece3e780286U, 0xbda1766abdad07f5U, 0xbe2da7dc3e339a04U, 0xbdc45c0cbc5923e9U,
  0x3e65d0743e35d92aU, 0xbd974bdc3e6f9dd3U, 0x3d2300d4bdd950f6U, 0x3e93c543be55cfd3U,
  0x3db27005be07e560U, 0xbdea24d0bdf3c753U, 0xbd65d318bdeb500bU, 0xbcc64fbabe5f5b20U,
  0xbc9eac8d3dc4593cU, 0xbe313daebea87a42U, 0xbe6d17a53e304d43U, 0x3e96ebcabe15ddb9U,
  0xbe76a0c5bd6b8c6aU, 0xbe1539f7bcea4b70U, 0xbd1bb51b3de36faeU, 0xbe15a7d33dda82edU,
  0xbe6ec0433e31a3f4U, 0x3c151eb63e5cac45U, 0x3e000708bb37a7c8U, 0x3e3cd8213e3dfacdU,
  0x3cb4ca923d03dd0fU, 0xbe0c46383e0f89a8U, 0xbdb40a29bd88f475U, 0x3d8ee00b3e39716bU,
  0x3defb2793c03e838U, 0x3d82b9fdbdd2046dU, 0xbdd820fabe1e5744U, 0xbe5c95c8bdc4beceU,
  0xbe90ee61be196598U, 0xbe242458be137e67U, 0xbec953fa3e2a1ecaU, 0xbe2068c2be4f3c58U,
  0xbe42c1e53e35b4b2U, 0xbcaafb6cbd61c817U, 0xbd6720a0bb0c4b0cU, 0xbe5a743d3e6ec161U,
  0xbe081bc7be6195d6U, 0xbe02c121bded7922U, 0xbd9b56d9bd2627f9U, 0xbdbd1ef1be2ae0b7U,
  0xbe071b913cc61c91U, 0xbd4760303e3b833eU, 0xbe870caabd1bddc3U, 0x3a1b28f3bda12e70U,
  0xbd76f6ca3ce7f0d9U, 0xbe08b4d23e38f20fU, 0x3d686334be1635ecU, 0x3e18428a3d950d69U,
  0xbd08010bbea62feaU, 0xbdbd2ce53e89ffa0U, 0x3e08aa72bd1f7b8dU, 0xbca0e542bd74cb15U,
  0x3dcac2a63e9260baU, 0x3c1c3ba2be69d8c5U, 0x3d0833453b5cb959U, 0xbe30f1f2be5160c0U,
  0xbca4a79c3ceb8993U, 0xbe957445bebfbc63U, 0x3e16444c3eb6020bU, 0x3ea1a59bbbc06773U,
  0x3e36fb4bbe1b6f6bU, 0x3e0706fdbde15728U, 0xbecb282abe84fecbU, 0xbe0b6f353e3f09daU,
  0x3e2fa8aebeb04b39U, 0x3d57d846be86f43eU, 0xbd9fb5e73c3a663fU, 0x3e2bb053be0eed60U,
  0xbe2e3a8a3e4584a1U, 0x3e20ac1abe804cd7U, 0xbc4c544a3e077901U, 0x3da84529be1bb132U,
  0xbd124cd7bdcc06eaU, 0xbe0306fc3c0ffd33U, 0xbe63d602bb0d47c3U, 0x3d9c794dbda3a3aeU,
  0x3e8f83043e75a557U, 0x3e0c98ca3e325362U, 0xbd1b6ee73e32fc8cU, 0xbbbd2bac3c084fe0U,
  0xbb0837fcbed260e8U, 0x3e2ffd393cc6f636U, 0x3c8edf75bc8a80a9U, 0xbdf529d63d39e7b7U,
  0xbb5410443e4a350aU, 0x3e11651cbc4eec44U, 0xbd85fbc6bd933fb6U, 0xbcf27bf7be847908U,
  0xbe1a8c6cbde1ae43U, 0x3d7e36423e56269dU, 0xbd21e9f9bd92f0b0U, 0x3dd101d33d83c147U,
  0xbe80e340bd994584U, 0xbca8daef3c4c7be3U, 0xbc25e7c43e86a6faU, 0xbdc5600cbe01d1a6U,
  0x3e2d2e38bddb70c3U, 0xbe9f5623be206cdcU, 0x3da0b9033c111fffU, 0xbb60e2743df02f12U,
  0xbe17caebbce1be53U, 0x3e2e5b7cbbe0d920U, 0x3e0ed4763da0d413U, 0xbe47f098be4b3c2aU,
  0x3ca4b1cebbdd1148U, 0xbbd62be83df8a52aU, 0x3de437a73e79f71cU, 0x3e851cc33da86695U,
  0xbe35e4193d97c712U, 0x3d8affd33d027320U, 0x3d7e756c3e85bcbcU, 0xbd7d6e773e36eb94U,
  0x3e53c80f3e8f4947U, 0xbec602ffbe290033U, 0x3c97ad6e3c286b01U, 0x3e55c539be4a4f28U,
  0x3e095d103c3f4a23U, 0xbe0394353de2bf13U, 0x3db8831fbe136b92U, 0x3d5afccb3d9e62ffU,
  0xbd8d6347bd1ac9e3U, 0xbe105deebe22b65dU, 0x3d0575ad3e315015U, 0x3e5dec08bdbae0cfU,
  0xbe370824bdc5d3a8U, 0xbc03490ebdbc14a8U, 0x3d8921123e21c3daU, 0xbe2d93e83deb0e43U,
  0xbe334a5dbcf9b6c4U, 0xbe83fd1dbe129e24U, 0x3dc5fc11bdb6d9a8U, 0x3e1c71debe4194f4U,
  0xbda14eb53e38949aU, 0xbde1f97ebe9b78d2U, 0x3e0f3a32bd5995faU, 0x3cc8896d3e437f4cU,
  0x3d9d0f64be113f4eU, 0x3c8399733ecf94f2U, 0x3dbd47673e680b1fU, 0xbe664159be17163bU,
  0x3d2d5696be331a50U, 0x3df19d9dbcc8e96fU, 0x3e40d6293e6a1e18U, 0xbdf7d520bcc3025bU,
  0x3e8a4a6a3d4ff299U, 0x3d32c92fbe527c15U, 0xbd590c76bdebe643U, 0xbd822f0d3e134f91U,
  0x3d05036a3e72e3b1U, 0x3d83623c3e46d6a1U, 0xbd6bbfeebd0a82b6U, 0x3dfb788e3e7a9243U,
  0x3e32e0dbbd67f11eU, 0x3e6ccc433e7739f2U, 0x3dd1040c3aed21d2U, 0x3e6d8207be2d7cddU,
  0xbdd2d799bdbc5bc5U, 0xbe1279ac3d519a98U, 0x3e8aaa6b3e8dc460U, 0xbd8e2c06bc45d06aU,
  0x3e59e9e7be5f8d77U, 0xbe6738b2bdbe1bd2U, 0x3be48f413de37a22U, 0x3da3ff41be849123U,
  0x3d721d84be1291deU, 0xbd960a9f3e4c369aU, 0x3e06eae0bd9d7854U, 0xbe14f5723cc9ce33U,
  0x3db9de0dbd34268bU, 0x3e48eb9fbda52b68U, 0xbdba63203e969b08U, 0x3ec374443cec77c2U,
  0x3ce7ef433e7cbdfeU, 0x3d7b93c7bb4bf56eU, 0x3e508445bd02f446U, 0x3de08278be1d0b6bU,
  0x3e6cd187be773c86U, 0xbe5b92f0bdb96dd6U, 0xbe0b2818bd342344U, 0x3e8c5a543e950bb4U,
  0xbe09985e3e4f4a34U, 0x3cbaf487be013d0eU, 0x3e1b412dbb661ec2U, 0xbd811788bc0c4fe0U,
  0x3e0f7cf83db7b270U, 0xbc1db095be2f868dU, 0xbe58a985be98c4d0U, 0xbd941e023dde4216U,
  0x3ce2256b3e02f4e1U, 0x3c693ae13caef1d4U, 0x3ea97f063d3967b0U, 0xbd7b6647bdb70200U,
  0xbe14798cbe32b245U, 0xbe5b71b63e960909U, 0x3ded08b1bc548527U, 0x3e0d07e73e8a9939U,
  0x3d15b6c4be263423U, 0xbe14535dbd5b0fa5U, 0xbdd5cd5f3cc87f2bU, 0xbbb209773e382e0fU,
  0xbdb013703dc42771U, 0x3e9adbf9bdebc058U, 0x3df395853d2b8605U, 0x3ec33a023d8b025cU,
  0xbdb60868be435bfdU, 0x3e3b713dbd04619cU, 0xbeb90df23e262a37U, 0xbbb8a1a13e49b161U,
  0xbe334ef13df7ae05U, 0x3e36b53bbc8bacb9U, 0xbbd22a783dd07857U, 0xbea123cfbe92a316U,
  0xbd42ff4ebd5df4d6U, 0xbe52c1b3be802ce7U, 0xbcd0d3f4bd767f3bU, 0x3ddbd8733cb2cdc3U,
  0xbd9993093dde8a0cU, 0x3dbde9b93e00a1b0U, 0x3bab4472bed73227U, 0xbd161b9ebc372edaU,
  0xbe9022a6be814c48U, 0xbba087b8bc4699d1U, 0x3db53e253e830d7eU, 0x3e3260173e068fc2U,
  0xbb8995c63e5cdfd0U, 0xbdc08bdabe70afddU, 0xbdc7d6c33cc303ffU, 0xbe0be907be981ef1U,
  0xbdd3ba363e65974aU, 0xbdf0382a3e03c4f2U, 0xbdf4fd79be037705U, 0x3d076f1ebd26e20aU,
  0x3d42eeb9bdd6dec3U, 0xbcc697a5bd231969U, 0xbd991d09bee2969cU, 0xbe9a02213da03513U,
  0xbe7432d43d7f4f97U, 0xbde32793bd9e6513U, 0x3e41dbcebe9277b1U, 0xbe227689bd008ac6U,
  0x3e93c65bbed4400bU, 0x3e16539dbe925b76U, 0x3c8433973e062aa7U, 0xbeb465343c179944U,
  0xbceb929e3e229088U, 0x3ddd44583e09b2b7U, 0xbd608050bcae9c9dU, 0x3e38022bbd1f5987U,
  0xbe29687b3d5d3cc1U, 0x3e7c918fbe9dc94eU, 0xbe494947bd8c0596U, 0xbe9e3347bde436c8U,
  0xbc696a77be340036U, 0x3e60f2f33d837ea2U, 0xbd8a54bd3e5f400aU, 0xbd9bd9993d68313fU,
  0x3e219ae9be61bb3dU, 0xbeada1463e4142e5U, 0xbc8432f23cfa7cb8U, 0xbdbd4564be0fc92dU,
  0xbdaa1b0bbe266c2fU, 0x3dfffb91be2a89f8U, 0xbdd5a4b7bd948897U, 0xbe24746e3e87aff1U,
  0xbde5ad3cbda3a98fU, 0x3ebbe3d8bd9fc297U, 0xbd5b0f3fbe592b43U, 0xbeaad5483da29f6cU,
  0xbe3ed5f7bdb140a4U, 0x3d3e74c0be156d3cU, 0xbc0be7553e6f85c6U, 0x3e2300313e38f62eU,
  0x3e3875a73e68015dU, 0x3ddd27d23e4802f7U, 0xbe284cf83da4c9b2U, 0xbe059c9b3df1dd35U,
  0x38f402a5be8e8470U, 0xbdcfb9bdbe4a8930U, 0xbdcd7d72bd7482b2U, 0xbda8c4e63e5da10dU,
  0x3daedec33dadcd90U, 0xbdb6f296be1d2b6eU, 0x3d70fb35be35abffU, 0x3e913e9e3c785e17U,
  0xbc9cd0393d30bc7aU, 0x3c820d793e8ed2ffU, 0xbda5ce8a3e300c42U, 0xbd0afb70bdb64c9cU,
  0x3d9f7fecbe6ed96eU, 0xbc7c95323d5cf3a3U, 0x3bc648673cd2888fU, 0xbdb09aadbd83bb71U,
  0xbe076a6abe23b945U, 0xbd8dd844bd3ec4a6U, 0x3e0b74783d276298U, 0x3e651a7dbd24d9e0U,
  0x3dc54e913d047d9cU, 0x3ec23e0fbe86ce2cU, 0xbe180a0abe992087U, 0x3e9cfb383df3914cU,
  0xbe2d329abe4af573U, 0x3db3e2dfbd322e52U, 0x3dc7c1883c66c9cfU, 0x3c823354be4bbf33U,
  0x3ea0303c3e6f5fedU, 0xbe3f25b4bc2da96cU, 0x3da05589bcf28ab7U, 0x3d74ba4dbe549857U,
  0xbd73f4a9bcc9627fU, 0xbcb35c813e4e569eU, 0x3ba78d8d3e0e914bU, 0x3cfd8043bcdd026dU,
  0xbdf9a77abe2574a3U, 0x3d74d9afbe7a4eccU, 0x3e2eefa9be549354U, 0x3eb4ebd63d81175bU,
  0x3da4d5123e3f2cd1U, 0x3e42b46ebe32ac94U, 0xbd38a4af3e925a04U, 0xbd5b9bf6be3b21f6U,
  0x3d7aa89b3e8db717U, 0x3d99d155bdea2ce0U, 0xbdf16f973d09f95bU, 0x3dcc2ec03e352d0dU,
  0x3c8053713e13195fU, 0x3e4bd20dbd7ff0a9U, 0x3dbeb21c3d965aceU, 0x3de3b3c7be142c35U,
  0xbde9cfcc3c711fc5U, 0x3d8ad8de3e600fabU, 0x3d5e41ed3e81c522U, 0x3e98ccddbd7dd053U,
  0x3e06e5ffbe0dd22fU, 0xbdd49ca3bdc66e4fU, 0xbe21ab4fbe6f6755U, 0xbd0ea9a23e062bd1U,
  0x3e3a448fbea87f16U, 0xbe49b990bd46366aU, 0xbdf6b0b7bd3d854eU, 0x3e8528f93e42ef79U,
  0x3e0fa0863e545280U, 0x3dd916693e1e66a7U, 0x3df8a93b3b8309ecU, 0xbc699f24bc93dec2U,
  0xbe176b20be04372dU, 0x3ec0a838be60971dU, 0x3da2aa7ebdffb2c6U, 0xbdf6a681bcdb1c17U,
  0xbe0636ffbe362693U, 0xbdfa7e2bbd4857c6U, 0x3e6148dabe4b2461U, 0x3e342f843d4c5ed7U,
  0xbe6e8367be525e86U, 0xbde7da83be9096bbU, 0xbd805c81bd32c381U, 0x3b93e0253e345507U,
  0x3d975c2abd42c458U, 0xbd52b7f4be431350U, 0x3e2840503da4c062U, 0x3d875488bd3ca91cU,
  0x3df3943f3e0ebd33U, 0x3e60c1953e51bb09U, 0x3e6031ea3e1ccabbU, 0x3e197756bd4558ffU,
  0x3d68ffca3e5c9a91U, 0xbdaee7963e642af8U, 0xbd24183f3e722764U, 0xbd84736ebd6c9298U,
  0xbc08e3aebec50239U, 0x3de4d539be229d95U, 0xbe2233cd3dd6f3e0U, 0x3d2f9260be0ebceaU,
  0x3d9df22c3cfbe474U, 0x3e42ee24be556821U, 0xbdc121e33d179540U, 0xbe25c1ddbe686b87U,
  0x3dc864023d9293f3U, 0x3db3edea3e4c9433U, 0xbd5a229ebe6a13c8U, 0xbe9fdc953e3a52dfU,
  0x3e951d5cbd7ddb59U, 0xbd8c14f0be2b9fe5U, 0xbd8f3ab53e8376aaU, 0x3c5ed9133ded7047U,
  0x3e69b905be5d865eU, 0xbe3f429a3e7ff7c9U, 0xbcd46561bd8c2eb5U, 0xbe5c3e5e3e32daa9U,
  0xbe36b1a1bdf6fd25U, 0x3db896db3e9dc4f2U, 0x3cbd7de13da69a8eU, 0xbe3cfaa5bd09ca34U,
  0x3da461663de57ed8U, 0xbe7595b53dac7139U, 0x3d8893f1bd9f94e4U, 0x3cb4b1f53ded793cU,
  0xbe2240053e67a967U, 0xbdabcb16be40428dU, 0x3e83583ebe2d6ab6U, 0x3e194a6b3e7cf93eU,
  0x3e7dbb643e80c4edU, 0x3da0b54fbdd682a7U, 0xbe2d903e3d1b9591U, 0xbc9040d1be7fa10cU,
  0xbe01d4b1bd0a1cb8U, 0x3d308d593e4869b9U, 0x3df6c51f3da2701eU, 0x3e36ee533e51a43fU,
  0x3ded54293da49569U, 0x3c56ddbdbcefa3fcU, 0x3da5e1d43dcc1d94U, 0xbe7830ab3e37d6d8U,
  0x3e0fca2ebd16164aU, 0x3aec7072be48a8a4U, 0xbedc884c3e9df631U, 0x3dcfc07a3c97c27cU,
  0x3da176fb3c7a5949U, 0xbda2d6713e101397U, 0xbd9ac657bc0ec64eU, 0xbdc145cabe4d361fU,
  0x3e1807a6bd889262U, 0x3ce7ed9abdbc80bcU, 0x3df5a8503e076da8U, 0x3d598c4abe8fec2fU,
  0xbca28adf3de16dc0U, 0xbd83f92fbc9d77beU, 0x3d9e8e973eb94036U, 0x3e151531be55211eU,
  0xbe646253be153547U, 0x3b876befbded4c8bU, 0x3d51f2473e433085U, 0x3d0086113dfcc93eU,
  0x3e41fe593dcd8dc5U, 0xbdaca168beaae53bU, 0xbdf1f8dabdcac835U, 0xbe6f6a023de97656U,
  0x3d8b061ebe9e0064U, 0xbd60418fbe6b4ac4U, 0xbd4222b9bd972ddfU, 0xbdcbda6fbe53c72fU,
  0x3d969ac7be06e5beU, 0x3ec5ed91be42472aU, 0x3cd574e73eb47e42U, 0xbe2c8a993dd9d7c8U,
  0x3e6582a1be3578f1U, 0xbd9ea6e93e31f50fU, 0x3e1d8470be5e565fU, 0xbdf5ad6abdf21b61U,
  0xbdae7f2d3ea3a7d0U, 0x3e62a775be3b633eU, 0x3ca75dc13dea8007U, 0xbe7bbb95be7affb7U,
  0x3e4d6dcdbc4ad19fU, 0x3daf21a0bd404eddU, 0xbd04d6dbbdc9dcfdU, 0x3e033761bdc6a943U,
  0xbc9c14923cdddd21U, 0x3eded8ef3da66293U, 0x3d0543b0bdff36dcU, 0x3e0f5f5f3dfe95a9U,
  0x3d07eca1bdb7aa62U, 0x3e0d39063d51949bU, 0x3d93a582be00083cU, 0x3d940855bd7bd2e5U,
  0xbdca58803c86fc49U, 0xbdaec5fe3e8ca48fU, 0xbdc2aababd028680U, 0x3ddeafbc3c617274U,
  0xbe169d4b3e050dbaU, 0x3cba2c27bdf40490U, 0x3dc77ca2bd6cc688U, 0x3e870e72be15cd03U,
  0x3d22b7453ddc3392U, 0x3d37ead3be9e0851U, 0xbe46d1af3da889c4U, 0xbd61cbf4be0585d8U,
  0xbeaa79403c2e4bb2U, 0x3c8a29c1bdc56bb3U, 0xbcc022bf3e9c7f57U, 0x3c4034823dd0cad3U,
  0xbdd51cf13e503ca3U, 0x3dad2c133d9d1b62U, 0x3d92152dbcbf99f2U, 0x3d82b2943e12dc38U,
  0x3db964d23ca5a185U, 0x3b5903e4be16ed31U, 0x3d474b74b93f70c7U, 0x3de361de3daa283eU,
  0xbd37e9e33defdf84U, 0xbea1c2a43e41f701U, 0xbd9cfa44be75d47eU, 0x3ea0dae93db630f3U,
  0xbe49191e3e440810U, 0x3b3f2a60be4c86dcU, 0x3d93c91d3e95858cU, 0xbe088e3d3cda6afbU,
  0x3e170a36be42e1faU, 0xbe938811bea71c01U, 0xbd96c3a33d7e7012U, 0xbca51ee53cfa963eU,
  0x3dfae2383d91265dU, 0xbbbf01db3e7ffbe6U, 0x3d8cb915bd5472f5U, 0x3e31d7ce3e392f65U,
  0x3ca5a9013d4b223dU, 0xbe7e6fe5be92bd62U, 0xbd31d24a3d201d55U, 0xbe8e4019bdb83148U,
  0x3e43da053da90072U, 0xbe12553b3dd1eb5cU, 0xbea9bbacbe9a7c92U, 0x3e07bce3bb36e1b7U,
  0xbd57b636bd5d69e5U, 0x3d0e3ed1be78b194U, 0xbe1450a93c11fc07U, 0xbdd4c7bd3e325d77U,
  0xbe351428be3c1c22U, 0x3da8fd803dc35cb3U, 0xbd13115bbe032eacU, 0x3de09cc0be4d3208U,
  0x3e1849773cf70be4U, 0x3ec2ab093e1be6a8U, 0xbde751febd9057c6U, 0xbe8ab4493e34cc99U,
  0xbe0496a83e584692U, 0x3ba0eabf3e130ec5U, 0x3ee0fde63e427f93U, 0x3e0d7098be216e44U,
  0x3e7827e7be4e43ffU, 0x3b33d1c3be719e25U, 0xbccee5d2bd264637U, 0xbdb3af4f3e6f0cbeU,
  0x3e3a55bebe0d8657U, 0x3e52f5a8bcde41dfU, 0x3dc981b0be0b67a8U, 0xbe2378ebbe73637fU,
  0xbc412b19bdf2d98cU, 0x3e9d513cbcedd5d9U, 0x3e87d30b3d81e060U, 0x3dd4f14bbd97ff81U,
  0x3e393cc6bd806134U, 0xbe1a48663e2ac501U, 0x3e9345a5bd2a241eU, 0xbd89982a3e2d5871U,
  0xbd12639a3e8b3957U, 0xbeb99c013e57b722U, 0xbe2237393d8c0c4aU, 0x3c37f687bd0343b3U,
  0x3dd0b9ae3e8458d9U, 0xbc367f143e12b2f2U, 0x3d587f753deec01fU, 0xbdf6b4243e641ed1U,
  0xbceacd703e4812b0U, 0x3e855b723e826aaaU, 0xbe794bcdbe19124aU, 0xbe9560d1bdc75f9eU,
  0xbe4398d33e0c6ffdU, 0x3d5cd1ffbd9b90c6U, 0xbe81685f3e0cfd12U, 0x3e06a1873e094710U,
  0xbe2473cdbca781e9U, 0xbe33a2d0bdeb4871U, 0xbdca03e63dc1faa2U, 0xbd9933a03e8e67cdU,
  0xbe1b9939be0b67fdU, 0x3d501576bd4d1abfU, 0xbdf38f54bd80fe1eU, 0xbe4f2dc5be20eda8U,
  0xbe28256c3d87db1fU, 0x3e9250e03e8b2589U, 0xbe575fef3e8732ccU, 0xbe817fb4bd4b9fbbU,
  0x3e4135e7be7b66f2U, 0x3e176635be358ff8U, 0x3e5da2d23e95042bU, 0xbe057a653d97f58aU,
  0xbe69c490beb8f890U, 0x3e3b856b3e0499d4U, 0xbd44afb03c6c50d4U, 0xbe93655f3d9752a9U,
  0xbdf7036e3bf009a7U, 0xbd8be2983939a6e8U, 0x3daf09203dfd89f9U, 0xbc2136bbbe3ecfe5U,
  0x3d1f8ae83e1d1f64U, 0x3e19055abe8b937fU, 0xbdcaf1fa3e285198U, 0xbd90a6963d8a7190U,
  0x3db0c1e8bde5c6e8U, 0xbdab86103d751334U, 0x3ec852e43e5e3d9bU, 0x3da0e1cfbe3a1f40U,
  0x3e3819b33e8c51f2U, 0x3e24699cbea6312fU, 0xbda0dc85bcdee9fcU, 0x3e1d16353d822717U,
  0x3e2cbeeb3d572613U, 0xbdde1cb0bd86aa34U, 0x3d8393243e184064U, 0xbddd2a7ebbc31c48U,
  0xbc1472013e0f2edaU, 0x3e4f9ca13e1082eaU, 0xbd63ca933e2b02c5U, 0x3e5356ff3d3f55edU,
  0x3d2bb54c3d9de39eU, 0xbe1517c13ccf51a4U, 0x3e8504203dac67aaU, 0x3df6d7a8bdaaf7dfU,
  0xbc3607f13e5bf11dU, 0x3e11b2843e22822eU, 0x3cbdf9aebc3b7c0cU, 0xbe221cbb3db2a8acU,
  0xbd780b57be9691eeU, 0xbda7e90ebe262d50U, 0xbdbe9ed8bdaee2ceU, 0xbdbc09933e28f99bU,
  0x3e0425afbd692de2U, 0x3eb77aee3ec4ed8fU, 0x3c9e1725bdc1b731U, 0xbe6864c7bdcde627U,
  0xbe0f2342be1e0ac9U, 0xbe0c335d3dc6f5faU, 0x3e8b0f9c3e9498f9U, 0x3dd425db3e77c357U,
  0xbe83b4ba3ec2c1e5U, 0xbda3891f3daed44aU, 0xbd12dc593cde964fU, 0xbe5370e43d639a2eU,
  0xbe434b16bd52f573U, 0xbe0f1e3bbe6fe460U, 0xbb1c6b293dc84b3cU, 0x3e3b14353d189208U,
  0x3e2fee18bd40cba2U, 0xbeb388383db765cfU, 0x3db2bf13be3ff27dU, 0x3eb290e73d28613dU,
  0x3e0e0dbbbd187797U, 0x3e2961cf3e27a5c9U, 0xbe6e3de5bc9e6e5aU, 0x3d670995be0c07f8U,
  0x3e5c9db43d123878U, 0xbdda010cbc46bff8U, 0x3e0f12923c8c84c2U, 0xbda4ce593e797d6dU,
  0x3e0e86c8b9375892U, 0xbd8684723d8801f8U, 0xbdcf901b3daec329U, 0x3de078bcbdf4eb60U,
  0x3dd1bdf6be136fedU, 0x3e7a0e913dd62818U, 0x3da4eec3be3850bcU, 0x3d39f205bc12ab54U,
  0x3e34caa8be6c956fU, 0xbe10f5623dcce071U, 0x3e86d1603dea6850U, 0x3e044300bc5f1beaU,
  0xbd805dfa3e4a49bcU, 0xbe19c3283e9a73c5U, 0x3de188bcbdd46e44U, 0xbe761429bdc64d8fU,
  0xbe193e8cbe33e20dU, 0x3c954ab23e8d7e32U, 0x3b290cadbd0fd5aaU, 0x3e374d46bd0785b4U,
  0xbdefef303e074c53U, 0x3e15acdebe93b068U, 0x3dbf96f8be249ef8U, 0x3e994bee3e1e408fU,
  0xbe85952e3e40686dU, 0xbb4bb8debe31c82dU, 0xbea4e43cbcaf8162U, 0x3d331c6bbe2e8d34U,
  0xbe0209663e337403U, 0xbe5b74f03e07d2fbU, 0x3d9149693d7ec04fU, 0xbe7753763e3ebafdU,
  0x3d9591123c008353U, 0x3e19e12cbe3da936U, 0xbd62335a3c79056aU, 0xbd3365fcbe7ed2c5U,
  0x3e10535bbdf0433bU, 0x3d00d0f53d6b2cb9U, 0x3e2933a23e27f101U, 0x3d96bdf6bd076305U,
  0xbe4049323db287f5U, 0xbe31b8a9be1d7107U, 0xbe012deb3dfdf5a2U, 0x3d4e1e753e2d7e27U,
  0xbe4caef53ea63af4U, 0x3d1d4dc1be5cc636U, 0xbdafec643b916fb7U, 0xbcff6193bd779cc6U,
  0x3de82bfc3b880bf2U, 0xbe4a6c2f3e517ea6U, 0xbd988add3bd48e55U, 0x3d8ff338bd9c0fabU,
  0xbdd102f8bdd99732U, 0x3dff3b353e893108U, 0xbc0003dcbdae2ffaU, 0xbe7b45003cbc0befU,
  0xbd59a3eabe8cd438U, 0xbdb93460bd69d869U, 0xbf0b8c4bbe493c4cU, 0xbd676f0b3e016865U,
  0x3d31b66fbed62f1eU, 0x3c5b97cf3e6c2092U, 0xbe014884bdb49b16U, 0xbd08c02bbed0a43eU,
  0x3df06d533d37af2dU, 0x3d3ae9eebc9c5718U, 0x3cd0114fbdcc9501U, 0xbe297f5e3e15f8fbU,
  0xbd575fc43dfd1b24U, 0x3d3306fdbd6df4bfU, 0xbe1c7a4f3e49e2b1U, 0xbdbe75dc3bdd524bU,
  0x3e0058e13e0567b1U, 0x3db3a2433e387e32U, 0x3eef4b10be1ff5b6U, 0xbe1976fcbd7ec85cU,
  0x3cc1316abdf5da44U, 0x3cd682343dbd77d8U, 0x3e0b477cbb2f5e54U, 0xbe243b863e6cb877U,
  0xbb12e5ebbe698928U, 0x3e3f0357be70bbfbU, 0xbe0c70e43de18590U, 0x3e632979bdf84906U,
  0x3db2c1c73e4314baU, 0xbe7b0c52be8d457cU, 0x3ccfcb04bdb4e299U, 0xbe89f9903e018f17U,
  0xbdf24b1dbe6a4c02U, 0xbe4188d7bd8160ffU, 0x3e6452023e8968cdU, 0xbda0f7af3d91654fU,
  0xbd7032823dea0fcaU, 0x3e8d32f03e7335eeU, 0x3e0fca563d324ffeU, 0xbe2292ce3dc641f5U,
  0x3e045773be89a69fU, 0x3d22e81b3e4eb7c6U, 0x3d8722323d119a6bU, 0xbe1990fe3e510717U,
  0x3e0149713ce1faacU, 0x3e87d5e9bdbd397aU, 0xbc7e4dd13ea39d78U, 0xbd3245273e214216U,
  0x3e67843abdc5343cU, 0x3d08fa913de52716U, 0x3e5b38263e13de91U, 0xbe19d96abe5a4b4eU,
  0x3e9052863e80f6a5U, 0xbe33ec61be94ea7fU, 0xbe01d9353d184adfU, 0x3e878c37bd84362fU,
  0xbd9e01863e4555caU, 0xbe0618883e138ecaU, 0x3dd3b3f03d1e415cU, 0xbdd1c682bcf88148U,
  0x3cd403eabd2f9c04U, 0xbe0a3192be8a711dU, 0x3de9e365be9324a2U, 0x3eace6cf3d345905U,
  0x3be0ae343e214378U, 0xbe1875f1bc9d69aeU, 0x3ef4c46bbd9a211dU, 0x3e285add3d0c78caU,
  0xbe45fb38bea27abeU, 0x3db3537f3e9234dfU, 0x3b92aa1ebd7c5becU, 0xbe41d763be2258c9U,
  0xbdfa2d3fbe3447b4U, 0x3e35cac43d9d40d3U, 0x3c078cb7bc6a6452U, 0xbdfa6ad03cdab1d4U,
  0xbd1d41303de92b92U, 0x3e98cacc3d5c549fU, 0xbe168900be047e09U, 0xbd5611103c399284U,
  0x3ea71d753e8eea44U, 0x3cd164233cd13f33U, 0x3e398a31be57c27fU, 0xbe272084bd3ce2dbU,
  0x3e74dfbe3e732129U, 0x3e9c6d33be04bca9U, 0xbdf8f38fbc899a92U, 0xbd3469a6be2e01a1U,
  0xbd63978f3e0f6fe6U, 0x3e2138093e1a8c66U, 0x3d8eeeeebde17f9bU, 0xbd2961683e5c6061U,
  0x3dbfe952bba9fd3eU, 0x3e89e9e7be8bbcd2U, 0xbe60451dbc8520b4U, 0xbe9f1c0ebd1f3434U,
  0xbe8ee5d7be4d9bf8U, 0xbc1279a1bd9a5aefU, 0x3e58f6ffbe868694U, 0xbe380940be827eb7U,
  0xbe0a50123d4ab2f5U, 0xbd95ab76bda709dbU, 0x3d3a499b3dd28fdbU, 0x3e9767b7be1ba00bU,
  0x3e11f7033e6afbdfU, 0xbd2e7c003e5b4979U, 0x3d017eae3d0c6ff3U, 0x3de427ee3e432369U,
  0xbb460b503d99c5fbU, 0x3d8d149abe1b4c8dU, 0xbdbf8a933d87abceU, 0xbc8da3c73db988cbU,
  0x3e403bf13e3ddb1bU, 0xbd6e4752bd5807f5U, 0x3e01a591bda50570U, 0xbde0e0c63dea78a7U,
  0x3e65e8a5be45f3fdU, 0x3d872b363e599defU, 0xbe125452bcd1c98cU, 0xbc4011043eaaa9b2U,
  0x3dcf2fa0be3af44cU, 0xbd660951be243448U, 0xbdd3f81bbdc68304U, 0x3cdf076abd53825eU,
  0xbd918982bdbe0a2dU, 0xbdfdfea4be81d4c9U, 0x3e6496bd3e00a1d7U, 0xbeb951a3be1ca949U,
  0xbd2d27c03e9f4e69U, 0xbd5b3c31bd488ad9U, 0x3e047fb3bd42a4d3U, 0xbde6333ebcd82680U,
  0xbd08d065be99565dU, 0xbe2525073e083898U, 0xbdac9112bd64f0abU, 0xbd85a01e3e92195dU,
  0x3e16264f3b913afaU, 0x3dfe62c63e839232U, 0xbca16aa13dc50a9fU, 0xbdc86610bd4bd29dU,
  0xbd8b5717bd6ed19cU, 0x3d509681be73ff1aU, 0x3dda10303e04ab51U, 0xbeb17410bd6e82cdU,
  0x3e9a3e5f3e25518eU, 0xbdc212313e382a5dU, 0x3ca33194be808628U, 0x3e26ef7abd78b8a3U,
  0x3d2ef148be134393U, 0xbb5709dbbe689d3eU, 0x3ccf9c0b3c1c4637U, 0xbcb784573d95ed0cU,
  0xbb58e6ba3c73307cU, 0xbd6cc8023e2d8ff5U, 0x3d6d6ed43e14873bU, 0xbe3a96913d09bdcbU,
  0x3dbac787be032ee4U, 0xbd16bfa13e697556U, 0xbe21d2b73df97209U, 0xbe205fcd3d51b94cU,
  0x3d2439a33ea04d15U, 0xbce79ca23df66c85U, 0xbe88a41d3e1e7ac3U, 0x3cd9227cbd95dde0U,
  0xbe8d6103be61f9b6U, 0xbde0971fbe3cd38dU, 0xbdec50323dafd79dU, 0x3d37c5c9be3d8f8eU,
  0x3e124fcfbdc57ab3U, 0xbdc9abea3d8f52a1U, 0x3e05b974bcaca9d9U, 0xbe6903acbd35cd86U,
  0xbd73db013dd7e214U, 0xbc96f9db3d430dc0U, 0xbc455d8dbea5b5b3U, 0xbe85e32e3e2b280eU,
  0xbe1878b3be6d6f0eU, 0x3df9ddcb3d8bc4abU, 0xbeda0c70bcfd4a9aU, 0xbd88b3eebe5f992dU,
  0x3e1f2bb3be0f9800U, 0x3e5d49d7bdb08502U, 0xbdf826743dc4373fU, 0x3e2b19c03c8898d6U,
  0x3d083780be23c5f4U, 0x3e1408cb3d0f889fU, 0xbc2fd57ebc9ec7eaU, 0xbc6636d63ddae402U,
  0xbd9a0993bd3053f1U, 0xbe05e79e3e496d4bU, 0xbd23e788becc24ceU, 0xbe98f0e1be09c4d5U,
  0xbdf8b90d3e153a7fU, 0xbdc8dc393cfc0b8fU, 0xbec4335abc4cb9cfU, 0x3e57175ebd1b845fU,
  0x3e42054cbed5bd5cU, 0xbe09affcbe13bc50U, 0xbda3c67e3da93367U, 0x3e5dc6113dc53b70U,
  0x3e39215ebcb86028U, 0x3dfa4f75bd83a65cU, 0x3db00d913c1e028cU, 0x3e47d77c3d8c2438U,
  0xbae8da0fbcbbc94dU, 0xbe5951e63dff4fbcU, 0xbccdb3e5beccf44fU, 0xbdec58b93e2356a4U,
  0x3e321f45be1376acU, 0xbe08123fbd9050c8U, 0x3e862ca63e4e61fbU, 0x3d4950c73e46163dU,
  0xbe129e09be4f2451U, 0xbd94bb84be3ffd7cU, 0x3cd561843d68be0cU, 0x3e47b606be942318U,
  0xbc96ef90be88f947U, 0x3e11bd83bebf2df6U, 0xbca71eb93bc02dbdU, 0x3de2d5f13e38ef7aU,
  0x3dbfac073dc5757cU, 0xbe3138f03e481317U, 0x3d28d2f83ea09a7cU, 0x3e686da2bc88042cU,
  0x3e840c18bacfb699U, 0x3d4b2599bdc174f4U, 0x3e38fed73e3d65cfU, 0x3e450bb1bd91ea60U,
  0xbe8a90d7bdb08ffcU, 0x3dfc9b2f3d3c360bU, 0x3d42ce793d6ed3d7U, 0xbe6d0466be0e8f9dU,
  0xbcecb7c3bdd09799U, 0x3da4be36bd399c20U, 0xbdfbffd8bd489db5U, 0x3cbc40393c0292edU,
  0x3e316d0dbde5a349U, 0x3dc2beb5bdc37be4U, 0xbe1325063e3a1707U, 0xbe6f6ab2bdf9c666U,
  0x3e3bbdc8bdaa3f22U, 0x3cc0a4e63dcaafd6U, 0x3d9327f0be10436aU, 0xbdbe74f63cad8cfaU,
  0xbdef894fbe9d6d9bU, 0xbdf015c4be91b7f7U, 0x3db228ff3c77f61aU, 0x3d90e7f2bdebae0bU,
  0xbe26c12abe278517U, 0xbe2dbd1fbe01528cU, 0x3dff7344bd542c6fU, 0x3e3c16043d7b9a64U,
  0x3c152719bba338e6U, 0x3d47091c3e9ac796U, 0xbe6b19183db0c41cU, 0xbd2e722bbe447cfaU,
  0x3e18127c3e888043U, 0xbd6202313de81000U, 0x3e6f7ebfbe1e1b97U, 0xbc5878a33d2ccec4U,
  0x3e4fba64be9ff216U, 0xbdc36a2b3db0f3b6U, 0xbd809f1f3d9b8ca9U, 0x3d6b35543e340d2cU,
  0x3e22dcb3bcb0f2dcU, 0x3daa1c80bab38cb7U, 0xbcbae881bcf86698U, 0x3e0a71523e3a68c7U,
  0xbd849d91bddd44f9U, 0x3c74ba78beae465eU, 0x3e4118f83e3c5ff7U, 0x3d951867bdfa7957U,
  0x3e6ce8b5bdbad72dU, 0xbe18fad7bdaf2219U, 0xbec215d23df1f221U, 0x3d97d2223cca5aa9U,
  0xbe7a20ea3e6f8aa9U, 0xbcf0eb82bcca4fafU, 0xbcc418423df0918eU, 0x3e701e923df10cfaU,
  0xbded29503db99d06U, 0xbe264f043e57ff5bU, 0xbd1ea949bdfcb3e2U, 0xbc231f08be76069fU,
  0xbc426efebdf5c747U, 0xbcc1ad6fbe232e9bU, 0x3e7e1500be81992fU, 0xbe853d4abe237e35U,
  0xbe5393e8be12f60eU, 0x3d8e7a473d1e304eU, 0xbe9b96793e6005a4U, 0xbe0216f83e27b003U,
  0xbe5075193d254dbeU, 0x3e06cb36be9fa08fU, 0x3ddf2cd4bd869482U, 0xbea2073fbdb3389cU,
  0x3e364f6f3e42fb73U, 0x3d6b9a92bd3c409cU, 0xbc9bc9b7bdc806f3U, 0x3dffa1ec3dae16c8U,
  0x3d108f8bbd99f258U, 0x3e96c6c6be2b5ca2U, 0xbe6531babdca635aU, 0xbe6aaf453e121eb2U,
  0xbe0339fabe4f0bbdU, 0x3dcf4f0f3e493607U, 0x3e2c73683e49c2baU, 0xbe3362fabe099923U,
  0x3d662d8fbed3abaaU, 0xbdc44fe03e350934U, 0xbcc625ccbd015a9aU, 0xbd2e8d8abe765189U,
  0xbe3610353e278d90U, 0xbe0212973e0281fbU, 0xbd95649c3cf80470U, 0xbd1015c73e2af418U,
  0xbdb28f3fbe529f7aU, 0xbe8a10623e3fd624U, 0xbdd2ca173d14329eU, 0xbe73bb1dbe1e1804U,
  0x3e2dbffabe55ff29U, 0xbe2627353c43f2dcU, 0x3d825ed5be940835U, 0x3dc7a23e3d8e521eU,
  0xbe114e163e9fb75aU, 0xbe4e2b00be77573dU, 0xbe27478d3cd7f238U, 0x3e644462be57561dU,
  0x3bc34ace3d761157U, 0x3dcd57693ea9a10aU, 0xbe0414333cbef620U, 0x3e0ebd64be7674f3U,
  0x3dfd407abb3866f9U, 0x3e50cfab3e920313U, 0x3dd5ba803e228342U, 0xbeb9ed01bd24a2d1U,
  0x3e548480bd286e08U, 0x3e40c6763dadea88U, 0x3e6848cdbe8af388U, 0x3d7c4a36be664ee2U,
  0x3dac3fa93eb56defU, 0x3e7bd9b03de4e452U, 0xbd5f6a8abdd91749U, 0xbea6bd883dbaea63U,
  0x3ddaa38dbdc602dfU, 0x3d8a512c3e400861U, 0xbc81801fbd1543c6U, 0x3c98e0663e23687dU,
  0x3c9580873ddf663bU, 0xbebc2a453e2888fcU, 0xbe065c19bd6c9436U, 0xbeac1875be2c56f4U,
  0xbe9e41f33e5e63cfU, 0x3a26530cbe2dc695U, 0x3e8a39363dfd8c8bU, 0xbe4112583d50e9d1U,
  0xbe65efe53e3a8a91U, 0xbdbf4f3ebec2e99eU, 0x3d9fd7f83d840f09U, 0x3d8cba32bdec92edU,
  0xbe2ccf1e3b87c8e9U, 0xbdefe38bbe7d93b3U, 0xbdf50972bd847f45U, 0x3e4918fc3e2e7b26U,
  0x3c2e5f2e3d82990fU, 0x3dc637bcbe8611e5U, 0xbca84ce9be889029U, 0x3d1332823dfdaab6U,
  0x3e3b1d733e0b237eU, 0xbe2a25c4be1710abU, 0x3ddc181dbdaa1abeU, 0x3da3b3f3bd25d96cU,
  0x3e2b45993e46180eU, 0xbb4c6fe1bea89365U, 0xbd9eb46d3d8f691bU, 0xbd9619e93e7dcdeaU,
  0x3e27995abdeef4bfU, 0x3dd8e18dbd6dfd43U, 0xbdb86e2fbe1353deU, 0x3e1ebf9bbce38b1cU,
  0xbd9f405cbdc0d3f5U, 0xbea772cbbea3e643U, 0xbbf786f0be753153U, 0x3dc521babe312157U,
  0x3da29ab9be7766fcU, 0x3c97c051be4fcd91U, 0x3e23b0013e0c5349U, 0xbccdd5e1bc249e98U,
  0xbe0b2e43bc23edb3U, 0xbd750640bea4cc2fU, 0xbcd527bb3de5675fU, 0xbd93c072bdf322fcU,
  0x3e0de3103e7778daU, 0x3e3288673d5b5cb7U, 0x3d8271b7bdc5d7a6U, 0xbd0803923e42dbe5U,
  0x3def32c4be2d1781U, 0x3e5cc939be8078f6U, 0x3e01911a3db405faU, 0xbc90b950bd05ae12U,
  0xbe3e8d92be836040U, 0x3c66a9a53d311b9eU, 0x3e282a2c3e34f642U, 0xbd8d15dd3df52c48U,
  0x3e0043c1bbaaf9d9U, 0x3df5e1bbbee7a82cU, 0xbd63b9673d8ce68cU, 0xbd511105bde7ae89U,
  0xbdb11eb5bd6a0146U, 0x3c8f0782be7593a3U, 0x3d482b253df17a48U, 0x3cfd2f89bde1a0ccU,
  0xbb51c50cbdc7b934U, 0x3ea68cba3ebff2d1U, 0xbd3adb2f3dde51d6U, 0x3e825218bd15b869U,
  0x3e8ff72dbe948f3aU, 0xbdb684f0bd352079U, 0x3e9679783e087218U, 0x3d8e0b7bbd797a30U,
  0x3e555cb0be4b1836U, 0x3e764a09be9097edU, 0x3e128accbd567efbU, 0xbbc065da3d143bb1U,
  0xbe32e4d9be64ea16U, 0x3d92355ebd878c36U, 0xbd112ff4be14e668U, 0xbd0ece4c3e06ece3U,
  0x3d2d3b9bbd319135U, 0x3e639713be6b2898U, 0x3d3308f1bddc948cU, 0xbe687bcc3e245a79U,
  0x3e03a54c3d008357U, 0xbe15521bbe02ece7U, 0xbe0ece303e61ac08U, 0xbce5f0e0bbf42572U,
  0xbe16bcc63e446467U, 0xbd22fcf3bdb503aaU, 0xbd8f710f3d0b2b12U, 0xbd9d06d83e3c0e22U,
  0xbc077b55be7d2dafU, 0x3dab11bfbe762bf1U, 0xbe03c5163be48be4U, 0x3e7be405be0beb56U,
  0xbcc6a509bdacac1dU, 0x3d8757753e3838afU, 0x3e4d01b13def0034U, 0xbe1419a4be1c02c8U,
  0x3e5c69263cfb7df5U, 0xbe129b47be1d3e48U, 0x3e58b91fbde6c734U, 0xbdb590bd3ddfcca3U,
  0xbe5728923df6f677U, 0xbe6cd8c3be7735d9U, 0xbd68c74d3dc4fde7U, 0xbceace683ea39f35U,
  0xbe3aa8353cd3e67bU, 0x3cfbb309bca720edU, 0xbd82d8d23ce6aa1fU, 0x3d3ea1963d41df0dU,
  0x3e1ce235bde70b12U, 0xbeb8608c3e7a7310U, 0xbe085c6e3c0000b1U, 0xbc0c49863e0bcaf5U,
  0x3cbf67773e357000U, 0xbc130b4abd9bb8caU, 0x3edf5389bdd79009U, 0x3e218cb83dc6f8e4U,
  0x3db7e5ccbd4eb9dcU, 0xbd085751be357f51U, 0xbd9878773d985cc8U, 0xbe19617c3e05b1c9U,
  0xbdb27da43e5e0686U, 0x3d1307b23d5b4d25U, 0x3d64d8263c31f299U, 0xbdaf53df3dfcf643U,
  0xbd4591863da2146dU, 0x3e8abba6be93c444U, 0xbd8e17e0be1725e2U, 0x3e823389bd4e7b5cU,
  0x3e0d5a633e2b8830U, 0x3dd0d195be37f34bU, 0x3dbc74963e75112aU, 0xbde960c7bd6cba38U,
  0xbe211ebc3eaeeecfU, 0xbd42985bbc2bd205U, 0x3dc63a74bd85a6c7U, 0xbd9878c03e7b94c6U,
  0xbc44f0863e50617cU, 0xbe560abebe630ef4U, 0x3e1d7b94bd101bc4U, 0xbdd8072c3dca828aU,
  0xbd8d073339a7bbf1U, 0xbdca3c093e998580U, 0xbe4894ebbd40d99aU, 0xbe58f2b93e4f4d9aU,
  0xbe1ad8a1bd9a68bdU, 0xbc04b7213e897bf0U, 0x3e806146be0ac586U, 0xbccae854bdabbbc7U,
  0x3dab3fa1be92cb12U, 0x3d97c8413d6affacU, 0xbda3c929bd9e1df0U, 0x3d36e509bb859fe7U,
  0x3d7e1115be74435fU, 0xbdf0c645be8e1cfbU, 0x3d66418abdc83008U, 0x3d789282be6f48f4U,
  0xbddf37793c607103U, 0x3cf8999ebea57456U, 0x3e725fab3e000114U, 0xbd84cdc9bd42e87bU,
  0x3e842df43c5f675cU, 0x3e0fde823dc3a1e2U, 0x3ea06839bdeb06f7U, 0x3cf86189bdbbb7beU,
  0x3d1270f83e0ae62eU, 0x3e06ea75beae81b8U, 0x3d1a430cbcd45dbeU, 0xbe37209ebd955c1aU,
  0x3d3b82f2be933de7U, 0x3cd017c4bea01588U, 0x3d220b0e3d050104U, 0xbc6fc58bbc80a656U,
  0x3e23f5a53dfeeee1U, 0x3df4bc203e801f36U, 0x3d3a05ed3dd6f40cU, 0x3e6801bc3e1bccf0U,
  0xbe07c2923dd8f68bU, 0xbd96efcdbd216095U, 0x3eb2d2c53e801467U, 0x3d75e08dbe564c80U,
  0xbda60b3b3e4eb859U, 0x3e2e77f2be8c397eU, 0x3e0a53d7bd8e5b7cU, 0xbe0c0880be5fd9b3U,
  0xbc80e5afbdbb4b1aU, 0xbd465e2a3b3ad402U, 0x3cc9751ebdd71e88U, 0x3cf4b0e8bdf5e900U,
  0xbdcd9e643e18c241U, 0xbd6b42ab3da43a38U, 0x3d843e18bcda0296U, 0xbe45f09dbde41a0dU,
  0xbe18cbd13d680df1U, 0xbe3a03bcbde8d992U, 0xbe9ee680be3d486cU, 0x3d8e1c1fbd5071a3U,
  0x3e558b7ebe81b56bU, 0xbdbc96883e0d7dbeU, 0x3d660d163d868f25U, 0xbe10ee38bea4dcfaU,
  0x3c153f3a3d5b16d5U, 0x3e2621223d350dcfU, 0x3deac3373c4d9ec8U, 0x3e51e6fa3e39fc3aU,
  0xbdd9402fbe1331e6U, 0xbefe9b813c7834dfU, 0x3e0cf1713d730bcdU, 0x3dd79ad83df3eea4U,
  0x3d95ee21bd812ac8U, 0x3de7fa7dbe372253U, 0x3ec947813cec40d1U, 0xbd9bdda93d9f17a5U,
  0xbe18cffebeb8483fU, 0xbe72ed913e98fc59U, 0xbcabbd4f3d40b6a6U, 0x3e1c4f273e91217cU,
  0x3dd39b9d3d07b7bbU, 0x3e38776d3e4361f5U, 0xbcdf1c2abdb81ce1U, 0x3d6fab343dc4a430U,
  0x3ad5e6b9be4d43e6U, 0x3e8e8e59bc8a8111U, 0xbce48c863dc6250cU, 0x3e3bf19abcdd8544U,
  0xbe04a22bbe042db0U, 0xbcc4a0043e1ee38dU, 0xbe30d208be8bac4eU, 0x3d2f8e49be0a124bU,
  0xbc816b3f3c4f5a21U, 0x3d02ce41bebbc9b9U, 0xbd9c165e3dd9b0c1U, 0x3e20332dbc0a5c8fU,
  0xbe0237983e3ac64dU, 0xbe12c6d5be5ae91aU, 0x3e1c7977bcbe09f8U, 0xbcc5d60fbd40d285U,
