/**
  ******************************************************************************
  * @file    network_data_params.c
  * @author  AST Embedded Analytics Research Platform
  * @date    2025-12-04T23:30:32+0200
  * @brief   AI Tool Automatic Code Generator for Embedded NN computing
  ******************************************************************************
  * Copyright (c) 2025 STMicroelectronics.
  * All rights reserved.
  *
  * This software is licensed under terms that can be found in the LICENSE file
  * in the root directory of this software component.
  * If no LICENSE file comes with this software, it is provided AS-IS.
  ******************************************************************************
  */

#include "network_data_params.h"


/**  Activations Section  ****************************************************/
ai_handle g_network_activations_table[1 + 2] = {
  AI_HANDLE_PTR(AI_MAGIC_MARKER),
  AI_HANDLE_PTR(NULL),
  AI_HANDLE_PTR(AI_MAGIC_MARKER),
};




/**  Weights Section  ********************************************************/
AI_ALIGNED(32)
const ai_u64 s_network_weights_array_u64[18004] = {
  0xbefbdd383df765d9U, 0xbe3215d93d7152d7U, 0x3ceb070a3f4651dcU, 0x3ea3cd1e3ebafd95U,
  0xbe45b608beb3c3ebU, 0xbe2c491cbea5bd77U, 0xbed899cdbe31ad8bU, 0x3e5e3ebcbc50c904U,
  0xbef1c1043d6223d6U, 0x3f42e03f3dfd8dafU, 0x3e359e293e6d2463U, 0xbcfc24b2bf0ed8feU,
  0xbf3acda73ea3ebf4U, 0xbe54b4b23e7fee1bU, 0xbd53d16c3eb8d90aU, 0x3f77f124be5e4292U,
  0xbe832ca1be24cb1cU, 0x3dff682f3e146fd1U, 0xbe822cf83edcb0ddU, 0x3e07d5fcbdc3293aU,
  0x3e83f5273f102499U, 0x3e8016dc3f10b3baU, 0xbe3e494e3ece16c1U, 0x3e127398becc9702U,
  0xbef16f973eec3b75U, 0xbe3b08fd3e5de420U, 0xbe8755dfbec4dcc7U, 0x3eb7f27c3b88e9bfU,
  0x3e086bc33e7eb96aU, 0xbe3c603f3e2b5363U, 0xbf62f2b93dc0c40cU, 0x3eae968fbeae554bU,
  0x3eaf9e52bf1263d7U, 0x3f3bf6d83ddc077cU, 0xbe09fc03bebf3a2aU, 0x3dfbb1cf3eadfb16U,
  0x3f058cbdbe9ca6d4U, 0x3dd89fbb3e8bfb7dU, 0x3dfe362abdb89f95U, 0xbe207b3bbec241ceU,
  0xbd9d0eb33ee79f4bU, 0x3e9be42b3f48c29fU, 0xbe8657ebbef3b168U, 0x3e83be89bebde4a3U,
  0xbec9ca63bf2b34adU, 0xbd9ecd743eed38bbU, 0x3e8f380bbc9837dcU, 0x3e9cfcbc3eac3247U,
  0x3f442f993eba0149U, 0x3f285fe43eac57ceU, 0x3e28a2453e472632U, 0xbe2c57d4be972f06U,
  0x3e2d9d10bee85a4bU, 0x3ed158e2bf2fa235U, 0xbf1596ba3d97ba2dU, 0xbec81f163ed9f17dU,
  0x3d629a0ebd9be2e2U, 0x3e80b13a3ef16d28U, 0xbea82db83e4a5201U, 0xbee207b93f5082c9U,
  0x3e826acbbeeb0314U, 0x3ed41838becb380dU, 0xbe7c82f93f3edb2fU, 0xbf3c4923bed4ca9aU,
  0xbe4eaa833eb5a3f2U, 0xbd0bfe2cbe3a9ca1U, 0x3f3a364c3e842912U, 0x3f02659abea4b09aU,
  0x3e14791b3f241ab6U, 0xbf067ad13e97717fU, 0x3f1617e53eaa044aU, 0x3e0b2d25bee849fcU,
  0x3ef4dc79bec4f7d1U, 0xbf05c7b4be266e43U, 0xbedc301f3e053ce1U, 0xbccfe76a3dc46a02U,
  0x3ebc3007be8e7b82U, 0xbea10bb9bd8116dbU, 0xbeb82dd63e93ece4U, 0x3e8700cdbea93cc2U,
  0xbd01797bbf3e0a10U, 0xbd3f5bdf3ef25d48U, 0x3ef632f6bd8b4604U, 0x3eb162153e843c9eU,
  0xbea7031fbebbadb3U, 0xbed6c3fcbec3e178U, 0x3e0a274abccbc8f0U, 0xbe15ccf3bdb050b5U,
  0xbe1fa3d6bb0ddb04U, 0x3d2fd42c3e6f287eU, 0x3ef34a87be9dea2dU, 0xbc53dedcbed118d7U,
  0x3ecbff9fbf44173eU, 0x3d783f48bea024b8U, 0xbe188fcc3e5d927dU, 0x3c395687bf429c22U,
  0xbf2ceed83e1931afU, 0x3dd77c00bec78252U, 0xbeaa90063f5393c5U, 0x3f2d15fabe7ccd0eU,
  0xbdb8fcfd3eb2b6feU, 0xbdd3fd533db3a8cfU, 0x3f3e2775bef66b56U, 0x3e7dbbfabec8ff16U,
  0x3ebd3954be16eb26U, 0x3ef856c43c6cfa65U, 0x3e9fd2673e8b4e33U, 0x3ed207f43bfa082eU,
  0x3e903c44bdf73d1cU, 0x3e2e91353ee32d6cU, 0x3cb91ba9bed0b764U, 0x3e9c1a883e530d13U,
  0xbdb6a0b6be486d11U, 0x3e8599ea3f4f022fU, 0x3f15afc53cbc925bU, 0xbe9db9c73eedeb10U,
  0xbe39cebbbf3d3b0fU, 0xbdb1bdb6be970224U, 0x3ee5b03abe969026U, 0xbe6c396dbf2af4a8U,
  0x3f2ba695bee40f58U, 0xbf1246393d06424fU, 0x3eaabbba3f07d9a6U, 0x3f12a0d7bbdee8c6U,
  0xbec52a9bbda548ccU, 0xbec915083e14b4e3U, 0x3eddf6203e071e80U, 0xbea3dc973e00baa5U,
  0x3dd8057ebf138ab9U, 0x3f40b1cebde00456U, 0x3dda112fbe745a9bU, 0x3e402e0a3ea436f4U,
  0xbed6e2ae3ea2db17U, 0x3bf3a0b43ebd2e96U, 0xbed6bfccbda9248eU, 0xbeb20fb33f0744f1U,
  0xbf03ea593c2b11ebU, 0xbdf061663d27aa3cU, 0xbed0182fbe6ef089U, 0xbe0f36093e01285aU,
  0xbe4260ce3e901cbfU, 0x3d8415723da07d08U, 0xbe650dd33ed2c1f0U, 0x3e8a0ae73e65a970U,
  0xbf1b4edd3e2b3a50U, 0xbee2368cbec8cc4dU, 0xbeb7e3fc3f4eb3adU, 0x3f0effc3be4fa35bU,
  0xbea1925f3e33a524U, 0x3ec2e08dbf04ada6U, 0x3e808af73dd1d22bU, 0x3ed5e548bf00b542U,
  0x3e84ca32be3c71dcU, 0x3da3c1d2be24de73U, 0x3e4498c5bea84fdeU, 0xbe50ebafbea17a88U,
  0x3f2408d2be729df7U, 0xbe0260bc3c44d513U, 0x3ea5fe233f22c680U, 0x3ed5b77cbe2fdc9aU,
  0xbea1d3dfbd6bf56bU, 0x3d999713bf3cb8b7U, 0x3ede1efcbe526d1dU, 0xbe925c1c3ef5e521U,
  0xbde1eb5c3ef330b7U, 0xbf498d12beb6105fU, 0xbee38b0b3e4ac26aU, 0xbeb551e3bf168aebU,
  0x3f2587adbeff0335U, 0xbea00d92bed34ba1U, 0xbea9a9b13f2ca94aU, 0xbe0b6d263ecc3cb3U,
  0xbed56c47be9ae898U, 0x3e26accc3eb412afU, 0x3ec75209bec1552fU, 0x3edd5b4e3e989620U,
  0xbd23fd2b3f143dddU, 0xbf4d0410be002d99U, 0x3e15c063bec74caeU, 0xbe46d714bebaf1ddU,
  0xbefb42e83ef39d40U, 0x3ed0c647bdd9a9e3U, 0xbe5bd1f6be7dac96U, 0xbec6ec06be5b2fb7U,
  0xbf00b6973eba56fcU, 0x3ea91dfcbd913b4cU, 0x3f2c72efbe24a5eaU, 0xbeaa5c253e5f2823U,
  0x3edd3d973f494300U, 0xbd451e11be94dd59U, 0x3ee71ca0bebb4370U, 0x3e0750093df101bcU,
  0x3ee25429bc6a8de2U, 0x3ecf6277be18f7c4U, 0xbe60dab83f42bc78U, 0x3e35efdcbf01fa50U,
  0x3ea552b7beb932e8U, 0xbcaded8abf41b761U, 0x3efc3374beb05a56U, 0xbf09b2eabeb2ea34U,
  0xbe5e29f0bee0e007U, 0xbf3a7e853ddb72dfU, 0xbe5656363ec72f45U, 0xbf02b91fbe841286U,
  0x3d7b85ed3ef5762eU, 0x3ef4450dbe8ee980U, 0xbdd7848bbf01dcafU, 0xbeefe9ed3e82e895U,
  0x3e61e8c6be50e999U, 0xbd19ebedbf2eef04U, 0xbf3f95fdbe2961ddU, 0xbf0d9d2dbd86b916U,
  0x3eb33858bea47f47U, 0xbd270b443eaa50dfU, 0x3e15ef2dbe38c84aU, 0x3d8155563f1a9c50U,
  0x3f04c0dd3ee4df46U, 0xbe51103c3e8973c5U, 0xbc071a42be4bc9b2U, 0x3f0d5105bf01e6d0U,
  0xbcb6c06fbea957e6U, 0xbe537a7b3da2b78cU, 0xbf2f6efb3f1bcf29U, 0xbebeea4bbedc751fU,
  0xbd7728dd3dbfb07aU, 0xbe75a486be9cec53U, 0xbedbf3abbd6cd558U, 0x3df65d013d1e2250U,
  0x3f0a3d8e3d960be4U, 0x3e8f1f90bed61789U, 0xbe3808b8be74ecb9U, 0xbf1fff0e3ecc77c5U,
  0xbe9cffce3d124ddfU, 0xbcb081853f36de1aU, 0x3f1bc49f3e282388U, 0x3ee0e778be48319cU,
  0x3ea1dc7dbf378b99U, 0xbe87d9923d82960dU, 0xbe25e773beb03ff0U, 0xbdf3b93abf277629U,
  0x3d1b4033bd5d8e27U, 0x3e6f6e46be0bdacaU, 0xbd35f34e3e0f187fU, 0x3dde2a043e0be813U,
  0x3deee40abe5343c0U, 0xbd870e26bca744e4U, 0xbe7813e33d05f056U, 0x3d1c67133dc9ce3bU,
  0x3b421a67bd99ccc5U, 0xbe25d699bd0460fcU, 0xbd6cf3b7bc3b5a10U, 0x3dd25012bdfed810U,
  0xbe5d25ce3ca86a7eU, 0xbd3992a7be6d70caU, 0xbe3040963e238934U, 0x3d0b628bbc801483U,
  0xbe7397a23dafa2efU, 0x3d2e71e13e304810U, 0xbd5dd870beae6dd3U, 0xbd3ce64b3def2695U,
  0xbd934e29bca00f82U, 0xbe9499e0bd25c19bU, 0x3d9dc8e23c94f09dU, 0xbee91e91bd8107f2U,
  0xbf4c0a383e09f495U, 0x3db6d67dbe95d4f1U, 0x3cc6697f3e52b232U, 0xbe96682dbc91465aU,
  0x3e0a6779be357781U, 0x3c45081d3d676c37U, 0xbe3988273dbb7294U, 0xbe871f753e6236a2U,
  0xbe9785e3bef6320fU, 0xbe98c7cc3e4ad330U, 0x3dc25eaebd7fb274U, 0x3e9524933d0c8ac9U,
  0xbe29fbbc3e946e6eU, 0xbd6fc2b5bddf570aU, 0x3e2200af3d889ebfU, 0x3e87583f3dfa33b7U,
  0x3c8706ed3e6d35daU, 0xbd145a06bd41b2c7U, 0x3dbc6cc2be9ec126U, 0xbdb4845cbcbc8699U,
  0xbde6cb9a3dc63e1eU, 0xbdf402c7bcc344cdU, 0x3e1e5f69be8e6a14U, 0xba13c1a63e7d7a4eU,
  0xbe0c83653e9a9092U, 0xbc93aa5bbdf5340eU, 0xbe11a87b3d54145eU, 0x3e024ca53c89bd91U,
  0xbd89b564bee30be7U, 0x3dd9ed23bb729af5U, 0x3e3d1fe5bdb1ea15U, 0x3d503c5a3dd15a63U,
  0xbf70ac62bd96e05bU, 0xbdb3df8bbe7606a4U, 0xbdcc44dbbe97b123U, 0x3d99684abd1dbff5U,
  0x3cab49873e3212f6U, 0x3d3ad11c3c1cb26eU, 0x3e0fa1703d63c573U, 0x3e55563b3e88808bU,
  0x3ebdfeebbed75619U, 0xbea697d8bdc5732eU, 0xbdb47d1f3e460291U, 0xbe9cd0dcbe14a1c3U,
  0x3ce0dee93eb97c4cU, 0xbecb3e293dc86b25U, 0x3d01c6ddbd74f9a7U, 0xbe54abe0bdb1659fU,
  0x3da572a4bdfb54acU, 0x3ef8b6333cc472e9U, 0x3cfcf49a3ec1c5bcU, 0x3d9637f1bc8ccd4fU,
  0x3c1285303e66a653U, 0xbc07dfe83e138c37U, 0xbe3d68ea3c3ddbbaU, 0xbd1055903e7513d1U,
  0xbe9a6931beec4f97U, 0xbeb856d83daaec51U, 0xbd6e7488bd2c7a7cU, 0xbdfe453dbda8a422U,
  0x3d7a82283e2fe5c8U, 0xbe5f3bcbbcbd0109U, 0x3e8b2945bcaf6198U, 0xbe9030543e2c0accU,
  0xbe7e0dd33dee3182U, 0x3dd7bd693c037702U, 0x3e3f34d53f01085cU, 0xbd45733ebcb6e1f6U,
  0x3de15d8a3e19e0f2U, 0x3d8b04c73d37a0c7U, 0xbcd2e44dbd157197U, 0xbec387ccbdbe59b4U,
  0x3e738a2a3f202b9dU, 0xbd940ed7bd98a850U, 0xbd5076163dd2a81bU, 0xbe701659bde60534U,
  0xbe7e59dd3dea783eU, 0xbda125bdbde93c28U, 0x3da61e413d80df65U, 0x3ec3352cbcb454e9U,
  0x3eb3a43dbb86c033U, 0x3e9d00a3be240200U, 0x3ea35df1be492e1aU, 0x3dedaa16bdb74257U,
  0xbd28a4c7bc61a281U, 0x3d7df0ff3ddb34cfU, 0xbe3abd893d543c1fU, 0xbe993bed3e9ac000U,
  0x3e47fbef3e07b35fU, 0x38b96dfd3c12568aU, 0x3e119792bdaf7045U, 0x3ba79cf4bda7490dU,
  0x3d58c351be5aac18U, 0xbdb67e203e1774f3U, 0x3d8803fcbd3326c2U, 0x3e2099703da8b1c4U,
  0xbf3b713a3e006ec2U, 0x3e96d2383df3e80fU, 0x3e8b9a51be869d4aU, 0x3d8ca43ebb9528ecU,
  0x3e83a242bd96e742U, 0xbded0bf33e17735aU, 0x3e69ea3ebe73ded4U, 0xbe22a3483e575e21U,
  0x3ea550603e2ff43eU, 0x3e3b1c343d20993cU, 0xbe208d823d4637fcU, 0x3e079ecf3e133c4aU,
  0xbde8fd0fbe79a94aU, 0x3e953179bd985ca4U, 0x3bd7666c3df0fe3dU, 0x3e28c766bdfac289U,
  0xbe9ad117babd1c5eU, 0x3e1c52183ebfb247U, 0x3e3f5c333f051f2cU, 0x3e633e30bb144d4bU,
  0xbde0b996be79c20bU, 0x3db03f78bce34fbbU, 0x3da8c2b3be037f2bU, 0x3e66ca793df195f4U,
  0xbd9fab52bcb51556U, 0x3e6c49663e000166U, 0x3e3a19f3bd112b05U, 0x3e79d8123e0f77a3U,
  0x3e89f70f3e358a29U, 0x3ec1f35d3d997622U, 0xbe0493183d24c6acU, 0xbe80ac7bbde9b8e6U,
  0x3f3263f4be55baa6U, 0xbe2d44aabeb4ed90U, 0xbdc17d843d0866d9U, 0x3efa69383df0f98bU,
  0xbe7213003e840a41U, 0xbda4f4dbbaac7c46U, 0xbdaca0e53d59fc9cU, 0x3e9e0419be69b28dU,
  0x3db43c0d3e5d8e7dU, 0x3ddea375be2ec8c5U, 0xbe8fcc6bbdd97028U, 0x3d6590da3d91b2b8U,
  0xbdb50e19bc88dbc7U, 0x3dd9e0c2bd498578U, 0xbe6d8dffbda860b3U, 0x3da59a32be020b6fU,
  0x3ee1b7673e2b0ffaU, 0x3d043b05be9e4381U, 0x3c64c6603d8cae78U, 0x3eb4aababd63c42bU,
  0xbd4f9036bdf171bfU, 0x3dd8f032bdd81b48U, 0x3df54b78bea714e7U, 0x3e703a0ebe9fa45eU,
  0x3e87007e3dad182aU, 0xbd9dee913e427541U, 0xbead5cf33e1c7badU, 0x3c8ce410bde6222fU,
  0x3d62ff56be3e1dc2U, 0x3eb758a0be2f9b77U, 0x3e6dba00bd7e1312U, 0xbd5fcdadbd8650fcU,
  0x3e491adcbd8f7ce7U, 0x3e6790423e162ce6U, 0x3e628a463e28af4fU, 0xbe8cb0acbcb54a22U,
  0x3ddbb254bdf2a0e0U, 0xbce746773e01e943U, 0xbdf96f50bd695338U, 0x3e2a42a4be38dc6aU,
  0xbe9f4246b9dd2941U, 0x3d20f2d8be270aedU, 0x3e1ae9d3bdb4fb3cU, 0xbe6f83aebd7f77b8U,
  0xbd57ac753ea8704bU, 0xbe82f13e3d404451U, 0x3e91e6a9bdc2561eU, 0x3e8a4433bd626dbbU,
  0xbf135d4ebdee76d8U, 0x3eb77940beb717d7U, 0x3e8ff5603e89f1cfU, 0xbc45396d3dfd8b15U,
  0x3e3ee92dbd831209U, 0x3d4217d93ddfd322U, 0xbe68ebf83d95b6baU, 0x3ca639913e1ffb66U,
  0x3e7a0cd4becaf4deU, 0x3d98c8fcbcee0f02U, 0xbe3996f6be62b3afU, 0xbe817c5c3dc90f48U,
  0xbdf9d7a13e49f512U, 0xbe153d4b3dab36a4U, 0x3defef32bd8d687bU, 0x3ec417fd3e36d07aU,
  0xbf099c483d1f2e04U, 0xbc3960d1be4648cdU, 0xbdbee3b53daf2b00U, 0x3e3ac4f53d14bfc6U,
  0xbe02cf033e4b33fcU, 0x3d1b058fbd93e959U, 0xbe179f3fbe016c2aU, 0xbe33a4f7bd93a2f5U,
  0xbddea6a63e96de95U, 0x3da1c9d03dac0847U, 0xbe0a3c30bebfc972U, 0x3d68ff03be1710b9U,
  0x3e35486dbe8f7b4aU, 0x3eab888cbe065d2bU, 0x3e5720a23e04b844U, 0x3eb43f39be10c557U,
  0x3f16a101bd69f17fU, 0x3e06ea80be1054f8U, 0xbdfff518be829800U, 0x3dd9ed443dec4fcfU,
  0x3de9c3b7bdf7787fU, 0x3c89f1873d62e339U, 0x3de8f74e3d660eebU, 0x3e09ca883e313b67U,
  0x3db4fbbcbf0550bfU, 0xbd67fe143d153cecU, 0x3e106ee2be41b4e3U, 0x3e6f7063bd99b9d8U,
  0xbdbe7fffbd4f15d1U, 0x3e72da2e3d260ebcU, 0xbe516f843dbfc691U, 0x3e0533c43bb8e7ceU,
  0x3f3d9da63dc1047eU, 0xb9a9de423e816bd2U, 0xbe295b0abe09d50cU, 0x3e2a094a3d8845adU,
  0xbde4f43bbe043651U, 0xbdbb2df03de15ca8U, 0xbd17f27abd3c013cU, 0x3d9a9092be0da92dU,
  0x3ec86c3b3ec53d3cU, 0x3ea07ad0be4b0750U, 0x3e591c783e521191U, 0x3d81c78a3d1175e6U,
  0x3e41e9e43dc4c928U, 0xbc84d9f63d9fb999U, 0x3d4611743c9d96b3U, 0x3de90bb7be0d51a3U,
  0xbfd8e2c0bd0fa4bcU, 0x3e6815c2bd3f5693U, 0x3d8a79edbe376157U, 0xbe8c65cebc051ca2U,
  0xbe565c6dbd4c77e0U, 0xbc2372c13d8809e9U, 0xbb606fc83e1c28baU, 0xbec817d13e2bcf84U,
  0xbdfc11c3be99edb3U, 0xbe46c9e5bdd09d3fU, 0x3e68d35dbdf3dcb0U, 0xbe200f673e0e9949U,
  0xbe085802bdcf7058U, 0xbeb63b33bd37abbfU, 0x3e02a6a73d761e5fU, 0x3c32dd643d1c4f36U,
  0xbf4d08a33d5faa18U, 0x3e9522063e63ad03U, 0xbdd2a1b33ee483a1U, 0x3e1e977a3e06963eU,
  0xbe85e17f3e10f0deU, 0x3d8b9c973cab6663U, 0x3d85db79bdbd7301U, 0xbe950d3a3e0aee07U,
  0x3eda797cbc152596U, 0xbd228e7b3d27d3beU, 0xbe366b26be0c5cd5U, 0x3dcceb243e096903U,
  0xbe1bebbe3ebd73dbU, 0xbe178bb23d809136U, 0xbd9d6e96bd7f0463U, 0x3ea2cb573cdc1350U,
  0xbed6fc273d84f79cU, 0xbd245ed4bc7d1e4fU, 0x3cb886bcbe9bc048U, 0x3e8e4e913e0607deU,
  0xbdcd1af53dd1729bU, 0x3cfd5a6e3d6217e5U, 0xbdd78992be5c92a4U, 0xbe89bdd1be706c1eU,
  0xbdc32d5d3e343c0cU, 0x3ea752b83d84c417U, 0xbdbf920abe18c6e7U, 0xbe099ce8bd38d4eeU,
  0xbd3bafe23e3fb2a4U, 0x3e462d753d888a68U, 0x3e07c5ebbde863beU, 0xbdf272c03da11cbdU,
  0xbd010a5ebda5e98cU, 0x3e53e55b3e04f162U, 0xbdfdf48a3ea34b8fU, 0x3e457015bd6b7aa2U,
  0x3dd778063dfa4e23U, 0x3cd736cdbd9031c9U, 0x3dad128b3cbc41abU, 0xbdaebb09bc83aa37U,
  0xbeb29a9e3ebf1702U, 0xbde97cb5bd6fc555U, 0xbe9e94253dfdcd4dU, 0x3e168fc63d5530b8U,
  0x3c9fa1d83e3c2034U, 0x3e72ebcfbcbbfcc5U, 0xbe1351c03d13299dU, 0xbde2dfe1bd31f5b3U,
  0xbe7d30983cb421a8U, 0xbe5c78bc3eb48006U, 0x3d8093fc3ee0255fU, 0x3e284779bcd9d981U,
  0xb99e01293e49c1dcU, 0xbdafb4a3bdb26f19U, 0x3de94aac3dfe4c8eU, 0xbdb865bdbe84f758U,
  0x3ee8507fbb5105d9U, 0x3e4a04923bd369cfU, 0x3e14bb4cbdde831cU, 0x3e5a7ffd3d1e06f4U,
  0x3e64f2f73de73788U, 0xbf0687c6bcc05768U, 0xbde742e73d50872bU, 0x3ea860ebbdff9e5eU,
  0xbdf83f7d3e4e81bdU, 0xbdb3b99cbe17f3c1U, 0x3bae2740bccd25f9U, 0x3e79c452bdee277fU,
  0x3e2c7f54be4e9072U, 0xbd0220493d93c52fU, 0xbe1b9cbebdad411dU, 0x3ebe2bd4be0af5c0U,
  0x3edf5292beb4b26dU, 0x3d05ca473e17e1e0U, 0x3db617c03e32ec9aU, 0x3e8106533d9f2eb5U,
  0xbdb134423eb88c80U, 0x3e6839ec3e0ce465U, 0x3e7c5662bdc759daU, 0x3d56fe613da3c468U,
  0x3e2454123ca0276fU, 0xbd24f5d1be09598dU, 0xbd4242c1bc9fc7ccU, 0xbe8d7c01bd642f8aU,
  0x3e3260333e5d3579U, 0x3cff2f85ba984ae3U, 0xbe2a843a3e004e61U, 0x3e288ba23dc16d0dU,
  0xbedb727ebcb04c1fU, 0x3e6d08b4bdaf5bbcU, 0xbd8c45103e29808cU, 0xbe50bf863d9de239U,
  0xbc9b61553d98cc86U, 0x3db45c52bdc9fb2fU, 0xbde5a402bd8e1011U, 0xbbe6aa78bd18c547U,
  0xbe58e92b3d92f1a9U, 0x3ea5b7183db783e3U, 0xbe55d696bd8184fbU, 0x3e699ed4bd9b974dU,
  0xbdef2e363e5c5a3dU, 0xbd3cb08d3e099974U, 0x3e1399c0bd327270U, 0xbe6b66c5be818295U,
  0xbeb494a73ea4ffc4U, 0xbc40cd6cbdbea661U, 0xbe4f12e3bea9a9c7U, 0xbc2a86a33c9da3bdU,
  0x3d6e46653e1629ebU, 0x3eb05f6ebca4d835U, 0x3cd30bbebcac70b8U, 0xbe0b44713c407ec0U,
  0xbf839162bc718235U, 0xbe0973e83d8f78afU, 0xbe12103a3d412094U, 0xbead90c1bd8e1d53U,
  0x3d8cd920be3f7944U, 0xbdc1b588bd568907U, 0x3d20b3973d72d4e2U, 0xbdeb5c793e1d669aU,
  0xbedc314e3e9cfc6bU, 0x3db502eebe837b70U, 0xbe3fe887be688e76U, 0x3dc39ca93d32bf50U,
  0x3e271881be05be42U, 0xbe154bb63b9b5050U, 0xbec489efbd987e1bU, 0x3df68a2dbde018daU,
  0xbf323fa23cddda09U, 0xbe24c919bea9aee5U, 0x3e799cf8bcb3be1cU, 0x3d82b044bc765434U,
  0xbd7455093d82e84cU, 0xbdc0df263c463726U, 0x3becaefebe86b93bU, 0xbe9c07d33eac0c5aU,
  0x3e0f09c8be1dc4b2U, 0x3e84de05be14ecfeU, 0x3da02f32be3654eaU, 0xbd3af5c33ca90b6cU,
  0xbd82ccd8bd0cbd69U, 0xbf0bf9f0bdb78d25U, 0xbdca464ebca035c9U, 0xbe6bba15bdc8d2f9U,
  0x3e06fb8bbe2824a5U, 0x3e414e68bed75981U, 0x3d96cf803e9ff206U, 0x3d0feb9abce8311bU,
  0xbe08f0203d5e537fU, 0x3dd6030fbdaf2df4U, 0x3d3dba573d059a13U, 0xbcda8b90be17f47aU,
  0x3e975717be0df851U, 0x3de3d6b0bd8e063dU, 0xbe0aae523e9dabf1U, 0x3d9ab56c3d6810dbU,
  0x3d84202ebf073331U, 0x3ea4d6d5bd0af4f5U, 0x3e8b905d3d10cfe3U, 0xbe6c335f3b575ff2U,
  0x3d91dc013dab5168U, 0xbe8f16633e87f559U, 0x3d87a075bec9f70dU, 0xbe36c91b3cc4a0b3U,
  0x3b7115143de5f29dU, 0x3d7856e7bdeca028U, 0xbe42a28c3e5ad20eU, 0xbeec1b99be7bcb74U,
  0xbe6821a03ca40b7bU, 0xbd14f640bd3d3febU, 0x3d2841283db0d5a4U, 0xbe760fc73daa7674U,
  0x3e7a4884bd2e467bU, 0xbddc68d7bc25fc5aU, 0x3e77db76bd95bde1U, 0xbdb7c2cfbddbb708U,
  0xbe8b9a88b9266292U, 0x3dc591d4be9e3b2cU, 0x3ca11ce73e05d9b3U, 0x3e4e02e6bda70a73U,
  0x3e55aa06be53756dU, 0xbc43682fbd8f2369U, 0xbde224993cfb152cU, 0x3e42af663d19c8afU,
  0x3f00c80c3e0599d6U, 0x3e8a56ffbd8f5460U, 0xbdbc32443b8d7fbeU, 0x3e3052ffbde141d2U,
  0xbe1b7e8e3e092ad6U, 0xbf0d334dbd8ef05dU, 0x3e33414e3dbe0421U, 0xbd21a09d3e3fc408U,
  0x3ec3efc0bd89d7aaU, 0xbed28d263e45a361U, 0xbd332a9a3e7de4eaU, 0xbece83d63d93bc15U,
  0xbe3415abbe9edafdU, 0x3db38127bd976cbaU, 0x3e65866abd820883U, 0x3e2a25be3e372b88U,
  0xbeaf3ab4be8115f1U, 0x3e898b4cbd82ecc3U, 0x3da9a96cbcedc51aU, 0xbd13ddb8be029c9eU,
  0xbdc6c4c93e6a073dU, 0x3c71fea7bdcb05bfU, 0xbe4a952b3c8985c3U, 0xbee8a29fbe041d06U,
  0xbeea9c9b3de35ee4U, 0x3d55e1383e8116a3U, 0xbe8227493ed96647U, 0x3e117c583dcd041aU,
  0xbe1a8c5fbd511431U, 0xbc65cc52bd865c88U, 0x3da527713e7f09b2U, 0xbd916ef5beb4f4eaU,
  0xbed217333e43f038U, 0xbd53cd153d8550f5U, 0x3e4905ccbce779f6U, 0x3e1ebf9ebd592b2bU,
  0x3d7d3968beb4150eU, 0x3ed5a9e7bdd95735U, 0xbe8052f3bdcbda33U, 0x3d3027d53e09f78bU,
  0xbe0392d0bdc87e42U, 0x3e4d80f1be6e6d80U, 0x3e6ae755be19bd76U, 0xbc31251c3c198fbfU,
  0xbe2ec65cbcfedbb5U, 0x3d0d9d47bdbc2472U, 0xbd3941ccbc21ddadU, 0x3d9c6865be028e8cU,
  0xbe9350f43c35994dU, 0x3d6012babcf1bcceU, 0xbdfbdb0abe2ea4aeU, 0x3e16d2c73dcb10b6U,
  0x3e863cbd3e9d0a17U, 0xbd8d1320bc7c35d2U, 0xbdf6bc923aafa22aU, 0xbdbf968b3e75fd92U,
  0x3ecf834b3e57fe73U, 0x3e9833313e7fbfbcU, 0x3e97f4c1bee41bc4U, 0x3eaaf0683bbc2826U,
  0xbde06dc93df3459fU, 0xbc6002ad3e0b4409U, 0x395785df3d9eeb01U, 0xbdb453e63bc4ee70U,
  0xbe2fc55a3f17a1b7U, 0x3cdb86e9be440151U, 0xbe6d51f0be029adfU, 0x3dacfad03d1853c7U,
  0x3e0ff9f3be03607aU, 0xbda171e9bd37f1d4U, 0xbc5888423cce303dU, 0xbe0563bcbb900d11U,
  0x3e9105cdbe1c386cU, 0x3d2e6501be099569U, 0xbe298cd83e2dc580U, 0x3da78396b9cf2172U,
  0x3e62a9ae3d984b74U, 0xbcbe926abcb74ce6U, 0xbe5d23b1bcf429cbU, 0x3da73b9fbe97f430U,
  0xbe9e4d1f3eb3da25U, 0x3e2172b4bb002133U, 0x3d72fb3ebe218a30U, 0xbda52b083d76af3dU,
  0xbeb3a7c3bd6ecdd7U, 0x3e444c323e0c4d84U, 0x3e241bba3d62ee6fU, 0x3e453f2a3e10d7caU,
  0x3e8bd04bbd01b7a8U, 0xbe333bc53ec38b7aU, 0xbdd395f03ed5df70U, 0x3ea79c183cd29ecdU,
  0xbe250e6d3e49806aU, 0x3df1c062bc7b67c9U, 0x3e4924713d1da41bU, 0xbd87ba943d947e23U,
  0x3e5d77763dfb8211U, 0xbdcabe61be224a7cU, 0xbe6b31a6bddca998U, 0x3bca17653e0be7fdU,
  0xbe7bc85ebe878bb0U, 0xbd342c503cfcd0b6U, 0x3dceed02bd087156U, 0x3ed662ecbdfcab01U,
  0xbf42d7713daa21f9U, 0x3e5f13c33e23319eU, 0xbd377ef73c0db4c6U, 0xbdd29a5b3d2b9611U,
  0x3e7ef324bd6f25e7U, 0x3dd8769a3da56133U, 0x3e1514fdbe755d01U, 0x3cf566463e86657aU,
  0xbb23edafbe18e50eU, 0xbe230444be518561U, 0x3e207ea13ec4e710U, 0xbe33e610be218c44U,
  0xbe3f451b3efa7cc6U, 0x3eed7a1c3daead13U, 0xbe414271bd59a318U, 0xbe582df03d11c504U,
  0xbe1a7a1f3d082386U, 0x3d26f3843ef5726fU, 0xbb7ae12dbec26505U, 0xbea46b3a3cf60926U,
  0x3dec45863d3fb666U, 0x3da6d0443dfe51f6U, 0xbe1716713e5a18f7U, 0xbe577521bd930c90U,
  0x3e9c52ed3e666cbbU, 0xbccb9038be282cbcU, 0x3e7294d7be1ddea8U, 0xbde36825bd126e56U,
  0xbbff9859be96963dU, 0x3e523f0ebc39d508U, 0xbe5a72a83de25db1U, 0xbece1324be62df98U,
  0x3f82e318bc4f6478U, 0xbdf2ac3fbecdf935U, 0x3cf438423d9e5f83U, 0x3e382662bd7f437aU,
  0xbc7edd483e2decd6U, 0x3db2d101bd06f518U, 0x3ddeb779bdbf9664U, 0xbea078eebdc3389aU,
  0x3ea7d53dbe20dd79U, 0x3c2088e0ba5090d1U, 0xbd998a60bebb0e8cU, 0xbcbe4f6f3d8d4261U,
  0x3dc283413e22af8bU, 0xbefe87e7bcd80d25U, 0xbe21d1083dae5923U, 0x3c79485cbe42ba5cU,
  0x3e519fc83d35b49bU, 0xbe6b6fedbe28b231U, 0xbe51de4fbd15e792U, 0xbd2b54d23d8a114cU,
  0x3e5515bbbe1a8a99U, 0xbc10d02f3a9d2c8bU, 0xbc07c2383b4328feU, 0xbe5b8ec33e351cd6U,
  0xbe92e8ccbe0fd9d9U, 0xbe590fa9bde9c503U, 0xbdae24143e09365aU, 0xbe3cba1b3d8c6427U,
  0x3e0c57bd3e0b950aU, 0x3dad21993e031127U, 0xbea8cefebd683115U, 0x3d1def623d29825aU,
  0x3ec0131d3bd680d9U, 0xbbe682aabce8be85U, 0xbeb41da73e03666eU, 0x3df316b5bdddf5cbU,
  0x3e72b2d3bd8ee46dU, 0xbd1a58e43e01d419U, 0xbd65dfe23d8c2861U, 0x3e097ae5be887557U,
  0x3e7175113f25193aU, 0x3c1e95babdb7a385U, 0xbe1d4d713e46562dU, 0x3d0bfb0f3dd94a60U,
  0x3e0c858cbd5ff3d2U, 0xbec76d24bbd85ad5U, 0x3e69abb6bbaa7dcdU, 0xbe38e445be26bea0U,
  0x3f14b524bd31e8a9U, 0x3e379da0bdb22d5bU, 0xbd32cd94be498a09U, 0xbc28b396bdc3acf4U,
  0x3e5639033e16919cU, 0xbda744d53d6d8835U, 0xbc2474bf3dc14fc0U, 0xbe6ac238bdcdf0aeU,
  0xbeb4eeb83e94463aU, 0x3e634d03be3efffcU, 0xbe91c9b8be5c6c98U, 0x3ddf2971bd109e17U,
  0xbec4b6ca3de78a55U, 0x3e84846abcdf5cd0U, 0x3d4e84ddbc5ae326U, 0xbe8fd55dbe775c0bU,
  0xbf1d83983e02287eU, 0xbd378a2a3eb58ca4U, 0x3cab549e3dc00a44U, 0xbe0a30a0bd515965U,
  0x3db6919fbc36703eU, 0x3d201484bddf7de6U, 0x3e3bf8e33e4535e6U, 0xbcc930933e165329U,
  0x3a68e5f23ee63350U, 0x3e267ec4be01ff93U, 0x3ead0f6abe4ad546U, 0x3e3d0cbbbe543b3fU,
  0x3dc77e4bbe07b7d6U, 0x3e7199653dd36c35U, 0x3df537073e055c1aU, 0x3e549444be35aa9bU,
  0xbe491e503c6ff3f9U, 0x3eb92b023d7a9caeU, 0x3e65d21c3d1c19dcU, 0x3e68ced43ca8553aU,
  0x3e486602be111680U, 0x3c11acb7bd6cb8d8U, 0x3e026115bde617f0U, 0xbeb0310bbe8c5594U,
  0x3e5ce86d3e536836U, 0x3d992a163d672ba7U, 0x3e234e873d1f6997U, 0xbe83f86bbd97b5a7U,
  0x3dfca0133ddb6c6fU, 0xbea9c554bce2d2e9U, 0x3d71dcb1bde6ae70U, 0xbe3dcbd7be2c260bU,
  0xbd94b48c3e060cf3U, 0x3cefa5ddbdcb49a9U, 0x3daa6984bdce4c60U, 0x3dd5925dbd6777aaU,
  0xbe4bdfe7be665ca0U, 0x3c48cc9bbd0064b0U, 0x3e3f54733e5d92ebU, 0x3e901227bd90eadcU,
  0x3ea904633d890d21U, 0x3e300bf2bdce06b7U, 0x3e457343bceaf4aeU, 0x3d2016aebcb2b94dU,
  0xbdb965db3e94cfd3U, 0xbee3fb403e1f3e67U, 0xbcbc96263d5dbf66U, 0x3e280720bd961c29U,
  0xbe44d147bd930df2U, 0xbdaf47a3bec69b85U, 0x3e6d72afbe172d48U, 0xbde12795be0f9e6fU,
  0x3de136e7be25b4d3U, 0xbcf4be523dd0381eU, 0x3e471f053d0715a1U, 0xbe35dd50be486430U,
  0x3da8886cbe329efaU, 0xbd826bf9bcad2a90U, 0xbe74f2d73dea2753U, 0x3df79d6ebd87daa2U,
  0xbe12d1c53e97f08bU, 0xbeddb7b0bdfb6d0cU, 0x3ea13ee73dc590d0U, 0xbd5a73ba3e5aea95U,
  0x3e9a87643e49bb7eU, 0x3e9841f33e8f2fb3U, 0x3e87ad44be395f5aU, 0x3daaf4eb3dd2932bU,
  0x3db798783e93140dU, 0x3caaacb03db80654U, 0xbcf8b7ab3e1f0ddeU, 0xbe72fd4bbe98d619U,
  0x3df70e383d9803fcU, 0xbece8e43bcd8125aU, 0xbdd34ed9be69276dU, 0xbd3828ea3cedab55U,
  0xbe243e6c3e195f1fU, 0xbe6b79ec3c2bdb92U, 0xbdb928b4bd9ebf01U, 0x3e8c4d303ca621e2U,
  0x3d52614bbd59d329U, 0xbeb88a30be97c9f7U, 0x3e19e8e13e9056c3U, 0xbeb50e6cbe35a5d6U,
  0x3e462058bea10ac0U, 0xbd8b7de0bcc84185U, 0xbd3b74103d1dd1dfU, 0xbc523561beca66a7U,
  0x3ea9a3bb3ea07cd2U, 0x3c06bd67bc69aceeU, 0x3e836220bde88e2dU, 0x3d5bf116bdea9488U,
  0xbd4b39903e03b575U, 0xbe829a60bc88b2fbU, 0x3e97cb913cda8c6bU, 0x3e3a0296bc908d4aU,
  0xbee70928bd3f9f60U, 0xbe7ddc843d987673U, 0x3e3dc0013ebb34a7U, 0x3d2f5e2dbd96e37dU,
  0xbde40c09bd9968c6U, 0xbde0eaf43d47dac0U, 0x3ba62ae7bdc75ac8U, 0xbedaa9aebe78cd26U,
  0x3ebfd4113dd85001U, 0x3e0ff6823e4b4914U, 0x3e89f7cb3e7574a3U, 0x3e61cf633d7e1478U,
  0x3d3d3443bea8c924U, 0xbe030f36bde81c71U, 0xbdcdd111bd192b50U, 0x3e95cd8d3d165282U,
  0xbe09a6f53b461bf5U, 0x3de2fabf3e0295b4U, 0x3cf1c2c1be3be3f0U, 0xbea0f0323df79dd2U,
  0x3db57b6f3d6e9f7bU, 0x3d8fa9aebdf92965U, 0xbdf4fa91be068ea2U, 0xbde886eebe9ef54dU,
  0x3e3045743e37345cU, 0x3e1268583d88934eU, 0x3dea992dbd273f75U, 0xbc2a21863dc7b7a6U,
  0x3d19ad7c3de4fec6U, 0xbe4a77ef3dccd109U, 0xbe2af28f3d169fb9U, 0xbda31615bd8b9650U,
  0xbea82c20bd2149d8U, 0x3e69977c3e3506b0U, 0x3e8791fdbe638a73U, 0xbe2434df3df3c2bcU,
  0x3cb236fdbd9e6ccfU, 0x3c4366c3bdabaa45U, 0x3cedf575bc86f0c5U, 0xbe867eefbdb48ca5U,
  0xbdb48921bec579c2U, 0x3e50081cbe3fa141U, 0xbe908a1dbe19e658U, 0xbc491fd0bdc812a2U,
  0xbe10273ebdc57c05U, 0x3e05d9503d63d3f9U, 0x3e7c62b9be1402c6U, 0xbe68b1b63e033e4eU,
  0x3dec15403dbf5220U, 0xbed33415bee66747U, 0xbe84af5f3ef06b04U, 0xbdcbd41dbd5f1731U,
  0x3e8c1b49bc60dff5U, 0xbdc1acfcbe0b5623U, 0x3d256d4e3e241217U, 0xbe1e5ef5bdd66ea7U,
  0xbe2c9e5e3e69104bU, 0x3e7fad63bdc618baU, 0xbe638d9cbe19de4fU, 0x3df9c2f1bd93937cU,
  0x3e855679be76d710U, 0x3e369723bdb2e972U, 0xbe862279bda3895cU, 0xbed75459be044fddU,
  0x3ed5c203be26c5d6U, 0xbeddf29d3e025fb4U, 0x3cf60e6cbe8ff2ebU, 0xbef756c8bd89b56bU,
  0xbe6e6f3b3d70f6c3U, 0x3d89803bbdaa1535U, 0x3c29ecebbe545097U, 0x3dc26c2bbbff9601U,
  0xbe77803dbe8182eaU, 0x3da2e480bd11980dU, 0xbde57c52be4588c5U, 0xbe27c4dd3d5ca644U,
  0xbe2b9d04bdb1bb08U, 0x3e883a123da9013fU, 0x3e0162fd3d579545U, 0xbea3ebf6bb81985dU,
  0x3ec6f2a53e2dbcb5U, 0xbe31b9283e902a01U, 0xbe3feae2be938b19U, 0xbe8d58f9bdc868eaU,
  0xbd88c4c53ce9453dU, 0xbe0b7d53bddb7bcfU, 0x3ddea3f3be16c68dU, 0xbe75de833d165d5bU,
  0x3cda7d40bb6ba232U, 0x3e4605d43d996c75U, 0xbe520fc13e051ffaU, 0xbd6b30773bef30f3U,
  0x3c220987be481366U, 0xbf0882d9bddf786dU, 0xbc73d7abbd95c28bU, 0xbea85a1abc53f24aU,
  0x3f99a916bdf64bd0U, 0xbea18fac3e4b7915U, 0x3e0399b03e39affcU, 0x3e2c2f0ebc8165aeU,
  0xbe9734863d23b9a3U, 0xbdcc4a6a3d032d96U, 0x3d0e933dbdb592d5U, 0x3e0b06f93daac23aU,
  0x3da903fc3c6d371cU, 0xbe377ce0bd89c04aU, 0xbe2b8812be81dfc7U, 0xbe5aedfcbd413c54U,
  0xbe319da03c3286acU, 0x3ecb4d36bdda7e32U, 0xbe98ba1c3d0efc70U, 0x3d24272bbc8fa9caU,
  0x3f5b671fbc8e3145U, 0xbd0dbca5becacbdcU, 0x3d477b3f36a69972U, 0xbe6a21c73d95fd2fU,
  0x3d6e07fdbe9f0290U, 0x3d12d060be0ebe04U, 0xbd4b7e27be782d81U, 0xbe3383ee3dbba206U,
  0x3e898f8c3c541361U, 0x3e69716abdcc8b25U, 0xbde20d9d3e8d41c8U, 0xbe50fa9c3dabecf7U,
  0xbe847e393df71527U, 0x3ebdc295bd86c42cU, 0xbde8f948bde003ecU, 0x3d386d66be13d095U,
  0x3f5800e3bde0e9bbU, 0xbe8807273e99aea1U, 0x3d1a9ad93e998192U, 0xbe8ae229bd0b2509U,
  0x3dd1d3c53bdc26b9U, 0x3daaa79ebd927664U, 0x3de454183e3e1feaU, 0x3cbeefff3cb75b16U,
  0xbec959edbea81261U, 0x3e41a9e7be21f855U, 0x3c6173f3bb34ec3fU, 0x3e5ce7b13d0e3e8eU,
  0x3d1211c5be3eb219U, 0x3ec7aa273c35987fU, 0x3d2b97483e058ba7U, 0x3ea7ae3dbe7e2c3cU,
  0xbe9698a8be7b3299U, 0x3d845c76be167970U, 0xbd5b9e413f0bbf27U, 0xbe807b7fbcf47678U,
  0x3cba2dc63c31bc3cU, 0x3de07884bdd52e3aU, 0x3e20ccab3d4e1bcaU, 0xbe6d59553bde4a4bU,
  0xbdc148cbbe92adbdU, 0xbe56b2c23d8deb35U, 0x3e11c709bdb015caU, 0xbcf41c103d874df8U,
  0xbcf04e7b3e065b3bU, 0x3e0c63ba3e000814U, 0x3e5896f03ddfd373U, 0x3e8de0b33dc987c6U,
  0x3ed01926be623b6fU, 0xbe6dd5b6be06b156U, 0x3cb9ad0e3de844f8U, 0x3e4de1713d96676eU,
  0xbe02c7b0bdc196ffU, 0x3d9cd63a3dd76bbeU, 0x3dab73babe1cb889U, 0xbe8cd9223e8ba25bU,
  0xbe92f64fbd5b0e95U, 0x3d95ebdd3c18a1faU, 0x3e7bc1a3be319517U, 0x3e4fabdb3d2203b7U,
  0xbe1b10ff3eb8cc6dU, 0xbd0366be3dc58ebbU, 0x3e4adea0bd097598U, 0x3e8cad243c43a7e5U,
  0x3efcfe733e6f0168U, 0x3e29461a3e805dc5U, 0xbccc80d03e99d7adU, 0x3ea2d2e0bcaa4488U,
  0x3c75a3ff3e021286U, 0xbddc04bfbd009c23U, 0xbd56b90bbdff8b8eU, 0xbeb791ac3e127c97U,
  0xbcf3adedbe2781a5U, 0xbd6de9cd3d8e8f22U, 0x3e60e3bc3e78a6c0U, 0x3ca76b6bbd510f2bU,
  0x3d934cc83eeb2fb5U, 0xbeb47cb1be2ca9e7U, 0x3d2d2459bde49316U, 0x3e8a5d833e2a514eU,
  0x3eab5f283d5352ddU, 0xbeb608623eaef23cU, 0xbe1cf82c3e99a0aeU, 0x3e53be053d4792c5U,
  0x3dfb53b3bdd5c398U, 0xbd6e6f623d9148c0U, 0xbe54e142bdf311e5U, 0xbd6cde6e3e65a64aU,
  0xbd5581ff3ec9d330U, 0x3e325a00bdbe87f4U, 0xbe579855beaa6605U, 0xbe2990f23de682beU,
  0x3e72cb743e93b6deU, 0x3c214300bd1c46eeU, 0x3e3cd929bc8395dcU, 0x3c3a847bbdd17614U,
  0xbcfcf9cb3cf3a561U, 0xbd564d833db476e5U, 0x3d12a088be3da637U, 0xbeb1aaab3df986b7U,
  0xbd3eadbb3de7b741U, 0xbd00fcc6bd035bd9U, 0xbd3fa4f7bd357c37U, 0xbe81ef56bdabef12U,
  0x3de7cf263cc027cdU, 0x3db26f0cbce44cf4U, 0xbe4cc1d4bd238c21U, 0xbe3725563dc36cbfU,
  0xbe05c75fbcc854a7U, 0xbe0693393deb7feaU, 0x3c94e56bbd17527fU, 0xbe6a6197bdd3de6cU,
  0x3f05cd8abd832cc0U, 0xbe74e40f3d76f764U, 0x3e3557f7be1da3c4U, 0x3ed68cebbdbdabcbU,
  0x3e5a9b93bd9b2330U, 0x3d4d643b3def16b2U, 0x3e38bab2be484482U, 0xbe0efbd1be976960U,
  0xbec6b8413e9cb67dU, 0xbd6e8e143e3a187dU, 0xbccdd20dbe4cd4ccU, 0x3e2a27ad3dc24fccU,
  0x3d815848be5aef92U, 0xbe98079f3c989450U, 0x3d90f1babd1a7b09U, 0xbdf82b833e20a24bU,
  0x3da087993e172cddU, 0x3e0f44a1be779d36U, 0x3cc24889beab91d5U, 0xbdd969dfbdec0a4aU,
  0xbd593bf1be2caf1bU, 0x3d664b3b3dd5f133U, 0xbe307ec6be3d301bU, 0x3e82381d3e740541U,
  0xbd708874bf0a0f61U, 0xbeacd9f23dd5135eU, 0xbc27de643e9a4739U, 0x3dff4c55bcc67448U,
  0x3dbb18c93d84784aU, 0xbdb4b5df3de7fe67U, 0xbe0b72babc8c3d37U, 0x3bf37854be1af146U,
  0xbf28d3aa3d6cdac6U, 0xbe7db8e53ecd63e2U, 0x3c7e46763d1eb76bU, 0xbe6309bfbe2446afU,
  0x3d9646bf3d78cabfU, 0xbdd3208fbcb77e47U, 0x3e5a1704be13674aU, 0xbd86cebdbe093250U,
  0x3ea32fc6bf0a7ef0U, 0x3e15ec2e3e2decbfU, 0x3dfb17a73e8b7f84U, 0x3e6dfaa13e29db3aU,
  0xbc907be4be014d5fU, 0x3e99a4b43d591db7U, 0x3dca40fabe2aade8U, 0x3d4eb89fbd2a16d6U,
  0x3f3fa1c4bdfd6553U, 0x3e5d8614be554bacU, 0xbe21ddde3ec068a0U, 0xbe7be750bdd445f9U,
  0xbd3106f7be048c93U, 0x3d89bd513dc03c09U, 0xbdb1911bbd3c1df9U, 0x3e2a6057be1955caU,
  0x3e962d65bec4012cU, 0xbe219a823e3c1d90U, 0xbe7d7a9c3d188222U, 0x3dc4cd4a3ccd9caaU,
  0xbe02479fbd9811bdU, 0x3e9823d0bdc4af22U, 0x3e56e43dbd751b8fU, 0xbd671eec3e631ae9U,
  0x3ef272f03e3be123U, 0x3c70a5d1beb67465U, 0xbdd8e3753e485ea6U, 0xbe2da0b2bd7ef36aU,
  0x3e944b66bd3d7a75U, 0xbd1b0d5f3c45cef7U, 0xbdb4252dbd87a73aU, 0x3e5f9dce3e2e7123U,
  0x3ebd01edbedb0070U, 0x3e1eb25abb7b4009U, 0x3a3108f8be827109U, 0x3e342de6bdbc6410U,
  0x3d2f2064be7c11a4U, 0x3db13a57bdf42614U, 0x3e18abb63d2e308aU, 0x3dd84263be2a9ee6U,
  0x3ed1d7b93e5c251dU, 0xbdb7065b3d8c737aU, 0x3e36baedbeb6c669U, 0x3ea921963e0a0e0eU,
  0x3d46cc863dc6e037U, 0xbc9a65063ddc2967U, 0xbd29ae49bd1539ddU, 0x3c6ab5873e7a3d42U,
  0xbb72a8f3be855bb3U, 0xbe6f8ffbbd2df46aU, 0xbe34c6503e41155bU, 0xbe4595ee3d2b0eb6U,
  0x3db5ca68be67521bU, 0xbdb62cddbd8cb8d1U, 0xbe2b0dd03db7cd53U, 0x3d99a3c83d84ddd6U,
  0x3f1483ccbd27de2bU, 0x3e8274edbebd4412U, 0x3e0b5943be18e40eU, 0x3d836e51bdd3f392U,
  0xbe10becfbe82f1a3U, 0xbd2ab6e2be0a30cbU, 0x3dbcf43ebeab80e2U, 0x3e9c97dcbc973304U,
  0xbdca1f15bdc9af3bU, 0xbe780207be13efb4U, 0x3c82308fbdb9d46bU, 0x3df9bdef3d67be35U,
  0x3e205ccb3dd01b73U, 0x3e5493db3e134aaeU, 0xbe0d9ae1bce1db08U, 0x3dbdedc0be627bdbU,
  0x3e899dc3be5d13caU, 0x3db19190bef06aadU, 0x3e1319b43e9af2aeU, 0xbe0ec6693de435d5U,
  0xbd9c6397be441afcU, 0xbc4c20663d614fa0U, 0x3e2fce26be655dd0U, 0xbc08f5fabc589987U,
  0xbe666fa03ea75a61U, 0xbe20f9abbe1608b8U, 0xbd6372bfbea4771cU, 0x3ddca686bc75aa9bU,
  0x3e2600f73cdd59f0U, 0x3ea34e273d3dea32U, 0xbdb1f8a5bba9ed0fU, 0xbe8bf8e0bdbc6f23U,
  0xbe60c52b3c822357U, 0xbeaad0713dfccba2U, 0xbe0bc8923c480556U, 0x3c9324623bdb34f2U,
  0x3e52464d3dd039a1U, 0xbd729ee63d1b636bU, 0x3e057b35be523a37U, 0xbe5f9df0bc93aab7U,
  0x3df26bfdbc71963fU, 0x3d93c29e3e154396U, 0x3e36c4eb3e73d2f2U, 0x3da51e7abe1ce819U,
  0xbddc981b3eba41c3U, 0xbe2ec7c13e0ee537U, 0xbe0248a43daa1439U, 0x3d708df4be5260bfU,
  0x3f186bc1be42aedfU, 0x3e67a31e3e846b74U, 0xbe59e6673f0b1de7U, 0xbdcfd3a6bdecef50U,
  0xbd81edb7bd9cba7eU, 0xbd888865bdab26a0U, 0x3df61ca63d9da57bU, 0xbe86f8db3e9d9bdeU,
  0x3eca46883d532f17U, 0xbe1454df3da88d0dU, 0x3e940c46be3852c7U, 0x3e7b90afbdbe3759U,
  0xbd9faaddbe4b1d1dU, 0xbdab89943d1764f1U, 0x3db340d1bdfff96eU, 0x3e053a4a3e11b14fU,
  0x3f0c9ba3bdf18791U, 0xbeb310f73ea65b84U, 0xbdad2ad0bedfb1abU, 0x3d3460d43d67cf30U,
  0x3e2a8d5d3e846099U, 0xbdb40aca3c8d0872U, 0x3e0f4ab5be8eef78U, 0xbe559aa03e375943U,
  0xbe824ee8be6c919bU, 0x3e0a67753dd8eae0U, 0x3c8df18bbea445cbU, 0x3de6846dbd779466U,
  0xbe3307abbc383145U, 0xbead918fbc47936eU, 0xbc534a663d30f79dU, 0x3ee893693d0077d8U,
  0xbe3da698be15f1f3U, 0x3ddc1ec03d959b4bU, 0x3da93065bd68e02fU, 0xbdf314463df5a3aeU,
  0xbe149b32bd8d692bU, 0x3e000f5bbd5a382aU, 0x3d1deacbbe467c8fU, 0xbd4e1a4c3e8be072U,
  0x3e9dcf5cbf160382U, 0xbe36fa613dfe76baU, 0xbe12fc85be8c026bU, 0xbe01206c3d97fe4aU,
  0xbe1ada23bd2c36acU, 0x3ebca84e3d4bb395U, 0xbdd7a713bbc6f9d3U, 0x3d1a1fc13d5b5b2dU,
  0xbe9ef5033d9f5745U, 0x3c3d95d6bdbf81e8U, 0xbe418986bea35527U, 0xbd7d91e3bca3f538U,
  0xbdb73391bdf13fadU, 0xbda4fcfd3dc17b6bU, 0xbe31d979be0d1600U, 0x3d89cbb53e5179f2U,
  0xbe2b0d75baa281c6U, 0xbdf0385f3e028f74U, 0xbcc181a0bdc62654U, 0xbe3e4da13d8892e6U,
  0x3d33a0f1be24d430U, 0xbe42a0173e292c2fU, 0xbe5302463d77e95bU, 0x3c4898683d4d58ecU,
  0x3c827e003dbe3d2dU, 0x3e263bb33e26f7aeU, 0xbe51a2c9be44f414U, 0x3eee6e883d531d97U,
  0x3e69e5173e1e8dd5U, 0x3d53fb39bd886e25U, 0x3e42ec81be4fad8bU, 0x3e21d1c23e5900f2U,
  0x3e4de1dcbea063c5U, 0x3da6ffdc3d8ff9a9U, 0x3e6cc78ebbefdb66U, 0x3e6095853d124858U,
  0xbe12c5a53ecbf707U, 0x3c842d793db5df5eU, 0x3e4032f4bdd86640U, 0x3ea89788be405997U,
  0xbec7ad503d8d39d0U, 0x3e34cd723e8a1e78U, 0xbe2b031abd8c46bcU, 0x3e725bf83de1384dU,
  0xbe08334d3c903630U, 0x3c968257bc9d2d3dU, 0x3e31e2d03c2f7a0dU, 0x3e4b4bac3e6dabbbU,
  0xbd5726713e17eaa6U, 0xbe37f26fbdad4e53U, 0xbdd94f78bdf1becdU, 0xbd8cdbce3d35bdc2U,
  0xbe2e5c6dbebf39a6U, 0x3d914bf3bd289597U, 0xbe727f10bdb058fbU, 0xbed5e161bd470674U,
  0xbdca97f13d6cc74aU, 0x3ea0dbf2be2feb6bU, 0x3e2aca01bec5fb1cU, 0x3dd5fefd3e12275bU,
  0x3e87f81ebdbfadc2U, 0x3c3b2285bd6db006U, 0x3cdcc91a3e8bb1d5U, 0xbe8f53003cbc4cafU,
  0xbe4517053eae7608U, 0xbcf0997abe05b6a3U, 0xbe90e0bc3eb2c995U, 0xbe55094fbad3ce91U,
  0x3d05a7603dba5032U, 0x3eadaf213e4d7917U, 0xbe46b5db3d20465eU, 0x3e1be959be2ad251U,
  0x3e93ead33d3bc5d8U, 0x393157f23e66522dU, 0xbd7d5a43bd2ef3b9U, 0x3ea0b661bc3bd775U,
  0x3e2116953e23abb1U, 0xbe0973a2bd37808bU, 0xbe5053f7bdb3dd7eU, 0xbc5eb2233d5529c0U,
  0x3df22bd4bee7ed7bU, 0x3eaaf37e3e4c9d8fU, 0xbe959a5ebd2e52e8U, 0xbd657bd9bd5eb8f6U,
  0xbe4a7f8ebe8084e8U, 0x3eb4a6c6bcaec8dcU, 0xbd8638ce3c0589bdU, 0x3e4df5df3e373a21U,
  0xbf169bd33d458a58U, 0xbc71fea9be2511a1U, 0x3bb82474bb55a057U, 0x3d39bec6bcffbac8U,
  0x3d9096e8be1fff4cU, 0xbe10fc003e11ac5fU, 0xbd1a4f0cbd051932U, 0x3bd623d73cb649aeU,
  0xbe3018153e9c4d8cU, 0x3cd3a3ebbde51b5dU, 0xbdabd5b5be8cf316U, 0x3d3b81d23dc81437U,
  0x3e518dae3e869e9bU, 0xbe48b890be0a9632U, 0x3e45a3ec3c49f10eU, 0x3e7434c13dda04afU,
  0xbeb999b23d391e4aU, 0x3e9772033e13503cU, 0xbdba77913ddbf66dU, 0x3ebae75dbdf42fbbU,
  0x3d0e30903dc8f775U, 0xbcf7470bbe025c1dU, 0x3e0e8bdebe1638a3U, 0xbeba2f62bd57fa7cU,
  0x3e25f07b3ed5e53dU, 0x3d9ab9aa3d6be560U, 0x3d671f20bdb91040U, 0x3dfcb2bc3e074f1aU,
  0xbe62a38e3e051435U, 0xbed8323d3e529a70U, 0xbe54e94ebd88ff9cU, 0xbc5c12f93e07b87dU,
  0xbcda2d3fbc829617U, 0xbe16caaa3eb707ecU, 0xbe68203f3f0e4ebcU, 0xbe03afc93d4b6c10U,
  0xbe11c854bcbafcc4U, 0x3d0eb6fd3d155a6fU, 0x3e10453ebb648a65U, 0xbe201961bc0e415eU,
  0x3e996bd3be970ab6U, 0xbe887e57bbc33ec4U, 0x3e27cb3e3ddffdf6U, 0x3e361266bdea9497U,
  0xbe823100be28d1c0U, 0x3de9e60a3dc72b26U, 0xbe822237bd858efeU, 0x3e8809273d5ccd68U,
  0x3ee23fe23dadcde8U, 0xbea70ffd3d53d3b4U, 0x3cc29e88be3f7504U, 0x3eabf34abd973fefU,
  0x3caf23f8be5cf17dU, 0x3df621923cd6386fU, 0xbd14251f3e63c618U, 0x3db51ddc3dd28919U,
  0x3b47bc843cecc96bU, 0x3dfe2dfebd4f99b8U, 0xb95abeb93e80c193U, 0x3e917b6dbdd6ccbaU,
  0x3e141ea1be518abfU, 0xbe3d7083bd134582U, 0x3d514d05bd366aadU, 0x3e53a015bdcf58efU,
  0x3f0b6cd0be806b07U, 0x3d74fc263ec8bdd1U, 0xbdc65e013d33edb1U, 0x3d852169bdcde2ccU,
  0xbe1112383e8818b3U, 0x3d952f6d3dfdf9cdU, 0xbe121fe23dcfe606U, 0x3e3ce568be4d47cbU,
  0xbebf896b3ec0e347U, 0xbe4e9ee13dce22b0U, 0xbd88dac6bdb3f555U, 0x3e4bc9a1bdb88e86U,
  0xbd4b1990be7ef407U, 0x3ed00d85bd15c1a7U, 0xbdfe9562bc87569cU, 0xbda64eb6be2a20eaU,
  0x3ee7bcd9bc83d904U, 0x3db78d01be945e54U, 0x3e2f120ebe83e5f1U, 0x3dcee9023d7bbae2U,
  0x3e3d20303d97decdU, 0x3cba29e13bb71958U, 0x3da66b0fbe66f8faU, 0x3cf56cf9be25cc08U,
  0xbe9be363be65469eU, 0xbe951b373e0822edU, 0xbe42bfad3e409a47U, 0x3e69ed913cff9676U,
  0x3e6f64c8bde79133U, 0x3e850e013daf8eebU, 0xbe45dab4bdac7a73U, 0x3ddd9b5bbe528b1eU,
  0x3f28c0b3bdb8e453U, 0xbd2b8783bdd5664eU, 0x3e48bd3bbd54663eU, 0x3d96e2683e06310aU,
  0xbd9a3fb33d23339bU, 0xbd6cf7133ce4cf17U, 0xbddb799a3e0d89d1U, 0xbd2fa729be2cf3efU,
  0x3ec92bc83e070961U, 0x3dd5b469be0561f6U, 0x3e1b2f76be4fa0d9U, 0xbe18260e3d810070U,
  0xbe04f616bdcb9d47U, 0xbf04f9063e0c2989U, 0x3e23423c3c344aa0U, 0xbeaa47f63d7cd8e9U,
  0x3f0f4bb73e427041U, 0x3e9dcdc03ecdc058U, 0x3dcb91363d849139U, 0xbe5104b43b91c907U,
  0x3ddb12013d94e0c9U, 0xbd011c973d537255U, 0xbe33846ebd600d0bU, 0x3eadb58a3c475484U,
  0xbdf9dabe3e528ca2U, 0x3d726457bdb9980fU, 0xbd0bcdba3e770770U, 0xbe461d53bd4cfe2cU,
  0x3e2921a1beab72e6U, 0x3df352c93dff9c1dU, 0xbd952cdfbd26fe06U, 0xbdcf65a2be27544cU,
  0xbe8af3bc3ce4fa89U, 0xbcc2cef33e4eee4cU, 0x3e19c934bda37bd5U, 0x3d1df2423cb889f5U,
  0xbe03f83b3e358628U, 0x3cecf8de3d9c03aaU, 0xbd5492d33e1c74d7U, 0x3cca608f3d8e8bafU,
  0xbed5b17dbe57b65bU, 0x3e2ecdef3de890d0U, 0xbc95af883db5caaaU, 0x3e41e5cebb9675bcU,
  0x3e3501c43e041204U, 0x3ebd05a03da4a576U, 0xbe25205c3a90dbafU, 0x3dcd89e3be1de890U,
  0xbf8729343d0ddb93U, 0x3d325ee23e630ea6U, 0x3cbb3f39bde1c923U, 0xbe770a263d9debefU,
  0xbd3839a7be40da4fU, 0x3b87594abdefced6U, 0x3e0f9ea93e5131ceU, 0x3e37e493bd35f518U,
  0x3ca5c5c43e602d2aU, 0xbe27d7e5bd33eab1U, 0x3e3dd8fc3dae9994U, 0xbdaafe55bbb8db46U,
  0x3e80e7b63dd6ad13U, 0xbe9b7b6a3db522a8U, 0x3dc2b913bcb3101dU, 0xbdf0497fbdc99a0aU,
  0xbfa4cb76be210cb9U, 0x3dc62d38be675563U, 0x3e622f9ebea602bfU, 0x3d6683e33da32600U,
  0x3e3fbf823da599b3U, 0xbd8c9a373d88f5b4U, 0xbcf5a24f3da92e31U, 0xbdd6750d3e4365d4U,
  0xbcfa75e1be7f0619U, 0x3b1a1565bcbecac5U, 0xbdb660ac3e74444fU, 0x3e05edf73a637cc7U,
  0xbdb197f23eca7d21U, 0x3e3209a23c4e9eebU, 0x3e5ee5c63d8e13b6U, 0xbe7673b8bdffb93bU,
  0xbf8102363e6e4d03U, 0xbe4a5b4f3ecafd8bU, 0x3c256f2cbe9a7a03U, 0x3de1e3c1bd9ae7c7U,
  0xbd6021a73dc1fff4U, 0x3da77507bc934125U, 0xbde0f3be3e56b6e0U, 0xbe961e983dca438eU,
  0xbeb7b8b83e296655U, 0xbe8da3513d4f9d3eU, 0x3d8287a3bdba85b3U, 0xbd8e7593be2d679eU,
  0xbe42130d3e77fd78U, 0x3d5b90e5be2117dfU, 0xbd07c66ebdf89f0aU, 0xbecadd0bbdb8bafbU,
  0xbf48ef713d89d41eU, 0xbdc07b24be253e21U, 0x3b8503f6be06a17eU, 0xbd991cff3d793432U,
  0xbe4606b3be5fd630U, 0xbc4f7cffbde9e438U, 0x3e5691e03e83e0dfU, 0xbe083885bd71a9a6U,
  0xbe0363ab3e9ad085U, 0x3e1d0eb6bc5aad34U, 0x3e3412e83cb1e96dU, 0xbd2c8883bdccf38aU,
  0x3cae6b46bea29672U, 0xbe5cb3433cd1a5b6U, 0x3d8c53bb3e008948U, 0x3ea2c7c4bda3df61U,
  0x3c66a5f7bd213a53U, 0xbe4149bdbeb18a0dU, 0x3e861cb6be8497f6U, 0x3e31ad8a3dcaa160U,
  0xbe2beacb3d62c8f4U, 0x3d57575fbd134675U, 0x3cbededbbdbb1ec5U, 0xbdbd5a33bd877e3dU,
  0x3c9f5887bf26283cU, 0x3bc44329be07e3feU, 0x3e10f64ebd835762U, 0x3ea3ae8dbd6fdc10U,
  0x3d2076c5be49c50aU, 0x3d0669b93dc6b5a1U, 0xbe8206eb3d36deccU, 0xbd306de1bdb02307U,
  0xbab286a03e48a0afU, 0xbc3a51afbe9b4d8eU, 0x3e0afd49bd83a9fdU, 0x3eb0a8fdbb0d3eb1U,
  0x3e5a48063e6d54ffU, 0x3d8b4a1bbda77d39U, 0xbd943d86be5208d5U, 0x3c05c5083d823225U,
  0x3da08ea1bd298c38U, 0x3e2cab07bd64458fU, 0xbe51f3963df5142dU, 0x3ed26da23dac296bU,
  0x3d9087b7bddc7a9fU, 0x3eb6ed76bdf75aafU, 0x3d75b3373dffaaaeU, 0xbdf099d23df4a56fU,
  0xbefe788abe431292U, 0x3eacf1e4bd0dea4fU, 0xbd6ca95bbec0d5faU, 0xbe1571e73d62d004U,
  0x3e3805923cc13653U, 0xbe037e27bdd2d1e6U, 0x3c667492bd018df0U, 0xbec208debe8a8cf3U,
  0xbda507593e99c73cU, 0x3e0395c53e055008U, 0xbec878283e73c19cU, 0x3ea353083e11df73U,
  0xbe52e5833e9f1c4dU, 0xbea1c5053df70551U, 0x3c4a7aa83d2ea1ebU, 0x3db6563ebcf04b07U,
  0xbd41fe673e12eaf3U, 0x3ed2b865be3d98baU, 0x3db86394be37036aU, 0xbe8916b7bd990efaU,
  0x3e641d1cbe07ebf0U, 0x3d27eeff3d08ca69U, 0xbd9223b03e14b9c0U, 0xbecb47613d5a67f8U,
  0xbc1850ddbebfa0c5U, 0xbbaceff0bd9200f7U, 0x3d8d00d4bd5a0b68U, 0xbd8a3234bd85aaafU,
  0xbe25e688bdcd250fU, 0x3edfb16dbdd9ef89U, 0xbe4873513cca220cU, 0xbe24f0013d695fe8U,
  0xbe8e1ddbbda1adf7U, 0xbd284a97be4d1099U, 0xbe1fec52bdf14e3dU, 0x3e4929e33df3ee8fU,
  0x3e331d08be057204U, 0xbd5c4cf03ca73e24U, 0xbda4c081bd3985c6U, 0xbed144c4bd5c4560U,
  0xbd2ef6773eece525U, 0x3e0534963c7327cfU, 0x3e5c7c78bce4fcacU, 0xbe05a84d3d3c1126U,
  0x3d5484b53ed65c0fU, 0xbd29b2293d6cabd8U, 0xbddfa55fbe18acebU, 0xbe8406eabb0d8639U,
  0xbd8cc67e3e271a7aU, 0xbd8fb5cc3e9e2732U, 0xbe2255463ef67760U, 0xbdc90c6d3ba7ed71U,
  0x3d5fbd0c3deab410U, 0xbbb076c1bdf41819U, 0x3d2d48a13d9457b4U, 0x3e0e854ebe8f386eU,
  0x3e200a8cbe893c6bU, 0x3d224aec3c995902U, 0xbe1c9009bd9d970eU, 0x3c4688b63e0201ebU,
  0xbbd2c6343ed410c8U, 0xbec7d8f4bdf93389U, 0x3e67d96abd00dd1fU, 0x3bd67b833de790d5U,
  0xbe871104bdf76074U, 0xbdc5adf6bd101287U, 0x3c89cb25beaea8c5U, 0x3d3b34debbf839d6U,
  0x3d0256d7be005ae0U, 0x3cb4dfed3d5e81e8U, 0xbd7a70b2bdb36b0fU, 0xbe9029b6bda3fb98U,
  0x3e617e21bef72eddU, 0xbcc0f26dbddc8119U, 0x3dc8b8353e2aa7a4U, 0xbe435a163d38a237U,
  0xbd524035bdb085cbU, 0x3b6d6fce3c5bdaf9U, 0x3e85155dbd86909eU, 0x3bd006b8bdc9446dU,
  0xbf3a86adbe61061dU, 0xbe89a9283ef2cf79U, 0xbdb5a3e4be9693acU, 0xbe15105cbdb5d0ebU,
  0xbc488049be742b63U, 0xbd9781323dfb5d59U, 0xbd872a043d4be110U, 0xbe8e7705bc764c8bU,
  0xbe561fb43d945656U, 0xbe29d5b6bda3789aU, 0x3d6d8ed9bcd02c09U, 0xbe0bdf0a3deb133fU,
  0xbe4984c63e966358U, 0xbeacc99abdefd1aaU, 0x3da9935cbcded8e3U, 0xbe4610f93b8b1976U,
  0xbda845503da29bbbU, 0xbe6f75c8be2a88f3U, 0x3e3770703ec6dde4U, 0xbebb92e43dac9be0U,
  0x3b12550abe4fc99aU, 0x3c5a21903cc44eebU, 0xbde592533e045485U, 0x3dadb41b3e29a873U,
  0x3dd94e1f3e27e50eU, 0x3ed5ff093d108b79U, 0xbe3e16babe9f2ec4U, 0xbd2994b73d0ce010U,
  0xbdd4fb503e5fe3a7U, 0x3da2825ebd616dcaU, 0x3e1cd2a8bd14b6c5U, 0xbed9d3c23d86c54bU,
  0xbf4975293e303a91U, 0xbeca455b3dc8d6c2U, 0x3e369d363eaeec79U, 0xbf0ec4273c85e3aeU,
  0x3daf8a9bbbe10aabU, 0xbe0e0dd73dec180cU, 0x3e0099f83dc6bb00U, 0xbf0179a63ddaa904U,
  0x3ea0f2053ec3c4f4U, 0x3c0fddf33e08306cU, 0x3daaa9513d1dae47U, 0x3e55c1073d43ccb5U,
  0x3dfc17ec3d74f117U, 0xbd4ee721be0d1841U, 0xbd8762713ade461cU, 0x3e7d7fa23e0d3436U,
  0x3e82e086be081364U, 0xbede3d853e99a0bbU, 0x3dc79b7ebec1c7ceU, 0xbe887fca3d9c863aU,
  0xbb98607d3e39c8ceU, 0xbba3678abcaf3fc4U, 0x3e22c65cbd91fb39U, 0xbda97fddbca633a7U,
  0x3db1af3abee6321aU, 0xbd130fa33dc9cdc5U, 0xbeab90debea17937U, 0x3e06188cbd879239U,
  0xbd2b732dbdb89790U, 0xbd53a92fbda5c377U, 0xbe52a4fd3d9d714bU, 0x3ccbbf383b61970aU,
  0x3e37692e3d3f1ee9U, 0xbd8317e33e54bf4bU, 0x3df8bd3cbebdd308U, 0x3d3c9165bd239c09U,
  0x3e671c4a3b98f4edU, 0xbca85f3ebcbe889eU, 0xbe05a4f7be79bac5U, 0x3e1c0c523e49f5d1U,
  0xbd8cf5653e0281d2U, 0xbe903d2bbd80af81U, 0x3e1b3f1f3bdf70edU, 0xbe095a46bcf5d767U,
  0xbe817129be890effU, 0x3eecb4c03deb65c1U, 0xbd86c98f3d11abb7U, 0xbd63a9f4bd3f666aU,
  0x3f8051723df273ddU, 0x3e7e24193ebcb0a5U, 0xbdbe8794bf18f4aeU, 0xbe5eb7a1bd589dbdU,
  0xbe198630be6f56c1U, 0x3c9acfe5bce1fde0U, 0xbc0eb6f1be51ebfdU, 0x3e1b86533ea419beU,
  0xbbfd0cdf3ed4a521U, 0xbd8475ac3d1d87c4U, 0x3dd92f94be572fafU, 0xba8385b5bccb9193U,
  0x3bdccacc3e3ebc32U, 0x3cabc06f3dae51b9U, 0xbe019c69bdaa5a83U, 0x3c00f22cbd049dddU,
  0xbe6c1c6dbdf6587fU, 0x3e80ac86be808dd0U, 0xbd57b433bda3703eU, 0x3efe62163db9f01cU,
  0x3d8fa5febe1f0afcU, 0x3d78ba923de4973dU, 0x3d82a526bd1975b9U, 0xbcbcc948bd9018efU,
  0x3e488fb4bdf34faaU, 0x3e6f22ef3d3ccf23U, 0xbe98a3e23db84185U, 0x3e784f773e132e9aU,
  0xbba562a7be463d0aU, 0x3d2eaeef3af4399eU, 0x3b669388bda28caaU, 0x3e3e99ecbb22c850U,
  0xbd4826273d163059U, 0xbe74e04fbe89535cU, 0x3bb33bc5bd65f9eeU, 0x3e19fd23bd471ed9U,
  0x3dd1cf933e26bb29U, 0xbde264f93e090fceU, 0xbd6d595a3c6c407eU, 0xbec3a582bdf9f7a5U,
  0x3de451873d783550U, 0x3dd68b273d87f1ccU, 0x3d92e3733befe5abU, 0x3d61ac30bd87d682U,
  0xbe8559033ed28887U, 0x3ecb2e363cb14ae7U, 0x3e657737bdf264caU, 0x3d641246bca38442U,
  0x3f165b5ebdea73c9U, 0x3e902c9ebe989456U, 0xbd626c2e3ddbcbecU, 0x3e9330793e14f159U,
  0xbe6e29e93cd7fd1bU, 0xbd11e6abbdd76be3U, 0x3e2ea34d3e4335a7U, 0xbce9eaa13c4c5e83U,
  0x3e360bddbebf3139U, 0x3e16b68a3dd90f93U, 0xbe8a58a23da6e924U, 0x3ea781793cc2a3f9U,
  0xbdc40f583d437e6bU, 0x3eca5bb7bdc1b0d7U, 0x3e0af67d3d9eb909U, 0xbe50da2f3ca83b66U,
  0xbf1caefdbe35cbb8U, 0x3e1dc3913ed4a72aU, 0x3e42b966be78cb89U, 0xbe86f56dbd5dc7d3U,
  0x3e292b86bc67db8dU, 0xbcc16db53d63524dU, 0x3e20396d3e11760eU, 0xbda53b1b3e91dde7U,
  0x3e442784bf171731U, 0x3d8f274fbe45c3f6U, 0xbe04f05bbe1a2920U, 0x3e07f3e23decd3bcU,
  0x3b878a93beaa1501U, 0x3e8610ea3d989954U, 0xbe2eba1a3d6bc5d6U, 0xbe6218473cfb2119U,
  0xbf212b593d771939U, 0xbe3e230fbd65cc43U, 0xbe8edf93be87dc63U, 0xbdf2f32ebdac8655U,
  0x3e6dfecebe0e785eU, 0x3dad1b7bbdbaf66cU, 0xbe292fcabd63fa61U, 0xbdebb34dbd64e715U,
  0x3d2d1b81bee17bbeU, 0xb9df0afc3bd315d4U, 0xbc2d48fd3dd2bf23U, 0x3dc00ba4bd7ac9bbU,
  0x3d3230423ec809c5U, 0x3c8f751e3d9c5675U, 0x3e992c50bd9a44afU, 0xbe9818343e0f2e97U,
  0xbca689a13dd42ca0U, 0xbe8b1254be24f23aU, 0xbd0d4fd3bee38e16U, 0x3d4e169c3cbea5e3U,
  0x3e7ceb753e75c66fU, 0xbd8d96bf3dec2e6eU, 0x3e3e01c23e19049aU, 0x3e3cfbc8bdf8315aU,
  0xbe87c777beebc12cU, 0x3e4e19093d199f64U, 0xbe9085b13d6fc94cU, 0x3ded4bcabd8df507U,
  0xbe5e984cbd2db793U, 0xbe37231e3defe87bU, 0x3de3b0c13d49a947U, 0x3e7346f5bbb058feU,
  0xbed23c88bd999b62U, 0x3ea833b9bdfba4caU, 0xbce9bf8a3ef58ef8U, 0x3dd5aa413ddd1862U,
  0x3e924326be5643ffU, 0xbd378a563db94ff8U, 0x3ccfee5abd810788U, 0xbe8170073dfba73fU,
  0xbf15447dbe1fd561U, 0x3da793ee3dd5f602U, 0x3d9b122e3dd9c6b8U, 0xbe3cb537bd1ff79cU,
  0x3e4936a5bea11d66U, 0x3effcbf1bca45467U, 0x3df6971c3cf1633eU, 0x3e0e40a0be131948U,
  0x3f010a5c3ceaa255U, 0xbdf10d6d3e9a9fbaU, 0xbd0882b1bcba9640U, 0x3ea645063d4e29cbU,
  0x3d9ff241beb0f914U, 0x3cbcc288bda66ccdU, 0x3dff5858be94f737U, 0x3d50150dbdefe04cU,
  0x3e343c183e836070U, 0xbe1b8fd33dd0fbe2U, 0x3e466d8e3e0f6a7bU, 0x3e891210bc8167c2U,
  0xbd461fcbbe8bd873U, 0xbdde925abd5a53feU, 0xbe3d12bf3cca8693U, 0x3e0c7581bddc3789U,
  0xbe6978bbbe1e464fU, 0x3ebc86983e2d1c8eU, 0x3e1e77ee3e486147U, 0xbd938a15bdf8cd36U,
  0x3e420b8f3dbdb509U, 0xbd18fab83ded6e44U, 0x3d9374a1be00a62aU, 0x3ec7d6a2bc42a899U,
  0xbee01b823e851697U, 0xb90771be3daa34b0U, 0x3e11828a3e35facfU, 0x3e5239dfbe1a10c8U,
  0x3db3f6a6be8311cdU, 0x3db4d1e1bda2d34bU, 0xbe069710bd246900U, 0xbe387eca3df847eeU,
  0xbf6ee14c3df47f53U, 0xbd9b9d023ea74016U, 0x3e478c1dbc7f4dcfU, 0x3e4f9f3dbc0ed4b9U,
  0x3e664508bdb9192fU, 0xbdb1bbd9bdb94e9fU, 0x3e20480e3e86ee7fU, 0xbe378e66bdafa1e7U,
  0xbe1f80c33db25a2fU, 0xbe2dcc0b3e208d7eU, 0xbe8083603e010652U, 0x3d4f9b40bdbace9dU,
  0xbe2f4bdd3d7b5df7U, 0x3d6bd0463d947682U, 0xbe14dd863da6268bU, 0xbe8759f43e02eecbU,
  0x3dd53aa0bccbc1e1U, 0x3ea1d2123eb774a6U, 0x3dfeaeb03e83346aU, 0xbe1545cd3de4be37U,
  0xbe10b443bd92a5bcU, 0x3db6c1863d213271U, 0xbe83eeebbe3093e2U, 0x3ebb88873e69112fU,
  0xbe2a00f43e84d343U, 0x3e6364e43e0a42fdU, 0x3d6bbf933ddb89ebU, 0x3e5545f03bd96d3fU,
  0xbd116cf6be3da83eU, 0xbdbe84ddbc4e72c3U, 0x3c0d92443daf9745U, 0xbe027056bd868dd3U,
  0xbeb7647c3c6e1411U, 0xbe691cda3e69d83fU, 0x3e96cfacbedeccfbU, 0x3d9115d3bce63fddU,
  0x3ce60479be8fe414U, 0x3d5ae7f23dc81ca3U, 0xbe5c65f5be066164U, 0xbd9157203e047447U,
  0xbe7bf93cbdb03714U, 0xbd058c75bd9b6fe9U, 0xbddc4092be80378aU, 0x3d17429a3d6a941cU,
  0x3e040d86be83639fU, 0xbd8fb63abdd564b9U, 0x3e4606df3d87ecb3U, 0xbd47e76e3da73001U,
  0x3f359df03cc8f48fU, 0xbede681d3ebdd62aU, 0xbc909004bf3ed0deU, 0xbda2185c3dda6cf8U,
  0xbd0082dd3d41038eU, 0xbdd27b9a3cb9b93dU, 0x3e0fa3633dc2ce49U, 0xbe6e78b63d79fa2bU,
  0x3d81e98cba0f6ac0U, 0x3d71f3983d9bbbf9U, 0xbdfde62d3e2732eaU, 0x3def2715bdb7de2bU,
  0xbdb830883e9e6b33U, 0xbefd09e23dd2390aU, 0xbda10ba63e01eddbU, 0xbe27092f3dc31cceU,
  0x3ee71f603e074f7eU, 0xbebb37143d7968b6U, 0x3db06577bf02ea4cU, 0xbea924e3bb47e0ecU,
  0x3dfbbf8d3e00fe05U, 0x3d17c63dbd158f52U, 0xbdee6572be42358dU, 0xbe687f023e1eed85U,
  0xbe9f8f55bc3d0ff0U, 0xbcb2ebfe3e218f23U, 0x3e010f55bda1b41cU, 0xbde56b1a3dfd9975U,
  0x3dcee8b23e9fabeeU, 0x3ebd5c7f3d60428aU, 0x3d19e069bdc31dc5U, 0xbdcfb9673d651976U,
  0x3ee496e7bbb8f3f5U, 0x3daf3326be48fa9cU, 0x3e4d525e3d057a78U, 0xbe56e7dabd761910U,
  0xbdc668863dedf686U, 0xbd895c65bd8c86b1U, 0x3de7c2703da44992U, 0xbe2192cf3d165c75U,
  0xbe1f15643ecbab58U, 0x3da99b653df8762dU, 0xbca8ad52bd8c277dU, 0x3e0c69eabdd1feebU,
  0xbdf32d6a3ecff16dU, 0xbebf2beabe0475f7U, 0xbdce097d3dde5ff0U, 0x3e3700633e0c6095U,
  0x3ee005a53ca5c12bU, 0x3e8cd3813e62ea4fU, 0x3de2e44bbd19e7b9U, 0xbeb91fbbbd40a261U,
  0x3e0e9266bd214de3U, 0x3dd95390bdaac960U, 0xbddb50e3be4a756fU, 0xbe3fb2fdbe4065f3U,
  0x3cf9d1923ecd0a16U, 0xbd958d5bbd8f3067U, 0x3d3beac0be8f709cU, 0xbd986999be215d00U,
  0xbd253d9c3e0ab66bU, 0xbeb32e58bda30b13U, 0x3c47e24f3e082513U, 0xbe62aa40bdbf1bb1U,
  0xbd4462cb3e25b03cU, 0xbe34067ebd406974U, 0xbdf10aab3e38911aU, 0x3d70027cbbba3169U,
  0x3bd76b24be6ba93bU, 0x3da13623bd32c793U, 0xbc978b5d3c3af82bU, 0x3e2808113e537338U,
  0x3e3eada3bc7d4768U, 0x3e89b420bdf32ef0U, 0x3dfffd9dbdb45074U, 0xbd2cb50d3de1678dU,
  0x3e151bc23c647fedU, 0xbd55d7f63d7a6e2dU, 0xbd951ffdbdfc626fU, 0xbe1be365bd8bf041U,
  0x3f2e61353d6dd5d4U, 0xbe9bf125be6a2e0cU, 0x3ca1efa13de25ad0U, 0xbd40797a3db58a23U,
  0x3de50e753e10e3a9U, 0x3cedae0bbd45b6afU, 0x3da9d024bcb77949U, 0x3d3b833c3e2720d2U,
  0x3dd8d0013ddb6af8U, 0x3e8c41f3bdbaf8e9U, 0x3d7941ae3e4638f9U, 0xbe8eba4b3e006b93U,
  0xbd58295a3e6d1822U, 0x3db7c6c23d5f7664U, 0x3e8860b6bcd6af6cU, 0x3e3b15e83e194433U,
  0x3f4d58a03dda88ccU, 0xbe2ac350be5c9ffdU, 0xbe2571f03ec1fefcU, 0x3ebb7e28bde0a492U,
  0x3d8780823d8f1532U, 0x3cabd0ca3bcd35eeU, 0xbe0a000bbdab54f4U, 0x3e93b28a3e6cafd5U,
  0x3e9f52e83ea9903bU, 0x3e6711b23dcfd714U, 0x3daba5333d481412U, 0xbcf2c7e83df9786fU,
  0x3dc0b25cbee45192U, 0xbdefdb933d7c7ce3U, 0xbd9dc9b43c9f9d6fU, 0x3e918333bbfe42dbU,
  0x3d3dad413d0c875bU, 0x3ef4d4f83eaa2a20U, 0xbe3301dabdf6cf0cU, 0x3ebce7733d74afbeU,
  0x3d981d9d3d99f0a5U, 0x3dda61cd3d4a348bU, 0xbd5170bebe59ecafU, 0xbda06b3d3d88edd0U,
  0x3e11f0f03dd8a5a6U, 0x3e54ad8c3d336de3U, 0x3e3196183b21c30aU, 0xbe9d4fa5bdd70fd5U,
  0xbe4a1de7bed07de4U, 0xbe6b3522bbc1d3d1U, 0x3d78f4b9bd50b9deU, 0x3e5509eebcc99cc2U,
  0x3ea1dd113d621682U, 0x3e09b129be0638adU, 0x3e000fe5be74e2c0U, 0xb98546ddbdca5851U,
  0xbd0d8355bea254c2U, 0xbd58c428bd8d315aU, 0x3ca622eabdd66409U, 0x3e04805bbd9fb964U,
  0x3e147170beaea3e9U, 0x3cb2bfb43d65e7c9U, 0x3d523e68be55ac26U, 0x3db0cab5bc2ec46fU,
  0xbebdfb9d3db948f0U, 0x3ecf072fbce59f51U, 0x3dafe2a33d9403acU, 0x3e6c7c393d676897U,
  0xbe397dacbe0d675eU, 0x3e535eb2be62a3f8U, 0x3d0f0af3be3320a3U, 0xbce1c6693d915928U,
  0xbcb612c13dbb4634U, 0x3e0ad550bd822858U, 0xbe31ceb0be449fdaU, 0x3f3812aa3df85938U,
  0xbe770f94beea74ebU, 0xbdbcd6453d4f670aU, 0x3d377907bd90d279U, 0xbc743bb7be0bb9b7U,
  0x3e35ae253e4c9cfaU, 0xbe5f52aa3df58927U, 0x3d6181c1bd5e3502U, 0xbe252122be70ea70U,
  0x3f122f92bddb7790U, 0x3d1c7a003e61cd19U, 0xbe18f3ec3db391f9U, 0xbe6aeb13bd7db38aU,
  0x3d5678223e941e81U, 0x3d48b45d3d3edb28U, 0x3e3d9342be181e83U, 0xbe9527663e059621U,
  0x3e618465be3822bdU, 0xbe45140abe65df84U, 0x3c48a617be13cd8aU, 0x3dc5275cbe20cc52U,
  0xbe02a6e3be3d1e3bU, 0x3eb6eab0bc837afaU, 0xbd97ea0c3dd12ea9U, 0x3d9be9febe5cd1bdU,
  0x3ee2e9ff3ddeb96eU, 0xbed14bf73e823531U, 0xbdadc32bbd8b9d68U, 0xbe96d1c03ddc34f9U,
  0xbd8bc650be02cb3aU, 0xbe08fb963ddc1b63U, 0x3db91aeebdffaeaaU, 0x3de3fef8be22f20fU,
  0xbe3ae3333d877c37U, 0xbe8ce06fbe777287U, 0xbe9075203dbadb01U, 0x3cdc0360be180999U,
  0xbe2cc5e4be99ececU, 0xbe8e54503e18c8ffU, 0x3e5cd439bdd1fc6aU, 0xbe077592be8b9b96U,
  0x3d18210ebdb52ab8U, 0xbec2d6353e95cf33U, 0xbdd49ec23d3ccdb0U, 0x3df0d91ebda22cfdU,
  0xbd29fbd6be56ea8aU, 0x3da88effbc620479U, 0x3dd05d61bd987c05U, 0x3c2029d93e47908fU,
  0xbe461a193dfb93d6U, 0xbe929509be094355U, 0xbe95f2bfbe103a05U, 0x3d475c8abe49b6b7U,
  0xbda4d65c3d430f05U, 0x3e9428adbdc607d3U, 0x3c483f423debd984U, 0xbe5d93f63d9d49caU,
  0x3e8cc7c83e232f1eU, 0x3e767be2bea75631U, 0xbdbc6018bda1b1fcU, 0xbe5a2bf6bd12a15fU,
  0x3e5912a23d4b88bcU, 0x3dd21211be00c781U, 0x3e14e43ebe1ea9f9U, 0xbe38764ebdc90a71U,
  0xbb1485933caae0cbU, 0x3d129abbbddc97e5U, 0x3e202e11bebb98f9U, 0xbe091136be269812U,
  0xbe3205223e1c2fceU, 0x3e08e19dbdbe4e9aU, 0xbe4ec691bc11cf4eU, 0xbe41d69b3c853375U,
  0x3ea09f1b3a7efb93U, 0x3e9a0395be336ec4U, 0x3d604025bdf3403dU, 0x3eacd58cbd0078b3U,
  0xbd9fdb2f3e344e26U, 0x3dd3e25a3cf2657eU, 0xbdef8c75be287b71U, 0xbe41dd773ca6c313U,
  0x3dd5d699be9ed581U, 0xbdafb4edbda4755bU, 0xbe4ff13f3e262fa5U, 0xbeafc2fb3c78831eU,
  0x3e74a3183ead5a4cU, 0xbdd0200b3c228c9cU, 0x3e284ec23cc35baaU, 0x3e35de7fbd527afeU,
  0xbe973dc3bde3421dU, 0x3e8678313d9989a7U, 0xbd1fd0703e975909U, 0xbe6970cebdbb5c6cU,
  0x3e8f2194be085551U, 0x3de422de3d27d788U, 0x3dd31ba8bec6451bU, 0x3e5a37c53e3d7c96U,
  0x3edfce4dbe2f28b1U, 0x3e7821c13d80bbdeU, 0x3da136713e3b1126U, 0xbe54b5c33d2653a8U,
  0x3e475d703e87de66U, 0xbe31eda0bdc708e1U, 0xbc8453f1bdd1c6dcU, 0xbe484d24bcf734c2U,
  0x3ea455ea3e0670dcU, 0x3e5dd9f53e85af50U, 0x3dea9184be842772U, 0x3ed1f6903cdd39c5U,
  0xbe275aafbdf2ee24U, 0x3d30de8dbd07ee62U, 0xbd98da8ebe815db8U, 0xbdd6c2d23e636022U,
  0xbe7db951be3052a7U, 0xbe7391973d834519U, 0x3e19f42c3dcaeae7U, 0xbda4f997bdea1ab8U,
  0x3e287447bed4790dU, 0xbe8cd2723dea5291U, 0x3e4b9ca23dec374aU, 0xbe7a59383e2289f1U,
  0xbee2dbf5bd9b313cU, 0xbe8030643e87afd1U, 0xbcfce9efbe9ff84dU, 0x3ee9f833bda69e16U,
  0xbdae3ae53e37d519U, 0xbd5053fb3e0cd4b1U, 0x3dbc8bbc3d3f66f3U, 0xbe5b0c713daad233U,
  0xbe03ed563ea66a7cU, 0x3c34ba8cbe1d235cU, 0xbd96ba623e080703U, 0xbd6382a9bdabb5afU,
  0x3de881b2bdddfaebU, 0x3d14d9d03d4a142fU, 0xbeac7618bce3fddeU, 0xbe28837c3d9e45deU,
  0xbeb8add13e06a992U, 0xbe542ab3bea113f9U, 0x3dc0f9973d9051a5U, 0xbe984f6fbd3cdf8dU,
  0xbda533b53cac8deeU, 0xbd0b5ff9bd42af38U, 0x3da4ef133db32d00U, 0xbe9f6fa2be8f85b7U,
  0xbe60c781bebeb1b2U, 0x3d4b0aacbdee4b91U, 0x3e371973be13f7fdU, 0x3dbc476cbe19f45eU,
  0x3e0c0563bdc84229U, 0x3e244f58bd15eff2U, 0xbe8f9678bdf9672aU, 0xbdb391ac3d6414e8U,
  0xbf46c9babe97b0eaU, 0xbd349b8fbe073c0eU, 0x3dabc9533cfba499U, 0xbe5654853cde2999U,
  0xbe1f27273e2f2ea4U, 0xbdc04da53c71568cU, 0x3e22c70c3e2a1e64U, 0xbcfcb4fe3e3bd645U,
  0xbe616493be95eac8U, 0xbe0c88b43e3852ccU, 0xbe102c49bda2cbf1U, 0x3c4dd8953e04964aU,
  0x3e84200fbeb944d9U, 0xbc3098b83ca4db90U, 0xbdf8578fbdbacab1U, 0xbea01d573c213506U,
  0xbf3229e2be37cf52U, 0x3cbb7618bea4938aU, 0x3d91dbac3e9de761U, 0xbd8afa18ba166a40U,
  0xbd4bec463db26e82U, 0xbdefe24cbe140c3bU, 0xbd9a2c2d3de42ff0U, 0xbe6d6ae1bd9dae79U,
  0x3eb7ec94bef898abU, 0xbe6e60093d9fdaa9U, 0xbe82843fbd8aebdeU, 0x3dbff8e7ba3f9af0U,
  0x3daad244be18704aU, 0x3daae56a3d81ef9cU, 0xbdc24b84bbcb4e13U, 0xbe43f74fbd6b4f7bU,
  0xbe495ccdbd5dd662U, 0x3d1aae45bc91eab5U, 0x3d846a613db8fa25U, 0x3e4d3b3f3cab16aeU,
  0x3e1aaf4d3dfa87abU, 0xbde5fa40bdc2e8ddU, 0xbcbfa534be6784fbU, 0xbe88cbd3be03e19eU,
  0x3d5145ddbebdd8c9U, 0xbe4d2196bc5d1022U, 0xbe01dd7bbe71968eU, 0x3cbf477bbe0ad175U,
  0x3c9ecfecbe8c8d27U, 0x3e28b7513d219aceU, 0x3e3c8398bd35a9e6U, 0xbdbd94823e37434dU,
  0xbf3041afbe249f08U, 0xbea375093d0d970fU, 0xbe031b97be2ff221U, 0xbe1d9f293bce6821U,
  0x3e389bc23baa8304U, 0x3d98fecc3b5274d8U, 0x3dcb1070bccbd6c9U, 0x3e1fbfd43e576f1fU,
  0xbd0030b1bdddf6e2U, 0x3c8e94f43e04633aU, 0xbd57102ebe80a5b5U, 0xbe32d9a73ddd7e2eU,
  0xbd929aedbed633b4U, 0xbe3798923e14fef3U, 0x3d1c4e3b3c132aafU, 0x3e691949bc8e5fe9U,
  0x3ed528a23d5e6812U, 0x3ea0f1133e72842aU, 0xbd7ee0643eca002bU, 0xbdd6828d3ddd49d7U,
  0xbe0387083dd06f5eU, 0x3d903cac3d989fdbU, 0x3d15f322be85d3e2U, 0xbe9b15a0bb087afdU,
  0xbcbeba70beef627cU, 0x3d40d2823e538d72U, 0xbd9b02d6bd6fae21U, 0xbdf356b03b9e8ff0U,
  0xbe22034f3eae5c2eU, 0x3e62ca66bd945595U, 0x3e9f3529bdc70e40U, 0x3e112a153de2b59dU,
  0x3eb99c34be05afceU, 0xbe2dc8d6bd99c59aU, 0xbdfed1843e2254bdU, 0x3e034ba0bc484df3U,
  0x3eaa24903e4e6e86U, 0xbdc658fabc54de20U, 0x3c72dda23dee970cU, 0xbe5617b0bdfa5924U,
  0x3caa2817beb9a363U, 0xbdb7fd9f3d2644ebU, 0x3e20694cbeadbe4dU, 0x3e17f2b7bd976ce9U,
  0x3e1815923ea4275aU, 0x3c800ff2bd10019aU, 0x3e011d123dabf070U, 0xbc73435fbde0dbf3U,
  0x3f60877f3d1c7c63U, 0x3cc59eef3e1126d4U, 0x3e3d61583deefed2U, 0x3e2a6d063dbb7c12U,
  0x3e39cb4f3e4297dfU, 0x3c6f67c03dfa227eU, 0x3e2897723e5c6243U, 0x3e4fd450be72b2e7U,
  0x3d17d0e0bd88ab7eU, 0xbd015000bd5a0a4fU, 0xbd4e4d46be1cc9cbU, 0x3e745fdabcece093U,
  0x3e9ff0343ec42814U, 0xbe19eb5ebc9e9797U, 0xbd6c1209bc87f9d5U, 0xbe2ce94dbe13f7cfU,
  0xbf566e69bc641981U, 0xbee2a4f1be7eb887U, 0x3d619779be97366eU, 0xbd44f0e53dc3daf6U,
  0xbdd55a143e752f24U, 0xbcc976f03dcbfcc5U, 0xbe28cb12be4826e6U, 0x3e0813cbbdd35bd9U,
  0x3e78219ebe1e97c1U, 0xbe03b0e4be2d7eabU, 0x3e9b316dbe99e6d5U, 0xbe6b35d63c181999U,
  0x3eb4d13e3e7e6423U, 0xbe79e6cd3de6c791U, 0xbe2d8a973d02f848U, 0xbe6d2821bda0ea03U,
  0xbeac93ae3c983acaU, 0x3ed6835dbea368f9U, 0x3de280b8bea8b797U, 0x3e8212af3d30affaU,
  0xbe56ad22be528cf0U, 0xbc2dae0ebdff2ca6U, 0x3d968ab1be809512U, 0x3e21154f3e80dd3fU,
  0x3d4b64933ee5c051U, 0x3e0e442f3ca14b6dU, 0x3d28bc893cf6703eU, 0xbceaeee4bdaee379U,
  0xbca33f78bdb03a33U, 0xbedd1ccbbc9d4d4cU, 0xbd9604963dc1ffd9U, 0xbd4cd31b3dc91bf7U,
  0x3e9fc569be2dd404U, 0x3eb6f2cf3da9a4d6U, 0x3ce6892dbdae67faU, 0x3e989a973c170956U,
  0x3d78d4bfbe8ef4bdU, 0x3d025ff6bda08c1bU, 0xbdc69681bd7d90beU, 0xbe9501553de15478U,
  0x3e21f9e43edbe617U, 0x3e14f51f3d4d4395U, 0xbe0506fdbebb8878U, 0x3e34f15a3a119d2cU,
  0xbddee216bd3de0a9U, 0xbeabbc663d6c0753U, 0xbe00a2f73dbc14fbU, 0x3de9382fbe0523fcU,
  0x3e7480e93de492fbU, 0xbcc137a73cb0f47aU, 0xbea409aabee8ec8bU, 0xbea567ed3c5ae81dU,
  0xbe619a213e2d44f6U, 0xbcf7f397bd5df6a3U, 0x3e3393b0be30a148U, 0xbe9ce2023c1bd8f2U,
  0x3eac94b93ecf1554U, 0xbe73f7b5bd016046U, 0xbc580b0d3e135aabU, 0x3e254e96bd4142d8U,
  0xbdb29dc43e14032fU, 0xbf0d04e43e0a05e3U, 0xbe9ab0cdbd0d7e7bU, 0x3e98d549be21a0c6U,
  0xbe382de8be38fc73U, 0x3e9e60793d4c51deU, 0xbe11efd93d8c09d5U, 0xbe5d95ea3d693febU,
  0xbe23afd23dd97beaU, 0xbd2dea5dbe11e53eU, 0xbe69446d3e6c560cU, 0x3e1bc6f33e3ad63fU,
  0xbda5300e3db1c65eU, 0xbe162237bd090906U, 0xbe2d78373e3f95fdU, 0xbe1100f43d72371bU,
  0x3e814a3e3e5bd9d3U, 0x3cfe5350bd8e2586U, 0x3d82c6743db54acfU, 0x3d9a5c223df8cfb4U,
  0xbf0a80ae3da9106cU, 0x3ecbe068bee7136aU, 0x3d9527a2be22e1d3U, 0xbd81843c3da7ee13U,
  0x3dd1a78c3dce5ebfU, 0x3c7444b4bda846bfU, 0xbcaed1783d2ecb31U, 0xbdc1a283bdd50d6eU,
  0xbe2802d03e23d688U, 0xbe45d7fd3d387cb2U, 0x3ce5ef8f3da228b9U, 0xbe82e8be3df674cbU,
  0xbe5eb94abd47ae90U, 0xbd8a7c4f3c2697c3U, 0xbc97a1f73ddabb6bU, 0xbe750c723e35c092U,
  0x3f0b3ff2be4f7d17U, 0xbe18e299be32f273U, 0x3db996c73e2b29aaU, 0x3e1faa573cedd918U,
  0x3e26f6763cd38823U, 0x3d606ad6bde59d10U, 0xbd9b9f683e27e6f2U, 0x3e6faee9bcd7a8d1U,
  0xbe60ce32bed7927eU, 0xbdd143683e25e533U, 0xbdde9b0cbe7392cdU, 0xbe5ab84d3cea5d25U,
  0x3e74d884bdca8836U, 0xbec3f692bca704d8U, 0xbe93313dbd36bf95U, 0x3dd34fcd3d8799f3U,
  0xbe3081eebe37a474U, 0xbe1ab8143e8e1a28U, 0x3e258e343e4fadc4U, 0xbe4cad80bd6a0988U,
  0x3d2b66bd3df600d4U, 0x3d222f3f3d6cea38U, 0x3d62e7f03e243789U, 0xbecaba983d9b1ec5U,
  0xbe6f089c3ece8e42U, 0xbe71bb963cd5dbcdU, 0xbe0a33af3da486d5U, 0xbc5d0e94bd88153bU,
  0xbd8e4795be6c4a1cU, 0x3ea9a4fe3e0bf069U, 0xbd327556be09c5feU, 0xbb8c2cf7bdb66a8fU,
  0xbf4549853e0200d4U, 0x3e94625a3d80903aU, 0x3e355eecbefeb1e0U, 0x3d9bd078bc35d1afU,
  0xbab7e6ebbc48d5a4U, 0xbdaae59ebd5a0fa6U, 0xbda557683e170a52U, 0xbe641633be16ccf5U,
  0xbe6e8714be9c358aU, 0x3dda2666bcd2bb6aU, 0x3cdfa334bde5cfaeU, 0xbec318a1bdc4d50eU,
  0xbddfda593e3b6eb8U, 0xbdf84e1b3d386bbaU, 0xbe0f8b33bd01da58U, 0xbeedc76ebe2ad1b5U,
  0xbd5e0aad3d8d9086U, 0xbec5eda23e4f687eU, 0xbdbc608dbe2b6d41U, 0xbec0b6ea3c736fb3U,
  0x3da25b4bbd7c8a96U, 0x3d665e533d8259ddU, 0x3d2f2f363e09404fU, 0xbe52d051bc4c85beU,
  0x3e60dbec3e59754dU, 0xbc60f843bde02de6U, 0x3d8d47873e987029U, 0xbd742d0d3c4cb6d2U,
  0x3e2850e13c512da0U, 0xbdcbead5bca6e331U, 0xbe2f3c5cbcfcdb74U, 0x3d5ef1a7bdda22deU,
  0xbf0d827dbe1c68b4U, 0x3db8da24be52ad83U, 0x3e0974f0bed6587dU, 0xbe7fc2c63d5dfce9U,
  0xbeae31d0bc3a7150U, 0xbd5302aa3dc8ba9aU, 0xbc2ded5e3da763f1U, 0x3d09c3b8be4d4876U,
  0x3eb30c54bece8ba1U, 0x3e87053dbe07a96fU, 0xbe3b5308be2ff9f5U, 0x3e0786e33da2e045U,
  0xbe852a343e7dc8a0U, 0xbf00c23cbc7f1a98U, 0x3d7f123cbcf992b9U, 0x3cdcea273e0828ebU,
  0xbe5d661bbd2cd4ccU, 0xbdd5dbf3bddb43eaU, 0xbe455375bdf801e0U, 0x3e8bed2ebd6248b6U,
  0x3e2df3563d89c023U, 0x3c2642513d834623U, 0xbb694873bdf3cc75U, 0x3e55fa1dbdd38f33U,
  0xbd1011f83e2bf6c5U, 0x3ea8279dbe075492U, 0x3c8105033cb3e824U, 0x3e2ad95d3dad529eU,
  0xbe631207be4b0871U, 0x3e85b836bdc31483U, 0xbd3fe394bc4bdbcaU, 0xbea0cab63decf3e3U,
  0xbf29d4b63d86275aU, 0x3e8b3f2b3e50aa7fU, 0xbe1f97ad3e085233U, 0xbd9cd7783d1b125bU,
  0xbd964322be73ed17U, 0x3d98082c3d01ae56U, 0xbd2a850a3d41da35U, 0xbedbc4be3e1029e7U,
  0xbeae17d63e3c1347U, 0xbd4cf999be30d4f1U, 0x3e3c1916be01358bU, 0x3e05c69a3d97de86U,
  0xbd3f57eebeae0497U, 0xbd1241d9bd34b54eU, 0xbe6e0a583c771d3eU, 0xbde769883db2e5ffU,
  0xbe854f21be03ab41U, 0xbd118babbe5c2321U, 0x3e5401f13e6d9598U, 0xbeb48454bcbcbecfU,
  0xbe8fd1fc3d5deeaaU, 0xbd2fb7ebbd61777bU, 0xbce62c8d3d7f0631U, 0x3e4657ee3ce308e4U,
  0x3b15ec8ebe63d0caU, 0x3e8041ae3dc303e9U, 0xbc1372d63ca26908U, 0x3df2c59e3d097360U,
  0x3e9d4ae1beeff921U, 0xbe616b613d9c2a29U, 0x3de4122a3c8e332aU, 0xbd98b2823c32677aU,
  0xbf1f53edbdee7e86U, 0x3eb58c2dbda33ffcU, 0xbdd94be83e8f7d5bU, 0xbdf0de2bbd89e010U,
  0x3daba795be88cf63U, 0x3c161d2e3e0c2992U, 0x3e2c1483be530c09U, 0xbdee41a63cd3b464U,
  0xbecd842bbd4a49a1U, 0xbd9f9396bdf06c18U, 0xbcb097a13ec23b16U, 0x3d285cd5bd321092U,
  0x3d1031613ea4813cU, 0xbebb1a20bd220d62U, 0xbdca34bf3cdb4b50U, 0x3e999a9a3d4c4e26U,
  0xbe1a000cbc46c2deU, 0x3e2f9e053e02a29bU, 0x3e4038f0be82bfd8U, 0x3e6728853dcfaf57U,
  0xbe8a3db63d99d306U, 0x3cca3eafbdabc7fbU, 0xbdc68e52bd7ed368U, 0x3e61b49b3e3c02e8U,
  0x3df453453edcd2c5U, 0xbe294c77bd588520U, 0xbe8ea6033eb3f957U, 0xbc0fa1c03c07c86dU,
  0x3de069dc3e977fddU, 0x3e81d144be041aa1U, 0xbd93cd8fbdf734eeU, 0xbd2356b43da60372U,
  0xbefe4409bd1ecde7U, 0x3d1dd911bef477b1U, 0xbd031eb7bec4ff49U, 0x3e277486bd7dbdcdU,
  0x3d54bcf1bddccd7bU, 0xbdd346a9bd05fcc2U, 0xbd59506c3e823792U, 0xbea220833dbaf3f5U,
  0x3c297700bd816b63U, 0x3981e3033dea8e69U, 0x3da6bc513dc37409U, 0x3e089173bdc79ae2U,
  0x3dfdc4c5be91ff59U, 0xbe3b6fbfbd8e8f32U, 0x3e143913bd022575U, 0xbbc4b8c0bd0a1c85U,
  0x3f18301dbcdb345fU, 0x3d37b86d3e604fb8U, 0x3e2ae92b3e13df78U, 0x3e61a36e3d7114c7U,
  0xbe15e32fbe81bd3fU, 0xbcf4f07e3df38676U, 0xbe65d29cbe280b1eU, 0xbee0ea14be403125U,
  0xbdf0593abcce34dfU, 0x3e80e460bd63d0baU, 0xbea58a6e3e8f42b4U, 0xbe95023abd81db27U,
  0xbda6c7143e9e7d87U, 0xbeed19773e44206bU, 0xbe5016aebe13102dU, 0x3e47b681bd043a3eU,
  0x3e6da6723cc37c36U, 0x3e1e3e32be5d26e9U, 0x3dde3110be80da55U, 0xbd906a4bbdb95476U,
  0xbd20195dbe7a2796U, 0xbde90e10bd063880U, 0x3e1eeb6c3e6bf32bU, 0xbd71c6ac3d9dc5b6U,
  0xbd917c6d3e3c088dU, 0x3e8df96c3c32f306U, 0x3e68174b3e657ce0U, 0xbdc958ac3db74c02U,
  0xb98ccc9c3e082961U, 0xbed1e582bd59c8a5U, 0x3dfc00823dbd96ebU, 0x3e553df73e8e4c30U,
  0xbf29f132be163acdU, 0xbe010a1bbeb0cd70U, 0x3e8274563ee8f2f6U, 0xbe8df8f03d27e186U,
  0x3d7991363e2de65bU, 0xbd8456f73d9cb39cU, 0x3dd379453c892b89U, 0x3e9ee5383e52218aU,
  0xbe739630be8ded0aU, 0xbe15e0e83dfaa1ddU, 0x3e5367953df8c69dU, 0x3deb2b06bceecd2dU,
  0x3e2e87373ec96064U, 0xbdfbd4f63dd52ed1U, 0xbe1281cfbde73c56U, 0xbd86dcdbbe151ba7U,
  0xbeb84caabe09d1aaU, 0x3df670d3bc4c3e30U, 0xbdb448c7be34ec34U, 0xbd99460bbd53c78eU,
  0x3dd2ae5f3e36414eU, 0xbdc195e0bd463688U, 0xbe46328dbe908600U, 0xbdfde7a1bdb2c6e0U,
  0x3db0925b3def8ac3U, 0xbe07c60f3c96e584U, 0x3e920bf5bc9ffa57U, 0xbe9f5a983b5f7857U,
  0x3e800810be51bca1U, 0x3ebf7b933e000a14U, 0xbe0f8acbbe122d81U, 0x3ea15f29bcfca774U,
  0xbef04b5a3e3454e7U, 0x3e9136f3bec1977aU, 0xbe3061c83ea88eeeU, 0xbe918abc3cf27c60U,
  0xbdf99ff4be3d115bU, 0xbcf83f94be2151d8U, 0x3e65a3473e3b4bdaU, 0xbe8d11573e0360b6U,
  0xbe28f1a83dacbd41U, 0xbe26923e3dcfe542U, 0x3e320a96bd0fb10cU, 0xbe6a7aa0be1a6ab6U,
  0xbdd51502be74debaU, 0x3e8a66e83da64936U, 0x3e5eb459bde371d1U, 0x3d60c21cbaff14d3U,
  0xbeb3a0ecbe167b68U, 0x3e5915073e932af8U, 0x3d7499e5bca52568U, 0x3e40bc6bbd830d5bU,
  0x3da72088be15fa06U, 0x3db9ce233d9dbc0fU, 0xbde1b78cbcaaec38U, 0x3e1c312f3ddc69cdU,
  0x3de8b9d0bee420c2U, 0xbe70296c3d8a1971U, 0xbe8bad8a3e65ab2fU, 0xbe4d967f3cfd1192U,
  0xbe13bb473e3f0fbcU, 0xbe10cac0bda1a0e9U, 0x3da66574be030272U, 0xbeb81fe63d144860U,
  0x3e46ab0a3dae1115U, 0xbd38e3afbd2422c5U, 0x3e27233cbdc7d537U, 0xbed567c6bd1c9a34U,
  0xbd7445603e221596U, 0xbd8943613ddb39b7U, 0xbde40c4abb0ee624U, 0xbe6e30573e25dcecU,
  0x3d2943d8be50d42cU, 0xbd35ecb7bd86da2aU, 0xbd0f2bf43c6279a7U, 0x3e3bbdd63e07f9cfU,
  0x3e67ddb7be5fef2eU, 0xbe9dc2523e1574ffU, 0xbe03de5ebddef08aU, 0x3d64e4753e3b247eU,
  0x3d526e7fbc5990a6U, 0x3bfe96e0be0bc0bbU, 0x3cb0b0d53eb51eedU, 0xbe1086f03d7ec2baU,
  0x3e051506bd150bedU, 0xbdc838d2bcd3e11aU, 0x3dfd955b3d995367U, 0xbe8466a53d92de2bU,
  0xbeace8de3e98d25fU, 0xbea58a0ebdd161f2U, 0xbea0ef1bbd126cb7U, 0x3e319c10bc9be02cU,
  0xbdddbbf1bd65812dU, 0xbde45e3e3de541a9U, 0xbe727cb7bd4dd1a7U, 0x3b9b6db8bc916a36U,
  0xbea905d3bda93612U, 0x3e41b6883c84f9c7U, 0xbe665e2b3ea6066cU, 0x3d9c47a5bdbb7a4aU,
  0x3e01dff53e373515U, 0xbdd240d0bd541731U, 0x3ddab8863dd6f40eU, 0x3e20dd6bbe52dfe7U,
  0x3ec408f5beaa8e91U, 0xbd139fccbde613acU, 0x3e235bb8bb856c8dU, 0xbd3d0e39bd748de2U,
  0x3d878c2fbd1526d1U, 0x3eaa884e3cde8458U, 0xbdd9126cbdcef752U, 0x3e68a6703d3cbbb0U,
  0x3e8e2b25be06aff4U, 0x3e55e5a7bdbc970eU, 0xbe0fd3763ddbb33dU, 0x3ed46d283d3835c8U,
  0xbdaaa9273e324067U, 0xbc9a10b3be168b80U, 0xbdee27c5be4d3925U, 0x3e515aedbd1504d2U,
  0x3eda424e3be3ca83U, 0x3e2cf83cbc361c43U, 0xbe129c93bd86a753U, 0xbe35253ebd0fe14bU,
  0xbd0670bdbe684791U, 0x3f07fb273e1906f5U, 0x3c8212d53da6a7d9U, 0xbe8c0447bdceac23U,
  0x3edc0d61be05ab3dU, 0xbd9c05373e8315a2U, 0x3dab3b523ec0a4e5U, 0x3ef40bbbbd75bfe7U,
  0xbcec0afcbd66a74eU, 0xbd36fffc3a0e703eU, 0xbc3457debd859a0eU, 0xbdcb5aafbed7f4faU,
  0x3d9e2e4c3e9a1e3aU, 0x3d783d60bd2565d4U, 0x3dd73e89be8606f0U, 0xbe9d97ce3e1bb4f4U,
  0x3e415f113e84999dU, 0x3e94212b3d3b57e4U, 0xbe2a88453de4927bU, 0x3e42ed5cbe55c37dU,
  0x3e7cc2da3dd9cf9bU, 0x3c0a59f23e0c360bU, 0xbea8f6b73cbeb93aU, 0xbea23adcbdca86edU,
  0x3e664defbb766190U, 0xbd9d7747bd4af132U, 0x3dde271cbe180f5bU, 0xbdff410d3de28c15U,
  0xbeb922903e4800e8U, 0xbe27c03c3e04c8ecU, 0x3d9a17aebca1dc94U, 0xbe7071743cb638f8U,
  0xbebaa2533d092eb0U, 0x3e82fd31bdc91650U, 0xbdb50011bcf79c99U, 0x3d8c07a2be246797U,
  0xbe3669903d5a852dU, 0x3e0658083c30d5c8U, 0xbc80bc5ebe5c4b5dU, 0x3d452872bd4886a4U,
  0x3d8afa8ebea01bb5U, 0xbd5021f4bd3ce156U, 0x3d3f48873e226929U, 0x3da55b30be658b51U,
  0x3e30bf58be941b76U, 0xbd0890df3ddb28cbU, 0x3c7243603d2fd9e1U, 0xbd6a1d7fbda46ad9U,
  0x3e0e4416be6386e0U, 0x3ea3b993bd188384U, 0x3d6c765e3dad5a14U, 0xbde779a8bdf8a5a1U,
  0x3d47db9fbd0d1eccU, 0x3d62d4773e67853bU, 0x3e0e9332be631df5U, 0xbddbd713bdfc00d2U,
  0xbe249572be9c6ce5U, 0xbd981587bdf1c07aU, 0x3dace1653e93188dU, 0xbe9229ef3ce0b848U,
  0xbe26c4a83edbbe33U, 0x3e35b6313e3f832aU, 0x3e8a17d0be245738U, 0xbd688a783e126aa1U,
  0x3e615d1cbe38e241U, 0x3e838cbebdd65b14U, 0xbe3c8dabbde28223U, 0x3e57ebe2bdfebb61U,
  0xbeca3516be27a0deU, 0xbea9f531be99dbc7U, 0x3e3119fc3ef7d48aU, 0x3e8af7033cc6be8fU,
  0xbe775b533d0778f4U, 0xbdc84d903dc518ffU, 0x3d978d8fbe0e5c25U, 0x3dceea7e3da04ecbU,
  0x3ea7bd8f3e2ffa53U, 0x3e87698f3e2edf4aU, 0x3e3ed10cba11ebddU, 0xbe110f94bd05bd44U,
  0xbd73ac39be913645U, 0xbebc3e933df8eaacU, 0x3de84d98bd4f827dU, 0x3e1682e43e4bbf38U,
  0x3ea0e4acbd94632bU, 0xbdaf555d3e8ce071U, 0xbd87f59b3dde8366U, 0xbe8c7b303dbfd753U,
  0xbe622a963e05e0bbU, 0xbd377d35bd806c70U, 0x3e090d4e3e15a0f6U, 0x3eb23e99be1e23a4U,
  0xbea01ef9be42061bU, 0x3e84daaabe259446U, 0xbd9bb530bd53c9abU, 0xbe59764fbcbb0b64U,
  0x3e9bf1c2bd5d4276U, 0x3de3e82c3da23346U, 0xbe8e3b233e049db2U, 0x3e19ef50be0db393U,
  0xbf5c2d02be15a259U, 0xbe20cbfc3ed1b46bU, 0xbe265fd83e40385aU, 0x3deda03ebc9f3a38U,
  0x3e27c26e3e24d4e6U, 0x3d5d55a23e0dd64aU, 0xbdd4fa233ddff78dU, 0x3c18ec263e05fbcbU,
  0xbe9cebef3e2ddb0aU, 0x3d8bde433c5ed9faU, 0xbd505ac93ce0a542U, 0x3d5707be3d928423U,
  0x3ce2bdef3e339054U, 0x3e88efe73dc21b2fU, 0x3e5fd6613e010147U, 0x3e169c653e4323ecU,
  0xbd8119763e9077c7U, 0xbcbb16d8be6ee805U, 0x3e7ee38a3ec56448U, 0xbe80e77fbd7dd774U,
  0x3e812c043e008cb5U, 0x3d3438a1bc9387a2U, 0xbdbe55d33e5161e0U, 0xbd9eaef93d19c3bbU,
  0x3e0875b1bdb5ae3bU, 0xbddcbf36be028e76U, 0xbde72fbf3da9e111U, 0xbd9efd393c98423dU,
  0x3e3e319e3e204329U, 0xbe477054bd2d7afeU, 0x3d06f749bd05cd13U, 0xbd93937dbc927000U,
  0xbf1abca6bdeb347dU, 0xbead3bbabe0d5eb1U, 0xbdadf2b2bcd838f0U, 0x3df6cfbcbcd402adU,
  0xbd2d2e99be000440U, 0x3d9e75efbcb6e50dU, 0x3d04a8a5bda51fccU, 0x3e3d43963e63eee3U,
  0xbd3a75f0bdefa56bU, 0x3e07ce7dbd8f8154U, 0x3e402609bdd2cab7U, 0xbea8599bbcdf2379U,
  0x3e0d317ebe4d2154U, 0x3e1f7aefbe0298f7U, 0x3df04d0bbd89a7feU, 0xbda992df3dbc360eU,
  0xbe05b7ce3d8306aeU, 0x3e76b0163c9ee8c3U, 0xbe820321bea291e5U, 0xbeb596bc3c9b9219U,
  0xbe62937ebdef49a3U, 0x3cae646e3b15b660U, 0x3e18e466be3aff97U, 0x3d587ff2be434f6eU,
  0xbeba66313e8e5775U, 0xbe01d4ebbe227968U, 0xbdebf785be882a3cU, 0xbe910c54bdefa5c6U,
  0xbdcf1125be36e4d5U, 0xbeaa13db3d90b003U, 0xbe1c7abb3e1a5f2cU, 0x3dec6163bc7d02b1U,
  0x3d8b478d3d564c77U, 0xbe84d7583dc90e46U, 0xbe670ed9beeedb0aU, 0x3e3d09f2bd004c74U,
  0x3df23f89bc92792aU, 0xbdb3d75f3ddb5ba9U, 0x3e229a55be1cb9acU, 0xbe8f7dea3e688386U,
  0xbea10145be5e4a23U, 0x3c35d76fbe3bc447U, 0xbc681545bc8ccfc2U, 0xbe23ce093b8117a2U,
  0x3e8777353e83b7f5U, 0x3e7b1291be1ea46cU, 0x3c8234b1bdf45ec9U, 0x3dee63d4bdd8fb51U,
  0xbf1db971bc9b1188U, 0xba597e2f3eb0c4b2U, 0x3e6af0a2bd17ecadU, 0xbe2915a6bd721441U,
  0xbdeb1185bded11d7U, 0xbe20f542bd45fc76U, 0xbe5f8b74bde53f4cU, 0xbd90fa51be88a802U,
  0xbc4229503eb57cc6U, 0x3e17a4d3be1799edU, 0x3e785727bc47cc1eU, 0x3da28c993d727b2aU,
  0x3e1d5a10be7444f8U, 0x3c99662a3ccc3c04U, 0xbd6c78283d617d66U, 0xbebf0fa7bd15cbdaU,
  0xbdbbcd8fbe5c3808U, 0xbd741bc33e9ab569U, 0xbdbfc43a3ee6da6bU, 0xbe9f3979bd85dc36U,
  0xbd81a1b43c848fbeU, 0xbd98fbfbbde4702eU, 0xbe3382b03e69c7c6U, 0x3e32fa7c3e1f9690U,
  0xbe60854bbe3f4973U, 0xbbc7926dbe06d054U, 0xbe012b143c8af625U, 0x3e4ad03a3c05dea9U,
  0x3e04722d3be07850U, 0xbd4b73e23b3e5f4aU, 0xbe32110f3d9f4fb5U, 0x3e780f113c5bc2b7U,
  0x3f0900313cf3b468U, 0x3e2ff7283e658192U, 0x3d8a9267bede2572U, 0x3e4b1be93dd50118U,
  0xbd6ecd9b3dfab8ceU, 0xbc42dc84bcd68c8dU, 0xbe02e6e93e1c8ba0U, 0x3e1a5da2bd85fe17U,
  0x3bfe2c1d3db8f3f5U, 0x3de0b90c3de3e79eU, 0xbe0d9a76be948157U, 0xbccb3382bcd115caU,
  0x3e867a8cbe05c9f8U, 0xbda723073ddd3943U, 0xbd699d0bbd8bcb02U, 0xbe340f7f3dce0531U,
  0xbf68b1c13e4a1911U, 0xbdea850cbe8ef225U, 0xbe634279bdc66158U, 0xbdda00313c38ed6fU,
  0x3de8260bbe344a85U, 0xbd47dfee3e15411dU, 0xbc8155a6be55c549U, 0xbe60ce20bd6be412U,
  0x3ed7447cbd6419bcU, 0x3dffaddfbe6f7a39U, 0xbe6b0b7abd436ea5U, 0xbe2a7e673e06f7dbU,
  0x3e79de8e3e5fd4aaU, 0x3edba3283e163283U, 0xbdede5cbbd31481dU, 0xbe45b220bd6bc17dU,
  0x3ed36d75bd5de976U, 0x3c5573783defd581U, 0x3db403203ef0a920U, 0x3ed7664c3d189b39U,
  0x3cf74690bb9acd52U, 0xbcc192cfbd7eb420U, 0xbd1135e2be37420eU, 0x3e6afe2c3d8b3822U,
  0x3e5ba3f73e199225U, 0xbdcfe425be39510aU, 0x3d6a11dc3dfd74feU, 0xbdd7b9d5bdf1e99eU,
  0xbdec9fc9bea18b4dU, 0xbe3b6ca73d9adf49U, 0xbe8b93093d2289ecU, 0x3e4583373bd8698dU,
  0x3eb60d14bdab948cU, 0xbd0eb967bdc975afU, 0xbdbd75fd3c9e03d2U, 0x3cc61d47bd878943U,
  0xbe2ddefcbea58accU, 0x3df3b2083d22ee37U, 0xbe03c6dbbdf503dbU, 0x3da909e1be028b6dU,
  0x3e5cab823f0eb485U, 0xbe402254be4dc4ccU, 0x3e3b07b03e222babU, 0xbde4e0d7bdbcbf42U,
  0xbe5e0d383df78ad3U, 0x3e8e8cee3d4871a8U, 0x3defafbd3ddba394U, 0x3e0618afbd7bb2adU,
  0x3ecb3e34bda35214U, 0x3e23253bbecced72U, 0xbca6a5c3bd61cb31U, 0xbeb8f65dbd936b4fU,
  0xbc2c75ad3d28dcbeU, 0xbba65645bbd1d0cdU, 0x3c0b1ecbbdc17c98U, 0xbe9ab2b7be4a2ea6U,
  0xbe5288a43eae3957U, 0xbd55e3a23e1e7a69U, 0x3e8dc8103dcad58cU, 0x3d88ebae3c2eddfbU,
  0x3e2433adbdda033fU, 0xbc3f188f3c4649e9U, 0x3cc06b27babee6daU, 0x3e2abfb1be5f2a26U,
  0xbef57d1dbdfaa4abU, 0x3ed1e854be30d374U, 0xbd364d37bdd9d368U, 0x3ed5674b3e21f4a6U,
  0x3dbfdc03be5bef44U, 0x3df9dfe93dbfc011U, 0xbdf047473e7923d8U, 0xbe3627573db04ea2U,
  0x3e8e3c5c3e8a7de5U, 0xbe299fe7bdbd320dU, 0x3cb437093e80a5f2U, 0x3e33aa8e3ddb8370U,
  0xbd9eea1fbc6ff5f4U, 0xbe24880ebdbe0adfU, 0xbd25c11a3d251ce2U, 0xbe8ad7053dfab05bU,
  0x3f5de1463e38e933U, 0x3eba12563e4fa90dU, 0x3d9355a5be74ea8bU, 0xbdef286abcffb8d2U,
  0x3d07cbf0be684883U, 0xbd2e3c7b3da1f50aU, 0x3b9c468f3bd2adfaU, 0xbcd91c343cf235c2U,
  0xbec568343cef0bcbU, 0x3e8d3ff1bcf37d4aU, 0xbeb0a0773e2c226bU, 0x3d60fccbbe09f9aaU,
  0x3ac821b5bcb8a5d2U, 0xbed4e06ebc0cdaa1U, 0x3e35f296bd8561f8U, 0x3e481e7a3d4c3530U,
  0xbe8a54933d77c3d3U, 0xbd7d90d0bd201ef4U, 0x3d2baece3e4df0aaU, 0x3eca7a593dd2f8a7U,
  0x3d03dab0bbdf56ebU, 0x3ca5558639e26e17U, 0xbda1da843e750f17U, 0x3e1b97e13e0482afU,
  0xbeb2923a3de85901U, 0x3e2d6f703dfb56dcU, 0x3d56b1ae3e531e0cU, 0xbe6ca8eebd19c959U,
  0x3e5f81353d73c336U, 0xbef6c295bca2b7a9U, 0xbe5671c13d8dbe29U, 0x3e9bacb2bde8ed67U,
  0x3efcc3cb3e52ba97U, 0xbe86afe9be83c1f6U, 0xbd37d7083eba91ceU, 0x3eda8220bd28a867U,
  0xbe135a3fbdb0d5aaU, 0xbd1a7eae3d16ed00U, 0xbe01ec463e4375a0U, 0x3dce4d1abe3d2ffdU,
  0xba8c7022beaec491U, 0x3de1615c3c35d10fU, 0x3ea425b8be57434fU, 0xbe35a66f3c97c3d0U,
  0xbe9669593e3311b2U, 0x3d066642be189051U, 0x3d9eb7763d3205e1U, 0x3e274f68be75bc75U,
  0xbe97e182bd9bc02cU, 0x3dd1d620be7e4ef0U, 0xbd55caf7be9f7a53U, 0x3e6d142e3d909bfeU,
  0xbde5b0b33d7d21b7U, 0x3c2fc3bf3e11db73U, 0x3d916f83bde5d28dU, 0x3e56ceff3e6d9e77U,
  0xbf0dc919bea3da63U, 0xbd95a7a33ddd7c6cU, 0x3db4b10fbe9034a7U, 0x3df8cf35bc01611cU,
  0xbd2673ac3e7b952cU, 0xbe8c90013de0207dU, 0xbe2eb50c3c9434c8U, 0xbe1991ebbd21e334U,
  0x3efa44a53e52357fU, 0x3e6fa1703eba95faU, 0x3d8240833e9d739dU, 0x3e83c1bcbda4c001U,
  0x3e5aba5b3de9a82aU, 0x3d7f61803decbb11U, 0x3db02d913e0ec744U, 0x3e558267be25ef72U,
  0xbe7c468fbc5f1fe9U, 0xbe4e337d3d825087U, 0xbd92c1d4be8c7d4bU, 0xbdae517abc70d1e3U,
  0xbe70c9a73e81cb05U, 0x3cccc19dbe025431U, 0xbdcf03ba3c9e5ff7U, 0x3e70e972be35ec63U,
  0xbe838bf63e545389U, 0xbd80fc563c0bdf47U, 0x3e846a4d3e630ed5U, 0xbcbb4b5abc821244U,
  0x3e1198b63e0adf07U, 0x3db6d207bd8fce8aU, 0x3d708ea73e2caf3dU, 0x3eb1d7553d406118U,
  0xbecdf673bcdf91edU, 0xbd261db2bc1dd67aU, 0xbe588268bd9dbcf5U, 0x3e12e49b3c2c8022U,
  0x3e6d92f1be795a10U, 0x3e92ebd5be13e7b6U, 0x3ddc6d72bd1139b8U, 0xbe1812d03c2bb169U,
  0xbe6848c13e2e7457U, 0xbcaf826cbe19df4eU, 0xbe65cf5dbea6197eU, 0xbd21069c3e0b294dU,
  0x3e7a6ee03d0c00d9U, 0xbd868b7fbde8c851U, 0xbde25b8dbae0021eU, 0xbe76ced83e2a527eU,
  0xbef21816bec6753fU, 0xbe4f3b403c8186b9U, 0xbe829c473b4e709aU, 0x3e44ca0fbbd625c2U,
  0x3e82ead6bda55fe6U, 0xbee507153d6c93e0U, 0x3eb4c903be0cabb9U, 0xbe6c14d3bd696a3eU,
  0xbe71885c3c09f75fU, 0xbde1abc63e30c094U, 0xbe4cd855bdb4a732U, 0x3d501e773de5429cU,
  0xbdde08a2bcea6d5eU, 0x3caedab23c470c1bU, 0xbc165045bde74028U, 0xbd691b913dd2fb2cU,
  0x3e6ae8893dec453cU, 0xbcd6ac8dbdb5ba2bU, 0x3e2e33a2bdaf897fU, 0xbcb96dd53d847d23U,
  0x3d1621b63e374f4cU, 0x3dd10c64bd27cae8U, 0x3e61e25c3b97f7c4U, 0x3e6b22713c77a94eU,
  0xbe8acfaa3e05de83U, 0x3ec0e8993dac9a95U, 0xbe2a72483c5e7956U, 0xbe83e7c6bde2d331U,
  0x3d81eeb13d803b8bU, 0xbde346263dd623d1U, 0xbd04ac173ce0859eU, 0xbd13a334bd85c590U,
  0x3e1652703ee4f328U, 0xbcb177a5bdc7e50fU, 0xbea2fe053c839849U, 0x3e5ebdf03db3f87cU,
  0x3e6ad01cbd1bd728U, 0x3d831b7bbd9ca5e1U, 0x3e0ce2b3be0b84a3U, 0x3c55d7b73ce7871eU,
  0x3e15ebb23db5f1feU, 0x3ca5709f3e79b900U, 0xbe53c63d3e5d58b2U, 0xbe1a581b3dbf96b0U,
  0xbe44db7abc89932dU, 0xbda4793dbd7e1fc1U, 0x3b9a190c3de45f94U, 0x3e0afc7dbca686fdU,
  0x3deb9af8beb13e4eU, 0xbe32f00e3e218c06U, 0xbd651a193e0b5c1bU, 0xbe09ef22bdfa2e4eU,
  0x3e9bac8e3db54dddU, 0xbf0258663d9a1c3cU, 0xbe9ce6c5bc46c668U, 0x3e5447273e3e57b4U,
  0xbc9185dd3dc1beb6U, 0x3da3a1163d360ba0U, 0xbc2624bcbf06d5efU, 0xbe8019d53b01539fU,
  0xbdac4dee3e214b6cU, 0x3db09665bce3ca49U, 0xbda52a4b3ac1e503U, 0x3dd8e1f43ddff929U,
  0x3ebcee0e3ebfb17aU, 0x3e0798ef3d59cdadU, 0x3d524cef3e9a4773U, 0x3b53a8cbbd4f5c0bU,
  0x3e2f436bbebcbd50U, 0x3e90ff07be0a0004U, 0xbe3a6fffbb902f7cU, 0xbd1bb241bd538c46U,
  0x3f1ac8f2bdf57220U, 0xbe4db0933e608573U, 0x3e4ea9ee3d61de6fU, 0x3b17e028bce6b4b8U,
  0x3d22ef683ccbb42cU, 0xbcf9734b3c4ccc1eU, 0x3d9314a6be2552eeU, 0xbe87eadb3d5cc18eU,
  0x3eb06ddebe8fbfd3U, 0xbe0e55413dcbaf6bU, 0xbdbd7facbe31a18fU, 0xbe871653bdd6d6f5U,
  0xbe5265483ec0b659U, 0x3f0888b0be5f0961U, 0xbe0430353dc1ecfaU, 0x3d333b1e3d4b8888U,
  0xbf772c603c9ffb0dU, 0x3ed4144e3e3c386fU, 0xbc8bb562bf260c25U, 0x3e0bb7813dc4282bU,
  0xbeb4d28e3db02a2dU, 0xbdcfb7d6bd455332U, 0xbe2dc799be6daa67U, 0x3e8927c7bdc8100cU,
  0xbe017d83be904bd9U, 0x3e92079fbcc82c98U, 0x3b3df0f6be966e88U, 0x3da07360bcae3aacU,
  0xbe019dafbecc184eU, 0x3d8d46683d9bb89eU, 0xbe428e9d3d42e1a9U, 0x3e36dfb23e55f5cdU,
  0x3ef7dde9bd649a07U, 0xbde151fcbebb8c37U, 0x3e222978be7d9b07U, 0xbe4bf93abd017609U,
  0x3e2ddf06bc6c2104U, 0x3d385f4c3dc744daU, 0xbdf80e0fbcb1e4d6U, 0x3d84fdc4be79fc54U,
  0xbd9bf809bd586f9eU, 0xbdc5efa33b4639afU, 0x3e5dfa8abd994f94U, 0x3cecaa7bbdfb5414U,
  0x3d50316fbed3ef5aU, 0xbece106c3c92d493U, 0x3ddef565bd32e427U, 0xbe25ded43dd60438U,
  0xbe97b6c9bd3d4a55U, 0x3d3f10933ea68099U, 0xbd905761be4dc103U, 0xbd6a54c83c202525U,
  0xbe0adf4fbe543c45U, 0x3d97c4d73e062acaU, 0x3d0f9a42bccdd6abU, 0xbe919e0dba9a59a6U,
  0x3e046f133e776623U, 0xbd8acabe3c841dd2U, 0x3dc986db3e929d2bU, 0xbe15303bbd3411d5U,
  0xbd7a35653ccfb2d3U, 0x3d42e7003df4faddU, 0xbdbf76bbbcceed76U, 0xbdc0cf52be4f1806U,
  0x3f2944e43caeb459U, 0xbe3f99103e9bc296U, 0xbe115bef3e83471aU, 0xbe95534ebd2f9c42U,
  0xbd700513be059ad5U, 0x3daeaf73bdfc5076U, 0xbe3c8e6c3e5cea66U, 0xbdbacf3bbe86f63fU,
  0x3cc132afbeaf9394U, 0xbe45217abdf186d1U, 0x3e7ca67dbd192605U, 0xbe0d04ae3cef6db5U,
  0xbe2f83f83e6ad3e9U, 0x3ed023403cfb9b3fU, 0xbdcb44fdbcdaf4e8U, 0x3e55dc52bcb06efbU,
  0x3f40682bbe058c9bU, 0xbd8aebee3e8cdf34U, 0x3cf376843e068bcfU, 0x3e3339d73e080289U,
  0x3e0674a9be001e28U, 0x3db0785abe02b177U, 0x3db184813d433d26U, 0xbe0a6971bdaf46c2U,
  0xbd9646d23eb1b7bbU, 0x3db2b269be65ce21U, 0x3ddde276be85903aU, 0xbe2e0b763de2473dU,
  0xbd9d6bb73cc0c1f1U, 0x3d3c1bf4bd0de3f2U, 0x3cce676cbd1768d9U, 0x3db42fbcbe0529daU,
  0x3dec1ca83d80cd47U, 0xbe3ca40dbed494d2U, 0xbe62d5993e089223U, 0x3e887e19bbe16856U,
  0x3d308fc2be2f9fb0U, 0xbd9ab7bcbcc29555U, 0x3e323e1cbe34bc94U, 0x3e3019e73e3264f9U,
  0x3d155dca3de36599U, 0xbd5231ab3dc6b95cU, 0x3cc5ff00be1d5013U, 0x3dec8fac3d48cffdU,
  0x3dada6143e98ff22U, 0xbec3ce7ebd8da78aU, 0x3dcdbcf33e0ba561U, 0x3c8652e1bdedca6aU,
  0x3e44396bbe66b9baU, 0xbe99ee45bd98c325U, 0x3dd673c73d872553U, 0xbdd2671fbd9b960eU,
  0x3e0e0db3bddfd9ccU, 0x3cde1354bdeadbb9U, 0x3e40edb03e5c95c2U, 0xbea529e1be64f433U,
  0x3d1f0bb5bea65384U, 0xbe3ef61d3ddd412bU, 0x3e51ca9bbe08ce76U, 0x3e302a413dc2ba11U,
  0x3e3df7b9bdb341cbU, 0xbeb5b215bcdacc25U, 0xbd4367f5bdb4c941U, 0xbe75ddd8be27874bU,
  0xbe419f693ca1c20dU, 0xbdce48cb3c93cc7bU, 0xbe6a28d03e9a5be0U, 0x3bc3afbe3dbd21d4U,
  0xbd8fbc07be066934U, 0xbdbc92093e04fe66U, 0xbe6cf276bcd6a4eaU, 0x3eae8ff8be4eeb2cU,
  0x3e302095be6c3761U, 0xbdd61882bd35e9e7U, 0xbd141787be5380f4U, 0x3e1e074fbdd44471U,
  0x3de73a4a3eaf59d5U, 0x3c01fef53e1e5b19U, 0x3e9223cfbd08190eU, 0xbea0b937bd6d1068U,
  0xbf0870bebc806ec7U, 0xbe3148d03de7fd89U, 0xbe6254e7be95495aU, 0x3e7b2e173dc27eccU,
  0x3d2b8b0abe36735aU, 0xbbe8141a3dbbfae7U, 0xbd82902ebcd75288U, 0xbdd887fc3deea7e9U,
  0x3d9773ee3c2ce2ccU, 0xbe1e26aebe00d1a4U, 0xbe4e9ca03e14fadfU, 0x3cbf33dbbcd8a5c6U,
  0x3c9a5542bd0ea529U, 0x3d9e149d3d19c198U, 0x3ec146b8be09e9c8U, 0xbe59d6b33e18b2caU,
  0xbf9b79233d3b9ce7U, 0x3de2199d3ed8a9d5U, 0xbe6f8c663d05e000U, 0x3ebd220f3e0a0aebU,
  0xbe2fb60b3e50bb6aU, 0x3e07290bbdac00cbU, 0x3da93f063da61dd5U, 0xbe55edcfbdd9e96dU,
  0xbe9747873d8d0369U, 0x3e0ca795bcdd44faU, 0x3e35e3febe031668U, 0x3e2a5930bded1ee2U,
  0xbe87d9bdbd0a3994U, 0xbeb46341bd789fb4U, 0x3d51730b3db64e20U, 0xbeb9c5fabddaad52U,
  0xbf967dcb3d7b8936U, 0xbd420085be040f73U, 0x3d8d274e3e406be8U, 0xbd2a10c13c49e93eU,
  0x3e4aef143ea7df29U, 0xbd662b7dbe03f042U, 0x3bfd12a13d854befU, 0xbeb4ec343e432917U,
  0x3d0bfa59bede6298U, 0x3dab7bbabda5cdfeU, 0xbe05470bbeb23b47U, 0xbce76e893ba7e4ceU,
  0x3e006d00bea23ac7U, 0xbd932bb93df15a9eU, 0xbe60af133dcd797bU, 0x3e28a3583e0fd71aU,
  0x3f174bc4be1fa941U, 0xbe9348a0bbdad738U, 0x3dc92b87be8a49d5U, 0x3ea3ec983cbf3fcaU,
  0xbdf2570ebdc1d800U, 0xbdffe851bdb97364U, 0xbe185821be4a7d6bU, 0xbe340b643d38ff03U,
  0xbe5855753e944506U, 0xbde964a63e241b3aU, 0x3d1f66bd3e4481b7U, 0xbe29b7443b83a378U,
  0x3ddc93d03d51bc65U, 0xbdc301adbb6497f5U, 0xbe55a5ef3d83aee1U, 0xbe7d325cbe28d5ecU,
  0x3f414596be19e9ebU, 0x3e0011783eba74c2U, 0xbe03f9ffbe8cad85U, 0x3e8c94c03d0658deU,
  0x3e51cdf83e5882c6U, 0x3da4d15dbcc883a9U, 0xbdb62a663d90e7a3U, 0xbea0994e3e88f9edU,
  0xbe9867443db46f9aU, 0x3dd3e509bde8adc0U, 0x3d511cbe3deb5192U, 0x3cbb2c3e3d80c68cU,
  0xbd80e4ad3e8d930bU, 0xbe6cee873deb4886U, 0x3d58012ebd9f2263U, 0xbe41d8513dea80c4U,
  0x3edfd92b3e29cb21U, 0xbe9504a2be677127U, 0xbe7304bcbe048491U, 0x3e2e07853dbcdd42U,
  0xbe259b893e0b20e9U, 0x3d27eec3bc138219U, 0x3e1d5e9a3d9f12e9U, 0xbeb16b34bde2364bU,
  0x3eb1cec1bc418fe2U, 0x3dab1fe63e3c24daU, 0x3e42fccbbe3ee5a6U, 0xbe523dcdbd9285dcU,
  0x3a716ef5bc8662cdU, 0xbda12be73cf43d22U, 0xbb89b0fa3d926f77U, 0x3dac2efcbcc291acU,
  0xbf0f66a83d9fc382U, 0x3d568676be218b33U, 0xbe36dffe3e9941fcU, 0xbe03f1b13d8fd02dU,
  0xbd13410e3ded4a35U, 0xbd55be463d7533f1U, 0x3c92b6473e3a9dbbU, 0xbec319eebe0806c3U,
  0x3f399e4c3e228a43U, 0xbd8408e43e05d517U, 0xbe89060fbd90d7f2U, 0xbce0db62bd609a54U,
  0x3db3ca9a3e00efadU, 0xbdfb6f583dc90295U, 0x3c5e7f6b3da1fba1U, 0xbdb137a1be00487bU,
  0x3df3cbf6be1f0b26U, 0x3e57edabbe1ab6a8U, 0x3db8d5613d9a263cU, 0xbe0b16b8bd6ab33bU,
  0xbe9c68be3cd6c1c6U, 0x3dadc353be12af6eU, 0xbd58051d3dcdb993U, 0x3e1f7477bb8555f2U,
  0x3eac87cfbe9224f9U, 0xbd5fad11bdc08e75U, 0x3de62c3dbdf6e7abU, 0xbddb8e5dbda941efU,
  0xbe76762dbc5ea147U, 0x3e8bdc86392875b1U, 0xbcdcf19a3e18ec55U, 0xbdb391fdbe0f72b5U,
  0x3f339a65bd844382U, 0x3d956df13d8755dcU, 0x3cfb4073bca904f5U, 0xbe96cbb03e136d92U,
  0x3e0c4c1a3e0e13ffU, 0xbc10cb5b3da88121U, 0x3e50f1463e082544U, 0xbd5b90043df1cbcaU,
  0xbe256ad7bec5b13dU, 0xbe0b351c3daf9b1cU, 0x3ea563093e298b29U, 0xbe609c1dbda083aeU,
  0xbd0290e4bdc54d82U, 0x3d66f974be100bdeU, 0xbd394bd7bd105fe6U, 0x3e3a2118bd0b5d14U,
  0x3e2f2b893bd13300U, 0xbe79abb7be838e50U, 0xbdda9873be71a4baU, 0x3e25426fbd9983c9U,
  0x3c90043dbe4b451dU, 0x3ccf6b17bd06720fU, 0xbdccc7e93d954f1bU, 0xbe98c162bd7d6fccU,
  0xbe1e45b7bcd1ebd9U, 0x3da15b0a3d701f3fU, 0xbc4e1d253d730b8fU, 0x3dce0f503d9e3ce8U,
  0xbd8914a03ebdcfa5U, 0x3e2ca563bd9839e4U, 0x3e163209bbdb1835U, 0xbe81eceb3e0d3665U,
  0xbe17b3053d184276U, 0x3e4bc3563ce8be71U, 0x3e741ae1bc653dd7U, 0xbe91eaa03cebc7b1U,
  0x3d6ed2f13ded12a3U, 0x3d0c099b3df3be3bU, 0xbd9b7c62be1a9637U, 0xbe329d643e876c65U,
  0x3e7f542e3d8bee15U, 0xbe9e75f43cc22325U, 0xbe8f8527be6c0089U, 0xbe75c5c33d2604f9U,
  0xbe0d1de5bea8443dU, 0x3e46153c3d02de8eU, 0x3e4dffa4bdd592f1U, 0xbf02c469bd60c407U,
  0xbfabda24be063ed5U, 0x3cf15ff83c251431U, 0x3e402e87bd2c0b70U, 0x3dbe2d643d949164U,
  0x3e3df774be28d1ecU, 0x3dd8b453bdb247e2U, 0xbd566ac9bd032f29U, 0x3e1798703cd6861bU,
  0xbebc69c2bdeec4d6U, 0x3dac3fabbd43013fU, 0xbcd9200e3dc3fc21U, 0x3e3fdf0d3d4d96e8U,
  0xbda47e933ebfa993U, 0xbe17e655bdd065d3U, 0xbdcf8abebd8b0fc0U, 0xbec204f4be15f765U,
  0xbfad9d8a3d7ca77aU, 0x3d50f9cbbe8a92a9U, 0x3e1fb10bbe198c78U, 0xbed2238abd453e9bU,
  0x3e63d9063d985419U, 0x3d331cc13d057ae6U, 0x3d65ba48bc9f624aU, 0xbd3191cdbe751141U,
  0xbcf6259dbdcd93d9U, 0x3da423f13e07a96bU, 0xbcd2e9d13e38c384U, 0x3e820fce3d5e5b6cU,
  0x3eb43d1cbcb191d7U, 0x3b48d4e93d811bc5U, 0xbe225f133ca209f0U, 0xbd2d63993e0b0b89U,
  0xbf7b2db5bdc18cf9U, 0xbd6684263dbc66d2U, 0xbe0887213eb82e4bU, 0xbd4138a7bc0cca7bU,
  0xbbd416623e11396eU, 0xbdb3e89fbd872275U, 0x3caf179fbd9adefcU, 0x3e502ac53cafe6b0U,
  0xbd9e7e74be117aa6U, 0x3d53423f3bf36f2bU, 0xbe1167a5bdc6f1ccU, 0xbe39d7fabca32c50U,
  0xbbf4b2d7beccf3f5U, 0x3d2cbecfbd2ae781U, 0xbd0d045b3dc603c0U, 0x3e983521be2453c5U,
  0xbec29100bd213923U, 0x3bbb1aa93e68c5bcU, 0x3e4e60c13e6bcbdfU, 0x3dafa6523d2f1cbbU,
  0xbdedf8b83d25cc9eU, 0xbdb38e63bd602090U, 0x3e42c1573e0b301eU, 0xbe313f03be105e35U,
  0xbf02c1df3f1caae6U, 0xbe8ed1f83d378980U, 0xbc3aefbc3886f4aaU, 0x3df795b3be08d120U,
  0x3e36be773cf345c6U, 0xbd6ea0793dffefdbU, 0xbc39daa8bd5d0236U, 0x3eb146f8be3f3c0fU,
  0xbf4e90533e4c300eU, 0xbd0b96ab3ab9fb3eU, 0xbe20bc1bbe1fa52cU, 0x3ed944663d18a13fU,
  0x3e78424abe8b012dU, 0xbd7d075a3db4311bU, 0xbc396ef53e6d0b30U, 0x3dae90e33e12f7b6U,
  0xbeecaf8bbd9e1b46U, 0x3d40e194be0c2a60U, 0x3da58be93cd76deeU, 0xbdff6420be10d690U,
  0x3cf0871abe6e05dfU, 0x3e39fb863d948c15U, 0x3e1ceff33d8f866bU, 0x3d587e04bc8cff07U,
  0xbf504ea7be0e8184U, 0xbe641820bec8b234U, 0xbe38e293be71970dU, 0xbcfd830ebaae36a1U,
  0x3d221f043e1e71fbU, 0xbdbf4578bcc79e44U, 0xbe428c9dbd6e4dc6U, 0x3e772af0bd69af33U,
  0xbeb1f4073e29be07U, 0xbca322933d1f5756U, 0xbea2012d3d026a43U, 0x3d13a5afbe4ad747U,
  0x3d4379fcbe915c8bU, 0xbe2b8df6bdbf0016U, 0xbdca9fc93deecf7cU, 0xbc1ea904be1cd657U,
  0xbeb08cb5bdb412a9U, 0x3d1c81e5bdd99980U, 0x3d47b8723e7eadd5U, 0xbe3d444d3c5b4b86U,
  0xbea2fb853e2cd847U, 0xbda427b63dba790fU, 0xbdbe76a63de8ab7fU, 0x3e9d4623bd1f5d5dU,
  0xbcc4534f3e373326U, 0xbd741e773d6840c2U, 0xbe67258fbd380236U, 0xbca48a3c3de1481bU,
  0xbe9a27863ded9d2cU, 0x3ea253323da5ddbcU, 0x3e5e840c3e0244b7U, 0x3d1d60dc3e0ff846U,
  0x3e2ad9123e3cde7dU, 0xbe4b3fcabe3d1bdbU, 0x3dad706abedb6046U, 0xbe9cb4523d42c5daU,
  0x3da80a83be6dd52cU, 0xbdd41ac1bdd7b079U, 0xbc5235f0bdcbbeb1U, 0xbdc33ab4be788e80U,
  0xbe121323bf117491U, 0xbe79c37bbcf8e34fU, 0xbe771edebd188743U, 0xbd81cd7c3d47917eU,
  0xbe729ba8be89a2d5U, 0xbe0b9879bda7e2e6U, 0x3dc0b335bd52d8bdU, 0xbcbd6dcd3df2a380U,
  0xbf894b1e3e833783U, 0x3e3f1280be4003dfU, 0xbe0dbafdbe98d289U, 0x3e1536263c025300U,
  0xb9f55b07bdbef0afU, 0xbdfb16a93cf1b42cU, 0x3c24794fbd9f68c1U, 0xbda3b9763e856c1eU,
  0x3e6575f43e2d69fdU, 0xbdae74b73e07ed66U, 0xbe79dc15bd140705U, 0xbe6db1b9bd92466eU,
  0x3da6e230bd1711dfU, 0xbeb867693d82dc11U, 0xbcef2fe83cc41b03U, 0xbe43aad93cfd28d1U,
  0x3f4c368b3d46ca51U, 0x3e965819be857aa9U, 0xbe16b8e03e18f6f1U, 0x3ea12b6c3db21ebcU,
  0xbdd79585be066857U, 0xbe06bb5e3de0e433U, 0x3e5343c8bd530499U, 0x3ea04687be450595U,
  0xbb92a3dbbe925c5fU, 0x3c9b7bff3d0498b8U, 0xbd14670fbdb5fd50U, 0x3eb413603d7f1cc2U,
  0xbea38942be8289a8U, 0x3efe1f86bd50a3e8U, 0xbd32576c3dbf1d91U, 0xbe1db1c23deb20e2U,
  0x3ebe35593dc90327U, 0xbeaa02ce3ea3b6d2U, 0xbd311a233c3584c9U, 0x3e822f3e3c240ddaU,
  0x3d0c75873e7f69ddU, 0x3d63fa15bdc98178U, 0xbd81af13be2a234fU, 0xbe8ecac1be2d7c9fU,
  0x3e52f4c2be543e94U, 0xbd87387fbb3b3cd2U, 0xbe2580153e0882fdU, 0x3ec9c7263ccb0cc0U,
  0x3d879b223ef4e898U, 0xbe894c053e13faf4U, 0x3dbccf1e3d9ea747U, 0x3e476b813e34dedaU,
  0xbe50fee23d7aa3c3U, 0x3e9e70af3dd087f4U, 0x3db62c4a3e46084bU, 0x3da369203d3ca28dU,
  0x3e301b843e1eb938U, 0x3d548c943ddf2ca2U, 0xbe08a650be672684U, 0xbe5c0c3f3c77e3ebU,
  0x3effe1033efb72a4U, 0xbe007682be5c577dU, 0xbdb94763be6757cfU, 0xbe8751d03beda390U,
  0x3e9e61ea3e499538U, 0xbd524054bdd388c7U, 0x3e65c5e7bd188d5dU, 0x3dca2b7b3d991a64U,
  0x3f1bff2b3df9eb51U, 0x3e8f560d3db03161U, 0x3df568923dba7926U, 0x3e28df8e3d747fa9U,
  0x3e04ad55be5912f7U, 0xbd359a203d5365ebU, 0x3dddc6f33e054ef8U, 0x3e0f4e1b3de22bbdU,
  0x3dfb75703cc89575U, 0x3e9576c5be33d4f3U, 0x3db39ca63e2b0e03U, 0xbd2b5a25bdf32d4cU,
  0xbc0e11183e96283dU, 0x3eed84003ca709a9U, 0x3e1786e3bc8c08d3U, 0xbe8000653da2480cU,
  0x3ee3fbe63e3d3987U, 0x3eb224a6bded871eU, 0xbe45c9e53e90f3b2U, 0x3eba408dbd54ac6bU,
  0xbe5170d53d7906e8U, 0x3da6676bbdc3dec8U, 0xbd13aea33e04c142U, 0xbdf7453a3e63f2b0U,
  0xbdd2c3093ec68f9bU, 0xbe45658f3c9893eeU, 0x3ea16ea73e2e8f7cU, 0xbdfd67c4bc86c284U,
  0xbd00cab5be5bf939U, 0xbdcbaef63baa2105U, 0xbe4a03673da37561U, 0x3dad14f8bbf4d34fU,
  0x3dba4b64be437f03U, 0x3e82deaf3ee0f6ecU, 0xbd6d65193e9231e3U, 0x3f1f7a563da6a32eU,
  0xbc4256fdbdfc807fU, 0x3de3473d3da93c11U, 0x3cd14279be22c80eU, 0x3e3a7ece3e3d3e27U,
  0x3ea5c80ebe5154f8U, 0xbe064660bcb4116cU, 0xbdff8e223e5ea912U, 0xbe68053d3b079520U,
  0x3e0b8633be59f055U, 0xbde8349e3cffabbcU, 0xbcf89961bd8ac7a5U, 0x3e65fdd83b7bec67U,
  0x3f77a8a73e54031dU, 0x3ec605f53e75b484U, 0xbc90f324bdfe3a20U, 0x3e08dc263d47d5ddU,
  0xbe633f1abe6599feU, 0xbcf2d9ed3d9ed318U, 0x3e2c17ac3e96badaU, 0xbe4ab423bdb85305U,
  0xbe60d1bd3d9cd4e9U, 0xbdb50e2f3d13d844U, 0xbbab9ca43e7fd815U, 0x3e00311e3e16ac04U,
  0x3d97dd23be74a449U, 0x3cbeea99bddb0c69U, 0xbe4c711f3d936a97U, 0x3e167799be42e9ceU,
  0x3cb6118bbe15c70fU, 0x3ee28ad73da743b8U, 0x3eadb6303e97e501U, 0x3f4365e43dc37ae2U,
  0x3d4f2715bcf00c6aU, 0xbd5b797339510628U, 0x3db44b70bbd90d08U, 0x3e9178123db96518U,
  0x3d1e681b3ef21498U, 0xbed90ef7bdf608dbU, 0x3e445c7b3d6cb68fU, 0xbe9df1bd3c108a03U,
  0xbe4e6ae9bc0fa129U, 0xbe23f6053cb35fafU, 0x3d2de3eabd5a8cecU, 0xbc937a743e4ac8ecU,
  0x3d4e94bbbd3e48f6U, 0xbe729fe83e7b31efU, 0x3dd8c25ebe80464aU, 0x3ca18b35bd262dc2U,
  0x3e657addbe26f6f6U, 0xbd207ababe029b0fU, 0x3e2dd6723b0b6cb3U, 0xbe4dcd1abe9aebeeU,
  0xbe0b82bc3ecdcb14U, 0xbe8f931ebc60fee4U, 0xbd864d003d342e70U, 0x3e0ec3bebd935e46U,
  0x3e0433c4bc3815c1U, 0x3ee5f527bda7b87dU, 0x3db1a1c03d9c4764U, 0xbde554e13df2c9d5U,
  0xbd62d425bc5398a0U, 0x3e9af2d03e982c80U, 0xbaa9ab343e80b0fdU, 0x3edf88c8bd8c7d74U,
  0x3d64d4bcbde0bd77U, 0xbd33a6073d162fc4U, 0x3e17d2d2be0bce7aU, 0x3ece08debe4d1e75U,
  0xbdf8c5a13d493fe8U, 0x3c8c11bc3daa2573U, 0xbddd472ebe884b66U, 0x3e851633bd1a7088U,
  0xbd889fd5be2064ecU, 0x3ebd3d783c350254U, 0xbd597c65bdc3b826U, 0xbe042a00bd12ee7bU,
  0x3e747583bdee4a08U, 0x3d1d9ef93e8c4682U, 0x3d7547c23ce58377U, 0x3c781a313dc8b775U,
  0x3e09de96be78cba1U, 0xbd0bcc7ebc9e8e85U, 0x3d2a077abe6d2e16U, 0x3d3f9223be952423U,
  0x3e989162beded5f7U, 0xbe1a8883bd7e98afU, 0xbdfcca7e3e4e90c7U, 0x3e7ec75c3d88267dU,
  0xbe72a5a5be68ed09U, 0x3ef9fcf4bb4bc0dbU, 0x3dd6242b3c3a7135U, 0xbed9a6e3be04e140U,
  0x3f515e1bbd8b1d53U, 0x3d06a976be7a1e69U, 0x3e12d161bd93ddceU, 0xbe58e9fe3d93ca41U,
  0x3e38f7933e13a905U, 0xbda5eec9baf36a3bU, 0xbc8cc28cbbc10e6eU, 0x3e38c4ec3d3a939bU,
  0xbc97f4c3bf0f4fbdU, 0xbd82ed5f3db4d5b6U, 0xbe9d05c63e20ca19U, 0x3c7228b5bd68a9e4U,
  0x3dc7202f3d9e113dU, 0x3e5219ef3cb94a35U, 0x3e0773cc3d61bc89U, 0xbe4a93c8bd21d890U,
  0x3f14aa1f3e5effceU, 0xbe0edc4b3e33d7c7U, 0x3daa72033d887fefU, 0x3e51b948bdf51162U,
  0xbe1b97863df35603U, 0x3e0e546a3dd9782dU, 0xbd38c8973e515381U, 0x3dfa07733e4a6e4fU,
  0xbc5418f6be8b1422U, 0xbcd3cb9e3dc8562cU, 0x3e7d42d43e8df97dU, 0xbdc39cb63e0522abU,
  0xbe65c3a53e7a61bfU, 0x3ec76609bd2003d8U, 0x3e97650d3c94de43U, 0xbd8fd728bdd00cb9U,
  0xbd5e1312bd8ed9bcU, 0xbd9775313d9ed336U, 0x3d93b9293efe1e9aU, 0x3d6557f9bdab8224U,
  0x3e0ab20c3e929d16U, 0xbd7a8e15bd3c7bf0U, 0xbce104bbbe4eb9c8U, 0xbe28936ebdef8956U,
  0x3dabf76dbca3efeaU, 0xbafc3cc03e268314U, 0xbe01486b3e704d49U, 0xbe32d253bdca59d8U,
  0x3d55883dbdf1890fU, 0xbe33fca8bd5b57efU, 0x3eb163e0bd6e2eb7U, 0xbe4a77db3e1167daU,
  0x3dded2b43e711b77U, 0xbe081e653e952fabU, 0xbc982376bbf45010U, 0xbd7867613d7c4feeU,
  0x3d81a0643e477f11U, 0x3dcfd4c5bdaec163U, 0x3dba91c3be18b053U, 0xbdb212fbbe29cb61U,
  0x3d88d66bbeabc735U, 0x3d7250cb3c81e300U, 0xbcfa835f3e8816a6U, 0xbdacf05f3d208da9U,
  0x3de13799be985400U, 0xbe2819f1bda9ee22U, 0xbc212c8ebd9ed2b4U, 0xbe6dbeb33d4a82b8U,
  0xbedab0ccbdd35eceU, 0x3eb2832cbdeb6c63U, 0x3e29d2783ed00397U, 0xbe13cb74bdb7b222U,
  0xbe1eceb33e558c58U, 0xbe0242a6bd91b6c0U, 0x3dbbe1b13e65c735U, 0xbd8c928ebe9081deU,
  0x3e043ed43e2babc2U, 0x3d5b5214bd7c7accU, 0xbe17c65cbe92e3caU, 0x3e222fa8bdbc187fU,
  0xbda52b913dcebfa7U, 0xbe218c823d931f8eU, 0x3dace3a4bd84b038U, 0xbdbd55583b08dfe8U,
  0x3e0e86463e275790U, 0xbe94b8babdfb38d4U, 0xbe2f96e4becf8160U, 0x3e861905bc96a93bU,
  0xbe2430d4bd9abfc2U, 0x3d7944fbbdbf5dfcU, 0x3e006360be880512U, 0xbea42e653d8d8657U,
  0xbc419878bd969e44U, 0xbe7fc1afbcb7af4eU, 0x3ebb3670bec8061bU, 0xbdc99ff5bda2bca1U,
  0x3e52e5903c50b574U, 0x3e076b1ebc050481U, 0xbe648d633e06bd9bU, 0xbea80cab3e329f41U,
  0xbf5bfc9f3e4625b8U, 0x3e1d37003e0a1ae3U, 0x3d950854be0e9a73U, 0xbe1feff53cb1750cU,
  0xbe425891be06eb9fU, 0xbdd72a653dc6bc9eU, 0xbc7d534bbe6e260aU, 0xbd85e07bbe67cb4dU,
  0x3e97304e3e8d00abU, 0xbe82d07e3e2f42d6U, 0xbe6b94ef3e34547eU, 0x3d1471c8bdaa790cU,
  0x3d8b13b8bdc009cbU, 0xbe1f584bbe008deeU, 0xbe242d4bbd50fd8dU, 0x3e538bfe3d554554U,
  0xbe680183bdc3f1d6U, 0xbc59f55f3dfc0938U, 0xbe827372be6b825aU, 0x3e5d00f2bdd1c39bU,
  0xbe71ab3bbdef6e6fU, 0xbdbdb6723df275ecU, 0x3e222c2a3e3e35d0U, 0x3de529bbbde9cf29U,
  0x3e43f8bebd81b9b7U, 0x3e0d06703d8eb681U, 0x3e185c49be16eb8cU, 0xbeb4dddabc43e957U,
  0x3e284ca83e436195U, 0xbee8430a3e031105U, 0xbe5d671c3e0cec7eU, 0xbd2f451ebda9366dU,
  0xbf9f7be13df5843fU, 0x3b0646223dee0cc2U, 0xbd6ccce53ec3b279U, 0x3e601032bd85e52cU,
  0xbe5e0bebbe364969U, 0x3de80ccdbc9880adU, 0x3e4d477cbd1e2d0aU, 0x3c7ed01abcab5cdeU,
  0xbd2e7ff2beb5421cU, 0x3e5c99ea3e37910fU, 0xbe3161923ddc8b5eU, 0x3e03f1cd3d7cea74U,
  0x3e52f2cd3e8e8dd2U, 0x3e458dce3ca43bd4U, 0xbe2c39b43d9ad92fU, 0x3e94438c3e19fcb4U,
  0xbec1597ebd952377U, 0xbe714d893ed68aa7U, 0x3d91bcf13ddc31aaU, 0x3d491861bdd1c40fU,
  0x3e8cf089be639925U, 0x3c45eaddbdd2c5bfU, 0x3d33378a3e58bbf4U, 0xbe80fc583e545549U,
  0x3e55935a3d967f33U, 0x3dcd45a1bc93c193U, 0x3d8e14f03cefecb9U, 0x3d8b7c0fbd80ea99U,
  0xbe148fd2be939b16U, 0xbe21ed3d3c315033U, 0x3e2953883d6083e9U, 0x3ddf84b3bb92e5bcU,
  0xbe167c033e00d592U, 0x3e90315a3ed04ce2U, 0xbe3b7c2bbd98c792U, 0x3ea1da08bda43ec9U,
  0xbe5754b63c3fbc5fU, 0xbd1383ca3da09913U, 0x3e27a658bda2a41fU, 0x3e14ffa03c782178U,
  0xbe11602fbed4b97eU, 0xbe26266dbd809dd2U, 0xbe7ef826be78eb96U, 0x3ec0d58e3d1886ffU,
  0xbe587d423e86d0e3U, 0xbdd716d23d901261U, 0xbc2ef47e3e00717dU, 0xbe2d5bcf3d97b28cU,
  0xbef33b263d345624U, 0xbeb37ccf3b85f9edU, 0x3e2b5d9e3e30fd1eU, 0x3e86aab83d2b9617U,
  0xbd407ad93e438de8U, 0x3dc05a95be0bc951U, 0xbde72a03bda98594U, 0xbe33f066bd93e4d0U,
  0x3e3d16b7be3d2c6bU, 0x3e0b47b93e44c4b2U, 0x3e0c27eb3dd29062U, 0xbd62f6b13dc677a9U,
  0x3e2498f6bdb993bbU, 0xbdf3e9243d39cb70U, 0x3ebb36bbbdc6377aU, 0x3df7a44bbda25086U,
  0xbea100153e39a0e9U, 0x3c8378d6bed2c32dU, 0xbda42d093e918561U, 0x3ef5d10d3d7f0701U,
  0x3d104fe1bc96d82eU, 0xbd5854fd3da25d12U, 0xbc1b3bab3e01bdd5U, 0xbcfd6dbb3e1c5c89U,
  0xbe8897063df59f31U, 0xbe2acfd7bcb557e8U, 0xbd302ae0be3f5a2eU, 0xbd626188bd7b16e8U,
  0xbe0fcf5c3d754186U, 0x3d67b0e3bd9112e3U, 0x3e16f0de3d74f2d7U, 0xbc902f7fbb3fac97U,
  0xbf3f7ad9be0b2ac4U, 0x3da521a23e8e0fd8U, 0x3e180694be76dd80U, 0xbdfca94abc1d5547U,
  0xbdf23b0ebd9c7256U, 0x3da47c1fbd85e5a4U, 0xbd6356e03e06bf16U, 0x3e65b58cbd8661efU,
  0x3e7105833d159d32U, 0xbd864c8bbda7503bU, 0xbe8a8187bdc0e033U, 0x3e68c6663de30429U,
  0x3e6c7b28be698f2aU, 0xbebc5e913da15d87U, 0xbde85d38bd9691ddU, 0x3eab415cbc49c3caU,
  0xbcbbf321be30a939U, 0x3e82a624bd649cc4U, 0x3d31b3333ed3053fU, 0xbe41af0a3d5de12bU,
  0xbe24db1bbe47e6c0U, 0xbd2b590ebce09c1cU, 0x3de76ac4be55998eU, 0x3dab8d6b3ddcf165U,
  0x3ef81f88bdf52fbcU, 0x3e119c17be16da92U, 0x3e509991be176912U, 0xbe354a723ccb4fddU,
  0xbd71012bbd0c578cU, 0x3ee859c2bdbd1bc1U, 0x3c228b0c3dc82696U, 0x3ec57ee8bccaa471U,
  0xbf9a671d3df3700aU, 0x3e254a35bdd908f4U, 0x3e4a0ddcbe8882efU, 0xbee7ba4dbda837a4U,
  0x3d5c423f3e7ed57eU, 0xbd234939bd6d4f87U, 0xbdd1137cbc3159adU, 0x3ed2cc683d2060abU,
  0xbea6f91dbe7ba251U, 0xbe8b8c7dbe0a9baeU, 0x3e7a241ebe448b08U, 0xbddb133f3d021dfaU,
  0x3e9677cb3e1d2f28U, 0x3edf470fbd9a4853U, 0x3e29af283d906ea6U, 0x3e988883bd1e023bU,
  0xbef039d03e06bbd4U, 0x3e69d1de3ddd30baU, 0x3c9e85cabec6102bU, 0x3d99490b3dc71a52U,
  0xbe665b7f3e713217U, 0x3d70bc60bbb78836U, 0x3db3e706bd9e442bU, 0xbe990bdabd8fa569U,
  0xbf0700e0bd97f461U, 0x3ce37189be2600e4U, 0xbe1a1cf23e845a03U, 0xbce52324bdf424a7U,
  0xbdd58aca3f0e3ee3U, 0xbe99b731bd6656a0U, 0x3e18f883bd8c1d1bU, 0x3e6bd2fd3b24144bU,
  0xbe8171c33e0b9a27U, 0xbd5ff188be0060e0U, 0xbdef326e3c9d8089U, 0xbe38fffd3d286f12U,
  0xbd895755be0af076U, 0x3d1f65debddca08cU, 0xbd4732413e83f640U, 0xbeaf47e7bc281ac4U,
  0xbb298f9fbe68fc65U, 0xbe28efb23dc9aed3U, 0x3daed92c3df38389U, 0xbe72e521bd11b989U,
  0x3d25b3253df39f0bU, 0xbd0fe9683dd1276cU, 0xbe424648bc50589eU, 0x3d3448b7bdeac6c2U,
  0x3ccfe6a8bdf2e623U, 0xbd9524dc3e260619U, 0x3e8ac91dbe3a2944U, 0xbde694f0bd2d62feU,
  0x3e2c1c3ebdd3b155U, 0x3d95e9dc3cf4e34bU, 0x3e2610c5be1b4bfaU, 0xbe36990d3e18e80bU,
  0xbeeb76893ec950eaU, 0xbe18df7d3db22446U, 0xbe072bff3dddc665U, 0x3dfe6e883e00604fU,
  0x3dd573723df4a9e4U, 0x3dc587873df031dfU, 0x3e1e353a3c28e823U, 0x3e033d523dfb918fU,
  0xbebd9506bd9dafc8U, 0xbe8b8791bded6f92U, 0x3e749e923e815f99U, 0xbea97663bd428ccfU,
  0xbd3647c5be9eae48U, 0xbda33fe93ce270adU, 0x3dcbbc4abe34ff40U, 0xbed3318e3df51178U,
  0x3ed0c8dcbe9b1343U, 0x3d83eabf3e1520bdU, 0x3e0f485d3d223767U, 0xbe4ff3063b81c229U,
  0x3dd86cca3da8c7ebU, 0x3ee9f8243dd907bcU, 0xbc5409db3e0c2fe2U, 0xbe60b6b63df56220U,
  0xbf0caa853d35de61U, 0x3cc8cc97bd2e9773U, 0x3d77594bbeb303abU, 0xbe3e1279bd3da09aU,
  0xbe791a0fbe2ad8b8U, 0xbd7c43723daee899U, 0x3d3330bebe25c43fU, 0x3d8bf6a5be32dca8U,
  0x3e14f7523e83975cU, 0x3e8f9ec93ddc1e07U, 0x3cf8fbebbca8339eU, 0xbdeb50883d1697d8U,
  0xbdb22275be1a77b6U, 0x3ee42aa23d81674cU, 0xbde961f83dfce8a8U, 0x3ea425223d725aceU,
  0x3d6a7210be6e74ecU, 0xbe96bbefbe765d26U, 0xbe1deb36be9293a5U, 0x3e1a7500bd0a6aefU,
  0x3bb69884be864a23U, 0xbdf0e0393d591b6cU, 0xbdba6404be98a135U, 0x3d545b37be5127ecU,
  0xbe46d6393ed78aabU, 0xbdfdf86ebe185306U, 0xbe911ccabd54b44dU, 0xbe26ae57bdf67547U,
  0x3d255ce0be3570b0U, 0x3ecc67633dfa2d04U, 0x3d80c7573c58ad68U, 0xbdeca644bd66c166U,
  0xbeb60d7dbbb45f7fU, 0x3e2c415a3ebea510U, 0xbe08bd99be88b863U, 0x3df640c23d1e0702U,
  0xbe8972413db38529U, 0x3d971f1abc5ab738U, 0x3dea9fef3d9f21deU, 0xbe3d44ee3daf4a12U,
  0x3d86024dbf0de6b5U, 0x3e61acfcbdf010c5U, 0x3e826fb2bdd24ff2U, 0xbe9520c53b2b1832U,
  0xbd3726bbbdcf9c1eU, 0x3e4930a23d19b82bU, 0x3e49a6763d5c83caU, 0xbe932ce4bdb9a8b2U,
  0xbc94000abe12bae0U, 0x3e67951dbeae60c3U, 0xbe4576c8be1d655aU, 0x3e1e36a3bddfdb75U,
  0xbd8da31b3e038eceU, 0xbd6730e5bcbf4c0cU, 0x3dbb2ffd3d2ff703U, 0xbd13f5dc3def2962U,
  0x3e6937363e62114bU, 0xba09c9ac3df37edcU, 0x3e745619bde1544aU, 0x3e78b1063e111b93U,
  0x3e85ff353ed3ad9eU, 0x3e053990bc076eebU, 0xbd41dc0d3e01c32eU, 0x3e44b71d3a8c05cfU,
  0xbf40d64bbd9c1385U, 0xbeac51a03bcd00a7U, 0xbd8de5e43e208de3U, 0xbe081e00bcc623e6U,
  0x3dc4feb13d16c439U, 0x3d73973a3db30cbeU, 0xbd8c3a983e31d3c4U, 0xbce44279bd3e6988U,
  0x3d503151be3d1dd4U, 0xbe26991f3dc0a4adU, 0xbeaa6237bd6d6ce2U, 0x3e2a99403dd8ab7fU,
  0xbd79fb3fbd18d108U, 0xbd06e427bcf5cb59U, 0x3e87dfc23d95ddabU, 0xbe60cf453e2e6273U,
  0xbec62013be3551c3U, 0xbd351ae63cce5ca4U, 0x3e51277fbe1768bfU, 0xbeb8e852bce3740aU,
  0x3db5b638bdd813a4U, 0xbde4ffc0bb3bbb63U, 0x3da9f5393d0b32aeU, 0x3e193b143df0e50dU,
  0xbe2ab34bbed9b8efU, 0x3d3358b0be0aab1fU, 0xbdf47e653dba4121U, 0xbeaedd5c3d3d2d7cU,
  0xbdfc8207bd2f3203U, 0xbf1f8ee6bd92e7a9U, 0x3e6225cbbdcc140eU, 0xbeda00c5be026b7bU,
  0xbe1a492ebde18e39U, 0xbeaa511fbe4a090fU, 0x3d9e7e8ebe6b32a1U, 0x3c29e62f3b70ad48U,
  0x3db3fab23e45592bU, 0xbd60f16e3c0985e4U, 0xbdeb3ef8bdcacb9dU, 0x3eab6cb13e0d0eceU,
  0xbe9c10fa3eba8687U, 0x3e57768e3ccd3627U, 0x3e5b0f333e100c43U, 0x3e390af13dbdb0d8U,
  0xbcb23017be17076aU, 0xbe819a78bc50f839U, 0x3d9fdc843d26f95dU, 0xbe56cafc3d9385e4U,
  0xbf4ae1afbe34046bU, 0xbbb461cdbd808016U, 0xbdbc73fa3ed6df21U, 0xbe2d3330bd809a49U,
  0xbe8091f9bc90865cU, 0x3d92f26bbdaa721aU, 0xbd29061b3d593e08U, 0x3e8584b23cd32beeU,
  0xbe2861e03e42087aU, 0x3e73fe98bddfe660U, 0xbca090673e7fc56eU, 0xbe461a2ebd5f2adbU,
  0x3eb14e773e87e2adU, 0x3e01e44fbb8b1878U, 0xbcf07844bda1fe2dU, 0x3e93b41bbdd44ba6U,
  0xbf1bd41f3d346b97U, 0xbe1b2c33be10ddcdU, 0x3d8c4e2e3ceac418U, 0xbebdb9a0bde9fdceU,
  0xbe44a9dfbcc6fcabU, 0xbdc416b33d670765U, 0x3d56988c3cff08feU, 0xbd17ba7e3e8d5a11U,
  0x3dc8d66cbe03ad4eU, 0xbdc56926bdbb2568U, 0x3c392b713eaef5b5U, 0xbc3b406dbda6b709U,
  0x3d70b5c6bccccd33U, 0x3e7db44bbdc44c47U, 0x3e03788f3d8d7ff5U, 0x3e90db54bc83cd7fU,
  0xbe7b87de3aa9346dU, 0x3e10f593be805090U, 0xbcbaf3bcbd757c5bU, 0xbb6de039bda824b6U,
  0x3dd1f4843daf28f4U, 0xbc97d19d3c9b10e9U, 0xbe292b09bd211c5aU, 0xbeb0bdbcbe8728ddU,
  0xbd118202bec3e4c0U, 0xbe782178bdb3fea5U, 0x3e32c7fc3ca9bbf9U, 0x3d9994ac3d9f2c1aU,
  0xbdffc358be2c1c38U, 0xbdb68331bdcb07a7U, 0xbdcec9ee3d6ffa5eU, 0xbe863ceabdbecbe9U,
  0x3ef28e793d17e8cbU, 0xbe9a562fbea2312eU, 0xbda35b1bbdab40c2U, 0x3e8d81d23dab5f65U,
  0xbd95a1583ceaf3b4U, 0xbc4d899abd6c17d1U, 0x3d9920873e33e7d9U, 0x3ea421d2bdc98c88U,
  0xbeaeb4173e6f4711U, 0xbe3f3f223d650a91U, 0xbbf08e6bbec7b799U, 0xbe4da1f43d1031b7U,
  0xbdf7e019be7b6379U, 0x3e46bab9bdb449e1U, 0xbe88d5203dfb9ba4U, 0x3d17c1b13d129903U,
  0xbe8839bebe627443U, 0xbe24ace73e20cfa1U, 0xbd921ecbbe6c8f0eU, 0xbe3dd6df3d939852U,
  0xbddcfb87be06a4afU, 0x3dc304adbce82d1eU, 0x3e0a28dcbec374abU, 0xbe891f7bbe7637ccU,
  0x3e8d0b3e3dd2ef98U, 0xbd632c73be12f477U, 0x3e04e910bdef42f5U, 0x3ea822cf3dabaa03U,
  0x3ea8bfacbe36613fU, 0xbd18ebef3d5bd4f2U, 0xbe3d546cbd5e5160U, 0xbd9252eebdb997eeU,
  0xbd35366fbe1b0289U, 0xbebde14c3d0e3393U, 0x3d4517dc3eab1edeU, 0x3e62777fbe119c30U,
  0xbc8f691b3e81e7b2U, 0xbe08a7a5be01737dU, 0xbd9c83c0be654441U, 0xbe245fef3de0f9f9U,
  0xbd91a8883e4c9731U, 0x3d4c84c0be17ba35U, 0x3d9cd6efbda49e99U, 0x3e76af733d63b4fdU,
