/**
  ******************************************************************************
  * @file    network_data_params.c
  * @author  AST Embedded Analytics Research Platform
  * @date    2025-11-26T20:23:05+0200
  * @brief   AI Tool Automatic Code Generator for Embedded NN computing
  ******************************************************************************
  * Copyright (c) 2025 STMicroelectronics.
  * All rights reserved.
  *
  * This software is licensed under terms that can be found in the LICENSE file
  * in the root directory of this software component.
  * If no LICENSE file comes with this software, it is provided AS-IS.
  ******************************************************************************
  */

#include "network_data_params.h"


/**  Activations Section  ****************************************************/
ai_handle g_network_activations_table[1 + 2] = {
  AI_HANDLE_PTR(AI_MAGIC_MARKER),
  AI_HANDLE_PTR(NULL),
  AI_HANDLE_PTR(AI_MAGIC_MARKER),
};




/**  Weights Section  ********************************************************/
AI_ALIGNED(32)
const ai_u64 s_network_weights_array_u64[18004] = {
  0xbe7cf8efbe38e1cdU, 0x3ebcd0ebbdecd511U, 0xbde706ad3f36376aU, 0xbf311c0e3e1fa152U,
  0x3ef03ce83d167435U, 0xbe8981233e842b00U, 0xbf000b46be1f0529U, 0x3e8452a03dcc70d9U,
  0x3f062c50bf10c10cU, 0x3e67e3013d963c46U, 0xbed72d5a3f026e9dU, 0x3e922817bf2e26caU,
  0x3f2838c2be079ee7U, 0x3de49f18bdc82f20U, 0xbdbae9ce3eca5ed8U, 0xbf1fdf77bf122494U,
  0x3efb1f0cbe63b896U, 0xbea6a554bf0993c3U, 0xbe50e2d0be308b91U, 0xbe9f9d983ee46bcfU,
  0x3eb52e76bf0e3a60U, 0xbdb137143f1b874dU, 0x3f0574103e943888U, 0xbe89a72fbe9e31deU,
  0x3f22c61d3f06a979U, 0x3e7769b9bcf577b4U, 0x3e10b2ad3f19b90bU, 0x3e90234c3f1bde45U,
  0xbdbe42d83e3ab427U, 0xbd180f913f07720fU, 0x3eb2c1f8be828e11U, 0x3de5b44abec44e57U,
  0x3d5e9e643f3f1fb3U, 0xbdc83efc3e4071baU, 0x3eaf82c53e5162f4U, 0x3ed801c8bf41d10aU,
  0x3e41ebe9bef3f389U, 0x3f034cb53d87666aU, 0x3e09cfad3eb31ee6U, 0xbf506c41be419280U,
  0xbf0eda8e3e94f893U, 0xbdf1d8b23f0e0db5U, 0xbe3a15c83eba7cbcU, 0x3eb124ecbf000abcU,
  0xbf073e5a3f38ae79U, 0xbf20cd23bd8d31cfU, 0x3db430a03c5d6d5aU, 0xbde2462ebe979a81U,
  0xbf2397b03ec37f06U, 0xbf163677be478419U, 0x3e52961fbef4de7cU, 0x3f694ef5beb88cfbU,
  0xbe41df213eb143d9U, 0x3e9661c43e70c5a6U, 0x3f21b5d33ea68597U, 0xbef9929abdc6a6c2U,
  0x3e9d7253be19e6b0U, 0xbf1590213ede0f87U, 0x3cb8ac8abeeaf3abU, 0xbd13f7efbe436f3fU,
  0x3f43bb83bde5f034U, 0x3ed5be46be1a961aU, 0xbeb539da3e5d39fdU, 0x3e17e0bbbe33c34bU,
  0xbe9d4e233e0174f2U, 0x3e08bcd7bef78248U, 0xbdee2b203e8e5c74U, 0xbef8612abeba200eU,
  0xbe960f39bee2ed21U, 0xbdbffabb3dc69229U, 0x3daa92c13ed04aa1U, 0xbeb1e51dbf20e138U,
  0xbeda37e63e5bc56fU, 0xbdbd587dbe6f9d71U, 0x3e4d50893eb078c1U, 0x3e365b3a3e4733eaU,
  0xbe08e39c3ee5c98fU, 0xbe39054d3f588e92U, 0x3e54288cbdc8b836U, 0x3ef1a719be99b8b6U,
  0xbd18ae1d3f0d71f1U, 0xbef10ce43f11129aU, 0xbe1a72fb3d2c4536U, 0x3ed040fabf33a144U,
  0x3ee8fb4c3e8f2d2cU, 0x3de7f0c9be1e5cb0U, 0x3e2804ee3f1646dbU, 0x3f0ca4e13e57ade3U,
  0x3e933e7c3e652299U, 0x3e69d930bf34aa8aU, 0xbefd39e1becc55a8U, 0xbe6252fcbea990adU,
  0x3ef75422be3e7d9eU, 0xbf0cc0d43e1b1e77U, 0xbe01d8813c2ed173U, 0xbe6b032a3ee5dd55U,
  0x3f0652e43f16f802U, 0x3ed01e67be14a7ddU, 0xbe9eaff73f2ac899U, 0xbe885b29bec76a96U,
  0xbe45d0913d5f7857U, 0x3dce77623f03d7f1U, 0xbea0bc5a3ea816aaU, 0xbe4297213e8336b3U,
  0xbde3f4e6bf1770eaU, 0xbe03090e3eb55d06U, 0x3ed2b5053e5c88f5U, 0xbe93f9eabe8317d4U,
  0x3dcef844bed42820U, 0xbf0cfa28bebbd7ecU, 0x3e2f64ff3f1edc32U, 0x3f171f5f3ec80585U,
  0x3c58e7793de96aefU, 0xbe951488be5407f3U, 0x3d43341a3d48774cU, 0x3dc32f6d3e4c4cfcU,
  0xbea8dd75bed361afU, 0x3cd6a934bf160f21U, 0x3e8975523eed4e97U, 0xbd38ffc53e8ad614U,
  0xbf17780abdb06d1cU, 0x3ed9a7e7beb330e0U, 0x3ec091d73f192dccU, 0xbf2157a63e085d5fU,
  0x3ecf0e653d84fd1bU, 0x3d21e74d3dc82c43U, 0x3e4c3d49bf0a166eU, 0xbf0161123e991a2fU,
  0x3ed755a23f160888U, 0xbe3f48e23ef50908U, 0x3edbfeef3e5ef3eeU, 0xbd980ea03f08aff4U,
  0xbef3483bbea890b3U, 0x3e9192413e076b91U, 0xbe725c943f03b849U, 0x3ecd366bbdd6092aU,
  0xbef7d66e3d1d9c36U, 0x3ef4147dbeb4cb5bU, 0x3e491b5ebf14c8d9U, 0x3eb7a70e3eb5faddU,
  0xbeaa5c233db26c21U, 0xbe7fca773eeea4f6U, 0xbf120a07bd72b43bU, 0xbefd1b84bea69c6aU,
  0x3f14214abe6b702fU, 0x3ea1ce35bee8a3caU, 0x3e6557933f44db91U, 0xbe2d104b3e99739dU,
  0x3e2d5318be045df9U, 0xbea580d03e52576bU, 0xbebed7a6be56a414U, 0x3ede4aec3f0a0e75U,
  0x3d7ace1dbb359ae1U, 0x3d2b74f83ed3f513U, 0xbed7bbe6be857ef0U, 0xbe6ccacabeb215afU,
  0xbdc85c033e72073eU, 0x3e9d868abc38aed7U, 0xbe5f30d2bdc48cadU, 0x3f26bad13ea00208U,
  0x3e19950a3eacfdf0U, 0x3e0205fd3e16246eU, 0xbeb8ce943e9c66eeU, 0x3f24d32f3edc9b63U,
  0xbe8cacdfbf11be3aU, 0xbe434891be4dde3aU, 0xbf0963bc3eea7856U, 0x3d11fbf9be738343U,
  0xbee255f4be55cc93U, 0x3de86a36beb2aba8U, 0xbed20a8e3e0cb42aU, 0x3f49d7ef3b92b66bU,
  0x3e57d7ce3ace010fU, 0x3db3e6b13ec38729U, 0x3e76e3ea3e832387U, 0x3e4bd086be2a71e1U,
  0x3e77c64b3f580debU, 0x3e49fbbabec52304U, 0xbcb4d3febdacb2a1U, 0x3df0c2e2be7d9afaU,
  0x3f38ac423ed46461U, 0xbf1ec1b8bdbb4fcbU, 0x3eb0b8003f1aad3bU, 0x3ee8e8a6bee0783dU,
  0x3e7e5104bebee051U, 0x3e6441623f05bf25U, 0xbead7760be1e355dU, 0x3edfbf483d17ae75U,
  0xbde13993bed8f2c8U, 0xbf0ff8d5be8cd94fU, 0x3c0393853e56fce8U, 0xbc0e59c93e9d8a79U,
  0xbeaca1cd3d6f09baU, 0xbed7ee99bef3acd0U, 0xbe1e3f9bbec1fc70U, 0x3cf1b717bf0bb8efU,
  0xbf2137b63e12cdfbU, 0x3ed4364cbd85d5cfU, 0x3e060efa3ebfc63aU, 0xbf0d371f3d3623e4U,
  0x3e11f6233e2a3aefU, 0x3f0a11f53e09e793U, 0x3f01c84e3ec5c4daU, 0x3d428273bf1e20abU,
  0xbe4ad4743f1365eaU, 0x3d89647b3eaa13f2U, 0xbec8eb6b3e8d1f74U, 0xbee27f293d8118faU,
  0xbe8cff993e9f2ce7U, 0x3e86bd223ed10c94U, 0x3f42207e3e2d4396U, 0x3dabbe593d7eb4cfU,
  0xbe8701073f139ccbU, 0xbdf896653efd36dfU, 0xbe03d1533ec7658bU, 0x3eaef0233f275d32U,
  0xbf0fcb103ed1d562U, 0xbe2f815f3e4af8f6U, 0x3ef1a94d3f2abb70U, 0x3ed0dd3e3efff50bU,
  0xbeb906b9bed7168dU, 0xbe31b36c3ddbc1eeU, 0x3f5831b13e384ad0U, 0x3eedc5f6bec15e8cU,
  0xbe0074723e3aa74fU, 0x3e9fd85dbed4cbdeU, 0xbe2450073d25b1f1U, 0xbf0102193ede20deU,
  0xbec703273e31a5cbU, 0x3f0c38b83eb40508U, 0x3e942cdb3f0f8f6eU, 0x3f144ab1bdc26923U,
  0x3ee828f63ed13ccfU, 0xbee1f1dc3daa270aU, 0xbcad6f923ef6e923U, 0xbd1ddb01bee3411dU,
  0x3ec07a9d3ec14375U, 0xbeda0cf23e286f17U, 0xbf14a7453f0b254cU, 0xbe1c6d68be03db80U,
  0xbd94211a3e060b22U, 0x3e933b3abb36fc50U, 0x3e07880ebd46b0d6U, 0x3c7d29eabe22f666U,
  0xbcd0b1403dcf9231U, 0xbd4b104f3e3ab1f0U, 0x3e4f23423e119e67U, 0xbc5face2bd0d1cdaU,
  0x3e11e4633cd743f9U, 0x3d8f08e0bdfe4386U, 0x3e591c50bd09e8eeU, 0x3d5bd132bdcd5491U,
  0xbc98cb7cbe07e2deU, 0xbd04aaa3be4745f4U, 0x3e20f76cbd1347d2U, 0x3e0ea264be6a5b5bU,
  0xbe5fa3853dcde0d0U, 0x3d7026b3bd7dc0a0U, 0x3daa8ca4be8acdd9U, 0x3eabcf403c6867eaU,
  0x3dd62e0e3e824273U, 0xbe34224fbda4a292U, 0xbe5039c9bd958b99U, 0x3eee52a2be21b377U,
  0x3cb8de6cbe7db239U, 0x3dd17566bdb877daU, 0x3d869434be83b7ceU, 0xbe178599be35f1caU,
  0xbddb8f533de98e85U, 0x3d9c81adbbe5b562U, 0x3d5c50f7bd499609U, 0xbe945c0b3c18cd3dU,
  0xbe4f53d73e1366d3U, 0x3cb561efbc9e3cc6U, 0x3e2e4b6ebcf78e88U, 0x3b98ba9e3dbe4dc2U,
  0xbded01673e982fafU, 0xbd3360683e23ac11U, 0xbf0371cd3e99bedaU, 0x3e00be5dbd91c02aU,
  0xbe09aedcbc5e9b83U, 0x3d90a8e13d6a8022U, 0xbd617ee93e43b49cU, 0x3cebe4a23e42eb83U,
  0xbe099ff9be22196cU, 0x3c371110bdc437d9U, 0xbb87af37bd94c2ccU, 0x3c578644bda4ea3cU,
  0xbe9267edbe9b091cU, 0x3d0d3cc73d4a9f65U, 0xbda83233be229094U, 0x3eb5e8863d46cbffU,
  0x3e03a6ce3ecb49deU, 0xbe4170bf3de05f33U, 0x3eab3d7b3e4fd650U, 0xbeec1b7f3d3c889fU,
  0xbe844c40bebab070U, 0x3d9e8066bd91c1f5U, 0xbd80edd3be4e23cfU, 0x3e69888dbc07c3e4U,
  0x3e2a9c373e608661U, 0x3ad435fe3db6b7deU, 0x3dd5a6d63c277d18U, 0x3e0eca453d196934U,
  0xbb6ee192be908b43U, 0x3d0a29ed3c523502U, 0xbe46eb643de292eaU, 0x3ebb7efabd96e2ceU,
  0xbddd2014be52a85dU, 0xbe1ab447bd3222c0U, 0x3e6e57a1be8980b9U, 0xbee0570e3e7c012dU,
  0xbe327090be973e1eU, 0xbdec93d2be785991U, 0x3e1840763e435522U, 0xbcdbb8e83e8d7830U,
  0x3dfaf3f93e028806U, 0xbe04059dbe02fec8U, 0x3da21c3bbd78af2fU, 0x3db6e99cbe314cc7U,
  0xbe53dae53eaf659fU, 0x3c63fe6c3d0fbdf1U, 0xbe9817ee3db22dc5U, 0x3eea202abc9672edU,
  0x3e011095bedfb5d7U, 0x3d96b76c3e45ed42U, 0xbeadea0b3c2b7dcfU, 0x3d2216c63de67209U,
  0xbcd81be0bdb79b05U, 0x3e1622debe29b07bU, 0x3d28335f3df61af6U, 0xbe3a64ad3d8e6d51U,
  0x3db7c87cbd8e7c43U, 0x3e18242b3dae4f18U, 0x3d0dc0ddbd467e3cU, 0xbc2ddee6be066b2bU,
  0x3c201ae4beb913eaU, 0xbd2dfca5bdacd3bdU, 0xbde658f0be74773eU, 0xbeb5d96cbd8dc8c5U,
  0x3d2f3724bf0e656cU, 0xbe622dd8bd1bd46aU, 0xbeb703923c56f8eeU, 0xbec69207bdb885daU,
  0xbe811b8a3cbaca45U, 0xbe32c145bd7d8a13U, 0xbc32a839bd3c9dd0U, 0xbe30d3643e6cc22aU,
  0x3e068226be2706f9U, 0xbe32e26bbe76baddU, 0xbd706ceebd16adf2U, 0x3e811c59be1b8b78U,
  0x3da19c5dbb57ad8aU, 0x3da2edd83da0f4feU, 0x3d1ae6b6be8bd3aaU, 0xbc8e4c483cf4876fU,
  0x3e1225d43e74b1b5U, 0x3e0c5d293a53669aU, 0x3f0d486c3d56f204U, 0xbe5f3d2dbdfb225fU,
  0xbe76a11f3e4f375fU, 0x3d1c8bdebec71aabU, 0xbd682aa7be11143eU, 0x3e55094dbdbe16caU,
  0xbb51ea1abe46f0a9U, 0x3dbc72053d064444U, 0x3d58ef173dc4f344U, 0xbd8e14e8be0d08a2U,
  0x3e62f70fbe77fed3U, 0x3d6067843c80d800U, 0xbe14db64be9eb6f4U, 0x3e67da7c3e4c95aaU,
  0x3caf9407bdd3e9edU, 0xbe6728833d8f80c1U, 0x3f1c001fbecfd088U, 0xbe862e6dbe31f279U,
  0x3e17b1f13e579712U, 0xbd1a05fb3e7a6c78U, 0x3da043d2be244cfeU, 0x3e0f29a4bdd5afbcU,
  0x3d1ff8713de6d4d8U, 0xbd0846e43de436baU, 0x3d166968bd349dc1U, 0x3dede0023dd9eba4U,
  0xbcdea48fbe0aea1eU, 0x3d8f1323bc41ed12U, 0xbe448fa33bf9edcdU, 0xbe136f873e0554feU,
  0xbce4788f3c4dc18fU, 0xbc84e76b3dec14e7U, 0xbeee5b59be872a30U, 0x3e47a3183d30859cU,
  0x3e23d23abe3aff9dU, 0xbd5faf6d3ea53e42U, 0x3d9d1e9e3e90c454U, 0xbe4a8b9abe9ab4f7U,
  0x3c81f5ea3dfccec4U, 0xbe367d7f3c7ffd75U, 0x3d8a8bd43dd013baU, 0x3d3049b13dcaa911U,
  0xbe205092bc9b3738U, 0x3da17a3fbd54e048U, 0x3dedc8b23da339acU, 0xbe76b21abd50a04cU,
  0xbc3609a0bd7f1af3U, 0x3e0b85a6bcba4a70U, 0xbf01b31c3d8306d9U, 0x3e00bed93e3eda21U,
  0xbd8c772e3e48fdd8U, 0x3e1196f03dd6d162U, 0xbe025e13be01beb0U, 0x3b5f6b20bd026973U,
  0xbd744c483e422f24U, 0x3d71ddf73d794499U, 0x3dfd3eebbd202374U, 0x3e00ab5a3ded0bb7U,
  0x3e236a6d3e2f362bU, 0x3d5e9b7d3d396fbdU, 0x3d85784ebe035688U, 0xbe87499b3dad1c6aU,
  0x3d2ac799bd14b765U, 0xbcb8dee2be3f8336U, 0x3d1ddbe43e1a775cU, 0x3eb5caee3e85707aU,
  0xbe84c75d3e5c97b2U, 0x3dfca5afbd877a88U, 0x3dbf9d47be516106U, 0xbdfd83e5be2c2e82U,
  0xbe284d36beb8d62aU, 0x3df84efbbe571fa7U, 0xba8a91813de23decU, 0x3e880e9bbe2bdffaU,
  0xbe3bb3233da2753aU, 0x3d947aae3cfd8c64U, 0xbe221f9dbdc4de04U, 0xbefd70363c9d2b89U,
  0x3da4b58f3dd2b8feU, 0x3e14ddf3bd3f53dbU, 0xbebc6f743ca41b9dU, 0x3cc27f733e070ee9U,
  0xbdd36a633e4e226eU, 0xbcb0f94d3e623567U, 0xba919c31bcb59614U, 0x3c01678a3e4ecec7U,
  0x3e098c2d3d40b082U, 0xbe27a9d3be51a15fU, 0x3dcacfb5bdcf58b2U, 0xbe153738be4a3265U,
  0xbdca0edb3e0f0132U, 0x3da47b563cd93944U, 0xbc0cbed9be307e7cU, 0xbecb1f05bd79b3aaU,
  0xbce31bb4bd943211U, 0xbe257e083d1fdf36U, 0xbeecde01bd2c0d14U, 0xbea2fe0fbe8d92faU,
  0xbcc1c29dbdd78f53U, 0xbe06a9c4bea281c6U, 0x3cc4988d3d9022dfU, 0xbe2f8424bdafbae1U,
  0xbcfcc72b3dea209dU, 0xbd6011303e6efaf7U, 0x3e2911aabcb6245eU, 0x3d5dcad33d03aaa9U,
  0xbc57c6ecbe8b8717U, 0xbdf5dd6dbde60271U, 0xbe3e302abbb855acU, 0x3d1ce09b3e0aa672U,
  0x3e1b44ce3e0c53daU, 0x3e5afaacbda990bdU, 0xbe18476abe64d202U, 0xbeb9ecb93e833f33U,
  0xbe0721093da0cdbdU, 0xbd8bb7403dcf078cU, 0xbc9db72dbe4bdcafU, 0xbdc32e1c3e48fbceU,
  0xbb8ca6c63e8b3846U, 0xbd82221f3e317a59U, 0xbd7332d539c9333eU, 0x3d85d007be03c3f6U,
  0xbe1a4480be6daaccU, 0xbdc770edbd0e7eafU, 0xbe0ba0423e9dcbe6U, 0x3c77bc393df66b2eU,
  0xbd7240cebe9f129aU, 0x3d32730cbdb93306U, 0xbf3b6e87bef71b93U, 0xbedb90d9bb4c2a4bU,
  0xbd46f687bd88eecaU, 0xbdd2d724be51d37bU, 0xbd7f76303e323624U, 0xbe1e7c91be08ac27U,
  0x3de3bbebbcb82c8aU, 0x3e1c17ba3e24bf54U, 0xbde66535bdb800e1U, 0xbcdbd0c33e58f42eU,
  0xbc992fcb3d0b3a79U, 0xbb47443dbd92e53cU, 0x3dafcbd6bebe2c48U, 0xbe6c82a73e119d53U,
  0xbdd3f983bd050d49U, 0xbe3923db3ddf39f2U, 0x3e8658e3becd0144U, 0x3e81a2033b68850dU,
  0x3cf2516ebca7e7f6U, 0x3e3175aabc17a390U, 0x3d15cde1bdaf2414U, 0xbe087b6e3d641901U,
  0x3e2f1d6d3ea7f35bU, 0x3e32cb0abe2f494eU, 0x3e32489a3e084d7dU, 0xbda270f5bd4f3ab9U,
  0xbe55ea2ebdee2ac3U, 0xbd96e7663dfe36e0U, 0x3de5c17abc852ccfU, 0x3e3febd9bde6363fU,
  0x3e2fc4883ead3f68U, 0x3e2d21b9bc69db86U, 0xbdbafdcfbe1515b8U, 0x3dd23a38bd3528fcU,
  0xbe3fdac8be1fb2e1U, 0xbe078805be4cfe88U, 0xbb8cdcfe3d728accU, 0x3d29a834bde0d90eU,
  0xbde91ce6bcc352eaU, 0x3ddd543a3d1a0cceU, 0xbd1402fc3dea3f17U, 0x3e797d163dacc947U,
  0x3df238adbe10728cU, 0x3d8c42833e03485bU, 0x3dd762883e0a78d2U, 0xbec58214bdf09a78U,
  0xbde997833e2d853bU, 0xbe05340bbd8888b1U, 0xbc8bb1ecbec52096U, 0xbdc1f044be4be81cU,
  0xbe0fb31cbde83fd2U, 0x3d50443c3d035c45U, 0x3d59cb72bdd74e7aU, 0x3d034ca4be77f64cU,
  0xbce04bbbbe2d7529U, 0xbceaddef3df36035U, 0xbb26a0d93d3b5f86U, 0x3ad443d4bd9da460U,
  0x3e47a4eabd838422U, 0x3dad8c6a3d0948adU, 0xbe0d2a5b3d99a3daU, 0xbe02bfbdbdafac9eU,
  0xbdba8b2bbd83c5d3U, 0x3e0a7b4abe02536bU, 0xbba46a30beb13298U, 0xbed73953be186b02U,
  0xbda5b8ad3e68c9d7U, 0x3da73db6be7fa1d8U, 0x3d17c9a83d609328U, 0xbd8d798fbeba681dU,
  0xbdb029b23cd55951U, 0x3e11b018bc363b21U, 0xbb5c9e563c66a4abU, 0xbc8214a23cacf24aU,
  0xbd952efb3d3aea87U, 0xbc5413f8bbf152faU, 0xbcd3e5f1bdc7ee25U, 0xbf263b4dbda5dc25U,
  0x3dd5240fbe596e30U, 0xbdd74460bc85d54fU, 0xbf506a76be900043U, 0xbef58e3f3e8a1953U,
  0xbb2097efbc5033e1U, 0xbdbef6a13e12580cU, 0xbe47e068beb95302U, 0xbe4dd600be594666U,
  0x3df931443dd25253U, 0x3e07af2abe0ce1b2U, 0xbdb3a6e23d3352daU, 0x3dbc182e3ca8e3ccU,
  0x3ca384583e63673aU, 0x3dada23dbe025032U, 0x3ccf2761bdfe3b03U, 0xbc573001be06d4c8U,
  0xbe1051f4be9cd9ecU, 0x3c9bf301bd7bad50U, 0x3ed78e78bd6a0883U, 0x3d34b69a3e304039U,
  0x3da0b6d83e4fb33eU, 0x3d0abdb73e886a49U, 0xbd8f34bdbe64532cU, 0xbd92fa3abc938370U,
  0x3d57b5593f053248U, 0xbd6f4c57bc8a1989U, 0x3d77917abda0267dU, 0x3d1714df3df8cd34U,
  0x3e1d7f983decc6c4U, 0x3db0de01bc522eeeU, 0x3e356f723de589d5U, 0x3e4b5057bc2ab73eU,
  0xbcbd90103d89f9c4U, 0xbd5defa9bdb3e58aU, 0xbdd183b3bebc1352U, 0x3dda5b073e4a6ba1U,
  0x3c99433bbe8ec85aU, 0x3e1357783ccfc8efU, 0x3dc2efffbd83df6bU, 0x3da3ec8a3e824320U,
  0xbcd06b533e0f3242U, 0xbdd65b403d211cacU, 0x3e7a13dbbbaf4b63U, 0xbe897c143dfbe8d4U,
  0xbde280273c5e7da8U, 0xbdbfe3e63c845141U, 0x3e2c0c1e3cc92b66U, 0xbf08c1e1bc31ac92U,
  0x3d2494cf3d9b81afU, 0x3e003c1fbe15892dU, 0xbe9e49643e12dfc2U, 0x3de565293c30e136U,
  0xbdc788a6bd68a453U, 0x3e0d5208bed97a15U, 0x3df5552abe674fccU, 0x3e49255dbdf0bcd4U,
  0x3ddd2dabbd6e7297U, 0x3e8a3c793e55af2dU, 0x3e2f7aaebd8a0ba6U, 0x3e9073d2bd8b31daU,
  0xbcd813cabe1fa04bU, 0x3dbca3b03cad6e1fU, 0xbe1044213e59e28cU, 0x3d8df5913dcaf319U,
  0xbe6569853e04cef9U, 0xbdff3e0fbd9fa075U, 0xbf4d50813e59c4dbU, 0x3edef3f8be4b1bf6U,
  0xbe58ab953de4a1afU, 0xbe73ebf4be24265fU, 0xbe0afeb3be348eb4U, 0x3e5a0e0a3e2dcdafU,
  0x3d922b8f3e3fd372U, 0x3c2fb16d3b8c72ecU, 0xbe1017203d9a5603U, 0xbd0d2c52bd6cc916U,
  0x3d85976d3e1acfd4U, 0xbd91f6d03d7ddb37U, 0xbe0307363e545fc7U, 0xbf02f3aa3d7bc33fU,
  0xbe8c10d0beb751ddU, 0xbc454c483dc839c7U, 0xbda9bee03dc096bdU, 0xbf0c4d4f3e5b20a5U,
  0xbdc9dd95be421270U, 0xbdc204673e961fb8U, 0xbe1b6bc7ba2bf00aU, 0xbd16a747be855349U,
  0xbe22a19fbdeb8f52U, 0x3d3f206f3e61743bU, 0x3e030b66bda407c0U, 0x3e5850e73e1ef998U,
  0x3dd0de993e8f6e94U, 0xbd1c7848bdff183dU, 0x3e64bc0fbd3e2216U, 0x3e7a5e84bdd1c73dU,
  0xbda9cc4d3b50e2deU, 0x3e157cfabdcff67aU, 0xbef37fdc3d617473U, 0xbeaaf47cbe02856cU,
  0xbd2d60efbe91571bU, 0x3c890287bddce8c1U, 0xbdb50155bdfa11f6U, 0x3e18ab68bd0f22d0U,
  0x3dc39cfc3e0645daU, 0xbdc9fd3f3d9ddde4U, 0x3c7acfc9bdfced84U, 0xbdd47739be2e4d07U,
  0x3e1c6a9ebd031507U, 0x3d78e008bdb0ed05U, 0xbd2530fdbcbd2b28U, 0x3f047ce73b59e876U,
  0x3c8b18f13d937054U, 0x3cfee2c33e19a298U, 0xbedccd0ebeafc38fU, 0x3cfb5ba93e44ace3U,
  0x3d4a98ebbdeac071U, 0xbc115240bd335651U, 0x3d9bfad8bddf44abU, 0xbc5632f33e455b85U,
  0xbe2b88153d795bd1U, 0xbe4dc3d4bd374dceU, 0xbdac16a43d0475e0U, 0x3dc618dfbd97c984U,
  0x3d2555bd3e78afeeU, 0x3ce76d683d9c2147U, 0xbca731d43e8d1eb0U, 0x3e837411be151d9fU,
  0xbcaa4cf0be6768c9U, 0xbe816add3d6256faU, 0x3e552c87be149834U, 0x3ea45c7aba9121abU,
  0xbdb5a9fabe7f5e4cU, 0x3dce41223e80d5abU, 0xbdf08e4cbe780455U, 0x3cf670f2be9310ccU,
  0x3daaef5e3e27f2a5U, 0x3dee7fe7be5eca43U, 0xbe2a25533dc2772cU, 0xbe2ea16bbd30bd86U,
  0xbe4419e03e8feb3dU, 0x3d5acdd1bd82c1cdU, 0x3dd9c4fd3e6186f7U, 0x3a5b846bbd990b6bU,
  0xbd84925d3ea1f091U, 0xbe00395e3b9410c6U, 0x3ee335e13ec1a209U, 0xbe802368bb2c18feU,
  0xbe2639b23dc7f6ccU, 0x3dacd86a3e4174caU, 0xbdd9f3513ce065e6U, 0xbe8ac1ac3e1b4344U,
  0x3c57123abe9ba499U, 0x3e17d8ca3e86029cU, 0x3e116581bdd15f4eU, 0xbd65f710be18ef83U,
  0xbd9bf0873e46eb07U, 0x3d2f33723d804bbaU, 0x3e7358ed3e2f907bU, 0xbeaf4c9b3def5651U,
  0x3e4184393e7cb8e3U, 0x3db29a953ca0bc6bU, 0xbe57a8b13ec3fe04U, 0x3dd42ce53da3720bU,
  0x3c94b6e0bdb7e8c0U, 0xbe316ca3bd912f6fU, 0x3e365e6b3e801ad5U, 0xbdb566693e8b9082U,
  0x3cf68e5f3df79531U, 0x3cf928d43ea7df03U, 0xbde89ffb3e099b74U, 0xbe58236abd1ff0e7U,
  0x3e7876b53e72fb5aU, 0x3d7d1534b9c2842bU, 0x3d96cdd13e28d32fU, 0xbeabcac83db59245U,
  0x3dc50e3dbe80d4b7U, 0x3e25bcf2bdfbeb29U, 0xbe5f14c53a57de6bU, 0x3e9a65fb3dc2a46cU,
  0x3ce366b2bd3d3aaaU, 0xbe2e8b153e97bbc9U, 0x3d8cda513e34d4e0U, 0xbd3c968bbe37cd12U,
  0xbcc5d602bc43a672U, 0x3c8c66b9bdbb9cd2U, 0x3e3b1fb6bbc6e174U, 0x3dd397043de3e4a5U,
  0x3e4743b13c7019e6U, 0xbd666c103de9addaU, 0xbd609c8c3eed9878U, 0x3dfa44983dc66d6dU,
  0x3e2c888bbd1b899aU, 0x3e22066d3e11f59eU, 0xbe5de9283de28836U, 0xbe2f5b5c3dd0b53bU,
  0x3df16eefbe8a5743U, 0xbdc969c53d4d3afaU, 0xbda196e7be5aea73U, 0x3dc93c60bdef8296U,
  0xbdccf23fbc32a210U, 0x3dfc9012be52388aU, 0x3dd4b5f13bdd9da6U, 0x3e0a7aee3d74dad3U,
  0x3de641ccbd787560U, 0xbb93a3fd3d758a4cU, 0x3e031620bd6f6841U, 0xbf1f57bdbdde0f94U,
  0x3df433ce3bb96697U, 0xbe8afb6d3d912133U, 0xbdf1525dbe64ef4aU, 0x3f032715be1c4440U,
  0x3cb4ec33be82ef0aU, 0xbe580010be0d07a1U, 0xbdf68b3d3e645b23U, 0x3de05fdf3e6434e2U,
  0xb990489e3e74c699U, 0xbde2e43bbe1b9957U, 0xbd5d4efbbd2b6b5eU, 0x3e81cdba3de8d0d2U,
  0x3cf20828be36a048U, 0x3d5ea1f4bc9a07bdU, 0xbd930826be6ef1b2U, 0x3d940b3ebe03d28cU,
  0xbdab12233df3b737U, 0x3db3659b3e15d719U, 0xbe677e533e355500U, 0xbe8cab1fbcc69f5aU,
  0x3e427b683ea276f2U, 0x3ea0dc0e3db49eceU, 0xbde71ed7bc08c14cU, 0x3d8ee500bdcdf849U,
  0x3ca761ef3d2969a3U, 0xbdf19807bdd94465U, 0x3e2e537ebd227e20U, 0x3d9b54303d292c8cU,
  0xbe470b5fbe1b861aU, 0xbd55e1c93ccfa2beU, 0x3dc099683ec80fe4U, 0xbdd677113e11ecddU,
  0xbe3d780fbe275da1U, 0x3e18305ebdb5b202U, 0x3e013638be2a4309U, 0x3e312ad93d668af3U,
  0xbb989b8e3e922bdbU, 0x3dfe700a3dc96e6fU, 0x382bdcc6be46e0eeU, 0xbc9ab077bed2c561U,
  0xbe0402b13e86dc95U, 0x3e18387d3e34b546U, 0xbd5d85b4bdfd58d2U, 0x3d12032abe06c0a9U,
  0x3e7db742bbe95a01U, 0xbdca5b233a805be9U, 0x3ca810bdbdadd55cU, 0x3e79340e3c99a772U,
  0x3e6406f43ea5bc42U, 0x3e4d69193d86883bU, 0x3ef5e9be3d876d37U, 0xbe973ec8bd2f35fdU,
  0x3dcaf9d5bda4f139U, 0x3e4582e8be580e59U, 0xbdbb29173dec9fe8U, 0xbe4676d73df0b6dcU,
  0x3e1664c23e69f39bU, 0x3e0ee269be324933U, 0x3dc3aa07be0bb171U, 0xbd4b21b63e2adfc0U,
  0xbd15b38b3eb20cfaU, 0xbc576c9f3ca040a5U, 0xbe34da65bd1ef2f4U, 0xbe03f2373c8126abU,
  0x3ded5cba3e80e058U, 0xbd5796d1bd6a4b3cU, 0xbe96fbbd3e928ebcU, 0x3e8c51b63bd503a4U,
  0xbddb6e00be30bf66U, 0xbcb4f16e3e75b5bfU, 0xbe1b420e3e373065U, 0x3d3c5fb23e5daaa2U,
  0x3e296d703dac446aU, 0x3ddda9603e422f95U, 0x3dd309c03d7fc0d1U, 0x3e994c403aebb104U,
  0x3e914e1cbe2abb51U, 0xbd0f8846bd965795U, 0x3ddb72a1bdcd7e5dU, 0x3f0ad0e3bdd83beaU,
  0x3e1b7377bd441800U, 0xbd3e521cbc7be154U, 0xbee76de33eb0d047U, 0xbe1f6d5d3d37f126U,
  0x3d9501563e650d42U, 0xbe8e0867be475985U, 0xbd618c89be55074dU, 0x3e3878eabe3e9380U,
  0x3d6f532fbdfd1726U, 0xbe2468d13dcdf353U, 0x3d7a47d4be01a23eU, 0x3d9e30f0bd95339aU,
  0xbdde528bbc20dc5cU, 0xbd79c6483d95b7d5U, 0x3e1a11823d3fca0eU, 0x3dfbde61bdff602aU,
  0x3dbf50da3e568176U, 0x3e4eabdabd79ffa8U, 0x3e80fcb1be390218U, 0x3ece7e35be1b0046U,
  0x3e700c813e79627dU, 0xbc0680c0bdc859ebU, 0x3d1d51563b6bc0f9U, 0xbcc2b1debe76e896U,
  0x3e41b3243dc7fd5eU, 0x3da0e80c3de005f9U, 0xbb74d2e43dc3c792U, 0x3e5d73fe3cfb443eU,
  0xbccd002c3ea4049cU, 0xbc20ecfbbdcb1054U, 0xbebcee15bc89760dU, 0x3f24f2783e4838beU,
  0x3ddcb8e03e2baf20U, 0xbe27ab493bea1d97U, 0x3e3bda1e3e0cdbcdU, 0x3eb8723f3e36b72cU,
  0x3e058921be67ce5eU, 0xbe21a62ebd8f5196U, 0x3d515dc9bdb12a07U, 0xbe033155bdef9e80U,
  0xbdc7a8a13e2338d3U, 0xbe38a4c73e033e80U, 0xbdbd4c39be09c094U, 0x3d25b459bdd05f4dU,
  0x3da1c8d7be69a043U, 0x3d4949f23d9add8eU, 0xbe82dfe23e845654U, 0x3dbfb1a13d93d1c4U,
  0xbd8a09cd3c7c26b4U, 0x3cb6e7dcbdd34980U, 0xbe01fba0bec37be5U, 0x3e8bfea13e00f814U,
  0x3df1f827be6e7e67U, 0x3c23adf5bbb8fc24U, 0xbd175d8c3e1df9f1U, 0x3d0c89623e9beb64U,
  0xbc025a4b3e70a23fU, 0x3e8990f6bdd2a49bU, 0xbd837a073d880d22U, 0xbdad2f153ceb50fbU,
  0xbe09c3e63e8daeebU, 0x3bc2746b3d35eea0U, 0x3e4ea0203e774938U, 0x3dc34ebdbdd5751cU,
  0xbe22e2843e983b67U, 0xbd29c805bd7ea0f1U, 0x3ed024543e09f014U, 0x3e81351dbe0bae06U,
  0x3d87d47b3c9ed52eU, 0xbe043d5dbe78ec9aU, 0x3e1a51e5be396669U, 0x3dba8537bdeef8d7U,
  0x3e0347f83d835a9fU, 0x3e0ad26a3e35fc60U, 0xbde2ef593daf2d47U, 0xbe06643e3e0fbe5cU,
  0xbe9050bc3e236d25U, 0xbd6238603dd31e9fU, 0xbe079ea9bdfa2d00U, 0xbde8cb733d9acf35U,
  0xbe0d9efabe2eb824U, 0x3e495f083dbcd843U, 0x3eb51514be65c223U, 0x3ec79fc7beaf8947U,
  0xbc63c37e3d33aae7U, 0xbdfeff4abd269065U, 0xbd63ee13bb5d96c2U, 0x3d3073e5be4a8985U,
  0xbd80a6753dc6e3cdU, 0x3b071eff3e1f7902U, 0x3d66b63b3b68d54fU, 0xbe1b7100bb111915U,
  0xbcb3c98a3e4eb480U, 0xbde2b2b73d8c1c26U, 0x3d29298e3e9c8d11U, 0x3e010bca3d8a02c1U,
  0x3d2d45fdbda7e404U, 0x3e08ee6cbde36c1cU, 0x3d341f883e1ae867U, 0x3ebb530bbeb7f1d8U,
  0x3e1934b73dc7e51cU, 0xbd8f1bfb3e04d16fU, 0xbdccee2bbe07ee38U, 0xbda7ae1d3d685c4fU,
  0x3def0adcbddde3b4U, 0xbe2193bdbe664c65U, 0xbd5968fbbded13c4U, 0xbe17c5ec3d78276cU,
  0xbd97b9183ea1b036U, 0xbd5e049ebd91e16aU, 0x3e82e1aabe607e11U, 0x3dd055cabd72b226U,
  0xbd93a4713e33d6f0U, 0x3d08f4d3bc9a3f5eU, 0x3e94a2e93d6653c4U, 0xbe4ba113bda26681U,
  0xbd826477be1742b2U, 0x3d7273e5beac2da3U, 0xbd2401803b7179c0U, 0x3dae9c4ebe969c60U,
  0xbda0f50abbda3d23U, 0x3d1bc422bdc58507U, 0x3d7bd66e3cdd0dfcU, 0xbd4c548dbe1f07ffU,
  0x3dfb3463bec9a619U, 0xbcd7c9aa3d300584U, 0xbe6edee13db99b6fU, 0x3e883f803e01b98cU,
  0x3dfed01c3dc5344cU, 0xbde9ce08bd81d004U, 0xbed9b24f3d627782U, 0x3ec032cabe145ae2U,
  0x3cafd069bc8b1b59U, 0x3d54adad3e6d90dcU, 0xbc89c69b3c92b56eU, 0xbe08b9d23e9189bfU,
  0xbdb45c8fbd12f063U, 0xbe1cbd71be33cf2bU, 0x3cd78cf6bd8d12b8U, 0xbec32fc13de41b74U,
  0x3d94ab8e3dbf7b22U, 0xbd3ba1d1bd4f6b79U, 0xbdfb23f7be3e1db5U, 0x3ef544123d37ceb6U,
  0x3e26d3ab3dd931eaU, 0xbe5352d6be07b6a5U, 0xbe21805cbea87595U, 0xbea2cb6f3dfebe85U,
  0x3e22ad3d3e84220cU, 0xbe1d8fc7bd9d1677U, 0xbd1d7f9c3d473802U, 0x3df2be753d9c6d89U,
  0xbdfa5a7d3e85c6f5U, 0xbda82f743d28a4a8U, 0x3dc96c57bd0b9448U, 0xbcd39a793e530447U,
  0xbe7e20acbdef49a8U, 0xbb6586f3bdd983bcU, 0xbe3768ebbead8255U, 0xbee4435ebda3803eU,
  0x3e2044c4be321e90U, 0x39fec01e3e053ed7U, 0xbef43eee3e7072c0U, 0x3ec3b35abe0897d5U,
  0xbe5bcc4a3cacf4d5U, 0x3da029923dcebb08U, 0x3e1f3d6b3e6bc164U, 0x3d9dc946be839127U,
  0x3c610ffb3e2bbf27U, 0xbe217138bdba8349U, 0x3c5c8a463e07eb4aU, 0x3e6feccb3d81acd6U,
  0x3d8c70b73debe2e3U, 0xbd4ff614bdf51f60U, 0x3e2f2a6ebe6793d5U, 0xbe9cf806bccc4c18U,
  0xbd9483723c1bba1aU, 0xbe6616453d0f6042U, 0xbf0d5978be8261f0U, 0x3e770fe5be3ccfc0U,
  0xbc97a7aa3d796196U, 0x3e417eb13e57d05fU, 0x3dac63333e865ab3U, 0xbd38fda23dae3bb9U,
  0xbe16d6593e48802bU, 0xbdfb4dedbe2bcf77U, 0x3d9e1a71bdeb55deU, 0x3e1af3433dea6c75U,
  0xbdf1dc8abe94af3eU, 0xbda84555bddef221U, 0x3e243e69bd9c4201U, 0xbede8a4bbd89775eU,
  0xbdf9dd09be46a675U, 0x3e07fa1f3e0acd66U, 0x3e12826b3e7dda22U, 0x3d2646473d54f846U,
  0x3e591375be2df946U, 0xbe3d24bebe98ca7eU, 0xbd5e87643d72c338U, 0xbe2831c8be2fb42bU,
  0x3e2cad9c3e742da8U, 0xbded07063e6436b3U, 0x3d618ef33b88571cU, 0x3e03a3493e381eabU,
  0xbe8a6a88bda78f39U, 0xbd00dff1bd9f89faU, 0x3db7a660bd8fe680U, 0x3db64c8bbd8b458dU,
  0xbde642033c46152fU, 0x3d2dc8b1bdcb831fU, 0xbe2650d63b5705e3U, 0x3e3a36ef3e42a5d9U,
  0xbe8ee3d7be624584U, 0xbbb39c99bd9a0901U, 0xbe0b25983ca98156U, 0x3daa3f00bd16f30bU,
  0x3e300ea73ca83109U, 0x3c83f5f8bde3eedaU, 0xbe0cbed13d9c1274U, 0xbd84c9933dc76799U,
  0x3e39740c3e16c60eU, 0x3d24f346bc1162adU, 0xbea7b8443e39bce9U, 0xbe93d70a3e0c90a5U,
  0xbdea7d84be72a8e7U, 0x3dac25a43c1129bbU, 0xbeeb1fbfbdc1ce07U, 0xbeaf40913e0382f4U,
  0x3d20b62f3dc41a72U, 0xbe0d7fd3bdd1d582U, 0x3e0393153e9c5d4bU, 0xbe6132943de42d54U,
  0x3da65c25be1cf13bU, 0x3db5144abe4eb859U, 0xbb9f13453d6776f5U, 0xbdbd6cfa3c3db187U,
  0x3d4de452bd2e2ebbU, 0x3d97b2ce3d9bb4cbU, 0x3dea04ebbe9fde30U, 0xbeb7dae33e1fb5b8U,
  0x3e33e990be29277cU, 0xbe204f46be3911f1U, 0xbf50d43bbdf5676dU, 0x3e5f23e6bdebfa71U,
  0x3e0db596be35ce74U, 0xbe004631be2d6c1bU, 0xbe0a9d7c3d01759fU, 0x3e2a6248bd0b2c7fU,
  0x3ddd0dd83deb6fbaU, 0xbd9101c53cf58752U, 0x3db9a5843d27509fU, 0xbe9444b03c9d2e83U,
  0xbde34c0cbe391ab4U, 0x3da84a4abbc478a3U, 0xbe846666be377cceU, 0xbddb084ebe098d57U,
  0xbde9b1143d981919U, 0xbdfabbdfbc47530bU, 0xbf1f6f2c3d2ce869U, 0xbda5c32dbdacb54dU,
  0xbaedc42ebe0adab2U, 0x3e5ef74bbd8be751U, 0x3d5c22a6be055cffU, 0x3c346ce23e86adc8U,
  0xbe341a083ddc67bbU, 0xbe0f4f653e5f1314U, 0x3d8cb0283c875366U, 0xbe1fac483e25f366U,
  0x3e842916be830d7eU, 0xbc9576303db26dceU, 0xbda610c33e46b3a7U, 0xbe1867d0bd61b75dU,
  0x3c6eeca33deb26aeU, 0xbdf742b53e10b261U, 0xbf214353bcd5ad06U, 0xbe3eda0f3e638b7bU,
  0x3e6431aebd8c1169U, 0x3e875002be92fa78U, 0xbb4055aabe545524U, 0x3e24911a3deda50cU,
  0x3cf88ec1bd86f9d8U, 0x3d3560ae3e3fc5d4U, 0xbdf52a2abd50a8cbU, 0xbe7b06843d1ad49eU,
  0xbe8cb68dbe6cc4a5U, 0x3d057333bd3e1082U, 0xbe2c6c863def936eU, 0xbf21d98cbd571f6dU,
  0xbd08593fbd9074ebU, 0xbe57f2733d2fe6ccU, 0x3ec628613e103c56U, 0x3e9b4b0bbdbe0d2eU,
  0x3e0179e63ea2b1eeU, 0x3d6cbbd6bd0cc5dcU, 0x3d94b0dd3dd374c7U, 0x3e451cedbc7aa13cU,
  0x3e2573303e720600U, 0xbe8f34703d990473U, 0x3ba090133d9a1989U, 0xbee1d4a83e2583baU,
  0xbdf380363b09f9c2U, 0x3d6be520bcb523d7U, 0xbe946c21bdc50442U, 0xbf07ac56bdde2200U,
  0x3da66661bcfaec65U, 0x3ca2ba3fbca87e25U, 0xbdda84d2be8bbb28U, 0x3e413983be7bd8f4U,
  0xbd45814dbe1d6292U, 0xbd305c00bbe4f7a1U, 0xbb69a3da3da80c36U, 0xbe3c56d8bb5569e7U,
  0x3de9e465bd723e51U, 0xbdc637193e3972f8U, 0x3e4830ab3d32bfccU, 0xbe9179f3bd478d09U,
  0x3b9ffe2d3e187d91U, 0xbc98b51b3b23abcfU, 0xbd0e00fcbda7770aU, 0x3e89a41e3cfe6039U,
  0xbdcb2e9c3d98571aU, 0xbd049b403e2a8069U, 0xbe8a376c3e4708e6U, 0xbd96a2a03c5eda8cU,
  0xbe8a0c6fbe210ab6U, 0xbe0ddeb33e9aec4cU, 0xbcce750dbe70b1caU, 0xbdda6cdabe3bcdecU,
  0x3e3328113e39b2f1U, 0x3e0ee90ebcc503d4U, 0x3e0eadf63ddd70cfU, 0xbe2b7fbebdc61ea4U,
  0x3d586fb13ddbe639U, 0x3b6aadd3bce9a0fbU, 0x3e4f932bbb2bd227U, 0x3e166fd43e608e03U,
  0x3c65e8c63e547332U, 0xbda478633e302e29U, 0x3e9f21a63e23403cU, 0xbd85fa96be040952U,
  0xbe1dd88c3d72ad9bU, 0x3e197311bdbdd8d0U, 0xbaf721a73d0a2dc0U, 0xbe1b4cbf3cd475c6U,
  0xbd384e643d993437U, 0x3e03121bbdafb74cU, 0xbe21f02f3d3c835cU, 0x3cd85d973dc4b75bU,
  0x3e87c106bded45d7U, 0x3d0ab978bc19d921U, 0x3cc4bff83e2b3362U, 0x3e989bb63e12ebc4U,
  0xbe32add03ea0e369U, 0x3e2120ed3d665425U, 0x3e15f395be975960U, 0xbe680b6a3dd8b6feU,
  0x3e16c11d3e622b4bU, 0xbbca65c63e55e5f3U, 0x3e3ca55fbd1de65cU, 0xbdaaaa7c3d4de60aU,
  0xbda771563d9cabddU, 0x3c6b6d8d3d8e44abU, 0xbda42d173acc5524U, 0x3e380e4abd4bf294U,
  0x3d93c6df3c1c9b79U, 0xbcd4a0a3bd9cd5b8U, 0xbe8fea4f3eb0db8dU, 0x3e89ef163d05e620U,
  0x3e228de33e5d1c5fU, 0x3c1c9dcebd85eeefU, 0x3f3005773deafcd0U, 0xbea8adf6be809e10U,
  0x3dd7348cbec3a15cU, 0xbc51f5533e6afa63U, 0xbd4ad5d03e8ffbcbU, 0xbce1accd3e817c01U,
  0xbd9291153e50d9c7U, 0xbe381b83be27dc8aU, 0x3e1b397ebd8b54c1U, 0xbea8b7bfbe10f5fdU,
  0x3c80446abe227c50U, 0xbd92c0a03de39c23U, 0xbe91797dbea0d0b0U, 0x3d4b69353d6432d3U,
  0x3dffff043dbba3b3U, 0x3cb4d4eabe18005bU, 0xbe56bec8bddcd64cU, 0xbf043f79bc9e7cb3U,
  0x3e250c86be3391adU, 0x3e515fd93e38ccedU, 0x3e341d843da03bb5U, 0x3e002e713e2a5480U,
  0xbda0da173de9f964U, 0x3da5df96be4443a7U, 0x3d513c0c3cb00601U, 0xbe063809bdb5ab9cU,
  0xbe902845bd94ba7cU, 0xbdb2a176bdcd1c5fU, 0x3ce24594bbcffc5cU, 0xbe9f16b53e31b397U,
  0x3da48c3abe00a451U, 0xbe02bc393e335d6cU, 0x3f1c80e5bdbe737cU, 0xbbe24c983c265053U,
  0x3dd6f0f5be333267U, 0xbdb961433de133e3U, 0xbc3c2c673e9ec08bU, 0xbe463e2cbd3845f6U,
  0xbded1b9ebe8d7c61U, 0xbe435a733ddad43eU, 0x3df1d9e4bd9552a7U, 0x3e8b9a183dd16552U,
  0xbe6176aebe17d5cbU, 0x3dbc7f09bb9ac9eeU, 0xbd036e5ebd89cdf2U, 0x3ef5fb913e37c687U,
  0x3e056828bde86bdfU, 0x3db9e85f3cf8fa44U, 0x3f17c8ee3e391729U, 0x3eb59bc2be3c63b3U,
  0xbe69e29b3bd320fcU, 0xbc065ebb3e26f831U, 0x3e0e4ac63cb9e353U, 0xbe2bbe19be1032e5U,
  0xbd8a3930bda0342dU, 0x3dff31ce3c6c97e3U, 0xbe181759bd9fb4c0U, 0x3e9b54613d595004U,
  0x3d7027133e0ba503U, 0xbd937ff03d233858U, 0x3d56fa10be70552eU, 0xbeffbea7bd897350U,
  0x3df1ac053d6ffbeaU, 0x3e2769423da98196U, 0xbef6fb59bdc8147dU, 0x3eda9b1cbd8aa76fU,
  0xbe07a6b23d642b89U, 0x3dd792c33e7ef3c6U, 0xbe12ad4dbcd60a77U, 0x3dda9b70be49000bU,
  0x3d8effb03d63615dU, 0x3d86acd6be497425U, 0xbd8b37e0bd1ec364U, 0x3e5e56b83d5d67fdU,
  0x3d7ed427bd2538b6U, 0xbe052e09bd913fa2U, 0x3dd76b90be791226U, 0xbe9a08b43d78e849U,
  0xbe1940983dd0f983U, 0xbe3016713cbe7095U, 0xbe4690113de9e464U, 0x3ed56274be351e70U,
  0xbe6157573e3a4700U, 0x3c295b2e3e68fed4U, 0xbd9387ca3d53e6f0U, 0x3dc7cc103bf52a69U,
  0xbcd454f53cdef20fU, 0x3da0e4663df148a3U, 0x3d8ef6203d711830U, 0xbc1f78b4bdb14b1aU,
  0x3e35188abd258258U, 0xbe02db6a3d95a477U, 0x3d02b6d1be9bfe9dU, 0xbee42eb4bd2134f8U,
  0x3dfdabcfbe39b98dU, 0xbda21d083c25a447U, 0x3f072afdbe677369U, 0xbf0bd5d5bdac4e42U,
  0xbe050507be56506eU, 0xbe5b4266be35ec20U, 0xbdaf8384bdc091efU, 0xbe3cfbac3e488934U,
  0xbd7dcb013d3159a6U, 0xbdcf23cd3e602a6fU, 0xbdbc9b0abdcee4eeU, 0xbe03041e3e1e2915U,
  0x3db84573bddd5516U, 0x3ba48848bd4cafb2U, 0xbe1ce01b3dd1e855U, 0xbdd317c4bdd8acc7U,
  0xbe03152e3daa6639U, 0xbdcb76643da06ac8U, 0x3e008df43e615cf2U, 0x3edc01aebe31adc6U,
  0xbe6e46f13e036dcdU, 0x3cf3ac413de9f4cfU, 0xbd972b1dbdc7bae9U, 0xbddb78953e867fd7U,
  0xbe0395d4bb047238U, 0x3d3617edbe21b2dbU, 0x3d8079c8bd9f7ea3U, 0xbd2b9f2dbd1cc5e6U,
  0xbdeb689f3e44f263U, 0xbda0d7d1bd75d4edU, 0xbd6c6f1a3e0fdd14U, 0x3eb5530a3dad2993U,
  0xbc86cc943e200f69U, 0xbe0425703cf31d83U, 0x3e301d54bdddd49aU, 0xbd73ccadbe913179U,
  0xbde0e9f7bdfd8ce3U, 0x3e8141743c3975cbU, 0xbe2f88a9bea6cd9bU, 0x3dbfeaccbc6423a3U,
  0x3e3c8525be4a6c47U, 0x3e7bdf583a143e0aU, 0x3dacc19cbcb5d426U, 0x3e749a6c3df79bbfU,
  0xbc29e81ebe2a643dU, 0x3cc04bbd3d430723U, 0xbcde71153dab625bU, 0xbf0caf4f3e1633a6U,
  0x3d9773c53e2102acU, 0x3cde2cf2bbafadf2U, 0x3f20d78d3db5366eU, 0xbe0060bd3df53409U,
  0xbe4e5bd93e95fb38U, 0x3df3c6523ddae326U, 0xbdb7a71a3d36e0d9U, 0x3c57ac9ebc3535caU,
  0x3db7fae03e1033d6U, 0x3e1965afbdac2f70U, 0xbe165ebdbda283ddU, 0xbcc3a86a3d268a3aU,
  0xbe1dcb7e3ebe0c70U, 0xbd4085453d9cea2bU, 0x3ddbaba63e5d3de8U, 0xbeb1214d3ddd470dU,
  0x3d15c02e3e65aa57U, 0xbd7059093cbaad97U, 0xbeebbd4b3d3d24e5U, 0xbe13122cbe4109f6U,
  0x3e86aeb2bd67827aU, 0xbe19f3a7be91490aU, 0x3d81521cbe80f856U, 0x3e2237bebdbbfb1aU,
  0xbde068f7be0acd12U, 0x3e20bcd6be14640dU, 0xbd1631ae3cba308dU, 0x3c1fe41cbd900c83U,
  0x3df40e193dfbdf98U, 0xbd0f26273da00650U, 0xbdfcc1fcbe606d40U, 0x3dadf4cd3e3c9aadU,
  0xbde4f68ebec68737U, 0xbd8d25573b86749dU, 0x3e97319abdb82c41U, 0x3ef7b4ecbe5a4a10U,
  0x3e4302703e051e8dU, 0x3d20c2793e2e397dU, 0xbd26d97ebd823749U, 0xbe2173ff3e847259U,
  0xbd08792c3e332093U, 0x3e51f6393e200408U, 0x3baeef1a3df66652U, 0x3e37e628bdc08288U,
  0x3d9679f23e89b52fU, 0x3da599943d644b29U, 0x3ea02319be10e24fU, 0xbd7b4a8e3e82d2cfU,
  0x3d9154e1bd6ed2a7U, 0xbdc488113cceb085U, 0xbd5a5682be55857eU, 0x3f1f09bebe85208dU,
  0xbe03f72fbe582d42U, 0x3d05c813be30a164U, 0x3de759e33c9a71ffU, 0xbda67a2abdd5fadaU,
  0x3daa18093cd2a9a9U, 0x3cf303f73e457cd5U, 0xbda8951cbc1aa1a9U, 0xbe70292ebdeb9116U,
  0x3bea2cd43dd86029U, 0x3d8429cd3cf5a49cU, 0xbe3d9f5abe9c5e04U, 0xbdc8f2cabdd0d3d5U,
  0x3b767c9dbdad65ecU, 0x3e038d483bbba76fU, 0xbf14df1a3e2a3cb7U, 0x3f0e947b3e07d2e8U,
  0x3e31d8a2bd403878U, 0x3e1adb06beb71dbcU, 0xbe258339be52b64eU, 0xbde9b6f0bceeefb1U,
  0xbc309e233ddffa9dU, 0x3e12599cbc92608eU, 0xbdcc5d8c3d93d568U, 0x3e67f0e33de3de7bU,
  0xbd43ea323d9317d7U, 0x3e026fdebdfb5f23U, 0x3d1ee9e1be30d7c6U, 0x3d2787ce3dc6937cU,
  0x3da3d095bce37da2U, 0x3e2288333db22cb5U, 0xbf6951c93ea0a648U, 0xbe13a2e9bcd7be20U,
  0x3bfe4a7cbe6289a2U, 0x3d7571d73e7f1f95U, 0x3dd1a39dbe8d1683U, 0xbd8c9dd83e2769f1U,
  0x3df2702ebe0619a8U, 0xbe69e4343e202b5cU, 0xbe10864f3df0ca75U, 0xbe355208bd2544daU,
  0xbe46fb5a3e1ea2f8U, 0x3d0a8e143db43c6cU, 0x3d02956c3c49e2ccU, 0x3d6e0a813e362299U,
  0x3e13e5b3be95bb3cU, 0xbe271baebcb10827U, 0xbf04e2c73e54f8aeU, 0x3ec09d32be3e8287U,
  0xbc42ee663d382711U, 0x3e877eb73c1e9383U, 0x3ba142863e8e0cf2U, 0xbdff4479bdff96a6U,
  0x3ddb56293d98e131U, 0xbd17da1d3e1c11a8U, 0x3e4ec9e3bddef91dU, 0xbebb142bbd5dc632U,
  0x3decacee3dd0fb19U, 0xbce6419d3d6ee95fU, 0x3a14f0513e9eee19U, 0xbdf098d7bddf416cU,
  0x3e04bf803ea59ca5U, 0xbe40ff353caa2f6bU, 0x3e829dfe3d13dbd1U, 0x3db3e39c3d190610U,
  0x3e6fdf493e554ef8U, 0xbe09cc4c3cb4339aU, 0xbe3ff332be087f1eU, 0xbe162aa9bd17383eU,
  0xbe0111913da4322bU, 0x3e40051cbcaf1f55U, 0x3d0cf8a93d00e7baU, 0xbe19f45abda76aa5U,
  0xbc28ed0abdd2a183U, 0xbd76c05ebdf93cbaU, 0x3e11c6e93cd85f39U, 0x3f0871d5bc965f98U,
  0xbdf4111abc8a4e49U, 0x3e0ff8393dd455beU, 0xbecf6a4ebe8687a0U, 0xbf0cc8433d73ff99U,
  0xbd8ea1bcbdf396fcU, 0x3e34bb25bdaef3bbU, 0xbdf83a6f3d92b259U, 0x3d613b893dbc483bU,
  0xbd6ba3acbe1865b8U, 0x3e0bd3e13e20e565U, 0x3c8354f93d9abfecU, 0x3cc29f033d35cc03U,
  0x3de183f53a36b8e0U, 0xbd852a6e3bf17958U, 0xbdcb6d213d0552a5U, 0x3cf496a13decbda8U,
  0xbe25a035bdd7efabU, 0x3d642e65bd6f1fadU, 0xbe404925be5608eaU, 0xbe88d1423d89920fU,
  0xbdd832ebbd2ddce7U, 0xbe3cc3663e0b7158U, 0xbca6f19bbdac26c4U, 0xbc81db593d94529fU,
  0x3da417043d8a532cU, 0x3d9e5eb9be28d7c5U, 0xbded9b673c6dada8U, 0xbe784a223cfbf4b1U,
  0x3e3788c5bebd1a5eU, 0x3daa79e23cc907f8U, 0xbdd17a53be369cbfU, 0xbe284f2ebd74875eU,
  0x3cfc667ebe5a2b6cU, 0xbd932d35bd9278a3U, 0xbecf822f3d6f02ebU, 0xbe22094b3e6c9c9aU,
  0x3e27bce5be2b1a73U, 0x3df06ade3dbd7cd9U, 0x3e01b8253dc8d65dU, 0xbca47088be064216U,
  0x3d5ba29d3e322987U, 0xbdc1f0493d3ce369U, 0x3dc172863c0c3998U, 0x3e8a398c3dca4935U,
  0x3e775b723e57be92U, 0x3d37faddbdbef81cU, 0xbe847a063dfcf414U, 0x3ee0f9bcbe0ba7eeU,
  0xbc7621183e091f1eU, 0xbe0a2853bd9783ffU, 0x3deec200be5ddc41U, 0xbeb1ac10bdb52d72U,
  0xbe4f9f01be9f9b9dU, 0xbc7375153e3c69c4U, 0x3e03f45d3e08d13dU, 0x3d5f316fbe96df47U,
  0xbe2d26b8be285d8eU, 0x3d2fe09e3bfa61aaU, 0x3e03897c3da7a7ccU, 0xbed2ea5a3d95e19bU,
  0x3e55e4fd3ceda762U, 0x3d5a454abd735e47U, 0xbe98ab60bdbd8b71U, 0x3d811b74bc9aa4e7U,
  0xbcc16e953dff4960U, 0xbe0893503e0d8fc4U, 0xbd3dba0ebb9b526aU, 0x3ecc7b243cf78e63U,
  0x3e19613ebe2ba46fU, 0x3dbdf5cebe2cd1caU, 0x3dbb29bf3e5e7c2cU, 0xbe84885e3e2a8342U,
  0xbe09cf743defa50bU, 0x3d59af853c9ca2c4U, 0xbc8b33823ca208faU, 0x3d0409f3be5092cbU,
  0xbdfe99ea3e2f8cb6U, 0xbd3b77e3bd483625U, 0x3e1ae83ebeb9c42bU, 0x3f2197773e45c139U,
  0x3d33811abc8fbcb7U, 0xbcd4521cbd8128ccU, 0xbf1535c3be3afb4dU, 0x3edb298d3c95f32bU,
  0xbe27e7e3bdccde64U, 0xbd3c6a3ebe7600b7U, 0xbdc62c993e862a2aU, 0xbea46abebd9b0c03U,
  0x3e02dba9bdcef9aeU, 0xbc4bf276be8607e7U, 0x3d8d18163e04f5a4U, 0x3e7b02e33dc22c3cU,
  0xbe60d026be57f427U, 0x3d27a74b3dd6e06fU, 0x3dfa0cbcbec436beU, 0x3f202b313e4b23daU,
  0xbe26fb343e852340U, 0xbd9661bb3e36c1c1U, 0xbf1f392b3d6727b6U, 0x3e89e313bdbf9928U,
  0x3da7187bbe640a11U, 0x3b9a19e53e8db43bU, 0x3dc369083d129b27U, 0xbd49b8c3be474869U,
  0xbda338693d8a8d5aU, 0xbc1c300fbe36c374U, 0xbdfc8dbbbddd0231U, 0x3e8f3e65be16e231U,
  0xbd66b07b3cbef876U, 0xbcb51865bdb79330U, 0xbd6dce313cd44b61U, 0x3d8b8bfd3e1e39b5U,
  0xbe0dc4bebe3398a8U, 0x3e0ec19b3e620a73U, 0x3f1029173e0be908U, 0x3d1e37a1bd789cf1U,
  0x3db41f283e9c5b6cU, 0xbdfac6323d044eacU, 0x3bd8a2dd3e894d17U, 0xbc18ec043e41c4e0U,
  0x3e0b3dffbe240e2bU, 0xbe0168dc3e01bbe4U, 0xbdae13d9bd97609aU, 0x3e9e72aa3d2cb2bcU,
  0xbb33695ebd9016bfU, 0xbcaed529be10aee0U, 0xbe5ae087be338f8fU, 0xbe9907eabdae017aU,
  0xbdd002d1be86e5a2U, 0x3d970e4dbddb3c86U, 0x3f079fc63e2434beU, 0xbe2cf809bdbd90d1U,
  0x3e037a893b98f0a2U, 0xbe482b5cbf0be2b4U, 0xbdcc63783eae07d3U, 0xbe4960bb3c5ddaa2U,
  0x3de5ff633c58bc52U, 0x3d8542853ddb1b67U, 0x3d02f9b23ceab270U, 0x3dbfea1b3ca86dd0U,
  0xbd6d1295bcd6f481U, 0xbd68d61ebd25c9d2U, 0xbda3e91c3d875972U, 0x3bfcf733bde6c453U,
  0x3e3dcbafbeb1973fU, 0x3dc11bb1be10a347U, 0x3cc73c03be620d36U, 0xbee814c53db0f4c8U,
  0x3e47927cbcca9970U, 0xbd6ee8fcbdb1bfe8U, 0x3c05926cbe35ea6aU, 0x3e4466c9bd632a4bU,
  0x3d5f32893e30d197U, 0x3e3345d4be2e0009U, 0x3d88917e3dbac9feU, 0xbe706c6bbe4574fdU,
  0xbdc9b4c4bd87f20bU, 0xbcd23084bd3b9d34U, 0x3d9852f93e6fbdf4U, 0xbe6b5def3e0ee1bdU,
  0xbbf3f4933e4a2cf6U, 0x3d56341abe47400bU, 0x3e422b70bdf12b29U, 0xbdd227dcbc30176fU,
  0xbe89f4d3be4b93d1U, 0xbc793876be579842U, 0xbda65bcebd5f7194U, 0xbe20393abe6b354cU,
  0xbe23c86fbd13deb3U, 0x3d0afeaa3e25c363U, 0x3ceee1143dc889bdU, 0xbd7c20dd3da7c73fU,
  0xbe04d0b63dfa69afU, 0xbdb89d63bd59c262U, 0x3e98b3db3e9721b2U, 0xbf0b7413be018b71U,
  0xbe3a43603ede4720U, 0xbdeff90dbd89e035U, 0xbf3fb3bfbd191a47U, 0x3f08009d3ec9f8b1U,
  0x3e35afcebebbc90dU, 0xbe228d81beafbd3fU, 0xbd1ae0413e117da5U, 0x3c04f943be2f2d57U,
  0xbe148f9fbd1136b4U, 0x3d97f7c93e500569U, 0xbe04bb2ebde2858cU, 0xbd8a888bbdda8dfeU,
  0x3e21194bbda3e7ecU, 0x3d8533ca3cba21d7U, 0xbdb1b3c33dc5bea4U, 0xbf2c07763e02911fU,
  0x3df96e09be88b17bU, 0xbe3ee5d43ca939edU, 0xbe9588e43e862273U, 0xbed0b41a3dad6409U,
  0xbda382863e7f3310U, 0xbd9e294dbed3e7a3U, 0xbde1298bbe5c3dcbU, 0x3dbe0437be275e71U,
  0x3d785b183e8ff3c9U, 0xbe10d8f0be558f32U, 0x3dfd2c3bbdf35f4bU, 0xbeacf8a93d3a92c4U,
  0xbe09ab1fbead29e9U, 0x39e44e73bd157397U, 0x3db4424fbd4053eeU, 0xbe8bf80f3d2261bfU,
  0x3c34bcd0be065ac2U, 0x3e1fb7523da236d4U, 0xbe939f75bda80261U, 0x3f00e60bbd7cc77fU,
  0xbdc901b5be39cfb1U, 0xbdbbad01be58a3eaU, 0xbd8ae0d3bddda4edU, 0x3e17424dbe94335fU,
  0x3bfecc923e46ffb5U, 0xbdc417343e1eaa53U, 0x3c88302c3d36cba7U, 0xbe7b32febe24c956U,
  0x3e91d8843e63f33fU, 0x3d90aa83bac28fc7U, 0x3cc7829cbcca23d1U, 0x3ed4dde6bdfbb3dfU,
  0xbe216c8d3ebb5090U, 0x3d872bd0be140822U, 0x3e0bfb33be7670c3U, 0xbe6f96b6bc400480U,
  0x3e711c463d377877U, 0xbe197339bda4de2fU, 0x3db2fdecbdccc410U, 0xbc2e3d3f3df3b38cU,
  0x3de0a5a13dfab33cU, 0x3e0ed34cbdbf3309U, 0x3db419543dffecc1U, 0x3e23bf5dbd64abc2U,
  0xbd03e4b4bda7fd61U, 0x3d9ace153e0269fbU, 0xbe7852d83e1c9ae8U, 0xbe1f73b23d8c1ca8U,
  0xbe4296373e35a503U, 0x3e33b7c73cfd5bc6U, 0xbd4e98a0be9f1335U, 0x3e550a56be4ddfacU,
  0xbe15a3e5be1af670U, 0x3e1e521d3dd8f2a1U, 0xbe4afd26bcf8fe00U, 0x3e304dba3e3b0c36U,
  0xbdf5eb363dd65ca7U, 0x3e78d6b2bdbeb9edU, 0x3dd5da9b3db45a30U, 0xbe3e0c75bc7c4bc4U,
  0x3d6fa414be42148cU, 0x3cbe66f7bd8e10ecU, 0xbe383dbbbdd68c13U, 0xbe57e2eebe22fcf9U,
  0x3e319f7c3d084920U, 0x3aea13e4bc950cc0U, 0xbd484bf9be979ec7U, 0x3ed781463ddd2dcaU,
  0xbd48f459bdd11b22U, 0xbe19179d3ec763baU, 0xbd45dbbd3d2ece5cU, 0xbe1d3b8e3dadf1dbU,
  0x3dbc3f9dbe19cbc8U, 0x3d063fb03c1e9492U, 0xbdeb45cc3cd3b25bU, 0x3b30f971be1a24a5U,
  0xbe1f76f2bec4a571U, 0xbd71cce73ddf8314U, 0xbe08c63c3db78a41U, 0xbef39c98be271f7cU,
  0x3bc542d73d359703U, 0x3e25939fbe4446a1U, 0xbf23a4f73eb7257cU, 0xbe347ab43d96d30dU,
  0xbe311932be47ca20U, 0xbe39a4233c5211cfU, 0xbd53d03dbe8d4989U, 0xbd5a16c43e0a5b90U,
  0x3b3baf543e5528a7U, 0xbdd58c9cbdc5cb2dU, 0x3db417173d3c592cU, 0xbd9726113dca0829U,
  0xbe79e541bde6ec44U, 0x3de6decabcdbd917U, 0x3d21aaea3ea52decU, 0xbc0c505cbbc7b40bU,
  0x3dba35603dadb3fcU, 0xbda74bc23d5ac3b8U, 0xbea9f8993d82f538U, 0x3e1f8bafbdaefb6bU,
  0x3e45c5c33e4b8d2fU, 0x3d0ea9da3e7a50a6U, 0x3e4dcdcdbd19c08eU, 0xbd3b0060be0e7238U,
  0xbdf278ab3e9cb96aU, 0x3e31cfaabe0b3d0bU, 0x3dfdb0bf3db11cbdU, 0xbc96c276bd14eb47U,
  0xbe3f357bbd29211eU, 0xbd0ec6e53d9ad85bU, 0xbde6cdf9be203f46U, 0xbc0202963cd81619U,
  0x3e028a55be3c4783U, 0x3e3eba17be0fd586U, 0x3e3e5acdbe82d3cdU, 0x3edf1b143d921a4dU,
  0xbe16b72a3e5dcf74U, 0xbe883d393d4193c9U, 0xbd22969fbdbc2b8dU, 0x3c754c11be85985cU,
  0xbe08576ebe3d8b2fU, 0x3e52355dbc314853U, 0xbdc29b25bdda32acU, 0x3dd52c83bcf5f65bU,
  0x3e933e573e047e0dU, 0x3de2fc6c3d3a7c8cU, 0xbe10e463be7f866bU, 0x3ec394773e1994fdU,
  0xbdd06397be9c53d5U, 0xbdfd9ec1bcd3d4a4U, 0x3dc9d4cfbdb655bdU, 0xbe238e1bbe3ba507U,
  0x3d844268beabe0b1U, 0xbdc954403ebb0b59U, 0x3dac0bcb3ebc0e84U, 0xbda3361a3ce774b1U,
  0x3cf56fea3e036825U, 0xbc985cb7be2c44a8U, 0x3e0a72e4bd999e43U, 0x3e4ebc213dfe02efU,
  0xbda499c2be96b1c0U, 0xbc7b1b633dd4db40U, 0x3e257aba3e5c4a50U, 0x3da0ac3a3d93989eU,
  0xbdb20d87bba906d6U, 0x3e5805aa3dbe8820U, 0xbeef575ebd7f6acaU, 0x3e485b04be7340e9U,
  0xbd817f013e593b72U, 0xba7e3db23e2918c9U, 0x3dcb9fde3bfbaca5U, 0x3d023d04be345781U,
  0xbe01afdcbe44c673U, 0xbd984a8cbe80ba3dU, 0x3d9eadfdbd74d070U, 0x3bf9a71fbe195ccfU,
  0xbda8a7b83e8323e0U, 0x3e0ff213bdca1bd3U, 0xbd7564a0be32baf4U, 0xbe4cb5513d03a35eU,
  0x3df4ac63bece95a6U, 0xbc527e2f3e54d5d8U, 0xbe21e9c13e240177U, 0x3e884dec3e6c8284U,
  0xbe411ad43e4a0227U, 0x3e5e3eebbe85ab31U, 0x3df567febea1b87fU, 0xbbdabeb6be2363daU,
  0x3d854ce9bde54e37U, 0x3da0990b3de5cbe0U, 0x3e273589bd96d3d2U, 0x3e7e19f6bda193aeU,
  0x3d2914fbbdb16f4dU, 0xbdb80dec3daebf30U, 0x3de5c4cd3e27c97eU, 0x3e7bd0643e4a6ab4U,
  0x3e1880b9be1d2d2cU, 0x3d20666fbc87ffb1U, 0x3ec6a0bb3e445baeU, 0x3ecd4f93be43b950U,
  0xbe478a32bd433327U, 0x3e038b8b3d64513eU, 0xbe19d5b93e777025U, 0xbe50e0d83e889378U,
  0xbd2e9bdc3e620607U, 0xbd0c96253e67b26aU, 0x3d62b6c73d4e12f8U, 0xbe40307bbe25ff8eU,
  0xbddf1f25be8fef7aU, 0xbd0155263df694edU, 0x3e82d7cdbda82e17U, 0xbeb1b5243c0a576fU,
  0xbd0aeeda3e347376U, 0xbac45fa13d5f924fU, 0xbf08f4afbda39662U, 0x3da78d493d907756U,
  0x3cb25a27bd2d4febU, 0xbe54dfe03c81a46cU, 0xbe20213c3e8f89e0U, 0xbd7f5ef1bd4740f2U,
  0x3db5dc89be8f57acU, 0xbdc37b01be05eb98U, 0xbe018349bd8dd10dU, 0x3e73f81ebd621811U,
  0xbe4dd3adbe938692U, 0x3c43d029bcbd2477U, 0xbde168963e7ec2ccU, 0xbe92b19abce209ccU,
  0x3d19b6ac3de1c3c5U, 0x3e31bd14be2025c7U, 0xbf22ea203e2d0bd9U, 0x3e7f4672be1e6513U,
  0x3d4fd7d53e1cda90U, 0xbe1b87b43db96fbeU, 0xbe104cdcbde3930eU, 0x3e49421b3e798944U,
  0xbde000f13ddb1534U, 0x3c1ccb263e3e9a10U, 0xbcb3f69abe07774aU, 0x3e5a3938be12eb44U,
  0xbdca826b3dea9a74U, 0x3dac252dbdb45fcbU, 0xbd3a627bbc7f14d9U, 0x3eacb00fbe301081U,
  0xbe0782123decc205U, 0xbdd79f74bdce88b9U, 0xbf44012bbe81efd3U, 0x3e407316be51fac4U,
  0x3e4c2b513d72e197U, 0x3e2e526b3ddfc3adU, 0xbd49de043ea7dbfbU, 0xbaee71453e55c545U,
  0x3e00d056bd8b7888U, 0x3c14638bbe2d6f49U, 0xbe22d90a3de69fd2U, 0xbe925d303de2da55U,
  0x3dbdfe3e3c1990e5U, 0x3ddac2153c87badeU, 0x3d39b3ce3e347f2aU, 0x3e128750be203f12U,
  0xbde9887bbdc8d561U, 0x3dbc028b3d880807U, 0xbd4861633e0c946fU, 0xbe37e9f53e4e41f7U,
  0xbe2a2baa3d92b2b4U, 0x3e49115abc76e05cU, 0xbe23bece3d9368d1U, 0x3e263d4e3e1e67caU,
  0xbe2edf18be3186caU, 0x3e1591fdbe3c0d48U, 0xbb0e962b3d84b9d5U, 0x3dd087273d93076dU,
  0xbd8efa7abe555a8fU, 0xbbf6ca4a3db909b7U, 0xbe05c9fb3e909648U, 0xbdca3f0dbd414319U,
  0x3b4484213df0fa42U, 0x3e1f15613ca04e8bU, 0xbe4304023d815c8dU, 0xbee2fa02be1ec388U,
  0x3e64d48ebc5cc017U, 0xbe124d8a3cb36374U, 0x3e396e003d9a8983U, 0xbe810ec5be66340cU,
  0x39d3d0dcbc4b85f1U, 0x3da1c9b8be4befa4U, 0x3decf020bdb9bd1cU, 0x3d9959f6be66a1aaU,
  0xbdc585b03e01727fU, 0x3dca118bbd1a675bU, 0xbdda1200be086426U, 0x3e824bddbdca04d3U,
  0xbd70ce5abcf0595bU, 0x3d997781bde168a2U, 0xbf40d5c23e12abacU, 0xbeba51873d1c3accU,
  0xbe719a38bea126cbU, 0xbe8085a93e003fe6U, 0xbe3770b3be71aedbU, 0x3d9f49043e830c7aU,
  0xbe0363623e11829eU, 0x3bd6f74abe8559a7U, 0x3d4fb06b3d42a116U, 0xbd1de4dbbd9283adU,
  0xbdceca453e9e8e6aU, 0x3db424a4bdf9cc40U, 0x3e5af2babdaed6ebU, 0xbdd74c193da9aa19U,
  0xbe1171e13e36af92U, 0xbe16a2683e070576U, 0x3e624ac6be692b6fU, 0xbdff37fc3e7a1719U,
  0x3e1d00df3e61da19U, 0xbdd4f2c83ea3cb86U, 0xbdf4266abdf3204aU, 0x3e1f6e17be0dd14dU,
  0x3e1926fbbe29ce40U, 0x3e2f3d70be0f54adU, 0x3cb07843bd17796dU, 0xbe827feebd4b3396U,
  0xbdbd77ae3dbdd127U, 0x3d71c0143db1131bU, 0xbd756b66be3de238U, 0xbd5d542cbd70bc33U,
  0x3d9dbe45bcb66fe0U, 0x3db439f83d0713d9U, 0x3e8dea1cbe86e4c8U, 0xbe7d6ea9be4bc1a0U,
  0xbd4e9ca33e0a65d3U, 0xbdd20e00bd12d112U, 0x3e2b7bc73e63c133U, 0x3d42d1c0bdadd51dU,
  0xbe0da5b23d77ff3aU, 0x3e0d2b39be61a3c5U, 0xbd0e5b2b3c7a7f5aU, 0xbd15d79bbe13ce04U,
  0xbcf3c03c3f00a020U, 0xbd97c3e2bc0fe0d3U, 0xbe9b221bbd4af17dU, 0x3dab91a13e1d40acU,
  0xbd013527be67b4c1U, 0xbcedf6083e0a86ecU, 0x3f3726ff3e0c17c3U, 0xbe3ec046be651d38U,
  0xbe1d5922be9a5658U, 0x3dd972a8bda477a0U, 0x3e1233e43c10f831U, 0xbe06e4943d392bcfU,
  0x3e0733fbbdd4600dU, 0x3d4be7a33cffce73U, 0xbc27dc983e1347eaU, 0x3e2e847bbe4d2f58U,
  0xbe44cbb33e874d2fU, 0xbd0da818bac8e828U, 0xbd17a2ab3db73ad6U, 0x3e19fe64bcbdce94U,
  0xbd8f0942bebf032bU, 0x3dba4568bd147a92U, 0x3e9728a43eb842e3U, 0xbe42923c3dfcfff3U,
  0xbd84787b3e0296d3U, 0x3ca09234be9a2f3dU, 0x3b76de73bc6f55fbU, 0xbde7b6763e6ac2d2U,
  0xbd3e5004bc91e75dU, 0x3dd8f23cbe65fe54U, 0x3d5ff48a3d63fc3cU, 0x3e9f22f93c6ccfb3U,
  0xbe214c603e19a3c3U, 0xbd370ea0bd2a102bU, 0xbe5dca263e934237U, 0xbdb09d0bbe568e1aU,
  0x3dceb747beba8666U, 0x3997eb0ebdb3cd7dU, 0x3eecacfb3e14a4dcU, 0xbe0cbc53beccf7ccU,
  0x3e67180cbe8799d9U, 0xbdce8a5fbdfb4817U, 0xbd821dacbe3631daU, 0xbd8c84733d555d6aU,
  0xbd1df2ffbe96fbdcU, 0xbe0d1b92be226c1eU, 0xbde0f15cbd704152U, 0xbd56ce943dccc70dU,
  0xbe21f7563e370266U, 0xbda04fd93ce9c445U, 0xbcbfcf4bbe9c8920U, 0xbe57caaa3c4c97e9U,
  0xbe2737a33a5a473eU, 0x3aee62953d607c43U, 0x3e53535e3e861592U, 0xbe333c693d6cb37cU,
  0xbd708d643e408105U, 0x3dea66c4bd1cdfc1U, 0xbd02bd46bc2cfc00U, 0xbda055273e903529U,
  0x3d2fe1e0be9fbc67U, 0x3e4b1fb7bd806befU, 0xbcc620d5bd324c74U, 0xbe1f7b09be4c47a4U,
  0x3e0ba525be0029bfU, 0x3d61133ebb440f26U, 0xbe2588e5bd4b7d22U, 0xbe9c0d573e1993f3U,
  0x3e0528b73ea1faacU, 0xbe5e3bdb3dec193cU, 0x3eec5fe83e23f63bU, 0xbe3fa7e53e897a03U,
  0xbe1f9d483e40bf4bU, 0xbe460a20be950accU, 0x3ddb3a053da42badU, 0x3e22c8bfbd8dacedU,
  0xbd8749afbe71e68eU, 0x3cf21c643d88a753U, 0xbcd1a26fbc21cc70U, 0x3e5b1f9f3dfa2eaeU,
  0x3d278a1d3ca55e52U, 0x3d92559f3d8e4607U, 0x3d8439d63d6db7acU, 0x3e8e22c5be0bc674U,
  0x3dc4fd68be98ccc7U, 0xbe43361c3e22b3d3U, 0xbca7c6993f041f04U, 0x3ec13882bdc749aeU,
  0xbdf9c67fbeb2dd68U, 0x3e07364a3ecae023U, 0xbd2f23debe3b79bcU, 0x3dae1aa2bd9e0997U,
  0xbd95d5923e5839f0U, 0x3e35bf68bdb99f4cU, 0xbd6c95093aa1c50fU, 0x3dd7f42c3d6112cfU,
  0xbe1cf06fbe1e5fd7U, 0x3db4fa3abd04c84dU, 0xbe4e4f513e6bc34eU, 0x3e849c023dc3cc77U,
  0xbcb412933e0c954aU, 0x3cf7a3523e389458U, 0x3c1d7b52be50d9ccU, 0xbced52003d4498deU,
  0xbcfcec63bd5faad4U, 0x3e69e84a3b8ed936U, 0x3db7ef2f3dbb57caU, 0x3e16b49b3d9e2617U,
  0xbdb567183e9ecb43U, 0xbd45e836bdff485bU, 0xbde74e253c91a2f2U, 0xbeb220653d7d6152U,
  0xbe240a28bd3b7e4cU, 0x3d82ba03bdc18298U, 0xbd9e4893bea15873U, 0x3d16b8123d563f7eU,
  0x3dd30b54beabe041U, 0xbd36bd293e1600d6U, 0x3d7e3468be837a1eU, 0xbe8477bdbda24d02U,
  0xbdfc722ebd72d7dfU, 0x3de5d9e9bd6ea34aU, 0xbcf688193dc8d053U, 0x3e4a210f3e7b424cU,
  0xbe074277bdfdecbeU, 0xbde6533f3d28f997U, 0x3e2a7cdd3d67882dU, 0xbe903b5cbd1224b7U,
  0x3d7eab63beb47ac3U, 0xbd87ea6bbd990469U, 0xbdb9f96d3d836909U, 0xbee17568bdcdddc5U,
  0xbe12a3303e960230U, 0xbdd8d946bd803b8aU, 0xbde641093c33ef43U, 0x3ef7eb593e44df50U,
  0x3d1d36173db6268eU, 0xbdf9409d3e2208abU, 0x3cd27e0a3dfa350dU, 0x3ddd96073e9c9e5eU,
  0x3df1fb813d12cedbU, 0x3e177ad8bddfaf29U, 0xbda0ca82bd0b5858U, 0x3e7a0f93bde9eb3bU,
  0x3e18ad56bd1b3f60U, 0x3d3008e8bd30ec8aU, 0xbe99e2babe6caf90U, 0x3df588853b9fa5efU,
  0x3e06eab03dec8dfaU, 0xbdc259353d3b1c3bU, 0xbe03832bbcf84f37U, 0x3da6fee93d122cceU,
  0xbe41c6a5be92b5f3U, 0xbdb85ac4bea97f13U, 0xbc026ff7bcbeff2dU, 0xbc9e8534be6505e5U,
  0x3dfc48f53e5db511U, 0xbcbc47c23e637b53U, 0x3d02b1013d0e6668U, 0x3d05da243e121c77U,
  0x3e197db13d217876U, 0xbdd80f08be036e31U, 0xbe2281c3be6e386dU, 0x3dce10043df2e32dU,
  0x3d8130963e597a38U, 0x3dbb98e5be075128U, 0xbef4074ebe86936aU, 0xbe1bfa093e2d0b3cU,
  0x3d733f6ebeabdf9bU, 0x3e5e2af0be8612c9U, 0xbe17b9f03e13e5c3U, 0xbe07ffe6bd8e9275U,
  0xbe18aa753de1f1c2U, 0xbe6722293e387ff6U, 0x3d766240bdc66235U, 0xbec181963dcaecb8U,
  0xbe004392bdddb3e1U, 0x3ce363123d0253b3U, 0x3e2a8d593d2977fbU, 0xbe72ceb03de323a0U,
  0xbe73ce17bdb340a4U, 0xbd8db424bccbcaf6U, 0xbe860e953e04301eU, 0xbec26c86bdd52d49U,
  0xbdc7bc25bde7ed6cU, 0x3e1a59273e692f03U, 0x3d9f98a03d75db68U, 0xbc3dbf98bd13fdc7U,
  0x3e028a89bdba1e3bU, 0xbd888b753e4c6082U, 0x3df7dac23dedfce5U, 0xbd86e42a3e442694U,
  0xbe7595d23e5f2c54U, 0xbd306a6cbd11f9ceU, 0xbe42849e3d537af9U, 0xbe1cb7a13da79faaU,
  0xbe1a1c6b3e8a6b64U, 0x3deac6a6bd2c55bdU, 0x3c63a83d3e3cf04cU, 0xbef8e69bbc16002dU,
  0xbe516a0fbd9c3883U, 0xbaf6e732be779060U, 0x3cf4272dbce8cbeaU, 0x3d9bcd25bdcde6f0U,
  0xbe09e3023e6abf57U, 0x3e384758bc04efe0U, 0x3e0e32b8bdfe5ddaU, 0xbd6b5d273d52ed9eU,
  0x3d936ff53da7f5c6U, 0x3d85762fbd2d5794U, 0x3d9a69183d071796U, 0x3e8b33bb3ddebeb5U,
  0xbe20c321be7f5770U, 0xbe00fbcc3e1cac72U, 0xbe4265d0bdee71ecU, 0xbe69086cbe2cce03U,
  0x3dee11e03de989b9U, 0x3d336e393da80e24U, 0x3da4c18d3e63fb42U, 0x3e063c573dbe5469U,
  0xbdcc0f4a3e5f1874U, 0xbdf5f7783e212b70U, 0xbc1ba6bd3dfeff01U, 0xbe2037fabb96259eU,
  0x3e4f729cbd7e2132U, 0x3d4ff9913d1a1276U, 0xbd8816123b8d6144U, 0x3d407470be0eaebaU,
  0x3e19dd863dd093dfU, 0xbdd2add3bd9fdc1fU, 0x3ddc818d3e71d86bU, 0x3deb1c20be8911e3U,
  0x3e6efc19bdf87593U, 0xbd5c9ba1bce42958U, 0x3d9737a73c31ac9cU, 0x3e024eb13e72718eU,
  0xbda9707d3e1b2e98U, 0xbdecf2a0bdfc2050U, 0xbdf9582d3cad1994U, 0x3e4cbc95be29770eU,
  0xbce39c173eaf2ff3U, 0xbd347312bd832c67U, 0xbd2f25cf3e0a7dceU, 0xbe81d491be08f269U,
  0xbe3d07c93ead6a69U, 0xbd07cb49bd2a6849U, 0xbf012d19be00152dU, 0xbe1eeaf9be22e8a2U,
  0x3e7e3cf23e1b5058U, 0x3e7dbbc63cb63291U, 0x3d41b0a43e0f83bbU, 0xbe80dfc73e809555U,
  0x3cccb664be83cc0cU, 0x3dd506fe3da319abU, 0x3e0c54d9bdbb0fe2U, 0xbdb19a32be40f218U,
  0xbe6d0bd83dca2e46U, 0xbd61e8023dc3d291U, 0x3dca50b2be42a565U, 0x3e5829a4be03f357U,
  0x3dce514a3cbd29d0U, 0x3e4ba58c3d6c9667U, 0xbf030e703e90d408U, 0xbe936b293e9a68f2U,
  0x3c16e1c93e3e4271U, 0x3d40af113c583a60U, 0xbd493b043a2c346eU, 0xbb82859e3d76b23fU,
  0xbe2b9e83be939062U, 0xbdaf103d3e27b9b6U, 0x3dd10bffbccf19b0U, 0x3e9a0ba9bd141fe0U,
  0xbe7280563ed33c38U, 0xbb3f6d7abcf564f6U, 0x3e18483bbe3dd49bU, 0xbeb18e44be2ca3c4U,
  0x3dd17ed13e2c9b3cU, 0x3c12ee31be1583f9U, 0x3f0758d9bdfca518U, 0xbecc5403bdfd9057U,
  0x3e21923a3ea350caU, 0x3e0637953df1f7dbU, 0x3cf8dd973de594beU, 0x3e65f736bc315c9eU,
  0xbd0be3d13e21607bU, 0x3e1f2002bd025ce3U, 0xbdb4d40dbc87a340U, 0xbe5d94c9bdd07691U,
  0xbdb4b86e3d941779U, 0x3dde8858bd1404e7U, 0x3e02861fbe53c13dU, 0xbd86422bbe070f6cU,
  0x3d4c6bedbe627478U, 0x3d09c5e43d6057b5U, 0x3f1d5861bd65c8ffU, 0x3d9b30063e7df539U,
  0xbd86a14a3df44ed8U, 0x3dd3aa1ebccb6324U, 0x3c6ac6b43e12e9ceU, 0x3e4964edbc0d67ffU,
  0x3b905ba63dc8d919U, 0x3cc37dbbbe1e77c8U, 0x3d5d413dbcd014f0U, 0x3e9e924bbe100fd9U,
  0xbce8af4bbe6e7ca9U, 0xba9eb792bd44df53U, 0xbe56ab0b3e352addU, 0xbe64a5443d94b890U,
  0x3e402b3dbdb2d642U, 0x3c70bbb8bd9d3ef1U, 0x3e9e63df3e423144U, 0x3eedcfd73e384a0aU,
  0xbcf9d8a43e1c0d6cU, 0xbe79d70c3a80ccf4U, 0x3e2aa6a33ca067fdU, 0x3ddf49c03d416ae3U,
  0xbdf8c234bdd58610U, 0xbde8fade3e19b122U, 0xbdb54aa5bca97325U, 0x3d8177cebe1aa6dcU,
  0xbe5723573ec008efU, 0xbcb49b603da21683U, 0x3de71574bda6153cU, 0x3f063da03d16bb0dU,
  0x3e2716aebdcd28a8U, 0x3c85d6b6bd880a6dU, 0x3f068695bdbed4ebU, 0x3de7aac53d75cdc2U,
  0xbe2105e4bdb01c77U, 0xbe8c550cbdc30202U, 0x3e2cf92d3d638be8U, 0x3e3b1ba8bc93fb47U,
  0xbda4ecb03c4d25dfU, 0xbe1c07be3e193648U, 0x3df8447a3ddf3ef1U, 0x3db4f40ebe3333c3U,
  0x3e002544bd9384c1U, 0x3cb2775ebdc07f3eU, 0x3d83a8783e6cc938U, 0x3e84d6ce3e5cb686U,
  0x3d4f401b3d3900f6U, 0xbd87d86abcce57dcU, 0x3ec41236bcbf67c2U, 0xbe26967dbe1c0f35U,
  0x3c9277aa3e2fd86fU, 0x3e2cff2b3eb17229U, 0x3dc2032f3dd65bd1U, 0x3e0857db3d63b598U,
  0x3d81e498bd518cccU, 0x3d0d5f70be452d1bU, 0xbdd5607ebda98502U, 0xbd6d514a3d25f0ccU,
  0x3df4e43f3e8433aeU, 0x387947d23e029bd6U, 0xbe2071303e048290U, 0xbdac1d1abde3de1eU,
  0xbd395de23e8ccc12U, 0xbd87f9643d896e42U, 0xbedc96fabe294e78U, 0x3f08d89d3d577949U,
  0xbd53e6843dbed5f2U, 0x3d969e4a3e8695b5U, 0xbe143af9bc2070d0U, 0xbda919423e77d076U,
  0x3e03fb65be60934aU, 0x3e55c581bd8b0f5aU, 0x3e1ee24e3d3bca72U, 0xbda958463db33a66U,
  0x3d179c473dffb244U, 0xbdb2e4c5bcce9a7bU, 0xbdad1f6abdff5cfeU, 0xbc9851253e0eaa28U,
  0xbd2aa1923db5f8abU, 0x3d46aa433c8cf678U, 0x3c59fa8dbe3d2342U, 0xbe24923c3e26cfdcU,
  0x3d2e92703e1cc1c2U, 0x3e725e34be80ab21U, 0xbdc50a85bdc2626aU, 0x3dce59d53e4baddeU,
  0x3cf97b293dcbe7efU, 0xbdce194a3daf6e54U, 0x3d849fb53d0676a5U, 0x3e68c759bd867aedU,
  0x3e933293bd6890fbU, 0x3d98134dbd23de16U, 0xbe15eb8abe62cd8cU, 0x3e31fd51bd1a3fe3U,
  0x3e22adf9bc27f4ddU, 0x3d83c3643e25e1f9U, 0x3eba4d92be2daae0U, 0x3c02ab3ebb36da36U,
  0xbda1745ebd7d966dU, 0x3e6492103e158324U, 0xbe09176e3ec89764U, 0xbe59ccf63db6924cU,
  0x3b9c353e3dbe9e71U, 0xbd0b09dd3de4335dU, 0x3dd17da43dd37e27U, 0xbe7881b93dd5079eU,
  0x3dc244c53ebf8ac1U, 0xbb1deb85bd60ccb6U, 0x3e8484b1bedf0782U, 0xbe18f9603de06934U,
  0x3d0afbe4be0a3a9dU, 0x3e6305353d4bb511U, 0x3e0da5923e06d92fU, 0x3e0383203e989780U,
  0x3e32bf59be067a0aU, 0xbcee7fac3c09e923U, 0x3ddf321b3e517042U, 0xbd856615bdd436d3U,
  0xbddeaefd3e5979d6U, 0x3e13ae443e2bc8f9U, 0xbd25c2fe3da12fe6U, 0xbe3769da3ddc8e4aU,
  0xbd329b093e7b8545U, 0xbb0afe3d3cabf6c8U, 0x3d04efc1be0160e5U, 0x3f112c45bd00f2a6U,
  0x3d2e6cc6bd50d478U, 0x3e421e4dbc428179U, 0xbee6061e3d8b66beU, 0x3e6b230bbd3115c2U,
  0x3eac64adbe27c9e2U, 0xbdf3126c3e3dcdefU, 0x3e19f692be7b92baU, 0x3d8fad443e320d2fU,
  0xbdc301083e9c2dd3U, 0x3dfd85143d0dda7dU, 0x3e4e56853d4e7a72U, 0xbe73d48b3dbc334dU,
  0x3ce917fb3e613bcaU, 0xbd0f92903d33b6cdU, 0xbd3b282b3dacefe4U, 0x3ee96d3d3df8ff2bU,
  0xbd53e4bfbe948cfeU, 0xbde5d3aebdad1833U, 0x3cab47043cf4feabU, 0xbe4461723dca0909U,
  0x3e94e9733df6832bU, 0x3e3858c0bed3aadbU, 0xbc7484b23e9e80fcU, 0xbe6bc5a8bdc0ad50U,
  0x3dcddf94bd2c9b42U, 0x3e1ea9e83e1b0abfU, 0xbdb75cf7bcde291aU, 0xbe6377c73de0c984U,
  0xbd1443123e318f7cU, 0xbd2420b23c1fd1b3U, 0xbe78ba97bea36566U, 0xbd83e530bd4a9041U,
  0xbc9d47f33ddf51c6U, 0x3e14286d3c9b8f5bU, 0xbf1c9afc3e26d744U, 0xbea354673e2e7dcfU,
  0xbe1f3ca2bdeccec9U, 0x3e4d4a7e3e4de90dU, 0xbd3b8d05bd9fafb9U, 0xbd4f7d5c3dbe1043U,
  0x3d310d6b3e056f95U, 0xbdcc6be43d75568bU, 0xbdcbb8c8bc1a1cf6U, 0x3e6e21acbdb3c2d0U,
  0x3e0b323bbe1832a1U, 0xbd8e2660bdae044cU, 0x3e15a7e4bec0af5dU, 0x3e25fa5b3df84972U,
  0x3db573a5bdaca982U, 0xbd255cee3e150fc8U, 0xbedfacbdbe387978U, 0xbeaf4f42bdc9891eU,
  0x3e7c1cf6be15f02fU, 0x3e0b9ac9be7a7ed5U, 0x3da828513e48dcecU, 0xbd07a0bd3d929d3eU,
  0x3d3841e9bdfe5894U, 0x3e211b523b275280U, 0xbe2d5b4c3d50a795U, 0x3e427df5bd8684c9U,
  0x3e38fa023e2d4acdU, 0x3cfd0a9bbdfeb98fU, 0x3e115c03bef60b96U, 0xbca83c133dd9dc76U,
  0xbdaef8363e400da4U, 0xbce449ff3e0860d2U, 0xbef57669be1639c4U, 0xbd2628adbde67515U,
  0x3db385e6be4f6fc2U, 0x3e4274373d27ce15U, 0x3e29fcbf3cfecddeU, 0x3e1ed1a6be33e5e8U,
  0xbe133adf3dd7c10fU, 0xbe16544b3e5fe799U, 0xbd9f31aebda8501dU, 0xbe7940293c747797U,
  0xbe28b13b3ea6cbc4U, 0xbdb408853d2d39c9U, 0xbcb19a713c26ffccU, 0xbe5608b7bdc9bc2cU,
  0x3d5d808cbe8a57afU, 0xbdddfc8cbdcfabcdU, 0x3ed08d81bcbc63d8U, 0xbd0f86813c579565U,
  0x3e683d953d0e5cdcU, 0xbe2963263ee77acdU, 0xbdf1ce5ebe31e174U, 0x3cc6e451bda963cbU,
  0x3e0d34b83d3d8d06U, 0xbd99f1cf3dd35597U, 0xbd5f2100bdca41f4U, 0x3db8374ebd85d00dU,
  0xbe11b4f63ec02a93U, 0x3db7ecc4bd9a19e0U, 0x3e082fb63dc2ca48U, 0x3f2fa12c3de648e7U,
  0xbd4208bebe074da9U, 0xbd5a1096be013e1dU, 0x3d98d401bd8b461fU, 0xbe13eb583d5ff252U,
  0xbda8bf783e02ba3cU, 0x3db2d527be45f943U, 0x3e32d57abb9f0b5aU, 0x3e0632a93d6617d7U,
  0x3cd697d63e3a9012U, 0x3e2f3fd13da7fb15U, 0x3e27d8263c557a74U, 0x3da34976be116ae5U,
  0xbe518c46bdfcf753U, 0x3dce6a6b3d01c6feU, 0xbe314599bdc379e8U, 0x3ccc6c44bd7743eaU,
  0xbd677352be6f5e11U, 0xbca27bbb3e1a9550U, 0x3eb803583a98c60eU, 0xbeb11ab93e593849U,
  0xbe275a98be27e4e8U, 0x3bfff1a8bec50221U, 0x3d91a2b33e155faaU, 0x3dbd0dc73c034a82U,
  0x3def072c3e411d0aU, 0x3e58b4db3dc826e1U, 0xbd2378d93a20d07aU, 0x3e068b43be0e4abfU,
  0xbe714243be1f85d2U, 0xbd91ee9abda6d6f6U, 0xbdeed1dbbde9c970U, 0xbc1bc84d3e105e3bU,
  0xbe1c920fbe1df004U, 0xbdc0b3743b234c28U, 0x3eefba6bbe8c480cU, 0x3e6033973e81bf0bU,
  0x3dba7c7a3df05506U, 0x3e3fc2b9becb101cU, 0x3e086746bd0db1c5U, 0xbe2ce259baa15d3fU,
  0x3d22f87abe70eb61U, 0x3e31b3f93d7df84dU, 0xbd06c6103d761a20U, 0xbd518abfbe31ca0bU,
  0x3cbff66abe9201adU, 0xbc316d41bbfa480bU, 0x3e79c4f6bdbffffeU, 0x3ed607fc3dfee320U,
  0x3c0762da3e5592b7U, 0xbe071a853c91abf3U, 0xbe76e759bd9294fbU, 0x3de62bcabe5b8b87U,
  0x3df0b32a3e2bed80U, 0xbe2f9abfbe8df0beU, 0xbe1dff9d3d5b6221U, 0x3d9973e83e1745eeU,
  0x3d02a82fbe57d970U, 0xbdf6bf12be6466fdU, 0xbe3a244fbdc6359dU, 0x3dc36afebbd566faU,
  0x3d9586d4beae32e9U, 0xbde2de9d3d8700ceU, 0x3e20d4bd3d1043f3U, 0x3e914161be165066U,
  0xbdfcb56f3e043a29U, 0x3ddcb4d03d33ba6dU, 0x3e210407be28fc3eU, 0xbe8a22f6be17dbefU,
  0xbde7ffaebe084ba5U, 0xbdeb38fcbe6ffce8U, 0x3ce78670be62ac74U, 0x3c9e7b48be52b315U,
  0xbdcee5edbcef0186U, 0x3dc9c3dc3e51a282U, 0x3e00b0c2bb55b2d5U, 0xbee60b63bd986c9aU,
  0x3c0540e8bd4c4a1dU, 0xbddd30e93de435dbU, 0xbe80df0a3e896f9bU, 0x3ee6e941bd0d4f44U,
  0xbdaf321dbe8426a1U, 0x3e450dc7be0d8f5eU, 0x3f2d3c7fbc718e97U, 0xbe0d687bbda8915eU,
  0x3d8276babd8fcdf1U, 0x3d42102ebe931e6eU, 0x3e0527c9bc44f093U, 0xbcd1620d3d57b2eaU,
  0x3cb4b4cdbd5f22c1U, 0xbe2e4d03be449ba5U, 0xbc7a27b2be1287e7U, 0xbbe072adbc0b264dU,
  0x3e504255be4d43ecU, 0xbdf07efdbd0e340aU, 0x3e0bba35be0ebde3U, 0x3e9814edbd0435f0U,
  0x3dff972ebe2adbb4U, 0xbe7286f2be1b3f79U, 0x3e1f9feb3ecf0f86U, 0x3eed2ec3393d604cU,
  0xbdc63943bd9889e0U, 0xbdf6da8bbd85519bU, 0x3c3dfeb5be820a91U, 0x3dce6c6dbdbf5abfU,
  0x3e2dd337bd652ce9U, 0xbdaf18c13e6e6797U, 0xbd77fdc8be0e34b8U, 0xbe3f58eabd75f0a5U,
  0x3b3d0d2abd8d2bc4U, 0x3dc75be23bbe3545U, 0x3ca1260bbe75a44eU, 0xbf12cd483cc5ce77U,
  0x3e03ad073d899446U, 0xbd4ee62b3d52b20aU, 0x3cd939bebdbfa0adU, 0xbe31d81e3c3fdafaU,
  0x394d10f7be86ddecU, 0x3cef95a03bb2269bU, 0x3cdc339c3e2ca27fU, 0x3dab6a43bdb5a7bbU,
  0xbcbfa3f6be67d373U, 0x3c27c358be17e96cU, 0xbe1edd85bcf2e1c2U, 0x3cc90f1d3e0332cdU,
  0x3e68282dbe8ba3b3U, 0x3da4a5563bcfba52U, 0x3d07fde8bd27f6d5U, 0x3e3ce1373db3355fU,
  0x3e092e333eb4ad06U, 0xbde4f6143dc0137bU, 0x3f145106bdb579f4U, 0x3ed3bd13bd35afc0U,
  0x3e8ddb53bc05cc17U, 0x3da7bdaf3e0b6831U, 0x3ce0e0bebe509926U, 0x3df1371fbc0a2aa9U,
  0x3e0c718e3e9a2b2aU, 0xbd855b6abe05a516U, 0xbc06336b3d84e296U, 0xbea387123d15a5acU,
  0x3dc8e1fcbe84e508U, 0x3cd43b973d62da05U, 0xbd586e0c3e5729feU, 0x3e5c93513da60d88U,
  0xbe1e90ecbcad8e4eU, 0xbd88fed3be1b8688U, 0x3ec37288bee36f8fU, 0xbe3803b43e4b5ed3U,
  0x3e4b9ca3bdb14cf3U, 0xbe2d57eb3e8c855fU, 0xbd917a12be61f868U, 0x3dd14f10bd822709U,
  0xbdda9fe3be15e9f1U, 0xbe16683ebe01d775U, 0xbe0a40c7bded5433U, 0x3e0d56573c8458f4U,
  0xbe0aca923e33064cU, 0xbdf83e613d39f30eU, 0xbe084fc6bd8c1933U, 0xbd813fe6bc82208bU,
  0xbc6c6de6be6e6676U, 0xbdad761cbcf73820U, 0x3dcec597bba20b86U, 0xbf0124763ca4cd69U,
  0xbe61dd9fbe438a41U, 0x3d250e153ec69862U, 0x3d1f4dd53d45635fU, 0xbd9128d9be10cf3cU,
  0xbdf55296be85e03bU, 0x3dea99fcbe4dd44dU, 0xbdd1a0da3e04f4a0U, 0x3e037d2abd77e632U,
  0xbd7617e23ddb0315U, 0x3aa6b9023d40e8c9U, 0x3eba0d35bd8ae192U, 0xbf2e0863bd375260U,
  0xbdd743613e0f8589U, 0xbe3d38eb3df3da85U, 0x3eaca018bda0bbf1U, 0xbec95e14be61b55cU,
  0x3e1540b8be39bcc6U, 0xbe0632efbeae113aU, 0xbce8ac6bbcabdaaaU, 0xbdbae1c33dcb68ceU,
  0x3d729ec1bccd4993U, 0xbe296b6cbe598991U, 0x3d6176dbbde50ad8U, 0x3ea345fa3c5aecffU,
  0x3e0c24e93e65d53eU, 0xbce9cbfb3d30e005U, 0x3eb3c6713e2b9abaU, 0xbeb3d6a4bd23cf7eU,
  0xbd869fc33cbefa4dU, 0x3d1000a3be31c9d6U, 0x3e1313803e8b92f1U, 0x3abcee9dbdeee32bU,
  0x3e029e6e3e4ed1d5U, 0x3df26872beaad8ecU, 0x3ddf5f0b3dcf78f7U, 0xbd964fb83e0d842bU,
  0xbd7282d4bd3ca573U, 0x3e4c5a0dbeaa57abU, 0x3d87a444bb84e4efU, 0x3e68afba3d32be6cU,
  0x3e17f227be089b8dU, 0xbbd5eee13d880865U, 0xbe09b7be3da424e1U, 0x3b94815f3ddc922bU,
  0xbe2974e73ed87a04U, 0xbd5837773defa3b1U, 0xbe8e18ac3ebb3de5U, 0xbe9e433dbdb2ed1fU,
  0x3e42d862be96d6d1U, 0xbdb69b3d3e29637fU, 0x3d25a9fe3e46e78eU, 0x3e6db2afbdc9a73dU,
  0xbcbb362f3c550187U, 0x3d9e91d23d1d5e17U, 0xbdadc865bdab85c5U, 0xbe0249443d91f4f4U,
  0xbe9392dabd886654U, 0x3dda3e14bd1e30caU, 0x3c2956a43e21d23fU, 0xbb8b3d2c3d8f24c0U,
  0xbe0e5630be087156U, 0x3e0434003d288364U, 0xbdf3ca653bf47377U, 0x3dc63ab73e7b9435U,
  0x3c8a59d43e444736U, 0xbde3b4663e50cf68U, 0x399ddcce3d398352U, 0x3e4c40593e590475U,
  0xbd0a3b463e98b2a0U, 0x3e128beebdada9aeU, 0xbd5da3e9bd8d639cU, 0xbe04826cbe23f51cU,
  0xbe1ec40fbe0c381eU, 0x3ca252483cdbf7ebU, 0xbe39ca983e854e1eU, 0xbec17f433d46858cU,
  0xbd984b9b3dbab78bU, 0xbd86bc89bc1cc682U, 0x3c12a6f43decbc79U, 0x3ef10059bdc2897eU,
  0x3e1c84c5be9d26b7U, 0x3dd6e151be1805b6U, 0xbda31fe6bdd60541U, 0xbb328a55bcb7366fU,
  0x3d189e69be104f05U, 0xbe1e5e8bbe738902U, 0xbdde67fabdd1ad42U, 0xbd9d6f72bdf6281fU,
  0xbe85a2333e8610daU, 0xbcb0e3223cb295f0U, 0x3e2bccc6bdc0b1a2U, 0x3e37dfb63d9b75bfU,
  0x3e36b9a23dbe8001U, 0xbb70c8353ccc0fd9U, 0xbd8de6dd3e886bb9U, 0xbd86619e3d270743U,
  0x3e7215223e8c2f05U, 0xbe347dfe3e4e4684U, 0x3d3820a13e2316d2U, 0x3e566b92bd3f897fU,
  0xbba9342c3df43239U, 0x3df3eb70be0814ceU, 0xbdcaa1e63c80fb76U, 0x3e819b75be3a5e5fU,
  0x3c4a2e9dbd7d5018U, 0xbdc54fd9bda2f722U, 0xbe5217cabe8ae272U, 0x3e41df4e3d0e9b09U,
  0xbd9f400c3e561d5fU, 0xbd9d7f0bbe2b2805U, 0x3f022e843db11d1dU, 0xbecca0a2be397fe8U,
  0x3d7769093e3e61d1U, 0xbd42a6b13e8c3bddU, 0x3d0d8bcebdd716dbU, 0x3de883233d6f8624U,
  0xbd200f8bbd42d40bU, 0x3e05e0603dcbea15U, 0xbe1a7231bd948bb0U, 0x3dc618c63bc7ab5dU,
  0x3e787267bed263d7U, 0xbde10abe3d6a2d91U, 0x3e2ab41ebe681738U, 0xbf0d47e7bcc4d5d2U,
  0x3d796631bd1949aaU, 0x3e1370b7bd9023c2U, 0xbd68054e3e824f4aU, 0xbd53f5293d92cf12U,
  0xbe8c62773e800069U, 0xbdffe0703e962465U, 0x3e0e00f0bec7e75fU, 0xbe0defc1be7e6c51U,
  0xbdcb3cac3e2c192cU, 0x3daa6f7dbe2863a3U, 0x3d530bf83d39ebd0U, 0x3ea486eabc425b3dU,
  0x3dac82dfbe385ad8U, 0x3d5e35aebd90a534U, 0x3e0660513e147afdU, 0x3e8eeea9bdfa5e59U,
  0x3dc69a303e90e04dU, 0x3ddd363b3dab274cU, 0x3eef237a3b1c2041U, 0x3d35cf833e931e56U,
  0x3e5beab13d3daaddU, 0x3d19ea79bd0aca68U, 0x3dcfce603d54c3e6U, 0xbe11407c3d153d77U,
  0xbd37e5003da5e253U, 0xbcf4f9423e3c4fc0U, 0x3d1e8738bd9c3920U, 0xbd3518b6bd18e6c8U,
  0xbca2af29bec577d7U, 0x3ca508fd3d6af10cU, 0xbdd2880abe0037a2U, 0x3e8d6324be051537U,
  0xbd6436aabdbbe102U, 0x3d2e45b3bd6fbfc1U, 0x3dc378c6bda64bf2U, 0x3ea66336bd8b1ef8U,
  0x3e2345babe26c496U, 0xbc024045be70852cU, 0x3d17956b3e923e8eU, 0x3e5587c53c79f36fU,
  0x3d503a73bdc945a2U, 0xbb17c9463e2d1411U, 0x3e4988ec3dc08381U, 0x3d2500a53e4e6327U,
  0x3ddb3cf63e8e66afU, 0xbcd7c6a53cf470ecU, 0x3e295f0a3ea363c7U, 0xbefeb79c3d8f5806U,
  0x3d7b808bbe8ed94fU, 0x3d373640bde87b25U, 0xbecf16db3cf4ce4dU, 0x3d81dcb0bec6db29U,
  0x3e71fb033d98021fU, 0xbe1dd5a9be6c3536U, 0xbe1234aebe6f5672U, 0xbddd819e3e0ca9b0U,
  0x3d82ab8e3ce5d99aU, 0x3b9ef478bdfbda07U, 0x3e0ebc15bdbfd5d8U, 0x3e861140bd735d25U,
  0xbdcb68793cb86a79U, 0x3b9c9f933db52c49U, 0xbe8ed59dbd93a7c1U, 0xbea34a823e25754aU,
  0x3e25ab28be8c67f1U, 0xbdb635bdbdab6557U, 0xbe351f85bdf07586U, 0x3d9b3aaa3d522825U,
  0x3cbdd675bd024b5dU, 0xbd8dfd44bebfb4d5U, 0xbe09ef0f3ea6569bU, 0x3c70ea0bbd826474U,
  0x3dfa548e3d8f995eU, 0xbd754fb7bcd995f7U, 0x3df04adb3db42b6eU, 0x3ea2d6b2bd9ce4c6U,
  0xbcf9704e3e649162U, 0xbd5dd3db3d2dd6caU, 0x3dabcab8be3d4909U, 0x3e76fb27bb820fb3U,
  0x3d1a2124be87f605U, 0x3b4d67c9bdad944dU, 0x3f63b927be6a1353U, 0x3da2c8f2beb0e7c0U,
  0xbeafd7103e851e49U, 0xbce3822c3e8992c4U, 0x3ccf46d4bce2a31dU, 0x3b6583f03d816aaeU,
  0x399011dfbe4c0cb4U, 0x3e20fca43e2c48feU, 0x3dce609bbdaa1ed4U, 0x3b5aaba93e0fbfb0U,
  0xbcdba80cbe88c665U, 0x3dcc6aa93c33f95aU, 0xbe57a3fd3d9ba5bdU, 0x3ea9b3283d3e981cU,
  0x3df36db5be93918bU, 0x3d4246183dde5202U, 0xbe088d9ebe66bcb8U, 0xbe8c3eebbdf5f8caU,
  0x3de575833e5d3673U, 0xbdabff03be43337fU, 0x3e167aaabe340100U, 0xbd6b48e3be5668b5U,
  0xbcbe5cbe3e90aef5U, 0xbdb13551bd665cc4U, 0x3cc017c73b5b5a61U, 0x3db658fd3d97ca24U,
  0xbc8f6b933e12aa5aU, 0x3d4bb8f73c009c23U, 0xbcc2676ebebbb020U, 0xbe8c75d2bd8cd5e9U,
  0x3d6e02d1be82f352U, 0x3e03e09ebde262c7U, 0x3e20840d3e83f3d9U, 0x3e5a0a28be3be3efU,
  0xbe1bf848be6106f6U, 0xbdeeeb82be753222U, 0x3e0e53da3e6359cbU, 0xbd085612bc2c67e4U,
  0x3d83892d3e364965U, 0xbe2bec53be869df6U, 0xbe04269e38c999faU, 0xbe76edc3be09e6eeU,
  0xbcc84f053dbeaceaU, 0x3c705b0b3c52f927U, 0xbcdd271b3c93313fU, 0xbeadbe4fbddef174U,
  0xbd4472f6bdfd4009U, 0xbde9ec753d407978U, 0x3f16a0143dc75b91U, 0x3e13e8fc3d9f300cU,
  0xbe690829bda47e2bU, 0x3e01e4aebdd10549U, 0xbca750d63da93179U, 0x3e31c5d13d647ed8U,
  0xbd8e17febe30b68aU, 0xbe1bcd743e514c1eU, 0xbdabc714bd3d375fU, 0xbe24dbf53b5ded8fU,
  0xbd29c1b93d60eeb0U, 0x3d208982bd674098U, 0x3e5a12ad3ea4af3fU, 0xbe17d02a3d9cee54U,
  0xbb120ba0be0f40a6U, 0x3c9b37253db90975U, 0x3ed787b7bea17d81U, 0xbe1bf8adbd3619c2U,
  0x3d636008bdfafc36U, 0x3cc5a74cbe022284U, 0xbd56a942beb1a2a0U, 0xbe012da5bc2999e1U,
  0x3c85e9633c225b1eU, 0x3e47548f3da6f4a5U, 0x3d0e8ba33df31bfbU, 0x3b186f20bd13950cU,
  0x3e4c2f703e925874U, 0xbde54f513d534736U, 0xbe80c7813e91be58U, 0x3e41ab67bd53999dU,
  0xbe4eb2dbbc8c8524U, 0x3d9451173dc6eec3U, 0x3d5ee062bf0c3220U, 0xbf26e72b3df6199cU,
  0x3c07f0413c14eb40U, 0xbd4edb02be1cf66cU, 0x3cfc37923cd496eeU, 0x3e4335c5be936b14U,
  0xbd6c1deabe9aadd8U, 0xbcaacf65bcb0eef3U, 0xbdbab92bbdd6c1a2U, 0x3e172660bd9be30aU,
  0xbe24fc95bc95d8eeU, 0xbd171fbf3d8425daU, 0xbb5aebe7bd85d06bU, 0xbe237f5abdc42c67U,
  0x3e21ff3fbd379e38U, 0xbe1afc853cea2c8bU, 0x3e99a32ebe358838U, 0xbeeb660d3cf32fb1U,
  0xbdf85b9bbdb640a3U, 0xbe777217be80673aU, 0x3dac7ae8bd731ce6U, 0x3e00f2f13e954d01U,
  0xb6591d0e3ea6e194U, 0x3be349e93e0ce172U, 0xbd742fde3dc6707aU, 0xbeade823bd2105c8U,
  0x3e89bde43e724b9aU, 0xbc0a33343cd2b0deU, 0x3e068351be46ca1bU, 0xbe04d5bcbd5bb2dcU,
  0xbe08ac613effbb42U, 0x3e13e0dbbdc86e9cU, 0xbee2bc123e078762U, 0x3e9a72733d9171d7U,
  0xbdf79cbabdbed339U, 0x3e506b253ddeea13U, 0x3dffc019be3a3c38U, 0xbde1c484be8b049aU,
  0x3de26ead3ea4075bU, 0x3d6093f4be4b08acU, 0xbd39ada9bc897472U, 0xbe430365bd3b1ff7U,
  0xbdd69af2be17df66U, 0x3d06aed8bd5a2227U, 0x3e231cebbe108555U, 0x3eadb8863d114971U,
  0x3e16f48f3e895eb7U, 0x3d089ece3e167051U, 0xbcdaaf9b3e8f9b00U, 0xbe58ac18beb7f10cU,
  0x3e4168dbbe19b14eU, 0x3dd7ca293e08928dU, 0xbd0caac53df7c602U, 0x3e443b92be103d01U,
  0x3da695863dc7c7b2U, 0xbd3715013e3b4129U, 0x3dadf2893ddb5730U, 0xbeac09843c4d2fe5U,
  0x3e59f970bd9db4dfU, 0xbd83996f3c7bf329U, 0x3e0b744d3e1e9a46U, 0x3deb2ea6bc168675U,
  0xbdfb6156bda48a50U, 0xbd412e093cc4e5a6U, 0xbcab0ed03dd159c3U, 0xbeb43990be9b5200U,
  0x3c839c4ebeb6f1b6U, 0xbd83b3673dedb09eU, 0xbc452f773e20cba2U, 0xbe48822b3e250a0dU,
  0x3d7807b6bd35bc7bU, 0xbc984743bd77c852U, 0xbc303b67bd81e2beU, 0x3db08f2cbbe47467U,
  0xbe2ad240be0840deU, 0xbd6e346bbd9beea5U, 0xbe550b2abe03ccf9U, 0xbe6a2a413da2de85U,
  0xbd46f36c3e30267fU, 0xbe093bcdbdbc0a51U, 0xbd0adb60be958565U, 0x3e2ef51dbd8688d8U,
  0xbd3716003e110ff6U, 0x3e26e4ce3de1acbfU, 0xbd8b2467be665b1eU, 0x3e00e15f3dfb9e62U,
  0x3e110724bd229d59U, 0xbd271117bdfe7b8dU, 0xbd5e84803e1e8afaU, 0xbd576109bde985adU,
  0x3e215c46be314216U, 0xbd3e1de83d943ee4U, 0xbe500f1b3e0e4ca8U, 0x3ea782fabdb22976U,
  0x3cd7d7fc3cef02d6U, 0x3e229f6abd32ddb6U, 0xbebfc82cbe92433dU, 0xbea358b03e621e04U,
  0xbe14aebd3e5108dfU, 0xbe3b0be6be977699U, 0x3db22b213d837c3cU, 0xbdf885d5bd29e1afU,
  0x3df5a59e3e38f24eU, 0x3d9c3bd8bd13bb59U, 0xbdf06ee63d3409c4U, 0x3e3e064ebceb514dU,
  0xbe125eeebc6957a6U, 0x3d9c26cd3d192633U, 0x3e1eafa4bd71e2b6U, 0x3ae158b93de040cdU,
  0x3d6efedf3e9c844eU, 0xbe25bb49bd9bf81aU, 0x3f5460a8be90f938U, 0x3e36e25b3e23cc1eU,
  0xbe9701563d871ae3U, 0x3db490f63e1960b3U, 0xbe37841e3d5c1a49U, 0xbd0c8d90be75b5bcU,
  0xbe2142c1be05f45cU, 0xbe357842be85222cU, 0x3e1437dcbdac009cU, 0xbe8e8b483cb99ec3U,
  0xbe31fcca3eaa847dU, 0xbc8c51e2bd6f67e7U, 0x3e35ae8bbe89f1b3U, 0x3ee999b9bc2bc23cU,
  0x3e07c2c43e35acf3U, 0x3d225926be40f6d4U, 0x3ef7c0353d48ae23U, 0x3e3b02df3e376bbcU,
  0x3dad65b3be532ae1U, 0xbe4b0bd4be8a2f3dU, 0xb9d08c133d6dafb7U, 0x3b8159633e3d7051U,
  0x3bf235d7be557267U, 0xbe631a7a3e107f6cU, 0x3e29e4613d5f0e95U, 0xbe5023043e2d3817U,
  0xbd4a4b7d3e1c8518U, 0x3db9966dbd8986eaU, 0xbe2bcef93d58f2a9U, 0x3e3e081e3d280e06U,
  0x3d8a53903d8d8e24U, 0xbd8ffa4bbdaeb68eU, 0x3f1334683e98be4bU, 0x3eaf790d3e754c3aU,
  0x3e2f4d1ebd9e88c5U, 0x3e63267abe0e2f78U, 0x3c866c04be13705fU, 0x3d423ce6be3eb4f6U,
  0x3e1584a23e83a36aU, 0x3e0caf1abdc147c6U, 0xbe14d1e1bd2acc23U, 0xbccde89ebdb8acdbU,
  0xbe8ec34d3ea1cea4U, 0xbc13063ebd6d5179U, 0xbe6f49883e874f24U, 0xbe54eac8bbccd3f8U,
  0x3d3082593e24bd30U, 0xba629f80bde32e05U, 0x3f52c2443dd8e7f4U, 0xbeb3d5ffbd37bec5U,
  0x3e1c7b353cc2236cU, 0x3e5b74fe3e02de80U, 0x3c92c0223e240281U, 0xbcf0eeff3e121f50U,
  0x3dd55003bdedc80eU, 0xbd441e5fbbbbd1acU, 0xbda2a6063d123602U, 0x3dbeba25bd8ca7aaU,
  0x3df160603d737248U, 0xbd5d4a8d3c6c9615U, 0x3daba8473e36853cU, 0xbe3d04053c3f7557U,
  0xbd2da7a53e1a14ddU, 0xbdfacaccbbdd8152U, 0xbe8fdfbebe36d4fdU, 0x3e92d1f9be34fb24U,
  0x3e69bc6dbe80c768U, 0x3e8f773fbcae338cU, 0xbcc1b5a9bc2d9831U, 0x3e66be56be7c73a2U,
  0x3dfd6dba3d976baaU, 0xbc9517eabda84758U, 0x3d43b0bf3df08e0cU, 0x3c72385d3dd7c064U,
  0x3e21982bbe330adeU, 0xbda4b684bd8b4ae6U, 0xbdc541dabe002dd1U, 0xbf22063d3c9a0f12U,
  0xbdde05cc3e9d9943U, 0xbdc0946b3dfb5d12U, 0xbf11c45bbd9258fdU, 0x3e9f71183ce56136U,
  0x3e284e233e102158U, 0xbe0ce8353e5be285U, 0xbd5a9ce73d073be1U, 0xbdda74b33b890820U,
  0xbda787383e574bffU, 0x3e4291b63da59fc1U, 0x3df3349abd7eb16bU, 0x3e33e63abe18379dU,
  0x3dd99846bdd20f84U, 0xb98fb6c33def2ab1U, 0xbe1f51a63d8512d4U, 0xbec53344bdbe877aU,
  0x3ddf95ab3db0e431U, 0x3db37fe6bd92adbaU, 0xbd20d55a3e5b2adeU, 0xbc8ed1523e0de956U,
  0x3e0059363d075bceU, 0xbdc9c0c6be4963a3U, 0xbdf577f5be824a3dU, 0x3e0c5fd03cc52d11U,
  0xbd3a1380be15b170U, 0xbe09d034bd287070U, 0xbd5496663d9c1709U, 0xbe71727fbe0f2c48U,
  0xbc8c0729be5bf5c7U, 0xbdd6effb3c7c0703U, 0xbc102db6be311437U, 0xbe935a443cd05f47U,
  0xbcd1c55bbd211963U, 0xbdd0074cbc64f466U, 0x3d9857a2be37ebe3U, 0xbec70ccdbe098a9bU,
  0x3e3b17f9bda81ef7U, 0xbe56e1b4bc96acd4U, 0x3e18aac6bd590084U, 0xbde7f2bf3e59e932U,
  0xbcef5b1f3da58f84U, 0xbdad7e19be10c2a8U, 0x3d132b623d3e3eaaU, 0x3e778111bd8155b7U,
  0xbe53fc663e649b18U, 0xbdcad9843ccddfcbU, 0xbe409f213cde512fU, 0xbf07d0f5bd8b5398U,
  0x3c7baee23eafd2c8U, 0xbdd40de33e32f2ffU, 0xbef914adbdabc410U, 0xbec4f0dfbe2f4285U,
  0xbdfecf3c3e9653beU, 0xbe37cb2abdb7966fU, 0x3d6c023a3b5eb067U, 0xbdbd91243dcc910dU,
  0x3d13f270be9392cfU, 0xbe28d4963dbb05deU, 0xbd76e004bcaa0affU, 0xbe03998fbcb81d50U,
  0x3e2f045abe2c2dabU, 0xbd596ae8bd969e15U, 0xbe5244343c3fe597U, 0xbeeef3723dfa84ceU,
  0xbde34cf03e5e2741U, 0x3def704c3e28c890U, 0x3dab1792bee06614U, 0x3cce392cbe5c0610U,
  0x3e2b42eabe9bf32fU, 0xbcab2fb4bead5d36U, 0xbdf0ac63beb9f695U, 0xbce39e923dd58a71U,
  0xbd8d01e43e1dd759U, 0xbe438e363e4d63f8U, 0x3e61b884bcb5d147U, 0xbef040ee3cc1c327U,
  0xbe0b74e1bc54c27eU, 0xbc89d1083c89ac2bU, 0xbe80de55be7cacf1U, 0xbeb412bfbccbbbe5U,
  0x3df78c563d9eb38fU, 0xbe15d2e23e209960U, 0xbf3cc621be3029a5U, 0x3e089c09bd08eb4bU,
  0xbdd02ba2be860b84U, 0xbe0a325e3da7ec07U, 0xbc90f0503e86c0d4U, 0x3d9e6e993d22be6bU,
  0xbd29ad36bd263fa9U, 0xbd8befae3e2d00aaU, 0xbdd668003da67dd6U, 0xbe3cb2e23d66aae2U,
  0x3dc85696be8136f8U, 0xbc8236e9bcb957a9U, 0xbe7250edbe7e7ff6U, 0x3eaa6a9e3dabcf8dU,
  0x3dacf0433e2053a8U, 0xbd98876b3e0d21baU, 0x3d6cca2fbe2c38e0U, 0xbf03b38c3e187a96U,
  0xbdcd3891be9002a8U, 0x3e0bd5223e8f215aU, 0xbdd16d733e6199e8U, 0x3e07b3ebbe1db999U,
  0xbdb534853e56f37dU, 0x3e5c639a3e549d37U, 0x3e0a6927bd173949U, 0xbeb61b5dbd7a6a53U,
  0x3d438f00bed342caU, 0x3d5ab216bda4baf9U, 0x3e46e1cabe6aadddU, 0xbf088b86bde1083fU,
  0x3c981f113d40aa49U, 0x3d8db7dbbe59252aU, 0xbedfa20cbe36a8efU, 0xbe3e920fbe1adfbcU,
  0x3e41e2473e5d784fU, 0xbdba99f8be82bd08U, 0xbc8c336b3db4015dU, 0x3d6bf37e3e7ce4cfU,
  0xbe0b076a3d7ea840U, 0x3dc95995be6cd941U, 0x3e0db366bdd6247bU, 0x3d686e3c3b49d729U,
  0xbe238c4c3df053a1U, 0x3cde96fc3da2cbaeU, 0xbd0f79fbbde6ff8aU, 0xbdc37c6c3cc003c4U,
  0x3d2813ba3e8f6dd4U, 0xbdb2e7653d341555U, 0xbe6dcc9e3cca617fU, 0x3ea7ae873e4a7df0U,
  0x3d5e67d4be958335U, 0xbda542d63e4b1b1eU, 0x3db7fb72bdcaf922U, 0x3e1730d9bb947feeU,
  0x3a152ae03e04913bU, 0x3c9a0a453e2d2a47U, 0xbdc4d2bfbc33cec6U, 0xbe6afc6a3bf971d2U,
  0xbe5732193ed82e5fU, 0x3d062aaf3da9d3b5U, 0xbc874e4f3dcc49caU, 0x3e832f20bda675a6U,
  0xbcff35e73ea35a16U, 0xbe03fcc7bdfc047bU, 0x3f0750753dd179e7U, 0xbea6a0dc3e53a90fU,
  0x3e1c8f2b3e5ab0faU, 0x3dcc3d19bdd5ffcbU, 0x3e312aa73c8f09e6U, 0x3e7bb5613bf6a0fbU,
  0xbc5acebabe03bedfU, 0xbe01109dbe413a1eU, 0xbe2eae10bd170534U, 0xbe1266183d889062U,
  0xbdc96476be019c9eU, 0xbd994b123d2d94b6U, 0x3e8966753ebcb7a4U, 0x3ef159d8bdf0c570U,
  0xbe346aa9bd3de621U, 0xbda6de0a3bdfcc0fU, 0xbbbecb6ebd02e54cU, 0xbe096c56be435e97U,
  0xbdd9837cbe27e6fbU, 0x3dd76b0bbd2101dcU, 0xbe04ee5bbbe4f8efU, 0x3d91c30b3d883b06U,
  0xbd710299be2bc750U, 0xbdbcb6583d19d006U, 0x3e02a34e3d3e2678U, 0xbe82d1543df4e1e7U,
  0x3ceb4c453d12fb47U, 0xba1c22903d0b6857U, 0x3e5fa929be280918U, 0x3ebd9b2a3e3c7ce8U,
  0x3ca6e8823e2524b7U, 0xbd8490bfbd5db2abU, 0xbf17bc393c8f20d6U, 0x3e925158bda94b31U,
  0x3d40fb863dd23202U, 0xbac293bf3e9c881dU, 0xbdf2513abdf10572U, 0xbe3894a0bdfd489aU,
  0xbcbf46ecbdf4df60U, 0x3e5c759ebdd43c92U, 0xbca6221abd509650U, 0x3daa7f8cbbfb5e4fU,
  0x3e3099a5bec27419U, 0xbd999f45bd46577fU, 0x3bc2fa92bc3fab60U, 0xbf0f96773dc361afU,
  0xbe2e01e9be186959U, 0x3d971a993c1c4a42U, 0xbeb09645bec8be0aU, 0xbdc3c9b2be0fb8f4U,
  0x3e1c1cdabe451babU, 0x3cc359f7be831e47U, 0x3c69f241bdb6c6deU, 0xbda50892be534e78U,
  0xbde60d513dbb814aU, 0x3e43f64e3c5dcb1aU, 0xbdac17f9ba93ceaeU, 0xbe8751833e0e0b69U,
  0x3e446b7ebea613eeU, 0x3d4857843df12b48U, 0xbdb4685a3e53e9ccU, 0xbe8dcf873d2672a5U,
  0x3e2bd378be0ba222U, 0xbe2f9a8fbe299ab8U, 0xbf0e9575bee2117bU, 0xbcbeed693e4abd14U,
  0xbd121ff23dbc84faU, 0x3e0433e83da72d0fU, 0x3d0a8ace3e280707U, 0x3e26c2123e15af85U,
  0x3ba88aba3dd1e471U, 0x3e28275ebcfc60beU, 0x3d536011bd1fcc34U, 0x3d0ef91abd437a89U,
  0x3e1727e53c70a2b9U, 0x3c69a357bd417d22U, 0xbcaeeaac3da87373U, 0xbe1acf773e113766U,
  0xbbf004c0bef78ad0U, 0xbe5c04a7be31b4c8U, 0x3cde0a553ea44878U, 0x3eceef543e5d53dbU,
  0x3cf35e413e9149cbU, 0xbe8ded283e63a78fU, 0x3e07b420be02c395U, 0x3da79ffb3d6b8059U,
  0xbd802577be29fe0bU, 0x3e0a7bf1bc642e77U, 0x3d6fe931bcea081cU, 0xbccceb7ebe52e8c9U,
  0x3e05050ebe6a7f33U, 0xbb98ffd33dbd59d1U, 0x3d2f42f1bd12a0fdU, 0x3ccaed15bb2b9a9fU,
  0xbd3f7857bd843208U, 0x3e0900413e3e4ae8U, 0x3e23fc29bd92a967U, 0xbe7b928abdf8ee62U,
  0x3e516ee3be10ebb5U, 0x3dc0f94dbd020c6aU, 0xbd1156fd3df5f45eU, 0x3cfe8d853dfceef3U,
  0xbdc013f83ca0306cU, 0xba1cbf443c63ced7U, 0xbd97942cbd5bbc89U, 0x3e04a773bcf2be7eU,
  0xbe039e1ebe913396U, 0xbbc4b6c1bd87f8d1U, 0xbe5374c1be9abbc4U, 0x3eeb5f0dbe3cc115U,
  0x3dc9b1303e06b82bU, 0x3d86f99fbdffae41U, 0x3e10bc22bda22940U, 0xbd354f38bc261daaU,
  0xbe011f72bcff57fbU, 0x3e7f97993c28156eU, 0x3d95ccd23e9ad7a5U, 0xbde71db73d1d2fa4U,
  0xbdec732a3dd9b6e1U, 0xbdfc337cbe235538U, 0xbe5dcaa2bd8e9751U, 0x3e6a8e7fbdb56596U,
  0xbcbf07c0be6c536dU, 0x3d689ff3bc777de3U, 0x3e530fc53e2dd4a0U, 0xbe4a46703d97e86eU,
  0xbe24cf89bddcb177U, 0xbc68509d3ddab2aaU, 0x3e7f9bad3e9205fbU, 0xbea927353e65b5dbU,
  0x3e46a75bbe210ee3U, 0x3e3a5b89bed3018cU, 0xbc9e7f363d5b1a19U, 0xbd373735bdad95ffU,
  0xbdc36ee2bd777cb1U, 0x3d9e696e3cf9c645U, 0xbe37138bbe1a3117U, 0x3d7aa54abbaf3a5cU,
  0x3e43e22a3dd871afU, 0x3dcdbae13d0063cfU, 0xbe14d5243e976447U, 0xbed6a215bda192efU,
  0xbb5f2767bcd798bcU, 0x3d92c5a6bde9e060U, 0x3dd201633db85eb2U, 0x3ecd534abda439a5U,
  0x3e10003dbe4370cfU, 0x3e84089d3db8f4aaU, 0x3db54bfa3e588cfeU, 0xbe0dc19e3c64599bU,
  0x3d6195093e13e470U, 0xbe532a5dbd37ba89U, 0x3d86b01b3d4a293aU, 0x3e065e413d536e2dU,
  0xbde8b99a3e82620bU, 0x3d87f09fbdee02d9U, 0xbdaf6cc83dddffaeU, 0xbea2f01d3da68c77U,
  0x3e000934bddf4f9bU, 0xbb97d3473dea9b81U, 0xbd4aa4a2be68da13U, 0xbee5393b3df62ef8U,
  0x3df2e44fbd79a814U, 0xbe4ac9dd3d2cc1ccU, 0xbd0230fcbe09d02bU, 0xbc903c1abc57f9e8U,
  0x3dd074e73df373e3U, 0x3e0e930abd4a5decU, 0xbe1c4d1cbb2671b3U, 0x3d95404d3ddc5482U,
  0xbe6715babe324b6bU, 0x3cdd78bf3d94b3a8U, 0xbdbb08e2bedb36a0U, 0x3d57a8c63d237082U,
  0x3d99ae40bec0931eU, 0xbcd6797e3c868808U, 0x3e3eaa263def2064U, 0xbebae2f3bde0b242U,
  0xbdd6ec36bcc3d4d2U, 0xbdbc90babeacd2b7U, 0x3df3a927be4fa698U, 0x3c52c9f53ea242f1U,
  0x3d009f86bd71ea4dU, 0x3c1486473de0f113U, 0xbe27c47cbca8dbacU, 0x3dd8668fbd8cbe96U,
  0xbdea83313d461625U, 0x3caa4401bcee12d6U, 0xbe1818eb3d57d387U, 0xbed7bd64be1635b1U,
  0x3d59a698be17a3afU, 0xbbab8fbfbe42fdd4U, 0x3e21a13dbe75756cU, 0x3e810c04be75c580U,
  0xbe58b6e2be87af85U, 0x3da8c37cbe538b13U, 0xbdd3e2fa3e1abda7U, 0x3d862c9d3cf78415U,
  0x3e07501abe616d48U, 0x3cb9d46f3e3e77acU, 0xbe4a1fe83c3c6999U, 0x3e10a58c3cd63d46U,
  0x3c4c2a43be4c29fdU, 0x3bb46ab23d529686U, 0xbd99ff6dbecefcb0U, 0xbe860aa4be0f655fU,
  0x3d0f4e9a3b3fcd5fU, 0xbcbd39323e0f07c6U, 0x3ea5666abda859b1U, 0x3eba68d93e85eb42U,
  0xbe8173f63e49312aU, 0x3e6d93083e88671dU, 0xbb5fd936bd84bd33U, 0xbe4512ef3dc1ea72U,
  0x3e0466a9bd83ed2aU, 0xbda8accd3e0fbc64U, 0xbd05b52c3dd47d62U, 0x3d959c7c3def3e6bU,
  0x3e712eca3e912d6fU, 0xbbb32fb8bd29d703U, 0xbdf4230cbe24336cU, 0x3e88c7c5bc693678U,
  0x3e62b7803e75ba82U, 0xbc9ed272bcb0bcb3U, 0x3ea937c2bc9ccdb4U, 0xbdcf35913de023c2U,
  0x3da6332e3dbb912aU, 0x3da3fc6e3e1cc088U, 0xbdac330e3c2c7735U, 0x3bde79573e1f14b0U,
  0x3d8283c03e3d2f79U, 0xbe0beaadbe36e2a0U, 0x3dd22d4d3d3b37b1U, 0xbe5c6de93be45ce3U,
  0x3d3fdda03e6a383cU, 0x3892f588be1548e6U, 0x3dd802fdbdfbc423U, 0x3f169ac73da9a3edU,
  0xbd64e6693bcfcd2dU, 0xbe09fe073e64038bU, 0xbe85a4abbd8c93b5U, 0x3ed0c0f0be2b9e66U,
  0x3e5c82d13c701e86U, 0xbdd0f6973e7c70d0U, 0xbda47e27be8708e5U, 0x3e8895593e13dce9U,
  0xbdd0ab48bb06b045U, 0xbe864755be397ebcU, 0xbca2293f3e1ca652U, 0x3e4a41843e2d759fU,
  0xbe37db753e3597f2U, 0xbc36181abda1b1ffU, 0xbe2550293e533218U, 0xbe15946f3e0de464U,
  0x3df68a2bbebd8bbcU, 0xbe8f2133bd13fa09U, 0xbe82a795bec6749bU, 0xbc5ff7b9be56250aU,
  0x3e48cc4bbdeb25deU, 0x3c605f99be3b2a49U, 0x3c510b923dacffe9U, 0x3da5bf22be2f723aU,
  0xbe2099203d4d8158U, 0xbddcedc2be374c44U, 0xbd8a9cbfbd95a211U, 0xbd7044dfbd87566fU,
  0x3e34ff75bdce0b26U, 0x3d49a9b53d174098U, 0xbd8adc24be7b090cU, 0xbe1571123da60cfdU,
  0x3dfa8c323daf6453U, 0xbe3d457abc9e18eaU, 0xbe85e3eebdf3920dU, 0xbe9a94943ced8e66U,
  0xbd0ebfc33df86b87U, 0xbdddc3d3bd105229U, 0xbbf6316c3e086bbfU, 0x3b72c201bda3e6f4U,
  0x3d544b2abd419d22U, 0x3db0f4653d475bdbU, 0x3e143ffd3d5d04adU, 0x3d74c321bdfe1fa0U,
  0x3e409796be6f939dU, 0x3d58448abde26feeU, 0xbe542b6bbd87e859U, 0xbe37a32a3d0a3cf8U,
  0xbde1799d3e655b2bU, 0xbca8a44cbd3a47c6U, 0xbf0664b23d5e88b3U, 0x3ee063d53bdcd0a9U,
  0x3e50d2363de34cd8U, 0x3e297aef3e8d37a6U, 0x3dcbf2fc3e42f9deU, 0xbdb49f023d87e4d8U,
  0xbdf1c3e13e56cdf9U, 0xbe44948b3e47ec23U, 0x3d9faf013deb2855U, 0x3e6ffbb0bca01077U,
  0xbc55aba03e0d36c8U, 0x3ddf6c55bdf429c6U, 0x3e74ce7ebd0c3af6U, 0xbf1971583b11c413U,
  0xbdf9829fbec34305U, 0xbe2c006f3e123175U, 0xbd82c4f9bdfbf27bU, 0x3ef57365bdb8976aU,
  0x3e2c1cffbe42752eU, 0xbdb021aebdc96ff5U, 0x3e2869483e37a92bU, 0xbe410e1fbdcd6fb7U,
  0x3e17c1ba3c187095U, 0xbdbf024dbdac6863U, 0x3dbe54623cf30b51U, 0x3d5256cdbce6b835U,
  0xbe313576be7c24cbU, 0x3d57a952bd9fd081U, 0xbe4940f93db6ed82U, 0xbd848306be343430U,
  0x3da47b78bf04a434U, 0xbd97f5103caf5dc8U, 0x3ec3b83b3d671073U, 0x3f0e5d7a3e202ee0U,
  0xbe5ae9d53c5b3a8fU, 0x3e34ccb9bd98bcb6U, 0xbbe23eb43e02f8acU, 0xbd848e043cdfbe4fU,
  0x3d245844bd696601U, 0x3e41a39e3e0c8e07U, 0xbe19227b3d5af064U, 0x3e577b26bcf34af9U,
  0xbde45eebbd962a93U, 0xbd50d5cbbdabcfbaU, 0xbd99b9ba3e60a42fU, 0xbddf5baa3d78da7bU,
  0xbe1c41e73e1b9de0U, 0xbd8daf41bd3c39c3U, 0xbcd08df1be01ae44U, 0xbee89f59be2bf534U,
  0x3e436b463e807860U, 0xbcecd079bde0a46aU, 0xbd6dcd4a3e238c9bU, 0x3cdce655bd99bb9dU,
  0x3e0b5b57be088b63U, 0xbca5b1113ded7f1fU, 0x3db192c5bd84940fU, 0xbdf3b8debb37d2a6U,
  0xbd6a6834be0ec86cU, 0xbd8e46863dced4daU, 0x3e0fb7b4be88157cU, 0xbe044f4c3d789debU,
  0x3db8f4ffbe160119U, 0x3d479a3c3e40e78bU, 0x3ebd54d7bc98a28eU, 0xbe97550d3e63cf90U,
  0xbbf376c23ebd1cb5U, 0x3def71ac3dbc9786U, 0x3ddd14493e935dccU, 0x3e1263d7bd8a28bbU,
  0xbdf0b319bd561f71U, 0x3d7dd8cb3d64a518U, 0x3dbc92b9bd86d94fU, 0xbea3f8713e04a575U,
  0xbd55abc73e962b0fU, 0xbc9f1ee33d1c7ee9U, 0x3bb1eb77bed4cd33U, 0xbf19b6043e45cae5U,
  0xbe1d1c4c3d6f6affU, 0x3dbddb33bd1ff4a1U, 0xbe3523923b50e1d6U, 0x3e8a1e73be37e7b9U,
  0x3d971640be256d82U, 0x3df0fe13be61f049U, 0xbcaf3eb2bd88fb39U, 0x3e0f7e20be106b39U,
  0xbdd2adfe3e8259a4U, 0x3e11c2a43e720c02U, 0xbc016ff83d2e1f56U, 0x3af4eeacbe0af70fU,
  0xbd9026313e292f92U, 0x3da8570fbdb02d99U, 0xbe196f623e757681U, 0x3f10a49a3ce5571dU,
  0x3d5d4d7dbe5953e7U, 0x3dbb8e793d401e46U, 0xbe70f2cb3e4baeaeU, 0x3f09b8af3dda1b60U,
  0xbe35fd493e8b9201U, 0xbe29e66c3e8d811cU, 0x3e094d7f3e9bfb27U, 0x3e03f9bdbda6bcb1U,
  0x3e3805573e24b41fU, 0x3d7e12063d775a3aU, 0xbbf79aa73cb8b6b9U, 0x3e5fce603e24f4ecU,
  0x3e8789c63e49d25aU, 0x3ba07c14bd946906U, 0x3ea54fdd3d4a65deU, 0xbf3b9fbbbe545baaU,
  0xbe4a41aebe76fb5aU, 0xbd97f3d53e0466acU, 0x3ea493c1becd0081U, 0x3dd01c7a3e207335U,
  0xbe803448be7488e7U, 0x3e2c85e7bebbf9b0U, 0xbdad177f3d77014fU, 0x3e31396dbe607dd2U,
  0xbe08fdcc3d98777aU, 0x3d0e19c7bdf98e03U, 0x3dc03cc73cb672d9U, 0x3e062621bdec2939U,
  0xbce572873de2129fU, 0xbda19d083daa703dU, 0xbde839d0be18f401U, 0x3eaf14c03db36544U,
  0xbc860f1c3e04597bU, 0xbd85c7213c9dab57U, 0xbf1c6f37befca544U, 0xbeada9c03c8a2582U,
  0xbe1f6fb53e233a66U, 0x3d6feea43d8ea43dU, 0xbd9cc7d43e83d3c4U, 0x3b9eb8253e0d11bdU,
  0x3e0058d3bd5d9992U, 0xbe2a1f2e3d402591U, 0xbdcb377f3ca5c896U, 0xbe0d811ebca6592dU,
  0x3dc6569abd6ca67aU, 0xbd391ab0bddad6b4U, 0xbcb33428be77cd9fU, 0x3ed26be0be203c99U,
  0xbdc0afbd3e5604b8U, 0x3e11b78c3e08abfeU, 0x3eb789913dac5695U, 0x3e2749873c686e71U,
  0xbdbc2e093e4184e4U, 0xbe1578163e4417b5U, 0xbdf24345be3ca973U, 0xbe2eed143d92e3d0U,
  0x3e0a1f2e3dd8ee28U, 0xbc7c0ad3bd5ed849U, 0xbe1b532d3e15f27aU, 0xbdae7a723d36c8cbU,
  0xbe8b09d83df4b9f1U, 0x3d7ca1e8bc194dbaU, 0xbe2e5b8a3d914c4cU, 0xbd55fbb53e18b70bU,
  0x3e1cfa773e342178U, 0x3da989043c7497b2U, 0x3ed161dd3e68a3dcU, 0x3ef011d5bceb09f9U,
  0xbe23508b3e125f4fU, 0xbe8bfb15be0bf95fU, 0x3d9034103d93dd25U, 0x3dcd4cae3d6672d0U,
  0x3d28b1c9bd87580aU, 0xbe2a87453cf27211U, 0xbdb23ad03c95766fU, 0x3e45f6a1bbd7119aU,
  0x3ddc005f3e102bd4U, 0x3d8f1774bd4e8322U, 0xbeab14c8bdb1d871U, 0x3e3e573cbda84b97U,
  0x3e1fc8afbdcc0dd8U, 0xbe3994703df8e2c4U, 0xbebf8fd33e25bf74U, 0xbd328e96be351d6cU,
  0x3db07a713eb10781U, 0xbe2dc00d3e7a6396U, 0x3d9d6658bb6e1824U, 0x3dbf90e3bdac9892U,
  0x3db42fa73cd90c4eU, 0xbc4cc83cbdc255efU, 0xbe1e31ee3d3c50acU, 0x3e2fabf2bdcaca47U,
  0x3e42a9f13eb0c316U, 0xbd9701913d63b443U, 0x3e697fa6bea7bcfdU, 0x3d90e6523d9d3394U,
  0x3dc0622c3e48f956U, 0x3d51a0823d83351eU, 0xbebb4d6a3d083ca5U, 0x3e6a701d3c0c7342U,
  0xbd8ff271bddcb170U, 0xbe17670b3c0398abU, 0x3d8b3a42be55c486U, 0xbe961023be4f0f12U,
  0x3e10879abdbe79a4U, 0x3e4d61d4bdcd43a2U, 0x3dd9debdba3525c6U, 0x3e9b326abe1f12fbU,
  0x3e1fdd453df7025aU, 0x3d4fd9c73c3837abU, 0x3e6f14573d91177fU, 0xbf59e5ad3d8c3396U,
  0x3e0a470e3e3ce3f9U, 0xbe381bb3bd415c4cU, 0x3eb1352d3e6d0c9cU, 0xbe643352be18f4d7U,
  0x3df59a94be8dc748U, 0xbe550dcdbd0a1c84U, 0x3da9bb993e85d798U, 0x3e29f7f93cfee112U,
  0x3e01de6cbda175e3U, 0x3d8192d8bd85d834U, 0xbe0685a3be0c66b4U, 0x3b8102113dd10e36U,
  0x3e3682ba3e541b36U, 0x3c1f7ecabdda1e88U, 0xbe3041aebe60ff4bU, 0x3dc0015abdc69b5dU,
  0xbe1f1c88be175951U, 0x3d0840853daa8764U, 0x3ef17801be21905aU, 0x3d8762cfbdcc1c99U,
  0x3e67374d3e39ba9cU, 0xbd8763c43e932f3aU, 0xbd8f2f89be9b3a01U, 0xbdb03ade3c602178U,
  0x3d0dff273dc3e94eU, 0xbcd60a393e026f58U, 0x3cad1b52be0f4cdcU, 0x3be4cedbbe147944U,
  0x3e6ca1c03ea6bb20U, 0x3ccc35cbbc52e01bU, 0x3e9bf6e13d19e51cU, 0xbf179071be02a1f2U,
  0x3e1bc40dbeb72530U, 0x3d3629fa3e10d297U, 0xbe1a62a43e93ab39U, 0x3e8c9b28bdfc98cdU,
  0x3dc103a2bc93db50U, 0xbd86a59ebe190f85U, 0x3c5c029fbe59e3edU, 0x3d9528733e36ff16U,
  0xbbf95c8a3db775bfU, 0xbe7062173e828de4U, 0x3d2f1fb73dacc03cU, 0xbbaa02bbbdb067e3U,
  0x3ce19f4ebd38adebU, 0xbdd54301bd06c1f3U, 0xbdbac718bdd9fa3cU, 0xbe7db66abdf7dfddU,
  0xbc37cb95bddd4929U, 0x3da55ebfbe00329aU, 0x3f1e9f063db0d5deU, 0xbcb5c6c9be58e151U,
  0xbcb0f37d3e96fce1U, 0xbe7ea8d13e5f68c3U, 0xbe14f447be0b14fbU, 0x3e82773e3dd4f117U,
  0xbe23920dbd010ddcU, 0xbe7d1fb3bd66063eU, 0xbe04107d3e10ef59U, 0xbe2babf93e00ecbfU,
  0x3da77739bedd427dU, 0x3d12e0b03d9aefabU, 0x3e6467dd3e383b21U, 0xbea3e5483db4c034U,
  0x3e01c9eebe6022a4U, 0x3d9151d43e0eb8d1U, 0x3eedb0d73df19079U, 0xbd0a5974be3ed583U,
  0x3e22ce3fbdfaf36bU, 0xbe649289be4d5c89U, 0x38e5fccbbda4ab89U, 0xbba48becbe853eb5U,
  0x3ae9273f3c4fafd2U, 0xbda1c7de3e62c834U, 0x3e49405abdc47562U, 0xbe3b33743e0582bdU,
  0x3e3fc4463d5187d2U, 0xbcc6c88fbd951de8U, 0xbdfe1cd53e3ea6b6U, 0x3f032c773dc00d04U,
  0x3cb0a614bdecb18eU, 0x3da1e78a3dca6f83U, 0xbf19a6b6be8ccaa3U, 0xbc4c0f18bd8e029aU,
  0xbcefb45fbe677a7eU, 0x3de621f6be40ca41U, 0x3d0b4a243d5180e4U, 0xbcd5f675bd9afb2cU,
  0xbe1005e53dfd2a0dU, 0x3e2f3aaa3c1d1791U, 0x3e49f3ebbd8bf040U, 0xbd3abe35be42d190U,
  0x3e0081583e557fcaU, 0x3d5e998fbda063b4U, 0x3e04bbd6be7fb91dU, 0xbe4dc18f3e244901U,
  0xbda5ca80bdbec04aU, 0x3e0ca1bd3d0ff56bU, 0xbee8e9adbc84d210U, 0xbe03a3a33df656c4U,
  0xbbc55b4c3d4956aeU, 0xbe1665493e28753eU, 0xbde2f10bbd8e80aaU, 0x3deba6df3e226fa6U,
  0x3e37831e3b65aef7U, 0xbe03bb163dd6ca33U, 0xbd9368873d25608eU, 0xbe5688733da982deU,
  0x3d2b2221bd8e3427U, 0xbd1c54043d396a9fU, 0x3d0af6933dd3d537U, 0xbed0685cbdf1b5d6U,
  0x3cc6643d3e96985aU, 0xbd0c4550bdb0c3ffU, 0xbf2e54283c744c09U, 0xbead95d93e5d13b4U,
  0xbda784bebec97e54U, 0x3e5a0dc73e2b9173U, 0x3d35a5cdbe607cf6U, 0xbdd167743e52d442U,
  0x3d7a48e9bde422edU, 0xbe76a28bbe4683d5U, 0x3e144d963d63f562U, 0x3e16f21dbe1a2852U,
  0x3d5c3e5cba298f17U, 0x3d5cc015bcfd1a73U, 0x3ed52460be1557c9U, 0xbe83797a3d22c07dU,
  0x3d5a5b3cbd096dffU, 0x3d96aa9dbdb4abdeU, 0xbe544ef6be1e71c9U, 0x3cbf193a3e3699e7U,
  0x3d10daad3e1b69d6U, 0x3e80e89d3c8bce21U, 0xbd5e962abe78de91U, 0x3dcb9ccc3d8c289eU,
  0x3de655cc3e1d9d0bU, 0x3e1290f2bdc71439U, 0xbd8b9843be073350U, 0xbdb33ed03e2121f9U,
  0x3d846a68be99620eU, 0xbd8a3b86bdb31f56U, 0xbe1457c6be15fbebU, 0x3f1ba7733dfe0530U,
  0x3cae8f59bdd73a63U, 0x3e63bc6abdba9ecbU, 0x3e97cc883e87956fU, 0x3d9abeca3e1a57b8U,
  0xbd128e8fbe491acdU, 0x3d8e7c4e3e8b0fafU, 0x3d81f7c23e8f1465U, 0xbd9948b23e698116U,
  0x3c98534bbea44bbeU, 0x3e2ba74e3d52b6a2U, 0x3da1cf0bbb82b749U, 0x3e44b89d3e0f15fbU,
  0xbe3ffb053ec3abe3U, 0xbd3ea216bdab4870U, 0xbdf58ce6bebd94feU, 0xbe5fddb13e17a221U,
  0xbdb28f59bcf43e64U, 0xbe4827cbbd64618cU, 0xbe8ea2ae3ebff198U, 0x3ebb2ffbbe2c1c01U,
  0x3e7a48d6bd9708f1U, 0xbd7ed3583e440632U, 0x3dfab65e3eb9e331U, 0x3d97157fbdb2f39aU,
  0xbe4c11d4bdd17f11U, 0xbc10d3d13d6f17cfU, 0xbe078e52bc0fc970U, 0xbe40c6b5bd91b82dU,
  0xbd5a247abe6e2d9fU, 0x3cd64cc8bd7101beU, 0xbe4880923e429b53U, 0x3ec35f7d3dc0eeb4U,
  0xbda39e9cbe9b8e28U, 0x3e19ccde3bbd0be6U, 0xbeec593b3dfab041U, 0xbeb1d7f0bceff207U,
  0x3e5867733e963b96U, 0x3d46f5033e085b23U, 0xbe0b0feebc4d984aU, 0x3d7e98dbbe1cf7f8U,
  0x3d8de8c73d8e57c2U, 0xbdc01628be2095f7U, 0x3dc0e3b03dccecc4U, 0x3e9da56b3dd124ddU,
  0xbd74c2be3e3668f6U, 0x3d976ef5bd9e5945U, 0x3e21a3003e2b349eU, 0x3e2fac9cbd1956a7U,
  0xbe11c0063e81c90fU, 0xbe5d287fbd115e33U, 0xbe3001af3c2ba222U, 0xbe25c782bb93bc60U,
  0x3c74859ebe323ab0U, 0x3daf3170be0fb7d1U, 0xbda176183e28b8ceU, 0x3e30222bbd2a83ffU,
  0xbe39e6143e9dd78cU, 0xbd3cf8e63e4c8eeaU, 0xbdd56f2abd90c6f9U, 0x3e9134e23e170a07U,
  0x3e460a183dab3ac4U, 0x3b096225be074744U, 0xbe7f92ba3d85c0cbU, 0x3df36cd6bb938abbU,
  0x3da02062bd73c266U, 0xbe2b36ebbda24747U, 0xbf2c264dbebb7722U, 0xbf048fbe3e0bfbfbU,
  0xbd9f351e3ca37a5dU, 0x3e4b9a65bb2a6acaU, 0xbddee8c3be80eefbU, 0xbdd0b2d6bd6c9c35U,
  0x3d8b840dbe04d0d7U, 0x3d868c8ebea2c02dU, 0xbd753510bd38ef33U, 0x3dadde223d929453U,
  0x3e86d3f23e811aa4U, 0xbdab30553d03a796U, 0x3dd182783d3464b9U, 0x3e26dd9fbe0a3b7bU,
  0xbe325d023e17808eU, 0x3d75e66fbcecb95eU, 0xbe12934cbea8784eU, 0xbe0298f9bd3656e6U,
  0xbdc7f1343c279631U, 0x3e21a6423e29a237U, 0xbe2a57743da116dbU, 0xbc974592be8129a3U,
  0xbe02c197be5535deU, 0x3d27ac55bd222bbeU, 0xbabcdfeebc4a3a01U, 0xbe588216bbd8265dU,
  0xbe0c94b83d8617b7U, 0xbce6c5b9ba48521aU, 0xbdb34fe7be871b8fU, 0xbe63c5c5be360addU,
  0xbdceb9e93d4f43aaU, 0xbd943d47bd627f4dU, 0xbea46b88be300140U, 0x3eb8fdc5be0f4934U,
  0x3d39fb4f3e992c3eU, 0xbdf1c371bd69c63cU, 0x3da8647a3d954db2U, 0x3e0be426be050a5cU,
  0xbe0f24ffbe320f4dU, 0x3d973123be39be89U, 0xbde4deb3bdf99931U, 0x3bab447ebd78de63U,
  0x3e0a58a3be8b3c2bU, 0xbd3cb8f8bda0836eU, 0x3dfc1b9e3d3030cdU, 0x3daa91f13c11de7cU,
  0xbe22db65bd2725daU, 0xbdcfba85bd232863U, 0xbed1ed36bdeb9dffU, 0xbef6916e3dc82417U,
  0xbda1c581be7ccef1U, 0xbdd883e53e0f0c80U, 0xbdb58c15beb7c9a0U, 0x3defb4473e00738dU,
  0xbdf7b9d33dbeb66fU, 0xbcdca57fbd96242aU, 0xbe42f7233d9c71f3U, 0xbd9bc5403d95093dU,
  0xbe5adcce3e405722U, 0xbd9b71bcbd331f47U, 0x3e52d7b93dc34a24U, 0x3cdbbf82be25fbbfU,
  0x3daee3f2bd01169eU, 0x3dfe60eb3da0991fU, 0xbeb05dfabd308ba6U, 0xbee0b623be993cd6U,
  0xbe70a4efbe85c8d6U, 0xbd99b8a33daee013U, 0xbdb90bb03e3753c3U, 0xbcaca77bbe53f7e5U,
  0x3e15eed2be2e6631U, 0xbd850018be493943U, 0xbd07fe643dd51a44U, 0xbe8294443e1edcc1U,
  0xbb308355bea2d75bU, 0xbd8845fc3d485a4fU, 0x3e08a565be138317U, 0x3e935d57be1dd663U,
  0xbd4bf7773e15fb83U, 0xbe0518febd61d54cU, 0x3e408ba03d1a007aU, 0x3e41955cbd48b8f0U,
  0xbb13f8c4bc910057U, 0xbe483293be1c0c19U, 0x3e0800dc3e806bb5U, 0xbe803fddbe82816aU,
  0xbd0c51eabe067540U, 0x3d766091be76b429U, 0xbdcf83183dc8ed83U, 0xbdc6e670be27baa5U,
  0x3e231915be6d092fU, 0x3bfbb4bcbcbf8c2aU, 0x3ddf98cebdaf16e9U, 0x3d8011a2be399697U,
  0x3c6230223e934110U, 0xbd559b263e132764U, 0x3e23f0483e049afcU, 0xbedcbefd3e2b638eU,
  0x3e0bd6213e4b5499U, 0x3e2c11a73e2313f3U, 0x3dea2469bedbdbbcU, 0x3caad745bed2b187U,
  0x3d24e65f3dac95ebU, 0x3df91fef3db69defU, 0x3e5673763e30d8aaU, 0x3e011174be737a48U,
  0x3dc5fe5abe09b5fdU, 0xbd8187e5bdb77aadU, 0x3e7d5e70bd2d4330U, 0x3d867351be1b3502U,
  0xbe3cadf93e505471U, 0x3e15f0bbbd9ca983U, 0x3d8cd9d93e3c4ac0U, 0x3e70514ebe1b58f2U,
  0x3d93ae5d3c5f6f49U, 0xbdfdf698bd8d6eadU, 0xbe0921ebbe99e4e8U, 0x3cc6f5e0bd3f3f7dU,
  0xbe41e7dcbdab04d9U, 0xbe53cd08bd55a8aeU, 0xbe027a793df894a6U, 0xbd589e9e3de46e43U,
  0x3e0e26253b8346a1U, 0xbc9be35ebc839988U, 0xbd2043eebd8dee3eU, 0x3e0cbce3bde7550eU,
  0xbe3573fc3dbed502U, 0x3e3d49243d2509f3U, 0xbdf26b803dffe715U, 0x3e8e2542bd9e19edU,
  0x3d83bfacbdd3887fU, 0x3d2f2f76be0c6e08U, 0xbce72e81bd893f65U, 0x3e7927133d6d5f9cU,
  0xbdab7f40be03ae4fU, 0x3d990711be25effeU, 0xbdcc4e4dbdf8f11bU, 0x3c9973de3d6aa800U,
  0x3db93bb6bc1dbe44U, 0x3d8b55a1bcb6a0a8U, 0xbe3c4b7f3b8c7683U, 0xbe3e12263e65c15eU,
  0xbe043758bcc99b16U, 0x3d6e4c583b5d06deU, 0x3ed7c7f5bd90470cU, 0xbe8a49663c41c0ffU,
  0xbe865b053dd6fafcU, 0x3e11b5b13dd6ab3aU, 0x3de24cd73e5845d2U, 0x3e31b1073e1e24ecU,
  0xbe00a5283d89e78fU, 0x3ce48dc33cb6bf17U, 0xbe2ac772bdc338e1U, 0xbeaca384bdb869abU,
  0xbd24cb9cbe69288bU, 0xbd2b8a5e3dca3265U, 0xbde26e2b3e87e949U, 0x3e2886133e4a345fU,
  0x3dd5d8483dc5d3c1U, 0x3e5e080b3e071732U, 0x3e4eaff2beaa107aU, 0x3e6592f13e0f4f8bU,
  0x3bbb5bc53d8bca24U, 0x3e07ad783eeb4348U, 0xbe0b543b3da1a6e9U, 0x3c6152673d119096U,
  0x3d0ec0ed3d241d1dU, 0xbdcf4d403e31d859U, 0x3e3e4b133e090194U, 0x3d97e6943e159980U,
  0x3daddfcc3eabc1b9U, 0xbd546ed83de45fc0U, 0xbe0f05a73e69a0e8U, 0x3eb0752c3e31a3e8U,
  0x3e2e18d7be198f61U, 0xbe36ee3dbcd7dbddU, 0xbdaa41863e42b456U, 0x3e257a90be71ab2fU,
  0x3e4a69013e574ce1U, 0x3e145f73beafad5aU, 0xbc34889c3e78a47bU, 0x3d67760dbdbfa49fU,
  0x3d2c81f33dfdbecdU, 0xbe022789bd42cb6fU, 0xbc2c93dbbdcb9d03U, 0x3d8eee22bd919095U,
  0x3d8a0051bc3629a0U, 0x3d8f23e03d4ef010U, 0xbd534c173e1b2455U, 0xbe1c5b96bdc13f26U,
  0xbdeb99613e6699d8U, 0xbd768620bd61810eU, 0x3c0c39b23e03e202U, 0xbec3b1323d07a643U,
  0xbe210c553d2e24a3U, 0xbda768d3bdd9ededU, 0xbe0b4e4cbe82b49eU, 0x3e4822ee3d34c45cU,
  0xbe1f1d98bbec90c9U, 0x3d817c66bd208c47U, 0xbe3aabe0bdebf5f9U, 0xbd2030c2bd770e5fU,
  0xbdef1e053e0849b9U, 0x3d289789bda4f1d8U, 0xbe81919e3d093324U, 0xbeedde363d86e81aU,
  0x3e118128becba841U, 0x3e02bb70bbee7308U, 0xbecd3c403e004ea6U, 0x3e368e53bdb6335fU,
  0x3d941a90be0151e2U, 0x3cefc243bebca007U, 0x3d07e2b13d4c493fU, 0x3de276603e2d84fcU,
  0x3c93f37a3db0be94U, 0xbc7653213e13b747U, 0xbc4e7f08bdfe7f4dU, 0xbdb2564abe3a98e2U,
  0xbccd5c2cbe30ca41U, 0x3c841f223d3c365aU, 0x3dd42731be1f665aU, 0xbeb9d58dbde2c00dU,
  0x3de3acccbeedddcfU, 0xbdebe55fbde5bfd0U, 0xbf1f640c3e8a62ddU, 0x3ec58932be24c2b1U,
  0xbe0d710cbe1a8a29U, 0xbe81c72f3e16c212U, 0xbe131879bdeabce4U, 0xbd60cd743e0ff686U,
  0xbe0d8a363caa15fdU, 0xbc33685b3dd9a7abU, 0xbd6a20d03dc51564U, 0xbdcf96543e23b00cU,
  0xbd79db39bce049f9U, 0x3dafd19c3d4cc065U, 0x3d6ae1973ea5cba8U, 0x3edd50c8be2e79ddU,
  0x3e172c553d1922bcU, 0x3e16a7263ca8f6e0U, 0xbcf9bc5c3eadc418U, 0x3e86f7f23e3b51fdU,
  0x3d71bcd93e9eb06eU, 0x3cac0c32bdfe1012U, 0x3dc532f4be9725ffU, 0x3e32d3f3be8e486eU,
  0x3b4df0913d90c958U, 0x3d8c2aa5be1a2100U, 0xbe42afef3dedfd1cU, 0xbd8dee3f3e42053bU,
  0x3e3bc8193de0bc9dU, 0x3d20da9cbd9b51a8U, 0x3e6bba55beb29c89U, 0xbe319ba83c96f551U,
  0x3dc7b7b73e8138efU, 0xbdd124b1bdddee2bU, 0xbdaa3585be0b16e6U, 0x3ea85734be2ad654U,
  0xbcb9c3363e5c7625U, 0xbba02b873e1ef892U, 0xbe120a1a3e2c02dfU, 0x3d198d1fbe8235e4U,
  0x3d1d9c40bee965deU, 0x3e205bf8bdb2dc6fU, 0x3e00c892bd42bf16U, 0xbcbb42bfbe6cb76fU,
  0x3e3dd6813dae6204U, 0x3d9a291dbd281c78U, 0xbe903fc3be1cbf9dU, 0xbdbdbeb8be1b6a99U,
  0xbde2b62fbeafa735U, 0x3e1821d9bd2caad5U, 0x3e30b345be36e1e9U, 0xbe97c4123d2ea3a1U,
  0x3ca0ee9ebe53212eU, 0xbd1e3375bd716c1aU, 0xbe4ba49c3d98c182U, 0x3cbe6d2ebe0411e5U,
  0xbda48105be8c8517U, 0x3e28e002be0d13aeU, 0x3c856905bdc566e9U, 0xbc1f05f93daf6966U,
  0xbe4786abbdf39071U, 0x3da645023dcd89baU, 0xbe4eded3bd15b745U, 0xbef03988bd7fb6d8U,
  0x3c136ad2beaa119bU, 0xbd18ff393d5070efU, 0x3f27332e3df1b4c6U, 0xbe7e150ebdfbd05bU,
  0xbe01258cbdb71712U, 0x3dde07debdd99b02U, 0x3d336148be7a986fU, 0x3df79c603b1e91deU,
  0x3d6ab9913ce07cf2U, 0x3e08c96cbe62ab80U, 0x3ceb4a82be0e8b5eU, 0xbbad83953e2429edU,
  0xbdb2ba81bdf0632bU, 0xbd7ef9853d8b558fU, 0x3e633f88be1e3bd8U, 0x3db6d1b4be1df9dbU,
  0xbe170ddfbc74f90bU, 0xbe2cea95bc244f06U, 0x3e74627e3db4ee72U, 0x3e7924323e1ffd8dU,
  0x3dc6f6d03e122862U, 0xbc058c8abe6e60f6U, 0xbe33ee1ebd23dd39U, 0xbe1e82683cfde348U,
  0x3e0b376ebd1c5cccU, 0xbdbc0cc13c9ace4cU, 0xbd91a036bd8e6596U, 0xbd318adbbe0159caU,
  0xbdfb1bcb3daea369U, 0xbb74d7d53dcad5f5U, 0x3db2e8a1bdf938d7U, 0xbea57e043dd27e05U,
  0x3cb128b13d9d0f50U, 0x3bb9fb9c3a4afcadU, 0x3e5428c1bdf7282eU, 0x3ea672fd3d53535bU,
  0x3e4c57963d19c308U, 0xbd86a9d1be0a6609U, 0xbdccfe7ebe27472bU, 0xbde873d93d938a63U,
  0x3d1448a6be4c0c1dU, 0xbdce1a21bd6e6d5bU, 0xbe0abebb3c8c8553U, 0xbe6090223de7534cU,
  0xbe2c8aaabddbd2a2U, 0xbd93aaa13d98eb6aU, 0x3e718805be57d611U, 0x3de5e284bd41e4fcU,
  0x3d625d483e3d22c2U, 0xbdb48261bd4eca55U, 0x3f089c323efe4f41U, 0x3ea475b03e332024U,
  0xbe1197b0bd3d2f9eU, 0xbe2c6b9f3c1cdeb1U, 0x3d7f7f493dadadadU, 0xbe066c9d3e30a54dU,
  0x3c97fd4abd55cec7U, 0x3dce38fa3d2a2d68U, 0xbe7a4f823d357b54U, 0x3d815eec3c5db7f4U,
  0xbd7ce68c3e9d3216U, 0xbb8ef433bd8d8181U, 0x3c35cfe63e1c8a71U, 0xbeb07c903db6b47cU,
  0xbc82e09bbea8d300U, 0xbdb3843dbdb39c2bU, 0x3e070ad93d8c5360U, 0x3e8aaf1c3da3d756U,
  0x3d3df3413e63ab6cU, 0xbcd812ce3ea76e02U, 0xbdc900a73d97849aU, 0x3e0736df3d03d7f6U,
  0xbd042c6c3e140dfbU, 0x3e4c5b38bddc6a7eU, 0xbe55b5503d663706U, 0x3e99db513e21296bU,
  0xbe6cbf71bd903aedU, 0x3cd731bbbd8b6db2U, 0x3e7f09eb3e616629U, 0xbe93de903e41b98cU,
  0x3dda80363cfd21d6U, 0xba766dbfbbc32976U, 0x3f4fec9d3dd27ad9U, 0x3e9503423c8611b1U,
  0xbe566cb03c71051cU, 0xbd3e01ccbe7ee34eU, 0x3e12d6efbe93994fU, 0xbe1f0d833e766c1bU,
  0x3dc18a9cbe34dc20U, 0xbcd741ad3e334385U, 0xbd9b9556bd700ee8U, 0xbe4984823dc0f3a9U,
  0xbe0e015e3dbbe6c3U, 0x3c41f26e3da6c412U, 0x3e3c496ebd15b620U, 0xbe9dca0ebd934892U,
  0xbe060b4e3e8ad500U, 0x3d865a3ebd28a950U, 0x3e852853bbc66260U, 0xbe2aa774be431dd7U,
  0xbe112640be7c1c78U, 0xbe3d789b3c56917fU, 0xbd467b21be7f5c08U, 0xbd084b683de7da6cU,
  0x3e06be943e93e742U, 0x3e4c6ac73e231327U, 0x3e05a1623b96c13cU, 0xbe7f2fc23e5bb93fU,
  0xbde72c1abec67ae6U, 0xbd18fff13dabdecbU, 0xbe23f0973e7f89a2U, 0x3ed5c5a8bd9f92e6U,
  0x3d96c8da3e014616U, 0xbdbf655b3d5c6933U, 0x3e83113a3ec736bbU, 0x3e366c2b3e3e163bU,
  0xbc839c993ea4796eU, 0x3e17b048be7a2d5aU, 0x3e2967e8be0bb50aU, 0x3e3d886d3e3317a4U,
  0xbb388a403d30a7dfU, 0x3deb5776bc625cebU, 0xbd83fb893d515186U, 0x3e1904843dd54559U,
  0xbd21998f3d0cd475U, 0x3d708ff1bde6d5f7U, 0xbcdfdc48be957afcU, 0xbf23a3debe076676U,
  0xbddbb483bccfe213U, 0xbe2340ffbde17d76U, 0xbee0d049be60c788U, 0x3db1413cbe869d83U,
  0xbd30f40dbd68b79fU, 0x3e8878243dcbdcb9U, 0xbd7f68ff3e3a15d2U, 0x3d2d8966bd87e400U,
  0xbdb75b4b3e9c224eU, 0x3d941be4bd2ed4f5U, 0x3e1c2ee2bdc824c4U, 0xbe5721213e26b8b9U,
  0xbb7a20083dd49a25U, 0x3d5a6ea23db1abe2U, 0xbe4122d9bdc7da2fU, 0x3ec0d5b43dac0104U,
  0x3b27e312beb0ad6eU, 0x3e26e8a9be154b72U, 0xbef284983d442fa7U, 0xbf11ba993e7ad4bfU,
  0x3e04c42fbdab6367U, 0xbdd28c75be864457U, 0xbc9c45dbbde868e5U, 0xbe28f285be723cbaU,
  0xbdd3255f3d9ebe4fU, 0x3db0699fbe8427a4U, 0x3e43a5d73dc593f2U, 0x3d8110f5bbcc7f88U,
  0xbb0d8b333e8ac865U, 0xbd8657073cb7c137U, 0x3d9086ef3db9174cU, 0x3ea8a0c43e29147fU,
  0x3d2983173dd26c9aU, 0xbe3403e0be3ac192U, 0xbe8d8d7ebd13e75aU, 0xbed8eec73e722ad6U,
  0xbd3ddca6bddcc009U, 0x3e17d35cbe9b5926U, 0x3e1ad6eabe762e2dU, 0xbe061f263e10b465U,
  0x3e3cc2a5bc845c61U, 0xbe3ea45bbd94bfd9U, 0xbd9870b6bdaf118dU, 0xbdd4b0ccbb99cd3dU,
  0xba58018fbe34e901U, 0xbca715bcbde4ab1bU, 0x3d8734483c32399bU, 0xbe17b5f23ca09de8U,
  0x3e5bde4d3e07702dU, 0xbe56eb1bbe0f5117U, 0xbec2fc09bd32dc4aU, 0x3dbf9566bdc54325U,
  0x3de26001be3fb220U, 0x3db3aaa43dab90bcU, 0x3de2dcf9be35bc72U, 0x3e6d29f0be8d7efbU,
  0xbd20c3913e4f73f8U, 0x3d3015783d0e5372U, 0x3d672e4c3e066c78U, 0x3d5da0223e1d01deU,
  0x3da946ddbe057beaU, 0xbc0c9a69bd37d218U, 0x3e5362533e41207fU, 0xbef306713c57a4c0U,
  0x3d9b7549bece4f5fU, 0x3dbae914be0037bfU, 0xbdde7aa5be854bd5U, 0xbe0c5ffc3e01d85eU,
  0x3daeaf1a3dc8dc15U, 0x3dfa18c9bdf4abd9U, 0xbdd95f893e3908d8U, 0x3dbff00b3d5bcfa6U,
  0x3d4723a73da467e7U, 0xbc220144be045f72U, 0x3ddaba0d3dc20c25U, 0x3df599fc3cafa2ffU,
  0x3d7c2a693e7726edU, 0xbd2799bb3dff72c6U, 0xbb4b5f763e5fac34U, 0xbf083e1fbd88c8f0U,
  0xbe1ffbb23c8d4ed3U, 0xbe0119c4bdee551eU, 0xbea978dc3dee9cf3U, 0xbed25082be787075U,
  0xbe38d15ebdd52b2aU, 0x3d9ba1953d0889fbU, 0xbc00b128be43be65U, 0x3db1f3f83e15945eU,
  0xbdf08b1cbdc105e3U, 0x3cc02bc83da34060U, 0x3ca4feb9398b2e32U, 0xbeab1091bd982f6fU,
  0xbe3a7ec7bd81f784U, 0xbdb736b23dc0a269U, 0x3cf274d43e861eebU, 0x3ebe0a2cbd3dcab6U,
  0xbd5592103e85691dU, 0xbda0ba27bcdb75f4U, 0xbe7ceb3e3e477f98U, 0xbe028c993e460ef2U,
  0x3da4ce27be5c0ab4U, 0x3dd76a5d3db6a67bU, 0x3e1117f33dc30804U, 0xbe407234bd0f22a8U,
  0xbe078428bda932b6U, 0x3dcd90da3de26a58U, 0x3e1c11673ddea80fU, 0xbe37bf563d9566b4U,
  0xbdd24683becb7d0cU, 0x3d2495a3bd8f870dU, 0x3e80c4363d980b52U, 0xbee816fb3e38544eU,
  0xbd91ee16bda9fda7U, 0x3e470f4ebc39e32fU, 0xbea961df3e167d84U, 0x3e85990dbd077e82U,
  0x3d9c12023e8ac3d9U, 0xbdd12854bea07761U, 0x3e1aabdc3d097236U, 0x3d46969fbe508ea5U,
  0xbde7b9b6be7392daU, 0x3d0a5d1dbe6af885U, 0xbc22ceb1bd45ed0eU, 0xbe94659abce55df2U,
  0xbda1c3d5be9d8986U, 0xbd55c1db3d972b1bU, 0xbe6bf78fbe460d95U, 0xbdc3ee423d73c738U,
  0x3dc6fb3bbe94f0dfU, 0x3e6453183dc457e8U, 0xbf3d49e9be7a7fb5U, 0xbe7cf2663d4fca99U,
  0x3bd144c73db2dde0U, 0x3cef9d6fbe324442U, 0x3dda79143e8d1156U, 0x3dbb8a17bdfb1e61U,
  0x3e1a4e1c3db32636U, 0xbe0f21ddbe654bd5U, 0x3e0c80d5bdcbfd2fU, 0xbe48d100bb71df97U,
  0xbe378d043e2b77f9U, 0x3d430481bda02cbcU, 0x3ecd57173db760ceU, 0xbee9c5c33d9539a2U,
  0x3e05ecd1bde54070U, 0xbdb021f33c079343U, 0xbf5c328e3e84f157U, 0x3eb5b17c3d78158eU,
  0x3e5ce4243d5e25beU, 0xbd93c4a13d478dd0U, 0xbc95776f3c50a296U, 0x3d500164be884e51U,
  0xbe189e8b3e0c185fU, 0x3df98cbfbcc00954U, 0x3e193f80bdc4e9deU, 0x3e1015e13e17a88dU,
  0xbd542cba3d28b8c1U, 0x3d80f7c43d1715b2U, 0xbd925922be81c7f8U, 0x3ead69503c2888daU,
  0x3d53eea7bdbfde43U, 0xbd8ba3753d2ad87fU, 0x3e8d33373edaa109U, 0x3eae9bf0bdf0703bU,
  0xbe2f3d753cc0e420U, 0xbe311041bea9c6d7U, 0x3de3df61bd0a5e57U, 0xbe39ecf53d861ac3U,
  0x3d3e93603d9efc1eU, 0xbe058cd83b8a5b9cU, 0xbe1740e9be1b3cceU, 0x3e4fcc94bd81728fU,
  0x3cef472fbd8e1783U, 0x3ac98dd3bd9b2339U, 0xbd2d834bbbf7c440U, 0xbe208ffbbcb05a36U,
