/**
  ******************************************************************************
  * @file    network_data_params.c
  * @author  AST Embedded Analytics Research Platform
  * @date    2025-12-10T22:07:28+0200
  * @brief   AI Tool Automatic Code Generator for Embedded NN computing
  ******************************************************************************
  * Copyright (c) 2025 STMicroelectronics.
  * All rights reserved.
  *
  * This software is licensed under terms that can be found in the LICENSE file
  * in the root directory of this software component.
  * If no LICENSE file comes with this software, it is provided AS-IS.
  ******************************************************************************
  */

#include "network_data_params.h"


/**  Activations Section  ****************************************************/
ai_handle g_network_activations_table[1 + 2] = {
  AI_HANDLE_PTR(AI_MAGIC_MARKER),
  AI_HANDLE_PTR(NULL),
  AI_HANDLE_PTR(AI_MAGIC_MARKER),
};




/**  Weights Section  ********************************************************/
AI_ALIGNED(32)
const ai_u64 s_network_weights_array_u64[4625] = {
  0x805c7f00257f57U, 0x1e65c0e30fb51ad4U, 0xee3f37c54f280bdeU, 0xc03c51cfdfc6bc7fU,
  0xbf2ac812c9f9da34U, 0xfc3680dfd0e0f8f5U, 0x1bcf801f6acdb11U, 0x9dd931318e38411U,
  0x1edc031a2083c000U, 0x46ea5b3b3154f661U, 0x412a020622d51ce4U, 0x57fef33703f42ac9U,
  0x21fa2fdfc8e8ea4bU, 0xee202f3b2a7fed26U, 0xb4082f2af0d8c060U, 0x562464ebe8bc1c46U,
  0x13fbda08df270625U, 0x991bf4de3857dc42U, 0x3a0a5b8dd428973dU, 0x29befd17c486fc00U,
  0xf61a203a7f7d33fbU, 0x5fa595f46f3fc128U, 0x75af0a11e5d5bce3U, 0x807d02171dfce603U,
  0x35343dc7362204d0U, 0x9e895e6675b4905eU, 0x63853d81944db986U, 0x9581ad6f6e603053U,
  0xa350fabf120d6b92U, 0xf8d386c13fb4e791U, 0x8d8106c1433181b3U, 0xec081954b23416d2U,
  0xedea7f171118c84fU, 0xc99f473a377169deU, 0x6cf428162db48e2eU, 0x20f07f4a0826052eU,
  0x3d6f8187096fb67cU, 0xec256401325099beU, 0xb514149cc908e8fU, 0x2b64b2c25c7ffabaU,
  0xb65843fead987a32U, 0xe0569eeb7fd6a672U, 0x7fbfe4ea7fca06bfU, 0x5ef6f52fe861f41fU,
  0xc5825c67ff595e9U, 0xe21eb3943e36d9e6U, 0x1419fb37f1fab6b8U, 0x50f7d00a12a97f19U,
  0x7f154a5a2f5ef1e5U, 0x40fbb4f6fd581dccU, 0x69ab81995e2c69a0U, 0xcb6945a7ac174a1dU,
  0xb958d67d97fed981U, 0x3fdaa17f718c9e70U, 0x4ff137d649e39126U, 0xbcf8bc8efa3e4d7eU,
  0x21a1580ffe138167U, 0xb97ffb2c6e3c9e09U, 0x6895f54d361f64b5U, 0xdc460a5db9819abeU,
  0xcd8100861d0591c0U, 0x5665fd4eb8f2c095U, 0x15dff274a73d654aU, 0x49b7392e43bbfec5U,
  0xeef9d6417596a27fU, 0xcf4e81269237bb15U, 0xade2790964e6836cU, 0xede181152bcd06a8U,
  0x7fd2f553a687c147U, 0x6905b294c5485da0U, 0xe3c7d67f5c1da56fU, 0x340252a572f9bab7U,
  0xc701299639b3f290U, 0x51ab8e2c7212537fU, 0x91e7f21beee814bU, 0x54af75d04c270d74U,
  0xb305a1f5342b500bU, 0x24aa1bb663cdcb7fU, 0x73c222169bd8ca7fU, 0x8141ab829d8ebd5aU,
  0xd9a9ff6843b1a658U, 0xce008d7288541e4bU, 0x7f0d2bf739b5efc2U, 0x8c74e6947d0c7fa7U,
  0x25dbe4692bba5df4U, 0xffffff63fffffd2dU, 0xfffffef000000027U, 0xffffff26ffffff99U,
  0xe600000022U, 0x109fffffee2U, 0x1fc00000359U, 0xffffffd500000178U,
  0x1b300000167U, 0xfffffefefffffff8U, 0x1d4000000dfU, 0xffffff6000000079U,
  0xfffffea3ffffff27U, 0x318ffffff84U, 0xfffffdb100000030U, 0xfffffe61fffffff4U,
  0xfffffe66000001dbU, 0xeba6efcd020d229U, 0xf33fbf0fc3f51a34U, 0xe4dbcdbfd81a599aU,
  0xe5eb0734fc53df81U, 0xe1bd4d5e14c3d000U, 0xe3c4ed05e01ecc47U, 0x48e4fbe0edfee3d1U,
  0x3727e91fdc1bd5e1U, 0xa508ca2b2729ebe4U, 0xcd15e8c937fa2319U, 0x8dc124df1de08dfU,
  0x20bf02faf4ecd001U, 0xb7024b32e6fa0003U, 0xea471c0807252c18U, 0x53291f0911fd3fc6U,
  0xc203b5de2dd3382aU, 0x11215e2730930af0U, 0x4a2c053f2c22e110U, 0x1213e0bb0623ddd7U,
  0xcb2ca8230b314649U, 0xa2a07029fafe3f0aU, 0xba25d41d564d590eU, 0xaa24ce9aff3c3701U,
  0xfb4125e9425ca18cU, 0xeadc4ec1393bef0aU, 0xbc1df6d2d6f1fabdU, 0x9f23b0fdd5e9fafdU,
  0xe42c2e49e65a46cdU, 0x9de8712c1222bd44U, 0xc1d83b1a2deaa8f7U, 0x9b67d2108fe331eaU,
  0x124e3fe71324f21eU, 0x362a7fdb4eb50807U, 0x878931061638c7c2U, 0x9a52fcff09af2c49U,
  0xb9c242ec425dd0d8U, 0x3be825edca531ac0U, 0xed18fbeea245d0f2U, 0x93cb5bad59231d22U,
  0xfef55a15424a49ceU, 0xd39724b3fe66f4f1U, 0x1ea9bbe6554de22dU, 0x5edf8657f9d92438U,
  0xc571ff08c6de3699U, 0xcf50f614141bfed6U, 0x6dd5c2cd1160d5c2U, 0xdfef4cd6bf49093dU,
  0x55fd3d16011ce158U, 0xe50be0c711ed21c9U, 0xc2f833b89ccce1f2U, 0x4605fe292fdfdff4U,
  0xfae25aefc3c3b421U, 0x4fe2e64442d0ed3U, 0x4120f54fc6d7a1ceU, 0xc6e832101bd8d27aU,
  0xc8bed20d263308ccU, 0xec064b3df2c136c6U, 0xcc14ceccd10c3f05U, 0xb67f11f891630fdfU,
  0x52c5c5cc4adf22e7U, 0x13fb590842e23208U, 0xe0d00282fae47b3U, 0x19b5dccbdaedf463U,
  0xba4e1ca17f946720U, 0xcc4afd3acd36ebaaU, 0x56fdfa2c292c27e1U, 0x285fc2588dcbe073U,
  0xd551cc0cfdccadc7U, 0x98e359d4cf37f014U, 0xea4977f00c183fb5U, 0x183a23a643abbb25U,
  0xf417f3969c012d02U, 0xa5f9039c5e380de7U, 0x15d755c7c11e4071U, 0xc803e7df113bf01bU,
  0x1168e8f94692caf8U, 0xbae3ec1603d6cac5U, 0x48ceeda2cfaee3acU, 0x27e666404320e776U,
  0xb49fc0faa4c9fbc6U, 0xc20deb07f31f2d14U, 0xf3a1f9dd1afdfaf9U, 0x20511a57ebca2fecU,
  0x42b802ddde991751U, 0x97ca102733ddca4aU, 0xcdfde69ecedec5e0U, 0xed130add46c3a9abU,
  0x22e2f843d4ee3835U, 0x259dee04db463c45U, 0xee991fa5d7b0cc03U, 0xe6b34cf18272b81U,
  0xbb2aab9071440c6U, 0xf6ed18c0b32e440bU, 0xa3827a730e533c6U, 0x56072d0bc236b6f7U,
  0x723f68f22e931ebU, 0x3d0bcf890fbad2f4U, 0xb9d5d9e11bf0f7efU, 0x6c700c6a88b3d94U,
  0xf8a324b133d09307U, 0x1e16b63edcf4463fU, 0xaa4c179ca720291dU, 0x1c5bddafd2f73083U,
  0x4ec5072f11fbffd8U, 0x3636dfd19f2eabe1U, 0x16fb37e9c33c15b9U, 0xfafef032ecb71503U,
  0xc0a6bee3bf11ec0fU, 0x1b171daf51cceeccU, 0x4417083abbd9c7d4U, 0x3705270a7f0700b6U,
  0x30d2abcb2f0d2b6cU, 0xac0b0142e83912d8U, 0x1a2c10b445dc1ac6U, 0xe6f919eee52e3587U,
  0xf01deac926f9ff1aU, 0xf5301e080f3df919U, 0x32c8c110f6f6f276U, 0x3d3c05368948f011U,
  0xadc856204d14998bU, 0x25f511fdb104acf2U, 0x22d5fecf0aff14beU, 0xae222e3eafb92626U,
  0x371ec7345446459bU, 0xcf3a2b6b0f3c02ccU, 0x383159fcaf8bb2c9U, 0xeb1ac61f1925d8bdU,
  0x1de4aad20eb83010U, 0x8df9cf564bbc452cU, 0x3b3aec4ef3362adfU, 0xb2ddf0e2ee10cffaU,
  0x21d4b6fad0d11415U, 0xe8a10dedfa3fbadaU, 0xe6390fd4b1eb2a4cU, 0xe31806445d15c25cU,
  0x2fc83215ed4ff781U, 0xf22143fe27c2e1f0U, 0x2522792accae9b07U, 0xeff54f0bac2bbd4eU,
  0xaf1e4f49efe86f08U, 0xc42887c909bdd3c5U, 0x3a37f74581920f08U, 0x44e005a95042bd48U,
  0x1b3d388f049237c8U, 0x5d5d4cdc02abf09U, 0x3411b8b20441becbU, 0x1613de23dfd4c115U,
  0x1ac70cfd0cb3db1aU, 0xb51cd110e31d0efdU, 0x2afec13ff7e6e8cbU, 0x33e6c6dfc544d3b7U,
  0x409900c3d63c21d3U, 0xfc23510da2c6ef1bU, 0x15dbce99fa14d104U, 0xa61c2ab1d3bc0a2dU,
  0x2915b637b3f7f537U, 0x2fe3f00c5f31b20U, 0xbf1936e3b003a307U, 0x17db033531ed2802U,
  0x1b3b9ee1f3f0352cU, 0x62b1eb3c8c24a3d1U, 0x18284338a7c65f4aU, 0xdc3febfabeaedbabU,
  0xff52d22931f13fd0U, 0xcd51a222a3a096bU, 0x509470c8e7d3f3b6U, 0xeba3a9b25c10cbdU,
  0xd301e9163d0547deU, 0xba209b2152f3e049U, 0xe55c4267e75713d4U, 0x267d71b22bbe02dU,
  0xeeb814089b32d0cfU, 0x3fcd1236acaeef1fU, 0xa8cc3f401445b1f4U, 0x3eb9203f90bb3326U,
  0x4b5e4c675945f903U, 0x65165b4aabcb09b7U, 0xfa4a4ab0077fd764U, 0x5e14f901c867bdb8U,
  0xb2385a4c03d7a93bU, 0xe730cacd1711cc23U, 0x62b45f2b7d40fedU, 0xf7deebc5b122ab61U,
  0xd112249eec91edd6U, 0xf1073d231f8bf6f4U, 0xc9b6f606dcf4c954U, 0x24f9d50a04ea810dU,
  0xdb9df2fde7a00a30U, 0x3f24aae9de86bf4cU, 0xd7f64b33340728c6U, 0xeca43018d1a0a055U,
  0x251e08f633eb36bfU, 0xdd10be2ce98d22d3U, 0x19cc3240c8d5ad58U, 0xa107c41242f52845U,
  0xe2bd0f0018ead829U, 0x2514cdced41ef03bU, 0x2a3ce6da9ff2f3acU, 0xcc1fc81315feffa5U,
  0xeb23a911d7f23df9U, 0x3cf2b21537f3f5e6U, 0x23f629a7142d3509U, 0x177ff7f524e8f229U,
  0xe818e4f91bf504d2U, 0xa219051250ed1930U, 0xdf021ee637e808f6U, 0x42102bede615461aU,
  0x1ee75005203bf9b2U, 0xf5dca53cdb252424U, 0xe180e46fd07403fU, 0xb9460615dceb1dfeU,
  0x37fa532c24ff2ab5U, 0x3943f8d72debc03cU, 0x3a4231f3d040e2dbU, 0xe326d1fc0349c642U,
  0x27cc1810eece3f4fU, 0x32fe3ff1e4fd0dceU, 0xd712232911dcc4ffU, 0x13b3dbca4ed6f2e3U,
  0xfce728f40438c0e4U, 0xe9b2cdcde9041552U, 0xff0f32bcf308350fU, 0xfccac4b7ed0f2dccU,
  0x5ba8c8a2ec1ef9efU, 0x20c2b285c7bcfde2U, 0x3fbdc2fce4ef03caU, 0xdd00fd09beed17b1U,
  0xd9fdd220ca2c38eaU, 0x942bc9dafe1ef8fcU, 0xeb37f40b252e16edU, 0xde2a422d11e33d43U,
  0x2e0b3f4cbec5ba57U, 0xaac492b8f1f5a034U, 0x4530571eedc04311U, 0x3de3042d0cfbd4deU,
  0x31355323cc3a3f20U, 0x3e9aaa11f3e92997U, 0xdfc1f1163ec7caf7U, 0x1516fec3321b2ab8U,
  0xbf7f3de12ffa3dacU, 0x37051b6186085332U, 0xcbf2314ecd2a9a14U, 0x9bcf7bed29be7f10U,
  0x38c38ed0d8cf2ce8U, 0x11d1adaba21ce13U, 0xe82cc7381c0513bbU, 0x2dd6eb46dae04723U,
  0x90223bb9103ed6bbU, 0xf0bba3f5e4ce19c7U, 0xc7beea27df93c1b4U, 0xc14714280bebd0e7U,
  0xe53082f76d0064efU, 0xdebd099c014006adU, 0xc9c1e01fac074a2bU, 0x2041d03b3e38f3e6U,
  0x3619b888e1df3b01U, 0x51ae1399a5b4082eU, 0x911b53c925ef6d3U, 0xeab412f4fd036d18U,
  0xd40ab0ecd35ef250U, 0xa3ee25d0e8152214U, 0xf06d908edbae014U, 0xeb0a4abca516d461U,
  0x12a551b8f241a841U, 0xf505fa0408e9cf02U, 0xec0fa04e38191022U, 0xedbdfcda5fa7d8f5U,
  0x120dc915cb1ec824U, 0xe1efd13b97db3642U, 0xece8f4034ac4e20bU, 0x33402fd15022c8f9U,
  0x3b37e02eaec7eaf2U, 0xfb81f1599c02c827U, 0xc04ccecbcae48cfdU, 0x54b428d841c1f012U,
  0xa8b34ce6c8d9bd2aU, 0x11f715d5fa26f902U, 0x37015a035d2216efU, 0xf4a39f711120805U,
  0x1405553ce60ae719U, 0xf19240ec4afedd40U, 0xb92fbfe0e281c8e0U, 0xcfc5aaceefba0e3aU,
  0x435517d5fac8680eU, 0x2845ddc7f9224cb4U, 0x9e0b3d45b80003b1U, 0x8cec081cfe31d2f4U,
  0x7ba4499c5c41f24U, 0xbef3352815f1e150U, 0x90dbd82416ad1e4dU, 0xa70737f9eddc3cb8U,
  0xa5f4b538d63e131dU, 0xd132cc49c839c3c7U, 0xf42761f949182557U, 0x3e3e010b0ac81dbbU,
  0xb1fee1e0edf2e5acU, 0xa655441d37e2ddeeU, 0xebe73340d12f3a3aU, 0x2dd2ddd3b81b0233U,
  0x2d2633ce9d2dcdcU, 0xd81dfa0bee1cbee8U, 0x3263d1bd2d823feU, 0xa8204d044c5d0fcbU,
  0xa4c1153b15a34124U, 0x197f55f30f07ffe1U, 0x1de942cee3dcf02bU, 0xcc402ebeddcaeeb5U,
  0x2006181ef541fc21U, 0x2df650242d4dc7cdU, 0xdad8fe2b40afc3d2U, 0xd149c3bd26d8ca2eU,
  0xbdc2dfd9dfdcba23U, 0xfa1ed5f6ff2f28deU, 0xf738cbf89c17ec1fU, 0x1eae9faecfffb80fU,
  0x2eb7a90bb316d416U, 0xf540cac9381320e3U, 0x1f294f4cc8cd24fcU, 0xd9f2d8e75524422dU,
  0x5bc4b18434cb12eU, 0xe1c4f11b30200a4aU, 0x20df30db0b3d2224U, 0xd7ede53d25f3d037U,
  0x19d536d630bac608U, 0xfbc0d93c0c47a5d4U, 0xe524e6d425dbd804U, 0x1d0c2938dac8f7f1U,
  0xc0061f01ff23e71eU, 0xc8fb24d30804fb0cU, 0xe00b01dd1e0e2d28U, 0xd7c1b61eadf3cb12U,
  0xe833190a101ceebcU, 0xcfecacfb4addb212U, 0xfcc90ed4292d2d00U, 0xcc05e8191b1abdfbU,
  0xea03ceb21eb203b0U, 0x8110f9e410d7caf7U, 0xe1e7e5e725cecd17U, 0xb9defb369924eaefU,
  0xe718fe11fddffeebU, 0xdb39c9f86f0320e4U, 0x2bcc26df2793ac37U, 0xcef6583b0a1230f8U,
  0xc5f81a2cf6f6a553U, 0x34b41bfab4491eefU, 0xcb8e4f0c0c61d9f0U, 0x41f31637efd7e751U,
  0xc323bd3605caee21U, 0xdeecc4e7c1dbc32cU, 0x24c49f3126356041U, 0x22d11b35571d2ad4U,
  0x275a21f3c86e2703U, 0xdb85a9e3c40664daU, 0x6a13e50fffd0e7b1U, 0xd9bd03a018eeb8a8U,
  0x1ee4349ed3fa3fcdU, 0xbcb912554f2e6be7U, 0xb5b6a857087aabf9U, 0x34f0d24181ddc50dU,
  0xe8ad9f85facde347U, 0xc43d17fcfbb74d1bU, 0xa6c2f2df202ee526U, 0xca1b07cf0f0d0dd1U,
  0x21e8d516dff6b5cdU, 0x1dfe3ff50a30ffU, 0xd0f3c014cd1dc607U, 0x9f1cf5ed02f831e6U,
  0x22cdca0f03341ebU, 0x3d3cd6dbc3c8e82fU, 0x17471fbff34fc5c6U, 0x600f9e3e2d70ef0U,
  0x49da03002d0cbb26U, 0xcece23c2f171421U, 0x294441cf181fdfceU, 0x8de2ed6fbd0bb2aU,
  0xbac700c41f0a21cdU, 0x7fdc3dda30cbdef3U, 0xd9c02af6e4e0b6d5U, 0xc8dadcd6f0d5daefU,
  0xc622e3aedf07f95dU, 0xf50208d6f11c2cfcU, 0x16101d0a30ca27d2U, 0xff0fdf16f4cc09a7U,
  0x122de4d7124d1e30U, 0xc9da041e37e8f913U, 0xee2df50eee3f470aU, 0xffd51fe1db0d34f9U,
  0xe21cecfd3036d9eeU, 0xfb024b0416f03021U, 0x130eeafafbf6eb00U, 0x301be4dcea1adaf5U,
  0xfc0bd6292bfe38cbU, 0xe9d0cd3dc72820e9U, 0xe64d13d221f0f0fdU, 0x11503e213282611U,
  0x2be303ccf2f6ed16U, 0x81f424d73e032c2fU, 0xd2e4e9b742f62a28U, 0xd9fc1ffdbbed0627U,
  0xf02648e04209b2c7U, 0x140fa41339d981c4U, 0xa3444e9538a1fddaU, 0xa0bbe8f6d52357a7U,
  0x4f5bf4b9f7dec937U, 0xed33f676d925090fU, 0xe7e2e9ef482cb8dbU, 0x3ead41bf1ac342d5U,
  0xd042a9fc4b09b0beU, 0xeffd65df4fe188e9U, 0x213f320fa2fb5859U, 0x34f1c42c464dfa12U,
  0xcc59051bc7cf19f6U, 0x18ee243a1525d724U, 0x1aed57dbc9336d11U, 0x3a55e2e5b9f3049aU,
  0xdae6be0025bd48fdU, 0xe8e8c8695860bdd9U, 0xf7b9dec4b4ccd55cU, 0xfd31284194f93d17U,
  0xab0742e3fc0f3f15U, 0x30d130b02271c02bU, 0x6cd8d3c0d005280dU, 0x7bc2ad28b61c3f00U,
  0x7d6d5327604a5dc2U, 0xc6a9f4e93806411cU, 0x5d26229827d07fb2U, 0xbb233ced6a1a63aU,
  0xc0f84999e826cd25U, 0xec381cc84bded441U, 0x5620bdaee1901d3U, 0xbe3fdcb8302a3609U,
  0x104cf825cc9b10e5U, 0xf5c4f05850b347efU, 0x893ce81e5612fa32U, 0xfef0111823a05f35U,
  0xd62552ad26ec3fe0U, 0xf1e1ffc02299bc44U, 0x312dec53efb905f9U, 0x203338d8b0a6c0ecU,
  0xd134142b0e4c0ee4U, 0xe092edf8f7d71111U, 0x57e98198f9211403U, 0xc1ac30e833f9e94dU,
  0x1c4633f7eec35bcaU, 0xbb8eeb0a49b5f4bfU, 0xbe21b1506a8e9cdU, 0xdcf41cdd0412b105U,
  0xc2c233180cb0cdceU, 0x370321e541f1de4dU, 0xf027a123bac912e7U, 0x18b438a933443d07U,
  0xa7b0c8bdeaddbf57U, 0xf92c41e7ddc90562U, 0x1bc44c1c38bf13e7U, 0xb2cbf4f34ace3f0cU,
  0x4b2ef0b712efb959U, 0x3ed66755a9d323c3U, 0xa5d2dfc44241c757U, 0xd6d0cc72563de2b6U,
  0x190cf2fab54004d7U, 0x7d55be37c71fe7f1U, 0x7dbbb5f6cd1d3bcaU, 0x1bef8a6a800eb1fU,
  0x174620c251e43816U, 0xeae23bc7a3b423f7U, 0x23e6a617f6cc2fd8U, 0xdb39479e433aefcaU,
  0x462018c80d0f2e3fU, 0x86ce1e9f3d03eaddU, 0xc5c4e430351a87b3U, 0xc80c182122a75991U,
  0xbcfb0a361abe3fd4U, 0x44b4c707b6ea6a34U, 0x4a27dd1b81241aU, 0x11d6f81ae6b7a637U,
  0xab1abd12ceb3c201U, 0x19330bab0f45a655U, 0x4f2255008de105U, 0x4405bbdc1fe52442U,
  0xaa2c18f3ae4bd5c3U, 0x5e81513b2e57ceb5U, 0x143f0fccb8f3cd2cU, 0xbdd9d45ae8d16c09U,
  0xaeb21bcead67d42fU, 0xa7f761c9b3300203U, 0x4afc2fd21f22f09eU, 0xce94ec00feae097U,
  0x26b41501a13ebef9U, 0xdd56e50d42e6364eU, 0xef020448221dfe1fU, 0x321e48460929dbc3U,
  0x29c75034debe29ccU, 0xe611a7df2009c031U, 0xd5bfd1debd00095bU, 0xea10eaf6284d16bcU,
  0xe1531dea27fd1b1bU, 0xabb4a1c4aec554c3U, 0xdacabb77f5deb0ffU, 0x1bc21f3cd11bac0fU,
  0x5f4a06be509604e4U, 0xd1095476971da209U, 0x71050a272bac7fe1U, 0xf71744f7b106fbfbU,
  0xa632cb610729f726U, 0x390bcb78d9363dd4U, 0x145066ddaad443b4U, 0x36bb252c242a51b3U,
  0xbb1bc5254414b848U, 0x38ed2f76020b0030U, 0xce2b3ceadcd80c29U, 0x242f2907e2fae8e1U,
  0x54d109da3ec23704U, 0xf7d2e33ac326ed91U, 0xf1d309a08c155d00U, 0x56550bdef3e7b5f5U,
  0x46110cc22455eff8U, 0xd2d3e9f2d2cab8U, 0x122f0812e90c4133U, 0xc1258ecccc1fa9fU,
  0x4eee4b509a01eeb2U, 0x9a199f445dd52afcU, 0xfe5bd2f39b654ce5U, 0x3037abbda1c8d290U,
  0x8ff4d3d70da810caU, 0x395430e61c2d0ffdU, 0x282bf7ec011ee1c0U, 0xbcb7e45bdeb09130U,
  0xf75481243c0f1ce2U, 0xdedeb02c1932ded3U, 0xd145262044cd2405U, 0x19ff211620f28745U,
  0x2a9ca62eefd60b8U, 0xde484c09731099daU, 0xd25f0cd03f527763U, 0xb43cea2b477351f5U,
  0x4244c6e296b5e710U, 0xb5b043c14c7fbf2U, 0x86e611414d24106U, 0xedd035c11b1ece37U,
  0xd7df38c854164b2dU, 0xe121192bd4da32e9U, 0x8e63d4427172915U, 0x2154fd35cb1229edU,
  0x18d2a320f3bd13a0U, 0x1d15f3bcec15e1c8U, 0x56f90fc24f331db4U, 0xad3fdff1b6bf4b0fU,
  0x101fb00409f84512U, 0xd8531f24dafc4be6U, 0xa136651100b6e10eU, 0x20dc063bd8db2414U,
  0xfee7332216d10cc6U, 0x2621f434c1f84668U, 0xe80236f8fa29ec2eU, 0xd3322905e0e9bd60U,
  0xddfa4734c107e33bU, 0x977d81d70af6ffc8U, 0xf8d7d4c2f714ed2fU, 0x45ef3403ff2a1360U,
  0xf14d1918adb1c9U, 0x7fd055472cfc50a2U, 0xf338a007f133f6c7U, 0xcfbc5feb37cf4d02U,
  0xce3f11fca3f00640U, 0xb324925c03406d7U, 0xb5f837f1b92342fcU, 0x30472b060338121dU,
  0xf7b660db1920dcd8U, 0x506bcfde064d2625U, 0xb1eb311a060e085cU, 0x515af02eb05a6b0U,
  0xd0352005cd540bf9U, 0x74242f0ac52884f7U, 0x1427bc0a07dbcc05U, 0xf908d70f5daee521U,
  0xcac753ce023721dfU, 0x564821dc2f08d303U, 0xea0ff4c53834b6fcU, 0x4812dde850eeae19U,
  0xd82616f720e82318U, 0x28eb33f92d4181d6U, 0xf71eeb0239f8d62fU, 0xc92c2af53c16d8eeU,
  0xd6bac905ea2fbac1U, 0x26d420c30d38aeeeU, 0xee7fcc9dd2deff4U, 0x2d3ec2adaf7d2cbU,
  0x1bc9e7e73534b2eeU, 0xe0c031c9f823cdffU, 0x700f41823053e07U, 0xc919de48ffe608fcU,
  0xb2d1ffecb3febf8U, 0xebbbe942410007deU, 0x2a04cd32f8461ec9U, 0x4d6daf01d2419e9U,
  0x9e915eb3a17c920U, 0x20fb4612c409c41aU, 0xee10eef9f4343df3U, 0x3b0026efef1d3ef2U,
  0xf0e7d1e3ec113f18U, 0x969369d31e3f001U, 0x39f3d816c39210cdU, 0x4d5c70bc50aee00U,
  0x7f690110cca94c33U, 0x2919de96bedaf917U, 0x3e2116f35c3bf7ecU, 0x37ceccefdcd3bf04U,
  0xd43038f21996f2e5U, 0x5626f41133c6efc3U, 0xf3fdde46233d8db9U, 0xc9f91013e6c9df11U,
  0xa4f21910e1e34604U, 0xbbc9d7eac1e7e5e5U, 0xeacb2f333a25a4fcU, 0x4cca5f022d301b0bU,
  0xfa9b5443f01b635U, 0xe92e214ae515edafU, 0x6adff7e4e2352024U, 0xcea73c3f3e2c3dbeU,
  0xc7beb90523707436U, 0x41064c16d24ce053U, 0x58f54df4949cf381U, 0x8a1b919a2c6f036U,
  0xc5f01ae7c6e9cd19U, 0x482433930002fd2cU, 0x9fdfe80d25e81437U, 0xe73f20baf51430b4U,
  0xc817e7bcbdec0614U, 0xcd1baf35cd00650fU, 0xed47d4d211b9e526U, 0x64cefa8063647b7U,
  0xaa1b20b21b2afbfbU, 0x8e07e566f0bf43d9U, 0xc51deb5e6efea4dU, 0x8546ee2e2aab1e7U,
  0x2853a0d6ff11c10cU, 0x1e20de0902bc2803U, 0x61d9b3e4b2582a60U, 0xd8bb3fcc3d07f453U,
  0x6bd125341bc1cd52U, 0xa90fdc46c6193208U, 0xe6030ac3113123b2U, 0x38be5c9dd142d0a1U,
  0xf1912dc21d4ed41fU, 0x9d71d143fb71433U, 0xca4a1637bbd8abc5U, 0xdeffc4c9d3200dd3U,
  0x9217f471a728d2d7U, 0x2eaef314250f36eaU, 0xe8dbeca6e005d91eU, 0xc4edfd33e2b5d8e1U,
  0x3a1ac9414113e1fdU, 0xef664316fbf7e8f5U, 0xcf3414cac8ea31deU, 0x2fd4d62eaa32709U,
  0x11f6b92a1b4e2fc9U, 0x9a37f7563a0dce45U, 0x51f5c744f8f8127fU, 0x2544051a35ed1843U,
  0x4f27254d15ad0eaaU, 0xba1051f8e8c46b19U, 0xd7adb1b2234353dbU, 0x2fcd8d556f29acbU,
  0x2ca3664e981ee10U, 0x28399ac91ac9cbe9U, 0x8062feeedcbdf57U, 0xcbe055f10bed8bbfU,
  0xb75802d3cae9cba1U, 0xdc17f246e8f4a730U, 0x29e6bb251ee4f9e5U, 0x1024faf839b8ecf4U,
  0xf414b341563114b2U, 0xfa6f09dd135eaf04U, 0x414b173b3204fc4cU, 0xeae8f603faf1bf22U,
  0x1f415bc8d640b8deU, 0x481a551fcbf2a4a5U, 0x2beb20f234cfa646U, 0xe6111fe8dd1cfa23U,
  0xfc27fc54d1d75689U, 0x6825213db4e28eb3U, 0x3daf63cfcf4f19a8U, 0xc24b44d69e07d7d7U,
  0x30f71ec3a5bc4e6bU, 0x722c60947b79f5cdU, 0xbfd4f856e5a9e15fU, 0xe2bdbaf6eb375acaU,
  0x374dad56a17343f1U, 0xea07b1a3415aef49U, 0x4419e1dae402f140U, 0xa847a3c43bb97bebU,
  0x151b5dacd025701eU, 0xb5bfc673db065540U, 0x144c72a1baf63ae8U, 0x77b01b2ccb56a6c7U,
  0xe5e5d6be4890a2efU, 0x4de4dbcfe016160cU, 0xc2ffafef60d5e981U, 0x4327412e4e9c8f6fU,
  0x964dc9b1b7f0a7c6U, 0xf31de4ab56c254c2U, 0xfc32c814dc93f1bdU, 0x2a233254fa0913e1U,
  0xcc7febda2a59cbbdU, 0xe54adcc6e012e63aU, 0xf19b8a909be372eU, 0x2425c85f2c154d20U,
  0x48b9cccb4d32ee18U, 0x9ad4f049f1a86543U, 0x2f0c0f0feec2365aU, 0x54490bd6f3d8115aU,
  0xbc3931a3da2539e2U, 0xe5cb3e47d1c53b4fU, 0x41eabeabcb47c3b2U, 0x165ff8b20da7f2c8U,
  0xcd6706c3e53818c1U, 0x4ebbecd0f5fccc0fU, 0xd47e6dc7d8e4313bU, 0xec384e3de3a1d046U,
  0x42ca0cbf59c7a643U, 0x42f64ed3e5e84ce2U, 0x5d1e0e3b98591ff3U, 0xe7da2156884451ecU,
  0x4a81f8aeddc9bd21U, 0x9eead0f3d1e80adbU, 0x42c32e18f655120aU, 0xaae0c8b0cf43f707U,
  0xba1a4abbfad6bc0bU, 0xc720ece73ffad91fU, 0x9dbe673f399dadfeU, 0xd31899b304b9d562U,
  0x425bffddf51de1aU, 0xefdfd1ecc500dbfeU, 0x3135bb482145cff5U, 0x38f613480bf46c07U,
  0x5d19d1fa291d2e1bU, 0x71020e863e9c5e4U, 0xb6e2fb9516fe4f44U, 0xc1f01fe73f34f92cU,
  0xd7a5f9e5d819125bU, 0x23f116fadbafcbadU, 0x3f0e34c0c5d3a8fcU, 0x4a704814e027fce2U,
  0xe822580ce73021c6U, 0xa94c1f11290c5247U, 0xbea8211de9acf2dfU, 0x2303423af1f852ceU,
  0x3c2dcf07b115f70bU, 0xfc0421c9193b27edU, 0x14f61ce6cb51f1daU, 0xe3dfa44a4fdf06aeU,
  0xe1bb554648599a3fU, 0x8ef4e4c5fbb6ec3aU, 0x645902068735adc6U, 0xbe2eb905c547b4e5U,
  0xf61f4d16f4f1e31dU, 0x18df84bca147231aU, 0x15ca23d4f1aa0281U, 0xf2c32ade891ca040U,
  0xa4a19e9ddb92fb4fU, 0xfbbfe70f21b2020bU, 0x29faa52f00d805d9U, 0xaef1d6b817c84d0cU,
  0xc0e1213dc0f8d5d2U, 0xd5dcca1ce3dbaa1eU, 0xe13638f21fc249c3U, 0xc445371ed55ccabeU,
  0xcbbc0559dde8ee17U, 0x3845cae1e41f81eeU, 0x1523b4cdaf3029faU, 0xaab53c1e102a340fU,
  0x10ce42350afbcc9bU, 0x2344c95104bdcdcdU, 0x364b39d0f827f8eeU, 0xf8140fd4d3f622d2U,
  0x57273f35eee3224cU, 0xe14cf9f8d2c7e61cU, 0x24db0035f361f5caU, 0xd4e7f9f5c919f1d3U,
  0x550514cbc2ce1f2aU, 0xb7f6f1b9e619f8b7U, 0x44181ab1444f0d1eU, 0xb7c424f3da101f3eU,
  0x251afaff0ce52b05U, 0x9e56180af024f9cbU, 0x348f0dc3ee36fe2fU, 0x3418ed3f069e4322U,
  0x3836b8ce1003d799U, 0x37cb4fb8c599e3eeU, 0x2dc50aad36229b25U, 0xfdd9c1ae224e3374U,
  0xb04527291039208cU, 0x3215ead70207bccfU, 0xc818dce845f4b4fdU, 0xc4e7e42cc633e2ffU,
  0x29df4abd350dcb19U, 0x1b7028bec0fb1818U, 0x3bd915010cfee745U, 0x15435a24562be151U,
  0x4a7fb714b859b610U, 0x16db0648d51a32faU, 0xd02f0bbe2a1bd0d3U, 0x8e550fc06dc3d10U,
  0xece1a202c2b0c02U, 0x3c042dfadffff3fbU, 0x28e6eafd0e180108U, 0xcb1f2fe60fda21c9U,
  0x30380e0a0416252cU, 0xf2e209e0e6210cd4U, 0xfc01dc21cacefe38U, 0xd307d013fee410e8U,
  0xcbdefec7e2fed710U, 0xdd81f725242a2231U, 0x2424d2fce210bfd1U, 0xfd07cfcb1c38db1bU,
  0x39d234bc11d8fec6U, 0xf5a800b33ee4f71cU, 0xe4fadebf0a1824c9U, 0xf719e8e53ddbbae3U,
  0xeac82bc1a00bd60cU, 0xd1ced1d5f9de3acfU, 0x29ece9f9d0300948U, 0x2be6153507ec4413U,
  0x12d4c43d29f7da0eU, 0x419b484cf2fae2bcU, 0x39cbf74813ffdedfU, 0xfd2c45283b332bbeU,
  0xea29e31332e0fdcdU, 0x4e3843aee8dbe0e4U, 0x372521572202b42dU, 0x9cdce19d7ca323dU,
  0x2e39dc0611d01f15U, 0x357f3acf10e4e1f3U, 0xf0e92bebfaf026e7U, 0x223214fa2329ee0dU,
  0xf7e61ac7f5d03445U, 0xc7443a4b1719d4f2U, 0xf828fc1d07d6e7d8U, 0xf0d9d535d5c43304U,
  0x31cbbcb33938baceU, 0x234d0f62f20cfd46U, 0xf1ba15f1f0dce653U, 0x3fe0a5f493d20a38U,
  0x5f7d25291a22ef6U, 0xaa32d77f3f26a64cU, 0xe83eb7182b3c99e6U, 0xab1e3114abe9f709U,
  0xb345da36385e4f87U, 0xb41bc9ec591fd241U, 0x3d1e1186f01a1f1aU, 0x13eb3dd118e545adU,
  0x47b34651f82221daU, 0xcef30f15c5f16c6U, 0xf5481f15f7f53b44U, 0x14471268363b63f6U,
  0xcad5d9fcec0135f4U, 0xe1ab4e346f39cd21U, 0xe0e82fbddc46e362U, 0xee3b5559ef99b8bbU,
  0xd32bb8fda4ea3d13U, 0x28edf927cd30fed8U, 0x27dd622ff8d815bdU, 0xdbd8cbc6ec003b70U,
  0xb6eb1535ce0cdc1fU, 0xff2acfab0e3505e0U, 0xc043fcef687f9f3U, 0xfe43d7dbe8b73a12U,
  0xc3ea06223ae6d7daU, 0x84139a213226efefU, 0xedbb39ffcda03ac2U, 0x17b73f09f1d4b321U,
  0x15b5f8d5fd9de0e7U, 0x2d3fbec0abdcfb1cU, 0xb30bd5db39adab13U, 0x1aeb4c18c1f6112bU,
  0x41f8dd53e89eca09U, 0x1a811eb61a079df1U, 0x133836a139e0d20bU, 0xf3104f03f625cc4cU,
  0x4330dcdb2415cbe5U, 0x19fc1664c10a7fbaU, 0xf0ce56dae0cef9eeU, 0x1818030b1019d44bU,
  0x3dd2b130175ccaacU, 0x3ba3ca1cfd1635efU, 0x1afbc6480a40d519U, 0xd8f2b22c1906cb48U,
  0xc3ba34cf9ffcc40fU, 0xe68dee214ae81dcbU, 0x45da1c0ee1d1533eU, 0x1c3eb0eca19621bU,
  0xbdc4d7d0fbf61757U, 0xe113e4b0cfeef042U, 0xd715eaefcecc2f45U, 0xf2b8ca25eff90dbeU,
  0xbb41f7c0cc3829d8U, 0x28dadbc749dd2001U, 0xe30be6eec9ec3d41U, 0xabe508c84c2bc423U,
  0xccef33cb0853c736U, 0x6043fc17a23242d8U, 0x220c5048fc2287feU, 0xe4fe65d0fc91dfe4U,
  0x81d8b4c824327c06U, 0x171ba6c0af4d4c02U, 0x6df45de2f389e02dU, 0x40f106b3f9334835U,
  0x4dd9c9ac40acdf2U, 0x10054b4cc6b4e3bbU, 0x8bea2f2fefd7b23dU, 0x1bf6b3341f45b257U,
  0xcc680721fe01d404U, 0x126c53d60c4338bU, 0xc48e0025ff0702cU, 0xd41491a02803f4efU,
  0xecd505e0e586c1d1U, 0xf2a99b0fd5d63c3eU, 0x883d92b029cd0091U, 0x931db6cf394c2dcbU,
  0x453e1ec93ad2d7ddU, 0xea9d45c1a1f60419U, 0xeddacb27b746e8c9U, 0xb858763711fd3500U,
  0x18eace1cf46afdc6U, 0xead7e9b5fbc4f211U, 0x9d1603f6ef90f7cfU, 0xec0317d907e2238dU,
  0x8d0d6b6de361728U, 0x43e80d4beabd2849U, 0x3b0de7c907f2d213U, 0xb5c70439f1c1fc04U,
  0x1015589d3d424107U, 0xe2eeb3ed4544d7U, 0x6d0df70810bc9f7U, 0x2e2ddab64fd24a93U,
  0x202868a418113f35U, 0x2ff5f938c0c0330dU, 0x9c4523f3cdf90dedU, 0xf2fcde162dfbdf90U,
  0xe0226006e1d145d9U, 0x4b46c34b563824b2U, 0x247f2324d3a8b6cfU, 0x1b30f32361d01bcfU,
  0x310322b9ba242b36U, 0x485c17d0181bcaf5U, 0xdefae4d5e738b124U, 0xead5da37f187541dU,
  0xd577452ee0cdbd1dU, 0x34ca37e14b264bf3U, 0x2449123d2a202d27U, 0xf42d33ab74b438e3U,
  0x49ed2fcd21443d0bU, 0xdc154bbd4fd721e7U, 0x3b43e71543d72cc2U, 0xcf4600d8cedc40ccU,
  0x3cb92afa403bc830U, 0x1d0a3b1a4224e044U, 0xfff63e26178fd510U, 0x4809e64927ef1e0fU,
  0xced6dbfd31ec0527U, 0xc46040fcbed54ed9U, 0x420b6e201da1443bU, 0x7466bd1d80c5e09U,
  0xbdafd920e5b01eccU, 0x4300d11219dbb2dbU, 0xbb4a0002c5e85bbdU, 0xf8de391a0eafea37U,
  0x26a5213ed405f415U, 0xe9e48a20582cbf4aU, 0xf3fcd5263aabea32U, 0xd6b20de6e649ef13U,
  0x71a36ac52de60d6U, 0x6aae02f3bb489dffU, 0xb33402c8eb23beebU, 0x50b3ea0ac10a5524U,
  0x25a210c127d503e0U, 0xa8decbf756aa4d33U, 0x3c2581df02bad5cfU, 0xdcca2238b802a24eU,
  0xeff5fec9f030b55eU, 0xc90df70a0333b6e2U, 0xe7f4f1301acb353aU, 0xec1fc605d7f2eccfU,
  0xfdf638e208d8bdf6U, 0x16ef2fe2d2d341f9U, 0xc925edbc0d27b9d4U, 0xbffbc907a0e9d00cU,
  0xb5c4073eb9132fc4U, 0xd50308dcede31026U, 0xf231004b53e6cf1eU, 0x11f1c8f4363444d8U,
  0xd836b60a0d251aeaU, 0x4428e3c62047e71dU, 0x24e20408f110f231U, 0xbbc70de01fc8431bU,
  0xd7270751d41c0ed7U, 0x2418f9be06d4442cU, 0x3b0becf1100feddeU, 0xed134a270331ef81U,
  0x2efe33ebd6c958eeU, 0xdbad8111dbfe0458U, 0xeb35c3dbea13e5f3U, 0xf126f2f32750c607U,
  0x2d15c2fb0194b5e8U, 0x3ccba114434004caU, 0xf3f9f95d0e2e4cccU, 0x2910cfc2f8f3d11fU,
  0x3551b5d340dbb802U, 0x2d20f61f321ae5deU, 0x1ef52cf413eac2cdU, 0x1dff322750392ac7U,
  0xb13bc064f34f337U, 0x54244e23c50a2043U, 0xc4ec3d0a1026b9ffU, 0xed4ae7285602c111U,
  0xc0f1133b2750382dU, 0x121c07b6c720cdd9U, 0x3cd10e2bbbee19baU, 0x1d0d573756d42f0bU,
  0x13e5e711ce502d27U, 0xa3a71544cf11e227U, 0x29761f2f26b8eea4U, 0x1fff14e4d3310facU,
  0xc376c1ef13eeceeeU, 0x4d2a32b721035915U, 0x3616ebd72bb74938U, 0x67f4efd5409e079aU,
  0xdd7f03bac9feee08U, 0x1727393c2d423ee5U, 0x280717540ecc72f8U, 0x5341e7e525084cfdU,
  0x52c3dcf60d23f27U, 0xfcac61cd41c2c4a6U, 0x2c07f6cd38413ca1U, 0xefc52cfe01084ca7U,
  0xf6063bbdab7b65fU, 0xdb4b13f4f5e0be1dU, 0xaaf1f42ec3e925a9U, 0x2cbaea9c27283de3U,
  0xb16dba07e948ffb8U, 0x221f45b138e8b0b2U, 0xdec3cec72033fa27U, 0x40b72eeffa1903f2U,
  0x2a0d2328c24c1ef0U, 0xf8311b2032362ac1U, 0xf0518e01e0145dbU, 0xe21016ed483d1f07U,
  0xe3fdcf0af4e05ce2U, 0x3748184520e5e8f7U, 0xd2f3d6232210c8feU, 0x1ecc2ccdd12b2a20U,
  0xc194f0bb606dc17U, 0xaceef62deb16edceU, 0xba2ed9abc8e90e11U, 0xcfd7e000c4fc0612U,
  0x331e490f22080eccU, 0x9fcd71044424d46U, 0xcaebcf8104f8deceU, 0x4ec21bff9ee9f643U,
  0xfafbeafdfedd13e7U, 0x13ffd6fffafd051fU, 0x18da01efe9f71813U, 0x14200203cbc6eabeU,
  0x13151b08df02c8ddU, 0xf3022229d109ccdeU, 0xd22bdf21eb090532U, 0xf9fc37c610e711f6U,
  0xede50be5fefbf6d9U, 0x2ce7d11d2f2ee6d8U, 0xb0bf21620f325d1U, 0x2528d0f0e81d1004U,
  0xee3effd90bece204U, 0xf01c04f431ed221dU, 0xff1303e0d8e920f5U, 0xf0ee3529c80e2181U,
  0x4f71600fe38eff0U, 0xcc2f1820f8380afbU, 0x333df9121a3dead9U, 0xe6d7ef31ca0f2f8bU,
  0x1ff2fddde3effff6U, 0xb9fc400cbbf90a02U, 0x2e83b302f7293eeeU, 0x2cdd261eaba8118aU,
  0x3a2703330ac0a581U, 0xb1d7ae33f03ecc28U, 0xdd26cb2fcc33bce1U, 0x38fcdd1109b4bdd2U,
  0xf6f8aeedf5e32c32U, 0xae73350d0be0226U, 0xb3372b0327ac0526U, 0x2c0e39f3dfced2a1U,
  0x2b13d51dee3cf2U, 0xe5cd526434d42627U, 0xd1e0d0e53ae9c90bU, 0x19e9482452b910e3U,
  0x14c5adefa9113631U, 0x1137f730fd144a17U, 0x340f2db922383ccaU, 0xcf2e0e3a3c4509dfU,
  0xfae1352c0211e733U, 0x17ae3444e33f75fbU, 0x9d2e0fcf85c318d4U, 0xccd2c0e40bf33ca3U,
  0xe20cb30f1d19e4bcU, 0x9de500cbcc11cdf6U, 0xb3b0c6df22aa38faU, 0xab1524eeddc1f2edU,
  0x3aa390837f72e16U, 0x44c400f7024f27baU, 0xe418e2c3cafefcefU, 0x2edb3f081553aa16U,
  0xe12cd7afe4e339a6U, 0xd181c32de060ecb0U, 0xe9bf203a351abd16U, 0x19c212f23c2bf829U,
  0x3535019fe71f2e0aU, 0xe002fed704e5eafeU, 0x27d306f9042734f9U, 0xd328b713bbeea516U,
  0x284007a9cfe8f707U, 0xe923d0bae8b9e1f8U, 0x1243cf56cbcd01ffU, 0x1ff4070644023030U,
  0xe8e90ed2eebd5a54U, 0x466cbe3e621d0bfU, 0xd3c9d7d8c2cb46d6U, 0xeabcf813f6f0fb19U,
  0xd20adb05c8032012U, 0xdcd844fddf36f247U, 0xfd0ad3d7fcbbff38U, 0xf8cf10ffe640f2dbU,
  0x11e9c79ddc19d74bU, 0xd6ab0ed2f34e0ed4U, 0xfad39708df36e034U, 0xe0e900c94fe5d320U,
  0xf305f7ddf42cf634U, 0x3e813baa0838f650U, 0xa5b3d203b408ebe5U, 0xd18dfdf352803faU,
  0xe9cb5ce2e530cbffU, 0xd3f391050f4e1202U, 0x604811f753ee46b6U, 0xfbcce7e2fd212ed0U,
  0xd45aff22b97badbeU, 0xd9aa2d811cabdbfdU, 0xb7fe47a06505c7f1U, 0xcb49fafdc73fe0deU,
  0x6e441be44970d59cU, 0x18ea07ff3d409ea6U, 0xd907ca15f14724c8U, 0xef3f13344a3ca1c9U,
  0x5f4729f00542d20bU, 0x7f713d3bd29f34cU, 0x10b1feebf64f0737U, 0xba29172bfa15ffc7U,
  0xcbc83aee3dd20ca0U, 0x480039a409f71741U, 0xeae3ddc23d485547U, 0x3a24c2b2acc05e23U,
  0x718dc3d5766105dU, 0x6ded41a0babbe72aU, 0x703d935d49830faeU, 0xf1d7cefd246334d1U,
  0xe147068b63d9acf7U, 0xffced75000d4ecefU, 0xd6fdc97fe421c2f7U, 0x183324971b14251aU,
  0xd0a1032cf56351aU, 0x39f4b893a0ce3e35U, 0xb9e2b47ca1c6dc0fU, 0x5a2ebee238e6dcd1U,
  0x36cb1db500c60cb3U, 0xb642f3d20b0ac4a8U, 0xdb0a33fe25f5402cU, 0xd03846c3fb601df9U,
  0x3ddb25f148fa3410U, 0x65d527ea4f3b568dU, 0xd48d82d9e823c057U, 0xeda81eb3095f0b47U,
  0x9adb242e08e54845U, 0xedbd28cbf81a01faU, 0xe4e422e14c9c185bU, 0xde01f065daffd00fU,
  0xcb2e67d74daacd49U, 0x9496d0ac39cf262eU, 0xefa371984aa2b459U, 0xe9bbebdd2ad819a4U,
  0xded157ad14e3ecacU, 0xf4ed4a912f29d64dU, 0xef4ba9cda4de09c2U, 0x4b3d2cb1c623f66aU,
  0xd025211c582e164dU, 0x69a7cec3e3f5d2beU, 0xdd682d47dae14ad1U, 0xc0d0c4dd7f41092aU,
  0x9ef26c3ecf4c4fbU, 0x4503055b491552c5U, 0x1eec24d025272219U, 0xafc327ed04276983U,
  0x28fbf3d33df73766U, 0xe7c42bdf2625de3bU, 0xf82ce2da143c2c21U, 0x1df913092d1533ebU,
  0xf9d64e192c49e41fU, 0xf226d7052007b310U, 0xebf1c0f1d13b1051U, 0xd10b0d2cfa36e4c4U,
  0xfe0f152b073fe4ffU, 0xc1c271d2fc7b60eU, 0x1508f5ccf8cb3010U, 0x39f5d54b0128bcc1U,
  0xea38d2e5d0b8d4deU, 0x3814e435d1e8c919U, 0xdbc9fe2e0931dbbcU, 0xe3efd7e02e343c9cU,
  0x3619e70de11eed29U, 0x25371916c8c1d2daU, 0x3e2413ec2de3c304U, 0xdbd102e6dae10a81U,
  0xbcd2e41bfedd2ddeU, 0x4d68d32908d9fd48U, 0x1e694db5caec6e25U, 0x820fd063e5eb8a4U,
  0x2111d34fbbf9bdeU, 0xa3d6280862d5c8a8U, 0xcc4e48e847d3c303U, 0xf7dce0fdc20e4413U,
  0xc0062420a51f425aU, 0x211f6126fa34e7a3U, 0x44b9d17af33a0a98U, 0xd92ea0161060aeafU,
  0x54bfeb204ceced0bU, 0x17095af8743a6444U, 0xf1f31a7cb6f36be8U, 0xcb891efac517abfdU,
  0xd74833e7afe4313eU, 0x16f9564de951e101U, 0xb3011e21e2bbd250U, 0xc77f7a30c5f03023U,
  0xec1cceb7c4eebd2bU, 0x85be05b4c1b9404aU, 0x503bbd054e9e6b2U, 0x1dbef92bc5e4c9ecU,
  0x141a554b40cb948fU, 0xe43c99dff8df23eaU, 0x34f7fa06fed574faU, 0xab38b1114dedd707U,
  0x2c443ac740a93a26U, 0xd3fa3b07eb42f66aU, 0xcddba484ab20fbcU, 0xfd1acde8270dfc30U,
  0xe804f4df1427fdd7U, 0x5770a242daa6c4afU, 0xd0cfcf1e557dda5U, 0x11b70b24d4fb2693U,
  0xb7e8c01ec137dffcU, 0x7f253328c038feeaU, 0xb908591b38c937d4U, 0xf6e92015641037dbU,
  0xeedfeafb0bbb42b7U, 0x21a059452d7ff951U, 0x3af8432a4d5030d0U, 0x40e2952db3f7aa00U,
  0x6a01fa4ac402ef13U, 0xebd601b254b30adaU, 0xcec8961bd049f8a1U, 0x5fd92d93553a401U,
  0x280403e15cc02f14U, 0xd7f8e8111b1e242bU, 0x553ae016e22dabb4U, 0xa420bfd1e38dbe12U,
  0xc05f364bd032a811U, 0x50e7505e0030f941U, 0x37a6ef23a62a29ffU, 0x46ac1d1f530965cbU,
  0x135ef8d4ee253ea4U, 0xec3d18fd1595054dU, 0xb4daaec1e7df16a9U, 0xb94471d4b8dd1ceeU,
  0xcc644bd1cc1a46c2U, 0xffffff96fffffc87U, 0xb5ffffff4eU, 0xfffffee0fffffd51U,
  0xfffffdbefffffe5fU, 0x4ffffffe4cU, 0xfffffe6afffffff7U, 0xfffffe90ffffff01U,
  0xffffff78ffffff6aU, 0x1affffff43U, 0xfffffdcd000001eaU, 0xfffffeb7fffffee0U,
  0xfffffde9fffffe3aU, 0xfffffcf1fffffdbaU, 0xfbfffffe14U, 0xfffffe35ffffff65U,
  0xfffffe71ffffff43U, 0x385fffffec5U, 0xffffff39fffffe2bU, 0xffffff37fffffddcU,
  0xffffff5b000002abU, 0x2bffffffc0U, 0x45000000b9U, 0x61ffffff39U,
  0xffffff52ffffff70U, 0xfffffed6fffffd6eU, 0xfffffcfb00000058U, 0xffffff0dfffffee4U,
  0xb5ffffff0dU, 0xfffffe00fffffefdU, 0xfffffea100000053U, 0xfffffe92000000f7U,
  0xffffff0fffffffcbU, 0x61d4b2d5d3e0e3acU, 0xbdc8d0e110b549feU, 0x31f91c3ce2b7b42aU,
  0xf769d9231af44dc7U, 0x2753efd112b72608U, 0x81d1204d0f0cf2fcU, 0xfd54411e0f3155eU,
  0x654cf1d4d222f3e7U, 0x1335cfde01bb1cbdU, 0xbfd1b8cc20255dc7U, 0xd4563454e3ebc3f0U,
  0x3c710bfe202294fU, 0x30e53c3bb11bf328U, 0x4419c9141ceb54c8U, 0x56e629251911f8f4U,
  0x2e30051d4cfe24bdU, 0x1722393f9a10f76bU, 0x5f8374734225ce9U, 0x3f1d37383c1e298cU,
  0x3aced00ee9b54a6eU, 0xc8ad28cd48331cbfU, 0x1ad7c4cf3f1267f2U, 0x35ab11edca005560U,
  0xfddce347be175bf2U, 0x1933ae12080b471bU, 0x420fe431b51dd9adU, 0xabe3a632e909ab28U,
  0x160d3af7ba06e636U, 0xc22d0a3fbcbfd031U, 0x98e6a6fa1bfce5d0U, 0x7c3d22bd034f10fU,
  0x201850c7c2ee4367U, 0x110e18bcee06594bU, 0xf7f51d4b06e2290cU, 0xab3f31ef504de21bU,
  0xe8c5f3269ec41c39U, 0xad16321522e4c9b8U, 0x81feacef1fe150ddU, 0x30bb2eb1a5071f2cU,
  0x13acccd42bfb14d4U, 0x3220d522838e6d1U, 0xc7e0df13a118bc0eU, 0xcd17d6132ce81fd0U,
  0x14f306f814cf2ac8U, 0xb2262afb11ede219U, 0xa9ecf824d73d2ed0U, 0xf8e84944bced1a51U,
  0xc8be361f09e30799U, 0xb2328dddedde98aU, 0xfb202e4609da092dU, 0x9f345c01eecdc3daU,
  0x34cbd84aa4cc2adU, 0xe0ce075b793385bU, 0xabb10dbf19d5fdacU, 0xadfc51bc8eb0f3fU,
  0xe9d24ecef8ebc359U, 0x25204bd84f031ad1U, 0x15c7c7f7c12fcbcdU, 0xb2eab24c1d04d03eU,
  0x1a4dd1a721e49e24U, 0xf6074ad3b01816cfU, 0x84d3d13fd52bf1d2U, 0x1dcdff53b70045ccU,
  0xe6322c26c10ae9e4U, 0x12b43710b3814152U, 0xeb0dd6c107c02ca8U, 0x3306b507e8c121feU,
  0x24ebbed6d5a71fdbU, 0x25cf50dccce94c34U, 0xd905fecfe5623722U, 0x3d0cfd018b070fe0U,
  0xacac9c0b614230eU, 0x33fdfe1acc08d2c6U, 0xdeabf0392ac9983cU, 0xe9c3dc447c341232U,
  0xd5f4b4ddb224f301U, 0x201511726edf0efU, 0xda43bb472d153640U, 0xf3beffc803e61ef5U,
  0xd82f00b5c91001c7U, 0xe52ded5080d0a0eU, 0xd849ecaf40ec1b25U, 0x20c0c4e65e3afe31U,
  0xb6d83a46eaaedcc3U, 0x2c3f160b008d6ab1U, 0x1ce6980b39181054U, 0xf128c4315cc7fcebU,
  0xe6c8edcfcc230ed3U, 0xb61413b21682b0cfU, 0xf2faf15b34b5ef2aU, 0x96263009d5b31833U,
  0x1841212e4924bed3U, 0x46353750e981f3a0U, 0x2fbf03c8a5e4f7ecU, 0x38e101b1df423623U,
  0x23d3f03125efb03eU, 0x6c221952bfce5c31U, 0xb3e0ecffee0fff00U, 0xae1cf8fd074311d7U,
  0xc9d5e22fe3df423dU, 0x22b81128e7d55e70U, 0x814f11e3dfd85c56U, 0xb25b0df041ef408U,
  0xe5252219fbd1c900U, 0xf113d91ada9d07e6U, 0x89de4d3e33b01dc5U, 0xf9b9a9f65b49134fU,
  0x12bd3ed5d0ef53f7U, 0x9221501f9fbbed2U, 0x868af24753f51e2bU, 0xdf0d4730291ee1efU,
  0xb50e552230f82ce2U, 0xe90799ec4094dbb7U, 0x3cb6cf4b0733c0cdU, 0x1d4d542631dfd078U,
  0xeb05f8e4b1941ae4U, 0xca3ccb53ff95dc13U, 0xebf9eb09d6292f40U, 0xf30d6f5b155de9c7U,
  0xe0d1a7429db50b14U, 0x2ddfb4bd20f55ae2U, 0xcbe2eccce726f3d6U, 0xe4ee29d33f1a1138U,
  0x4cdb1fbe28d2d636U, 0x2ffd443bce9fd655U, 0xcf62b7eb070d1f3fU, 0x2c9cab2be49fafeU,
  0x356d3befcfbeedbdU, 0xe25ae04cc11c5b21U, 0x1d3001bd390922eeU, 0xfe2357be1d1dbd4cU,
  0xd421aad9a7c6cdbeU, 0x374f080cf005c518U, 0x8c22e618f7211716U, 0xd52e2926e5ec4f0bU,
  0xb44d0f733e7ea1cU, 0x3e3b94f80820f02cU, 0xbba281d6c5314ed0U, 0xbbe1bed700e208f7U,
  0xe6ecc3edc98435afU, 0xf7ee433c0fb2c7d3U, 0xfee1a9fa090ced0eU, 0x75336c94dac27d9U,
  0x2e7c623410101e9U, 0xac22b2916ec9d73U, 0x813424ea5d234803U, 0x28270c7453891f16U,
  0xc302232f30301a2bU, 0xdcf8de90a6fac4deU, 0xdf5d83e7bd917c6U, 0xe4f623e2d8744653U,
  0x51d1e45338b329ecU, 0x809fbc93d3aac1dU, 0xd1d6bf3719f951U, 0x19326d25b8c8ff0fU,
  0x64b148b829ca3b5eU, 0xcafe298d44310809U, 0xdf6d0ce4fc40dcb3U, 0x1732f321dcf14e25U,
  0xe9e2e445db28f5e3U, 0x52a618da309ac050U, 0x18bbe23136d87539U, 0x24582acf3e3bc1c6U,
  0x314713af918c0069U, 0xbd9d32f93ea209beU, 0xf04321fffefb54f2U, 0x46ba36d6d20a071fU,
  0x10353db35cbd6a11U, 0xe011062a27d6cf1aU, 0x81e1160affda04d4U, 0xbffdec2e431af419U,
  0xf2e8ea10aa09f706U, 0xd0e2c3f0190238e0U, 0xfd03d20ef33be015U, 0x1711f121e517311cU,
  0xf3c30dfdfbece2d1U, 0xfeed4f050be423e7U, 0xc2d01d1c01c2318U, 0xf23c034a4108f4e6U,
  0x4218d6bccf1228fdU, 0x15f912c0d61e1812U, 0xb711350cf6eed8dfU, 0xe0d2201017d926e1U,
  0xb50dd41ff51de127U, 0x250832e3ebc819dfU, 0xe0c8062022271337U, 0x1e1805d60222d130U,
  0xf84bf22ad1e2de0bU, 0xf0ffcd13290f2223U, 0xa1d1da2f2dc0f61aU, 0x36f11510c032c4c4U,
  0xbe7df060a10d1ddU, 0xbd0bf4dbdc98e709U, 0xcff9cb1304ca2fe3U, 0x17cad7d3400c27f0U,
  0x23fe2bf706e9b4ccU, 0xe72ae6f10348110cU, 0xc112d2efe932db12U, 0xeb8dd83d18e73d25U,
  0x80633e9c4bbb014U, 0xf50455e5d9e9edbcU, 0xa51b03e20034dcf7U, 0xccd0282dfee3b432U,
  0xc41e1f42dd3bcd1U, 0x6221516e5e42700U, 0xfbfa0803382131e1U, 0x26f92b1aef0c36b6U,
  0xecfe3b40ac1bd7f5U, 0xd7eb17f90bf1cf9aU, 0xfac6e9ffcd38fe28U, 0xe5fcf1e77f28afd7U,
  0xbeef0d00e3bd3227U, 0x1accfe08cc000514U, 0xd347203138dbf529U, 0x2f0a02d4093bd20dU,
  0xe517cce2ffbf2c17U, 0xf91510ef02ea00f1U, 0x391d1d2bfdddd3fbU, 0xe21f1dc62ffae243U,
  0xfe40cce6101c02d4U, 0x1217f4f403232d18U, 0xd21b18ee0f110006U, 0xffb411e5eb3bdbb3U,
  0xd203242b09f6fc37U, 0xff16f5c2e9011881U, 0x20020519f4c911e9U, 0xdd381b22440f0c25U,
  0xc62425ceea162924U, 0x3f9231d091addd4U, 0xe81620e929132917U, 0x3219df18d3e914bdU,
  0x1db7f02503ebdfeaU, 0xdbe0d013f70c1bf6U, 0xb6ec2c07b50f00f6U, 0xffe4d4ed37e74010U,
  0xd71ef80cefe728e1U, 0x25e259fee303fef2U, 0x30621d712e300d9U, 0xe6fc13ffdd1cf3cdU,
  0xbf0be20e140dd7f3U, 0x7f26b4c4bb2514a3U, 0xc10c1a1bf4eb049dU, 0xf20cfc33fa018dd2U,
  0xc8ba94fcb7b9e311U, 0xe2403d5e011c3b16U, 0xadc7bdcc14201250U, 0xba24fed01034b1edU,
  0xd0bbc93417c79abeU, 0xb818b6ba4c26f6baU, 0x3b310128f4c13a05U, 0xf060d0df10cb324eU,
  0xfff3ea91bfe08d7U, 0x4a462f12e9ce2ae5U, 0x253448e9d9ce5ccfU, 0x26b10db8412e420eU,
  0x3c0f1919cd3b2019U, 0xf24626dbade91cf9U, 0xc7ab243112392ecdU, 0x406e92d5b180b37U,
  0xead02bdbb010bdfU, 0xea0d270a033a30d3U, 0x183dddfb15e80045U, 0xd7fd02142c2a001cU,
  0xc133ad4499941eedU, 0xf42352e8a6c6d6dcU, 0xc1c6aef6d4f23910U, 0x541093c2519ea07U,
  0x3a42bd329dd1bbd8U, 0xd825fde0383ff8fdU, 0xc1f1ba36e5e641bbU, 0xe2fa0df89f3ec5a6U,
  0xf5050bcda2fffe70U, 0xb63c38ff40242bb2U, 0xd17e72e2e2635d8U, 0xf6bd1ad621e7ba01U,
  0xe650aebbe1f42024U, 0xc7bb06d5dbe4a94fU, 0x9746f42e4305f5e0U, 0x37e12057d9021fdbU,
  0xdac610f935a426fcU, 0xdab8f81fec2de4a9U, 0xf3d346ddcac12fd3U, 0x343e3362d06e1f8U,
  0x6603180aefa92b22U, 0xf9010906fae00232U, 0xffe7ddfbe21a0101U, 0x29ee2b062b251949U,
  0x81b400c351d92c32U, 0x32540cf70f14dd18U, 0xab0f17f2c4e9fd33U, 0xe61cb360c7380046U,
  0xe82404eac7b0f5f8U, 0xd50f128b9934d97fU, 0xf09f0ef3b708b35fU, 0x3d2dd22c2bffb716U,
  0xb2083a3c21da48U, 0xf83b2f3d2de22122U, 0xc6af030ed8f7f642U, 0xfee22cbefa32d44bU,
  0x46012ed7d803012fU, 0xc73849e6e5b0efe8U, 0xca3cfdaee59e3f8U, 0xf6ae23155d40084fU,
  0x3d2bf339dd04d424U, 0x34bcdf39b8df1b38U, 0x2ab5cdff2013bce7U, 0xb1173f30ec2c25bbU,
  0x2d471e1af210f3ebU, 0xb5bc27dbbd991fecU, 0x20b43432b0e01c37U, 0xaf0f41827e7c7e3U,
  0xfe1b4babd73d1f22U, 0xfaefdae531352301U, 0xd062e3b810cf2e16U, 0x2a0b4e9cf5fadff4U,
  0xcf19eac3f0ebea34U, 0xd3115f811dce7b4U, 0xd225b2e81d1223c8U, 0xd5f1420229ef1c15U,
  0x98f9f6df2cce2635U, 0x262a81c30d1504c8U, 0xbfce8380c140832U, 0xf4f9dabbe6f2f03cU,
  0xf6d42436b0a52de8U, 0x263b51d623b8043fU, 0xb0e7ccfedb483209U, 0x3213d3e8b726ecd4U,
  0x9ccb2148e1ea2407U, 0x390bb61114006d2fU, 0x14a9ce2a0924d6c1U, 0xe9d2451101fc1ef9U,
  0x4343edacbe7f70cU, 0xe7d32523d8dad311U, 0x1541da100ddb06cdU, 0xfbf737042b16d220U,
  0xe138c3bfd2d7be3eU, 0xe6150939dbc21aa5U, 0xdbe306ad53e9cfdcU, 0xd2e0df17153c41ceU,
  0xd9f654110339c999U, 0xf53ce3e0f6e3c8d4U, 0xe72b12f7ee1ace2bU, 0xdf42d53a002e2d1aU,
  0xb99bc8062b28484bU, 0xf6fbd02712ecd8afU, 0x2e61cc1271c293bU, 0x323760fffb514fceU,
  0xdab23818f71737a8U, 0x311d25d20397fa25U, 0xdbe21a0af748b60eU, 0x18c8e7fde8f9e1ccU,
  0xbe0be7114a00fd2aU, 0x94050df90926f7c9U, 0xf34d5c92252b8f0eU, 0x3740e3e6384e0e47U,
  0xc409de2dd752e22bU, 0xdbf032f3b5812f0eU, 0xb6d109d6c0121c43U, 0x4ea06e8e438f132U,
  0xddd3002fc43faf6U, 0x5a420bcde5ea0fcdU, 0x1108ebc0e02cbf25U, 0xdd1a9e1b3b20cce4U,
  0x1bd02dc1a8adb057U, 0xcaddff43bb2ed2ceU, 0x951994194d1e6cd6U, 0x18fc101681e93e3cU,
  0x4d1808e000ce2bU, 0xe644e7bd3fce1de7U, 0x4e11ab4936dffe31U, 0xd0cbda302311e6f7U,
  0xcaa148f7e7efd405U, 0xfb4549d40024d11fU, 0xa31deeed9e0f4daU, 0x4c06005872a222aU,
  0xbceffb016fb18beU, 0xe3c8decee9fa2ef7U, 0x23fe093e363bfcc3U, 0xb0b15413d531119U,
  0xaeaec34afd4c60fU, 0xf437ed28b7f61837U, 0x57f232dcbb3821U, 0xd7d520b4c6e72509U,
  0xd1e02ecf25b4b1b0U, 0x172de8e9e6120b24U, 0xfa2bf7e02be24d26U, 0xe5c3dac3020f280dU,
  0xf0fbd6e3c90fe103U, 0xf9e70fe5eaa9bf46U, 0xb0efcbf7e0421df0U, 0xe1eee73738413830U,
  0xf2b132e3d127faefU, 0x70b042ff02ccf1eU, 0xd2cdcde7122be316U, 0xf7db11f5befcd6f8U,
  0xecc524defbf3e51fU, 0xdce33215ceac2137U, 0xbcd0d5f7c3feef07U, 0x37e6130830ecbf12U,
  0xed1dfde01457f430U, 0x112601bd1f3a294fU, 0xfcaf81e82b17de07U, 0xaeece819fd19fbe1U,
  0x13fa1d47c4f6f703U, 0x333083b82c5e9e0U, 0x1d1913cdf6fade1aU, 0x13c7d9cd1acae819U,
  0x6b23f413e2e60c2dU, 0xead60e012c1e2de4U, 0xcd6f8ae3df8ec20U, 0x35c9cdc9e41d285dU,
  0xd8262542f808f3d5U, 0x9a450edc009310e4U, 0xd438efe6ce0503c4U, 0xfbabd95237c5be2dU,
  0xbff9e0d1ec753242U, 0xf2cfe1500ea74021U, 0x91c2f9ec3e3ebdfbU, 0xbf17d802cfe8fec1U,
  0x2ca7b4de10d868c9U, 0xf351cdf0bfa8ba20U, 0xaf1de631f623472eU, 0x5209162f1949bdf1U,
  0x3be6a302ed629c04U, 0xdfaa47ee24291b44U, 0x81d43829f2ebca59U, 0xda283b0eb4279ee6U,
  0xd30244dc4e1df04U, 0x75d31ebb89ee5efU, 0xc5ed1c33a11ac9e2U, 0x3bf8013ff839d265U,
  0x48bd155a1dcdc5f2U, 0x15243ed1f6d9fa48U, 0x11b5cf0c25ead8cbU, 0xc537f7f7132ad435U,
  0xc7dbbeddbaa80d00U, 0x6af2f03b00b8d0f8U, 0xc507bd00391b04e8U, 0xf1edcb3e21eefc1aU,
  0xf0abcced0dd8d2efU, 0xd6e7f7241eb2e3b5U, 0xbdfb330e6ef25c9U, 0x1b2e23491c2ae4cdU,
  0xf20f15d1f7fe0600U, 0xfb2fae3c0cf0b30U, 0x6dde9fc041a0efaU, 0x13f438ddf9ec3102U,
  0xd9040409b3b3ddd4U, 0xe60fc7500b21251dU, 0x1c0aecec2515fec3U, 0xd32fe5ed5d2d70dbU,
  0xd3142f0821f4e301U, 0xdd3d35f5fadfd3d2U, 0xf20dd581ed19fcc2U, 0x17f8204933070304U,
  0xdd0f1f2222bf1eceU, 0xeb063a3ad93507d8U, 0xfe212ce239fbffc3U, 0x28264933ebd73227U,
  0xbe290ffdd7c12d48U, 0xfc34c4e0f43e47c1U, 0xfc06a10b23dbdcf6U, 0xfff602e27fcd03acU,
  0xbee5e2defc0de32aU, 0xf0a5180e9bae1037U, 0xf70014fe152252a7U, 0xe2dc15dc72ab0cccU,
  0x21fa32ba13d2ef28U, 0xab2514393dc8e5d2U, 0x3e2a9508b11e4c2aU, 0x4c192cfd0130fd16U,
  0x22332a29fdfb0ae6U, 0xf93cfb50ba1c504dU, 0x93ddfdb5e8220620U, 0x1c43c2d5f4fe202aU,
  0x1a4129b1de19eff5U, 0xf8203af64b5732ddU, 0xd00f11dbb0fa1e49U, 0x4bd0d3957ed5904U,
  0xb42c1fd7e6e6e7c2U, 0xd2be5a38350bdad2U, 0xff0281fdfac4fec8U, 0xac57ce33eade39cfU,
  0x3033dcb5b5f22721U, 0x2383208492d2f9fU, 0xd5d9e6bdc11b05c0U, 0xf9b3f0e5453be59dU,
  0x329dd4ae85e032cU, 0x210bc2dbb4034511U, 0xbcb7beeb9e2409f7U, 0xc7ca1b314b171ffeU,
  0xe4f415fabce7bdc5U, 0xdd9e2fe225fd21beU, 0x3111ed20fee70aedU, 0x2cd30a0bd5bc43b7U,
  0xa129ca00f1b4ef2cU, 0xf41f0628ce24f4f3U, 0xec282e1c13013028U, 0xabea1ae3440de721U,
  0xe5c18718b102233aU, 0x251725f2c2183bc4U, 0xa424d2432ec4d9fbU, 0x39e9d1e5193810b7U,
  0xe7f73ff7eb47cfe0U, 0x3a711ccecd06171aU, 0xd401fb18272dd446U, 0xd0085772372ae2e3U,
  0x295ca63652b661feU, 0x2490e31f0cd5cedU, 0xe3d8e81ec72f0046U, 0xcfad4fe3110d6b02U,
  0xf1e32b3101f4500cU, 0x61c52641f0d79ee4U, 0xbbf1b54a2313d4afU, 0x49aeb6ce06edfc17U,
  0x3bcd053f97d30c1aU, 0x9ee8dde716b82404U, 0xc4cdef04fcbd0c41U, 0xecfdd4ee05374bbeU,
  0x2e2ca2e48f8cf98U, 0xb83fa535eeaef9adU, 0x6439134114befca1U, 0xc2f3331ad7ff7f1cU,
  0xf1cbbaf9daac11e3U, 0x3441ff4016ca10efU, 0xfc8b0f2635b0d1f5U, 0xe70247c64be645f2U,
  0xcc0cf7cecd5cf7ccU, 0xfd1c1edae303dfbbU, 0x10dfeef70fcbf3fcU, 0xba30c3342d2dc4dbU,
  0xd9391de334c5d2ecU, 0xd9e2d02bf2242f02U, 0xb84406f3ee0f2603U, 0x45fd211f152c02dfU,
  0xffedec20deb4dac2U, 0xc808fd0dcabcfee6U, 0xee2ce5230335093dU, 0xd515c6ecfce3f0c7U,
  0x35340443f9fb142cU, 0xf5f414f8dcdb38e3U, 0xe33b02f73ff2c8e4U, 0x49cfde330e00defcU,
  0x150b371fcd38ed08U, 0xdbd8d109ecaa32fcU, 0x81e1c3f1f314feffU, 0x2c619f227553ee1U,
  0xce10dbecb9f2f6c9U, 0xe21bfdd1c6254520U, 0x33fd081829e2fc21U, 0xe1ac2a1f21e5ebd7U,
  0xebd72fc9e5e5233cU, 0xcc041be613c6f6b1U, 0xea2dfd130d641f36U, 0x494451eaf9221749U,
  0x30161e27cacabac3U, 0x1daf41a0ae0a515U, 0xbc1fe8f3262518d5U, 0x6d8f022f0192a08U,
  0x9fdb140907a181f2U, 0x90b125501babb0bU, 0xa6df2fde04c4c5d0U, 0xe0594325380046e8U,
  0x5b110732c8c30ae5U, 0xd13ef1ce2f12d8deU, 0xdc0e972c25131be5U, 0xcf12ba6ccc7e617U,
  0xcea01919d617cf29U, 0xb814e2c7b60dc807U, 0xef0531f7f224ae1cU, 0xe726d13c41eb282bU,
  0x1b3b43a7c3e6ef10U, 0x133015de02e31bd0U, 0xce410cd2016e1f0aU, 0x19b551b0aae0089bU,
  0xa01fdc43311fc8fcU, 0x1f52091e2fed1c50U, 0xc8f3ee272bdd38f4U, 0xdccb25200713fb46U,
  0x2da78ed208cb00eU, 0x9dfb34fc1002dfd5U, 0x8b01d92aeb4bd7ecU, 0xc6e6ed07d91caa28U,
  0xc5c0d6d446ff580eU, 0xd1d4363f33d33942U, 0xfbc33abed92fd3efU, 0x15ffdc05060bbc3dU,
  0x31c8459501273fdeU, 0xcd2e2000e2bfe803U, 0x9c94dc42ee641ddU, 0xfec4debb001d4afdU,
  0x5bfef130d3bccb2cU, 0xf25fc41fc09f342U, 0x457b8e147b6b002U, 0xc6e64fe327e93a45U,
  0x5f970bb4060d1428U, 0x21ce0122bb9df09U, 0x2b4e1908f406ae5eU, 0xff02f833b50d1404U,
  0x371a394e0481ca69U, 0x5cd5330fe81a0653U, 0xfc1a8902d805002dU, 0xe16a0626f9b4eb75U,
  0xeeed1ca4122957U, 0xa7e33d0c13fcd01eU, 0xbfaf29f2a811510fU, 0xcd1b9dda2042edc2U,
  0x17090f1694e602d5U, 0x2b010861ecde2500U, 0x1d6502e71430d404U, 0x281de6254b08010dU,
  0x10ee5ef9fcd2b2e5U, 0xeced42d2f4c94036U, 0xc2a8480df7ec3bebU, 0xb7a7f59cf2a0bdc5U,
  0xb9c9c94bdcbb1f2cU, 0x43fccc39a88129efU, 0x2e55b0aa2ce0f9b9U, 0x3cc3190ddbd43605U,
  0x3a0debd7f2ef30d4U, 0xb0cd5114e9ded4c6U, 0xe2f7d8e0d20b6140U, 0xc51036dbfa37130cU,
  0x2c4c19dac03140daU, 0x34c01e00478b564aU, 0xfeb3ab27432023d9U, 0xe50b12f151dfac29U,
  0xfe07da04bbe2f040U, 0xca9dad060def367aU, 0xa206c125e60b6b13U, 0x2aaac344f6be1528U,
  0xdb971bfdbea718f6U, 0xd917bbb604cec3cfU, 0xcc0d111bfb3cf3fU, 0xc412e2c8de1a3a40U,
  0x735f70f12a4b7e2U, 0x2853ec1d8e093bd6U, 0xf503fc08493f0130U, 0xc60e6ee2ea312d2eU,
  0x1dcffcbdc7b8c7c8U, 0x127af22eacea3e0U, 0x26e49b2356ff5da8U, 0xd57ff0ebdb3a3fe0U,
  0xc42121bdd7f31dddU, 0xeed7585b27efe6c7U, 0xdff7f596b50b36d8U, 0x2fa3a4fabea47f7U,
  0xdf15e905d6d13ccfU, 0xbd2200ddc4e3ccaeU, 0xbe7360be9d8e9eeU, 0xcdcc54cde4bacf10U,
  0xd1d8c2f7071c34c7U, 0x3cc2cedfaecf28c6U, 0x143cff0ebf3c3fd6U, 0xf8ead5f619272ebbU,
  0xbffc449d71747cdU, 0xcc8012b3194e0b6U, 0xfbda00b12ea382dU, 0x3039f014ec38d1d6U,
  0xaad203edcb0c32ebU, 0xb033ce0023babdb0U, 0x8cd2f2ecdb2a1f0fU, 0xcbfae1351ecc4b27U,
  0xfb1245313ae9c125U, 0xff044f3ad01efa13U, 0xfdfdf8351e4cccd0U, 0xfe34c5f51d3de93dU,
  0xaf17e1ecf59ed0a8U, 0x9e1dbdf8d0f72c09U, 0x81fa16fccfcf09b9U, 0x372fbc04ba4c17b4U,
  0x192916e5c802d0c5U, 0x152325d004f9ad81U, 0xf9d7a80cf624dbbeU, 0xec14de35e617d1d2U,
  0x1ac4da1f1596e0d7U, 0xcae9d601ccec56eeU, 0x8f4b9f5e6d9e6eeU, 0x17331fd9d5f4ddbfU,
  0xf421ff0e1315f50fU, 0x39f704bfdcf01e08U, 0x3a07c44920f02b41U, 0x2e25d44b3645f8bfU,
  0x2332d0cd02fa3bb6U, 0xf7fd04f2c7ca2023U, 0x1dfe1f274cec0a4aU, 0x2edefeef01f0040bU,
  0x1dbadc11b7c297bcU, 0x22d4f403ba73feb5U, 0x19459aff4542f712U, 0xcc0a01d2f912f44fU,
  0x1a18c129aef914ceU, 0xec4a0f231b6214d5U, 0x17ccc5c4bb2814deU, 0x1f9bfb1b0403250aU,
  0x4b134451a40dbc3U, 0xfbbcea23d3f9d800U, 0x1146e8de09e3fd29U, 0xab5a04fce8cfdae8U,
  0xf2bdf1b9a1b921ddU, 0xa019c408adba0005U, 0xd8fddce818351ab1U, 0x40b9f860b83dbad8U,
  0xbb1327bff2f9f2edU, 0x6fede9b7078a42c3U, 0xedcdb21e9fb3d7f4U, 0x13aff7c433e52a49U,
  0xe20af22df208391dU, 0xd80558bf81440817U, 0xc726e1e71b4d23f0U, 0x1c1f11ebcf483ab6U,
  0xf713d2aef802ffU, 0xe8f8e3e605baf1d0U, 0x1fd710333338fdd4U, 0xfbd9d8be2423d33dU,
  0xf15fb0e5ac0cb81bU, 0x58fa261214006cd8U, 0xc71c1ce9a6d5d725U, 0x4ca3d5f6b70f1ba3U,
  0x10256bcecd17d9f5U, 0xe7e7ebeee5b5d19dU, 0xc011f805472029b4U, 0xe335b5ee0db2fa34U,
  0x8f1ae140b6ceebcdU, 0xb4d207c51515e2fbU, 0xc22dc0f63f0bd4eaU, 0x35dfd3e355fc4bd1U,
  0x16f55bf4e631290bU, 0x1cd1db35f234aaebU, 0x22130ab5e522d4e3U, 0x38faf13aebbc60a5U,
  0xf9cc110b811002bbU, 0x291a13c15c1edcccU, 0x103ac7bbac1a16b7U, 0x3eff27122beb2dceU,
  0xe103cff7d21ef916U, 0x222a38231ff537f7U, 0x5217d802cadd45a6U, 0xcef62ee3e9ba1de3U,
  0xf8ebceeefb3bef1cU, 0xf2f214b8d9d15fa2U, 0xb12b3bddd4273822U, 0x30ced442361b1217U,
  0x3bebbbcbce0ec1aaU, 0x4c0f301b1c5b8c6U, 0x15410035d7c7ee11U, 0xf111e4e6cd0c333dU,
  0x503baf3dc32cf20U, 0x4410d033d1f8f0f5U, 0xa7472ec1153c44c5U, 0x2fe71117fb374dd8U,
  0xdca73c293edd07c7U, 0x2549d9d211a90028U, 0xe234e6be2d09b841U, 0x19ec1f0b3e392a30U,
  0xbd132ab3bad2b9ccU, 0x9a13130bbf31efdeU, 0x353734aad4d9260fU, 0x42db13ce213616eaU,
  0xc707a7d2abcba222U, 0x372dc23119ef1b28U, 0x8103cabeb413122aU, 0xcb174df312c944d5U,
  0xdd8eecdb3f8f2bdU, 0xe3c2f7e6f31cf0faU, 0xc1e329cc5549e40eU, 0x1eaf0ae2cfebc8faU,
  0xc6381448ecd6d294U, 0x531b33dab5c1d6ceU, 0x81e9e501e41af3a9U, 0xf316d83e2e2cc1f5U,
  0xfe161309dce0d5dcU, 0x6cad9eebddd172fU, 0x981111283af53ec6U, 0xd300e72fee3aefceU,
  0xbf1ffc1e00dfdae2U, 0x1c28ede62ee4fcf5U, 0xcfdce3e529ccf6abU, 0xbef7eade0de2edf5U,
  0x8de2c1be93211U, 0x10ff37dffe071737U, 0xd304ec18d7cc1c1eU, 0x1efa352dfc2a46e1U,
  0x26fb08e90f1208cbU, 0xf7e836efe9972edeU, 0xcee21f1bf21806a1U, 0xed1dbfed2b2f084eU,
  0x33e736c318dc1b0aU, 0xeb11f9221ce006f1U, 0x21f515022440f551U, 0x4aa33ebd7340b1dU,
  0x21fabf22c61ee2f9U, 0xd3ead3e9edc5e726U, 0xe4c2dd1cf2d0bd32U, 0x30630ddef0430f7U,
  0x1d008c01f1a0bdaU, 0xe312fcd6ff1312e7U, 0xf8c3cbf5e8fd221aU, 0x24ba160f35031f33U,
  0x3e4aef0a619bbe2U, 0x1af9f1ee2209e110U, 0x810e3b31eed3cbccU, 0xe2eb18f71e37e21dU,
  0xc536ce4394e329a5U, 0xd59b9ed13cb1d21U, 0xc39f80a030e3d05U, 0x893ed171cd61b0bU,
  0xa3e7fd21fc250132U, 0xa30434f2c433e9d8U, 0xbbbe05cb51f8ec35U, 0x17e8faf72b41340dU,
  0x5ecffed3701e504U, 0xb8e73ad1090829d5U, 0xc20e1818040b13efU, 0x22a3d4291606aca1U,
  0xe409e50ff630b11aU, 0x1a021a2af507e2bcU, 0xd51df421dbecd1ddU, 0x837f824bf240ad6U,
  0x36a5c44203bee748U, 0xd3f4e622a00cee38U, 0xb0eef810e10d0bffU, 0x68b32516070fee0cU,
  0xd40cc0b8181b1cdbU, 0xc5b127e04cdd0206U, 0x81e80bcc0f2fea19U, 0xec2933181bdb45f0U,
  0x36f72f29b9ccf2ceU, 0xeb0111bfee133428U, 0xb31db18c91f2f29U, 0x12f619e2f5d2e10bU,
  0x870e000beffb08e9U, 0x33d8ff2900dac51eU, 0xc1cdbb28ff0be212U, 0x1f2f0548ed40e2cdU,
  0x736df0e24de32e3U, 0x350cd1c1ce012debU, 0xcad10fed0ad1d530U, 0xfdeaec41bd46fadaU,
  0x9d2cdd533c3806f9U, 0xf50b2a14c8c908bbU, 0xc6ce2cd51052ba30U, 0xb301f09eadde2df3U,
  0xdb98e00daffab001U, 0x9ffa412a9d310a25U, 0xeb18bca00b003026U, 0x69f4cecd0bf10411U,
  0x26f59d26bb00095bU, 0xf9ffa315d9283a25U, 0xe3bc1322c8c9258eU, 0x1d34a62b272aea22U,
  0xa7cdccfdff0b2e0bU, 0xc5393007e41a53ceU, 0xd776231c0f3578aaU, 0x34b1f634e928c7f5U,
  0x32d9c411c3f50edbU, 0xeeda1efb322eb98fU, 0xa545b099bcfaee2fU, 0x34de185e0256e50bU,
  0x18f10001cd0fbf39U, 0x2200cb051429e71fU, 0x16190455040c7ff8U, 0x58148fbb1b9292bU,
  0xa0de3bb52af6d50cU, 0x1a2111ccdae8ef4aU, 0x10b8d0f4b51eacd5U, 0xbb03f51b232d19c5U,
  0x3b3731b0dddf20cU, 0xee0b1bbbd5fd2b20U, 0xbb0931de011266eeU, 0xe2c5e3bfa91d11f4U,
  0xf2e622b7c9e012c4U, 0xff965010afca3ddbU, 0xf73ccc4928c0f010U, 0x813316eecd0113e5U,
  0xbd012ec27dbc531U, 0xc815a9f1db0cdfd0U, 0x27f8c240315433c5U, 0xe2261132b247111aU,
  0xedb6c0dad60b18eaU, 0xfce460d7ee2bc920U, 0xb240e801d73c0ebfU, 0xec17dd3b4d060b52U,
  0x2f1524af0d2fce12U, 0x1410fad893162f40U, 0xc932d2f4ef063a09U, 0x1be0cec413e2ce4fU,
  0xe68ef54fd6b500b6U, 0x23d00acff8e94937U, 0xfc09bff83c1f9fb8U, 0xf20d429c22e853daU,
  0x3cc5fbd9c2062d10U, 0x26bae0e7c0c4c702U, 0x176be1e50909f7e3U, 0x5943e5f905ff31eaU,
  0xe7f506e632cf6002U, 0x3a0a03052ae6bd1aU, 0xaca1836cfc40ff1U, 0x3a113cb1f403f039U,
  0xaae0c10ebaa2e20U, 0xc61f1f1221f33026U, 0x9a3e42eaecfe45b7U, 0x13c5f23d3ce5d50eU,
  0x60a0d1a0cf24109U, 0x70d808c24eef3c0dU, 0x481ca4f705f5c631U, 0x414f0c6c9ccde27U,
  0x37f336a881230542U, 0xcd93442f29513e2U, 0xc00a29dd094e03bfU, 0xee18ede2e8e0f80bU,
  0xbfee0b49c0d5d70bU, 0xd9e9fc37ecfeeea3U, 0xa93613f8d2130bcaU, 0xb20eed3c23c6ccfeU,
  0xa7da0135ba21f207U, 0xd922d2400fd35014U, 0x35423d1abc36df1eU, 0x16b81d0ed6161addU,
  0xcd61456526345dcU, 0xee2a51cc169a16a6U, 0x9be436a821c24740U, 0x35ccbeec414b13c5U,
  0x304fd0d02be8ef1fU, 0xe6225e01115c6c1dU, 0x1815c9d909f3f60cU, 0xacfdf1123ee6100dU,
  0xeb0cd2062a0eeb16U, 0x7f133122140bd9eaU, 0xe541da2bd8d81bf8U, 0x331646560a24b1f1U,
  0xc74e3ef1fcda43bdU, 0xde1bd62b2bc9fb1eU, 0xb2cfee3c31da0bf1U, 0x26232dd2f84dfae9U,
  0x47b801f949f5d1edU, 0xbccc27dab01395a0U, 0xb6af2f52c2ac9af0U, 0xb5e5f1c068eccde9U,
  0x30d796dfdfce40d9U, 0xb6101ccbb41141f2U, 0xd15fc9f9a815f0ceU, 0xf80cf1ccc9d4afbfU,
  0x930aafb73208aa13U, 0xae30fef24ae439a3U, 0xfefd09b52711fdcbU, 0xe0ffbd227503ddefU,
  0xc07de36afee3e92U, 0xec2cf4073bfa150dU, 0xaf53c3de1a5ed26U, 0x144c58294fbccaefU,
  0xf6fdc9bdf5efc25cU, 0xcac13ab425d1ccbeU, 0x26f63833c8e92916U, 0xa403f4144e161a20U,
  0x131fb63bf28c54acU, 0x2f670081d5f8c1d7U, 0x2cbf0b26fe3a0b1bU, 0x19e04b13362532b4U,
  0xf4b7042610e6d707U, 0xdecffa32f9eaeceaU, 0xb8ed0fea33ce1e2fU, 0xe1dcf624fdd6f122U,
  0x9f818342a33ec41U, 0x2ae70dc902b13c2fU, 0x27f540f302d21359U, 0x2bf547bd4644c744U,
  0x26be354b15361c41U, 0x2144fc0a2cda18e6U, 0x3c4abbba3e4cefeaU, 0xe925dcf00e1f02f6U,
  0xceda2f26fe11e5dfU, 0xed1908caea091724U, 0xe914f21ad1ecc66aU, 0xeaf610c9513f1341U,
  0xecd2f600d30b203dU, 0xf8d20ce61ffec2fbU, 0xf1c443c1ecdedb0U, 0xf740344e383c031aU,
  0x9e940d8e7e60a0bU, 0xff730d9d11864f7U, 0xf81cf521f4e5077fU, 0x5c9f6f81de5e00fU,
  0xdf1b2efd0fdc1605U, 0xe09e7b11a211a50U, 0x401ddce409faf401U, 0xdce9f51cc124f135U,
  0xeb9df119b9d1ba27U, 0xd9f436ddc2e3d240U, 0xa2e31bcd2ff019c6U, 0x4bb40316d608f1e6U,
  0xc5d7000af4334d14U, 0xf8f2faef3ae9f71cU, 0xeb1ac80837c3de18U, 0x1857501e14041acbU,
  0x132217e2d3d7301cU, 0xe0d12a0ae4ed002cU, 0x8110cbf9e4c43afdU, 0x282204e9eee80136U,
  0x37dace1b3f2a2b21U, 0x4b2602233f4909c0U, 0xedfef41dd928e0e2U, 0xe2e2f8e207c70bdbU,
  0x3d0910f2d8f4edU, 0xff071509adf8d120U, 0xf120dc28e22438a2U, 0xd435121aefdabc1dU,
  0xe90b1757c50befd0U, 0x3de116a50be6d5d8U, 0xdd02ddce4b9e755fU, 0xfa05212f2d3e012bU,
  0x4df2313feb3e639U, 0x2124b2cd217e9d7U, 0x3637f4051046352cU, 0x2afddc022de2dbdaU,
  0xf01bd94afa36f316U, 0xe7dc3917198df4c5U, 0xef3b43b9ef2e56d7U, 0xc238cb3678bcf4ceU,
  0xd83a2cc544faecbdU, 0xc52f072bed1642a6U, 0x5cdf2e312eadd0cU, 0x3138dffc3d33f105U,
  0x12ebdfe943bb1fe3U, 0x324222d40e953c3eU, 0xa303c424b3112428U, 0xbbda2c0754efef19U,
  0xf713bfa9a9dafc2dU, 0xa077ff474f03efdU, 0xb6ede4d744fb5dedU, 0xd7204c17d63811fcU,
  0xdb1cd6df0d9f11b6U, 0x4d36b44218d3b118U, 0x60ebd23bdaf82cc8U, 0x35f138e90b2aeec1U,
  0xe92ef6d5c421c528U, 0xf9dbdaf4ff27cff9U, 0x2bcc9f37dcf0419U, 0xc78edb1bf5e5fbffU,
  0xde450dc5dcbad051U, 0x16ec462713c8d1d9U, 0x724c2ac105afe3edU, 0xea403b411ef0c5e5U,
  0xdbf81c9f19f7082eU, 0x9d838a2a3203debU, 0xdfeebf0d312635aeU, 0x16814b0a24eee206U,
  0x1fe8c831d3ef5cd8U, 0x6bb33becee9ee1aU, 0x94df8e1f23e391dU, 0x871241a0ceaced0U,
  0x3eee5ad1d6b1c146U, 0x1dd7f9cd4303bbU, 0xe4292216321f0fceU, 0xdc9f2cddef09e6e7U,
  0x20043d3d5b07170cU, 0xfad1c02bb0234735U, 0xd509e7d1e52be428U, 0xa6bdfbfe40361c07U,
  0xc12a250d3bb62d41U, 0xd73d072a1afe3afdU, 0xd010e8d7fd0ce902U, 0xf21ee2644c13946U,
  0xdc15fe0ce5a524f6U, 0x2a1c015cf007f0e4U, 0xc8e4de191f01e206U, 0xe7c820c33b0e42e4U,
  0xb4f418d34a04303aU, 0xfd29ebbd382d0ad9U, 0xe9c1cdf9e9e4f72fU, 0x4dc41d5fff7ca46U,
  0xe3d6de0ad107e813U, 0xd62ccc24bb81f3c4U, 0x2d03c506dbbc3eceU, 0xd01cdadafaebef09U,
  0xdef0ac8c1b90dc5U, 0xb43528c605fb21c0U, 0xf43bdfe11801f0dfU, 0xd5cb47cf460d3047U,
  0x126001cd207e7ffU, 0x11e6e3cbbae2eb14U, 0x11f515c71a2e52f2U, 0x2c19082a3c52cbebU,
  0xefaf1207d1cdc902U, 0x22fee60ef2f4ef33U, 0x5ca0edbe4fa39ffU, 0xd881d1f40fe9eec7U,
  0x8c9222d144fe6d2U, 0x283e35f21005f2d9U, 0x37f6d7d7afcfe8e2U, 0xbd9fec1cfe6231dU,
  0xf8c3effeca0c050eU, 0x1c2a2fd623d5f013U, 0xdf1dd3e9f4f0e802U, 0x5b6351bcef3e6fbU,
  0xc834d70b393fd0dcU, 0x12f3c1a313033d8U, 0xe72cfcc2c533deeeU, 0xded43e200aebfd02U,
  0x430bfbdee7ddb9eeU, 0xf11f2221161f3bf0U, 0xe9e338e11a06d7fdU, 0x14bee5e446fad9b6U,
  0xbd24c9f40fe52816U, 0x4217e5af2563b70aU, 0xbf928b834ee1b85U, 0xf8de0334e917add9U,
  0xede1e2d7a24407d6U, 0x400f23eb0e504a17U, 0x9f0a151ebf0e00c1U, 0x45c3a7f750a5f122U,
  0x16fcbfe1050d13feU, 0xe8b8db9cd190c0baU, 0xe2ff2809aaa72a15U, 0x21cbf35637f8eef5U,
  0x373fa2e3e7d537b6U, 0xc2352ec2e8d5819U, 0x30bed15b327aa20U, 0xd9c3211840ebfdd5U,
  0x1502ae3aabdd04f7U, 0x18260019da996f39U, 0x9ad3aeeef1120511U, 0x8155f0d267d3440bU,
  0xe3daeefb1de20451U, 0x52332617f3d72cc9U, 0x23fae4d82c473c2fU, 0x262c34fd04c22a0eU,
  0x9b71ce189b193c9U, 0x7dd431dc3da7fd3aU, 0xd54cc6bbc6cc1302U, 0xd82dfe09c8f00546U,
  0x3186c59a13b01857U, 0x60a2f24060ed6a8U, 0x342ea0190739c2U, 0xfd15d0fc12ffa553U,
  0xc3eae1331e171275U, 0xead226e710bee024U, 0x15fa47172baaa305U, 0x37df09cf3ee64b2cU,
  0x11c3da94cbc3bd55U, 0xda09ff0bf2d4b99cU, 0x8b59c7c03c0a68eeU, 0x34cec9d37f5407feU,
  0x15fae99612ba3909U, 0xe4b7fe59df574633U, 0xf033b22d2a5a4c6fU, 0xcb30e5f7fb0e0a0cU,
  0xc5b000451df1d920U, 0xd223ff161aff13d0U, 0x29c21509f54917ddU, 0xcc85ceeb29ac471fU,
  0x23b208aadb842becU, 0xca23a81bc33a3cd1U, 0xd3b02ef9c5e1df01U, 0x2e412ce2ba3c26f0U,
  0xb84b6340104ff1f5U, 0x39e32174b7e84ed9U, 0x3e7f1167fc55ec41U, 0x16b5b7b639251301U,
  0xcbb249580301abcdU, 0x3758eaa7033bfadcU, 0x30f22a5559d6aaceU, 0x9045fdffca300a77U,
  0xbd32d54e4d45cea7U, 0xc72fd8e1d7904095U, 0x5dd5f9fced06cb25U, 0xf4f6b5b4e540ddbfU,
  0x411635610d05e10cU, 0x3bf1d1220ecb51ebU, 0x2cfadb0f3eb80005U, 0xbb0e9e44bd0c97dU,
  0x13b46fbbb11aaeeaU, 0x264321582199281bU, 0xfeddae02394cddcfU, 0x640241502f54806U,
  0xc913045cef3a9e25U, 0x302132c805f49934U, 0x941db281dd3f819U, 0xd2f9f232d0f102f9U,
  0x612bba26e4dceb23U, 0xf924040f81ffc1ecU, 0xd8b25500233d44b7U, 0x13edf0e5e4fd20f4U,
  0x13f1e2dc0ae24219U, 0xdee13e141dc2fd20U, 0x22f427cf4bd7091dU, 0xeaf4110f32ede70cU,
  0xeb19f4e4062738f4U, 0xe5f7e9e6aa05fb00U, 0xbc2cf4f7173a0ff2U, 0x40fbbe1ef6340d42U,
  0xfbd1e011f3edf833U, 0xfee9e3ec0b46a50eU, 0x24e2d410f6f7251bU, 0x14f00803fde01213U,
  0x18b0cac6e11a0e54U, 0xd3f8ec25b4f9b4f1U, 0xb8fb380e0f2cfe3aU, 0xe4b4e50fec0c1234U,
  0xf4f7090428dd4722U, 0x7e3d1b1ddee92ee3U, 0xf030addcf5dc6812U, 0xc1fb16d71002251aU,
  0xe2ddedc4f2eaa5cdU, 0xbe3230fbc8b708efU, 0xb0cdb3b3c92a19deU, 0xf8d423fe0af003ebU,
  0xa8cbc4f2df31d74aU, 0xe46f2cd13fa3c1cU, 0xdc252d81122912a9U, 0x120d5dc645aa450fU,
  0xcba3026e19f1304U, 0xd81935c30cf8380aU, 0x22ee0702ed21f9e5U, 0xe00b153723d0d0efU,
  0x2eee1819f72c0031U, 0x53051d53104503ebU, 0x16dcc6f5122c461eU, 0xcce17ebe70e0b09U,
  0x18e50ffdc0a6e6f4U, 0x4df230b48162a30U, 0xf43f29dc2d000e1aU, 0xcedbe6cbf31e081cU,
  0xd620100503ebf1b3U, 0xeaf7270100cd2adaU, 0xc121f91ce8f535c3U, 0xd8130013ddee2507U,
  0x45240bbbc1c52bfdU, 0x81f110e2b610c012U, 0x9a3819fc5e34fef7U, 0xf40111eae216f528U,
  0x2126eec204fedd1bU, 0x1536dbd302f541b2U, 0xf426f5d201cb0ef6U, 0xf52906142fcb22U,
  0x1f172bbdb522f630U, 0xa4131c341f2a0ec8U, 0xea23cd040923f013U, 0x3718d82ea625400bU,
  0x2d91de1141017f2U, 0x37e112cbe8e303bdU, 0x33dc041d02f62804U, 0xc8cc25e41b1ce306U,
  0x342a0b02ac0f20d4U, 0xf7f7ed1fddffce12U, 0xfc23f0e513ed19baU, 0xd7092d27b657ebd8U,
  0xede11f0d07050af9U, 0x14d640e619cc2ae3U, 0x1f194a32ebcf04b2U, 0xbfe9550fdaed7f2bU,
  0xe6f50a23bbdccde5U, 0xed49e43836c15d26U, 0xf6cefcc9b02de760U, 0x2cb6de345c39edf3U,
  0xe6d7262bed08ff50U, 0x1d17fd1aff104f47U, 0xcb193804e102ed27U, 0x2116401116efee5eU,
  0xe82e44ecabe0f821U, 0x1ef45ec43fefe7ffU, 0x3dbfbe1acac3380fU, 0x31ad39f04ac6d0d3U,
  0xcbf5d82de4b5f4fdU, 0xdac8e22a06cc3a26U, 0xc91b2aca2c442412U, 0xc94d60c0fd30f8c7U,
  0x60b0f1bffbd91af9U, 0xc9eb36d4e4ea2847U, 0xc0e13610b6c70f52U, 0x79ff4114fd7c5e8U,
  0x21858f6f8a322f8U, 0xd3a7a2c2edf7a3d9U, 0x437fb75d0ace08d8U, 0xb5ce310cd4f03f4fU,
  0x5bef2e6ced35dafU, 0xefffefaeea8a2ed2U, 0xd40bb1a00f0146b4U, 0x6eedf44c3d28e6e0U,
  0x172118cd9b32bbd3U, 0x20f7c92adb1ff32dU, 0x2ffaf91a49f60f3fU, 0x34e905badae9bcbfU,
  0x1a27902b41291f41U, 0xe3f32edd0ceedce1U, 0xc827ce07f93109baU, 0x4e35130a5ac3b8d0U,
  0xcad8bb96f6eceb42U, 0x2996ec4ecf261612U, 0x47e8e119e2f2b03aU, 0xdcf9313b36c4d925U,
  0x1cdfaf939fe1cbbU, 0xe8d31a01d9aff00cU, 0x4d0113b42d1b60daU, 0x3306da1a1fe2049aU,
  0xedf41412ea22a7bcU, 0xfbed07f013d4e8ebU, 0xc5b9d8d522dac234U, 0xdb41d213f4e5fde8U,
  0xee1fdd3dd41713e7U, 0xc61cbe263a35133cU, 0xf09260cfae5ee21U, 0x1db0e0dde0defcd1U,
  0xd3e61fd31928ccd9U, 0xb6412fe0e08112b7U, 0xafae32f6f8d22002U, 0xe7e42b3b4e1dfdf4U,
  0x24f93a09f9cd08c3U, 0x48241dd7fd3b1bU, 0xa733dac9f1bde6ffU, 0xf5b23646ce15d0edU,
  0xce292835d90dea26U, 0x218d4ecfbd613b2U, 0x5bbf3fcf2bdeaf4U, 0xdef623e615ebd405U,
  0xd91ad2b9fddd4923U, 0xfbf4e0b6cdd021a4U, 0x62b4d0e07db1417U, 0x18f8d32b3a2936d2U,
  0xfbcb0cd519e304fcU, 0xd349eff95f04fe3bU, 0xe936e20419381d12U, 0xe32537dcdb43e1b7U,
  0x451f4df294b1f220U, 0xe23d10f9e229db20U, 0xc1c4e73a3ff507f7U, 0xccd048fe2bd4ff3dU,
  0xc00ba8c709f8210bU, 0x71f20e113fb4e66U, 0xd516b0bfc0b23281U, 0x350d16c603aef72cU,
  0x48b349adce09b346U, 0xb2b259316d60c1dU, 0xf6efed05412b1dd7U, 0x230ee012d92512d5U,
  0xbd15cbc521ed17e5U, 0xd84c361954ef0935U, 0xc1042b0ed1f8d2d4U, 0x3be115ecd82528bfU,
  0x1db202ccbec9496aU, 0xeef5d1100fdcf5daU, 0xb42b161938f539ccU, 0xd4c70826c9ca2e18U,
  0xf2f525093cda55dcU, 0x1935d3e4af38f748U, 0xde582291f933e3bcU, 0x137f96f39130acbU,
  0xb4fd31212d1d2b6U, 0xb5b8f5cecbd0ea3eU, 0xe6f71ff8fefffc3fU, 0x4d0e17f6bc1118c8U,
  0x18fde62d4d44e048U, 0x1e3e3acd23bfe029U, 0xce30fcb56351444U, 0x20fdf62558ba1a13U,
  0xd4b5099510e1d504U, 0xc1f13e819dce152U, 0xc05fbb1b0d9f642U, 0xfd311e064413edf9U,
  0xe7e6e90c0417f039U, 0xe7e51f4321e9be10U, 0x9172e12e0ec2ee9U, 0x1be100f541241202U,
  0x1ae5cf0ac20d44d3U, 0xafe7039e03be0fe5U, 0x81dcd9f2a93ce05dU, 0xe8193e572e201ef6U,
  0xdd33d02e0012451dU, 0x74665f07dcd2f038U, 0x325ddd1e626090aU, 0xdc4722292304e2eaU,
  0xef6018993edf812U, 0xb75ffcd56d045816U, 0xe3c201efc52452ebU, 0x12e24ec6035722dcU,
  0xfdb3a22c6cd5038U, 0x6d1c387135d4dcbdU, 0x30d6c3166b4406f7U, 0xd45a234af61ef7e1U,
  0x2254cbabdcaeb800U, 0xaccf4fa0d8ea4bfaU, 0x22a85ad2f4cb315cU, 0xffdb625211d460a8U,
  0x475be233e7aed484U, 0x30567f04e3e8d5dbU, 0xd37eb8824ff5dfbeU, 0x42b39da07e3e738U,
  0xff3efe1298911752U, 0x75519494d0fe5d0U, 0x4c25dbd6224418d7U, 0x47d7ed301dfd23c6U,
  0x36ee35e0f0bc172cU, 0x32e7e025f535f91fU, 0xd8b3135010407f7eU, 0x3d0270fd2899fba4U,
  0xd49dec174c97342bU, 0xa29459ef0cd5d89dU, 0xbe182e2007f628edU, 0x1d06a1fce4f6160U,
  0x394649d23ec41274U, 0xcaa3d20fe2b6b1ddU, 0x1dcb1ce3a5d7758U, 0xc03b26fb02b74ba7U,
  0x41a6a69ddcdad408U, 0xd5e32a87aee2693fU, 0xb4f50709fcfe67bbU, 0x10fdcaf9c02fb4ceU,
  0xfdefb6793dba2cdeU, 0xfa0f0134c1aa01f6U, 0x262ca466404580aU, 0xd0461f0750de3228U,
  0x66fc463926d56144U, 0xa849e7d911415b08U, 0xf988159b66b7fe26U, 0x3fb63c04413d0b04U,
  0x7c0c3d2455cb542fU, 0x1d04cb4c1a22431cU, 0xfae9eed0fcf7cbdeU, 0x244e3d12f203d6d5U,
  0xb281bbdff8eceafaU, 0x921021e5c882e5f3U, 0x264aecf8ea13628aU, 0x2b1ac613c025c64dU,
  0x1a06000a07220cc0U, 0xbbd6f6fdfbae3622U, 0xa2d01f557f692c33U, 0x3ecb408e343f709U,
  0x8dafd837a8044028U, 0x1b60ff1807b406bfU, 0xa7553dacebdafb0aU, 0xef31e901f4db0104U,
  0x30bd073ea33ed205U, 0xbc18240abb4b3d04U, 0x43e89430ad2eeefU, 0xfadfecf417d2052eU,
  0x9295cac401b6ddaeU, 0x9802f3e9f4e5dfb8U, 0xc72bed00b8d7249eU, 0x36402d58500af843U,
  0x394b269e110ef344U, 0x4e9fcde140b2543U, 0xf707c3990bfa3cf4U, 0xed082ce5252ce100U,
  0x2809011ddaaf08faU, 0xf2d6194181a6f529U, 0xf4493204eaf6f1d5U, 0x3f35b6d3d13b1afbU,
  0x43ee32fb3b11204bU, 0x15e30f1f2ffbf611U, 0xfe49d89ac7d3f2e8U, 0x2ad8f1c4e3c103e8U,
  0x1b25c5f50ac72c2dU, 0xb1eaeee2ecb4f623U, 0xd812d2c2ef553b10U, 0xd70315370516b229U,
  0xecc2d5dbdace2a2eU, 0x303d63a12f40112U, 0xee502ea18100ef9U, 0xffc3d2331bc0df9U,
  0x1ee00bbbecd8fedcU, 0xca283ccff4ae2ffdU, 0xe63b0821d0ea171cU, 0x42c11ce1eaec1cd8U,
  0xfe0edf0b1dcb00fdU, 0xd50209cbe8cf2c35U, 0xc34fa1eefe6dfe4U, 0xd505f214200bd71dU,
  0xdca21303f7062207U, 0x25e6182b14ffe9f8U, 0xe62112ed1a1835e6U, 0x72f25cce5f70d1eU,
  0xd926e707ebd0101bU, 0x25f0021e00dc0ddbU, 0x50f05400af3c2ebU, 0xf81c2a1534130d05U,
  0xfb0fded30b29e2f5U, 0xf4f1280a02060bfcU, 0x1ee10fbf30393eedU, 0xf6f3f3d708efe7e3U,
  0xe0e3b8f6cae0fa04U, 0x3ddc5fc0c8111fdU, 0x22152c2911bf08faU, 0xf026d8e011eaee15U,
  0xe2fe1adccddcf72eU, 0xdf081f15d5dc04f8U, 0xfaf8d314f10d3befU, 0xe50df4d53d172ef5U,
  0xd2e31417e6e92b32U, 0xcbc61cd581fda8a4U, 0x3069c352a3d3ab9U, 0xdf1f37fd58dfcdb5U,
  0xcb19e4c142bbc2f9U, 0x37edfb09eb2cc6d5U, 0x38cfe7acddc64b0cU, 0x7b12f410472216cdU,
  0x3448da271999ec02U, 0x22070c0394c822f7U, 0x71510f05c1de4fb3U, 0x24f537195bcd59fdU,
  0xb45fbbd8f505cf3bU, 0x24f4f431ecfb1781U, 0xbdf2f8c2bf3bee51U, 0xdeeb4ed0e30f38d0U,
  0x35411cafacdbc8a5U, 0xec2d3140cdecc86eU, 0xc1db1de74f56b3e9U, 0x9e0047fa3544b927U,
  0xeda2b6d7c400ef1eU, 0xeebff275ab15232U, 0xfa3314e631d31430U, 0xef35efbf19071339U,
  0xf906262a02b4dae7U, 0x4ce17f38c5e1eed0U, 0xe63dc0be12df25c0U, 0xd44203fdff15d9b2U,
  0x231531efed11e8f4U, 0x1cd331f142f51345U, 0xc790e8e61c092ec2U, 0x17243924f8eb1412U,
  0x4e2f82dd8061b39U, 0x4fe91a052501ff01U, 0xb31022bf28fa0a30U, 0x1e2b3f04f92af91dU,
  0xeeda25e5b2ddead2U, 0xdbf228d71cbf0c47U, 0xb9eef0e5f9ee433bU, 0x4729f5e7371ed6f3U,
  0xc84c06004be828d6U, 0x1346014b2bcebfadU, 0xe422ecfce51c24cdU, 0xefceeb11f0d6cc0dU,
  0x2f7221aaba1e530U, 0xebfdeadf24515413U, 0xe3fd0ff23f3e38eaU, 0xd09cfb3f1f3d05fcU,
  0x292a33dc322230e4U, 0x64da2c4140b5ccfaU, 0xad13bcfa0748e9cfU, 0xb3b403075057b6deU,
  0x4d17ec30e8bc34c9U, 0x1f4d12bb20c0c376U, 0xe72ddcd7015acaf0U, 0x24e7163f4003420cU,
  0xf5e39041dad8563fU, 0x102140cdd2bf9faU, 0xd33e138a12ba4b1cU, 0xdeb1900382516e6U,
  0x3baff7030eb935d7U, 0xadbdf424051c5009U, 0x81ea521ff6b2d9f0U, 0x2cbd5002364edb4dU,
  0x3ed5cb426e1bcdb2U, 0x1f394ff4b2e9c6d4U, 0xe43c3f1107ce06fdU, 0x3e35d25c1aeb2e2dU,
  0xe0370bcc2eb7e7ecU, 0x29e8cc0fbe41e6feU, 0xfab44b20c128bc5cU, 0xe4e0d71a2c4b3c01U,
  0xccd2eed00aec41dfU, 0xcce4b0cbfb3e9eaU, 0xf851f0b2f3ff49c4U, 0x6a32f443cd7e219U,
  0x3100de3837de38d4U, 0xe35df3ac22dbc5daU, 0x10c9feb8d35d3f3cU, 0x241b1801e6c7bdbfU,
  0xdddf07253018ffdcU, 0x4f4abfcb2efaa806U, 0xf84621a1de39fd2cU, 0xfca907efef23d7cbU,
  0x1f044bfbf7add3d2U, 0xa921012131b4373aU, 0xdf2fbb03e734cd57U, 0xe551e4dd381f03daU,
  0x4fe8475802eb242dU, 0x374c042ff3ca0908U, 0xe5c1ea0be03cbdd7U, 0x32c17e21af10258U,
  0x47e7fe06c394e3b7U, 0xce01ca9ff3051d4aU, 0x30e912ffd8ee33dcU, 0x1a43361406181911U,
  0xd3a9d50b43812e64U, 0x5b29e274134031e7U, 0xac48f92c34d2ecdcU, 0x164eec0410182cdbU,
  0x6a44140a03c64b3eU, 0xe1b568a81bd8ddf7U, 0x5880690ecbe0214U, 0x3335dc04acf6361eU,
  0x213c280112d6425bU, 0x2a093528bdfcee94U, 0xa24af9d7f7d4d6cfU, 0xf2a51de1ef4e0d7U,
  0x4ed6e3df29e7e600U, 0x55ecad113cce2dcU, 0xf2d1aba0d5344cd2U, 0xf3c5153ce9f560fdU,
  0x19142f7028b6444aU, 0x3b5b1b20a117abf3U, 0xcc28e41423bff802U, 0xac27b644ebfd38f5U,
  0x66b8125cbce42c16U, 0x1ac51729c952bd01U, 0xbdd2bd451c3b1dcbU, 0xc8097f21e24258b9U,
  0x3ee0442575eb1f32U, 0xc19d5eee71df20aU, 0xfc08bedfed2024eeU, 0xe2ef30e90fcc2e39U,
  0x1edfe2ecb1be1d4U, 0xd5e508d5eed1ca1aU, 0xfef30ef9de1dec16U, 0xefe5c52b082b05fcU,
  0x3601dbe90efb2233U, 0x5ee0dd120dd2d829U, 0xcdecf4012fef1d15U, 0x14ccf5d734dbc734U,
  0x29fa381f13ce0febU, 0x81ec0d1b12c32535U, 0xe80bee09d11bfde0U, 0xbff704d2ebd9dfe8U,
  0x19b50ed90d262409U, 0xfc260526fb17082dU, 0xe30b12d4eed71212U, 0x1c16f1f909090f19U,
  0x180d201a0ced23b5U, 0xaae40c01a8f5e61cU, 0xf2fdf8d61e32f60fU, 0x808d4e32e21e5e8U,
  0xeec00bf80406f3f9U, 0xf7f9ed391c82020cU, 0xe7f8f85816aa17c4U, 0xd1e3dffb601be73cU,
  0x20be21fc112623deU, 0xf7b7e4ebffc33e1dU, 0xaf5e2a9d3928efd2U, 0xf40147d9242fd11fU,
  0xf7865023f00337bfU, 0x38e7160f44bbade4U, 0xede9da3d03d706a0U, 0xe728f1240afb13b0U,
  0xdc2b252e2ebbf415U, 0x17d31d510ce40aadU, 0xcce3d4aff2265d53U, 0xc9e8410d00281935U,
  0x7bcd9cdeaef3281U, 0xaede09b932f53564U, 0x3727d5cb19c31611U, 0x2b614aee2d2fcce4U,
  0x9c2b1fdd1be4d73eU, 0xf102411b01a73410U, 0x152505181eee0734U, 0x583d144142d60538U,
  0x4316002d3e8c1cafU, 0xc434ef3ae3f396e8U, 0x14bd3b432d2bd5f8U, 0x36136568e2be0fbfU,
  0x114315dd1bb1fec3U, 0x26090508c9b1f229U, 0x9c120f1b5ffe8fdU, 0xfb0e32eaf9c81d09U,
  0x2ffc08082658d36cU, 0xd62e2238140ff500U, 0xd202181e2eb5f511U, 0xb6c0167f47d11fa7U,
  0xd2ecca2dc6161e31U, 0x143b161e1cd223eaU, 0xcc0dbbc83c1ebff6U, 0x3d45d9f842120439U,
  0xcf29e068562e222aU, 0xdd43edff4e9099f2U, 0xe120a1c5cb6190eU, 0x130854d5423ea5edU,
  0xcb8d1413eebe3bc8U, 0xcbbfd00af6d53a2aU, 0x6d429161322ef13U, 0x7b0029ea0bd70cd6U,
  0x5ce444fbf81be709U, 0xc7f438fb072b19adU, 0xb8360301cdb4e560U, 0xbc0ffe5317bdf5d4U,
  0x492f360a0bae0945U, 0xb243f2e2df52d081U, 0x204716b6fde649e5U, 0x8b3054db42114ceU,
  0xbd645252f140df4U, 0x27420244d0e920f5U, 0xa5e9cf33042cdfe1U, 0x4e013d1601f21e7U,
  0xefd40ae7fcee22b9U, 0x253532bdcfbd0401U, 0x15f4e6de34c041efU, 0x16bc2adce03433b9U,
  0xb324eff83c33b909U, 0xd8dbe500de2024baU, 0xc7c31cd8f73e1fffU, 0x20c9d0265cde3d59U,
  0xdf2ceb3dae01f6efU, 0x27d8e3dac205cb84U, 0xb52fd492ffc2ca12U, 0x4233e0e01ad6c3b2U,
  0x8ed22ece0e08deb4U, 0x3ccdfed9e0361be0U, 0xebcfb601b2bc1d2bU, 0x165903e6f8deecd6U,
  0x4115e8fa8cc5a30eU, 0xcc13c93ae0263a32U, 0x195ccfe0c0213f0dU, 0xb90003e10db9301aU,
  0xd0f54502ef5da400U, 0xdd0e3d023f0a633dU, 0x1e10c9e0e307e506U, 0x5e00ffa1511db35U,
  0x13f356efde3cf711U, 0xf400623407f6f802U, 0xf217da21b94ce3d3U, 0xfbe32145be2cdcfcU,
  0xececf8f2ea2bfda9U, 0xbae0ea9ef5032112U, 0x2412d4ee16aed9f7U, 0x2221cd29ef18cc24U,
  0xce3e59c4eaf9d414U, 0xe4dc1a15d203291aU, 0x2d4008ec321532feU, 0xf28158e0320305eeU,
  0x494c80651df44beU, 0xf116b5daa5e830ccU, 0xa0001408b9e8c0efU, 0x180a9ee74a2b2239U,
  0x672820aebfddd531U, 0xdab3310a0d3362daU, 0xfd4517232f353000U, 0xebb1b5cd092dda2cU,
  0x2d4b4a35df09c834U, 0x5dcef12f8cf03ab4U, 0xddc3c5f60902edbbU, 0xf5f713cfefdacb32U,
  0xdeeac2042a02dd20U, 0xafdd2ef828be0f1dU, 0xfaf0f3151cf9e53bU, 0xbaa6bbbbb944cbc0U,
  0x28c3daf70f08e8c8U, 0x633fa9ef22cae9e6U, 0xa60bcb3517d0301aU, 0xa45a13dd01e6e116U,
  0x3643361d81222217U, 0xd726380fc9bd511aU, 0x1fbe18becd43089cU, 0x2dd8490edb2dfaf0U,
  0x1fbffc16b4e9f6ceU, 0x1dc11237b3d6f90eU, 0xcb302df932eecc00U, 0xbaca444bcdf73e14U,
  0x5faeaf1341cdaacU, 0xc131e314138101c7U, 0xe7ab2cb9f8ae1c3eU, 0xfbbe06f03f27432bU,
  0xb2e12ef8d137bbc9U, 0x5a0929d7da354acbU, 0xb0cecbd7f0130a34U, 0x33dc12a642344a1cU,
  0xeae31cf8e1e4b8d5U, 0xd0f30e2cee253940U, 0xbf00f8e72332fefeU, 0xee9a25b817180bfaU,
  0x27eb4f0102f631b8U, 0x2bb507d4423e4dceU, 0xa51944d704dc0dadU, 0xc91eec083ff33fc3U,
  0x22b0e4bf3cfc0020U, 0x1c56bcee47ad35acU, 0xede2e1facd09ec5bU, 0x35abfbe96e41ad01U,
  0x896070d5c633f13U, 0xdcc2180ad9142612U, 0xc3ecf2e1e3b4724U, 0x10ef45f2161e1117U,
  0xf7c11814d101d727U, 0xe41225cd8ee501f4U, 0xecdcf8ea2dfac71bU, 0xe3a3fa0648fef302U,
  0x521d7ea2d091322U, 0x221302d41e3a1c34U, 0x331dd9d6fff514e7U, 0xe6dbfe29f3f1f0ddU,
  0xc0b24104c813012cU, 0xf8eadc0e8502f401U, 0xeac555d9dccf1a17U, 0x1e8112e8100e2c19U,
  0x4123d9d5103b35d2U, 0xaf0f13fceef1050U, 0xdb0d100e19fa40edU, 0xc2241d2200c518baU,
  0x212310100edd0f13U, 0xff1432dcd2b105f5U, 0x14de083828efece9U, 0xe7aedaf204e9231cU,
  0x3ed7f61f200af5f1U, 0x3067f2417b6cee0U, 0xb94d17c0bc15201aU, 0xeff7cb77e21b4d2bU,
  0x3cb7e1eabceff4b9U, 0xfff1f9cc17e82c38U, 0xb40b115ff5cf3ec9U, 0xf70af31f001651e9U,
  0x4f8cd3d1310d82cU, 0xf247831c1d3af07U, 0x1138f0b53120eacaU, 0xca6a4add1236e7d3U,
  0xdad160ba119ad710U, 0x1120d1d334453d0cU, 0xc07b33b02e8d4ceU, 0x4bf461c42410004U,
  0xda27cc380808c6ccU, 0xbb4d54e1cabfd932U, 0xb7dd0a06b628381eU, 0x3244e1dadf1fdbfaU,
  0x3149e8c22dc4b906U, 0xe61b10d5a930de2cU, 0xf7d1f3deeb03cd33U, 0xd42948203addf921U,
  0xcac2140ef2a64834U, 0x10cc09d5e781c1b8U, 0xd80a0bcbfbce291bU, 0x25d6bf2728f52922U,
  0x27491cbd05102915U, 0x24b931370913020dU, 0xcbf1b5fe25350ceaU, 0xecf3c0710eab4d5U,
  0xf0e370ffbd409f8U, 0x8e10c1327a81af3U, 0x1302db581feb04dfU, 0xe309d82c2dfef7a9U,
  0x2d05bb1a90dcc21bU, 0x20f6301df2f33de2U, 0xfef1dafbe8e95e4eU, 0x1dfb4c4b09f24c09U,
  0xd4fcda42fcd6dcc5U, 0xd5fcdbf8f714e341U, 0xdbfdd93542ffe0b8U, 0xca291c391b310afdU,
  0x11fb1cd5e5f302e4U, 0xabe2ff01523c0fcU, 0x10181202c7ff4327U, 0xe5df17cd3910f624U,
  0xc53a43e43abbf8f7U, 0x5305ee44068c2f45U, 0xfe5ee6ba00366209U, 0xc3084c3749d319c2U,
  0xe5f5ffedb41cc937U, 0x32e30cc032de2dceU, 0xe22833ca145965bfU, 0xfef81754bf54f669U,
  0xaa17f4a1e6d70818U, 0x44f9e13931030a55U, 0xd214cba84da132aaU, 0x200222745a5eee3U,
  0xc7b6fc4f3daad543U, 0xeef700bbc5ed1acdU, 0x922be40b0b470e12U, 0xbea9c11bf7e555ebU,
  0xaefbded10f00f037U, 0xb224d092228e5ddU, 0xd010fb628f0ec83U, 0x1915e7a928cd5544U,
  0x34a9003c81f004bbU, 0xef3061423dc1e6abU, 0xc40e450aa0ad3f0dU, 0x1fb0dcab49b307a4U,
  0xd6d429343ab5f1e7U, 0x43f1ba2601bee7a2U, 0xd4ce0ef737c72cd6U, 0xf8f67740b42ff0c1U,
  0x6adcd0a1da8c4800U, 0x3631be014f3d2efeU, 0xd03198ac242841bcU, 0xbd81e4fdfce8e210U,
  0xc4f0de22fd462e4aU, 0x3f1ca70e120a10b0U, 0x4012fcffe0144c30U, 0x2c1a42b5cda84b0aU,
  0x1125cfb1eefd35e0U, 0x1aca5f2ae821eedcU, 0xcbbcfafa2e1ff9eaU, 0x57cd5c4ee300f337U,
  0x2260e9353921e0c0U, 0x17e7fdb8db2926e2U, 0x483fed3f0e03eef5U, 0x10461be32025dccaU,
  0x18184e04a737cb25U, 0x1f2e4ac70cfbe931U, 0xd0e7ad1942960da8U, 0xfbf844268af6bbe6U,
  0x49128a3a52d8e51bU, 0xdebc06411da031eU, 0xec0ab90fd256d5bcU, 0xe1b93b1f3af923b9U,
  0xaf1bdee537d14a1dU, 0x8ccdf112bf2ae129U, 0x422743a6be0702c2U, 0x372462d1f1f3502cU,
  0x65e6f250a2ea5539U, 0xe6c2d7f989e9010eU, 0xe83331de2a522a20U, 0x2f1148d33c3b15c8U,
  0xbecab148b28f46d9U, 0xb7f0fd8b011e5c21U, 0x38e655b1ab3d06e3U, 0x314006b7fbff1a1fU,
  0x2761320bf8fc1f0fU, 0xbb85fb4188d7203cU, 0xfc17203025321122U, 0x6febe94d2a9461eU,
  0xf5813a15bd3119e7U, 0x21c6d2dfb007d8ccU, 0xce2e07f92fde01bcU, 0x6a364cedfeeb2817U,
  0x6ceeccc22817a4f3U, 0x23a4cf152f28edbdU, 0x2cdf97d8c801dc03U, 0x3bc7c01500254e0dU,
  0xd4ff9039211be5d4U, 0xe1fd3e14f9485d19U, 0x43df15ee29d0fef2U, 0xde1cccf9e404d9dcU,
  0xb7ebeb140a49a2c3U, 0xf8be533e056c5341U, 0xee2cf85820b8c808U, 0xd65127fafef6e4c0U,
  0xc1c5ace71dfced2aU, 0xd13accf1a6b3379cU, 0xffced9def7ba2df0U, 0x48dbdb034a36f1baU,
  0x315f1c973b012eb4U, 0xbbc109d2a495a0fU, 0x35c5d217c50612U, 0x2cf8e1be1517d354U,
  0xc6c181e7f4b36817U, 0xbb0bd522cd0cc90dU, 0x2cf0dcee1ac13c15U, 0x7fa310827fdb4d0U,
  0x15f342bfbe23063cU, 0xcd3c5adaad15eef7U, 0xc9b34c5e946ccccU, 0x10d032d9ce1716d5U,
  0x3bdcaaa1b3b5f611U, 0xe8ecce2681d0109fU, 0x95de42d74416e703U, 0xcc3acab607d305e2U,
  0x8df24b9d920db54U, 0xc9ba3c2abe0223d5U, 0x2ac24be7f1c70bcdU, 0x1d1c515a350ecddaU,
  0x2bca2630141b302eU, 0x22f431b3a1e60cf4U, 0xb0d03b30f60329eeU, 0x191a1249fa38ad3dU,
  0x4c40270cdda6fdd0U, 0xb4093fe21344a317U, 0xcc1e002ce14e14f2U, 0xdb4525db5421f835U,
  0x5ece41f4b0aadde2U, 0xc6f700b8a03135a5U, 0xbfdc55f3d2ef166aU, 0x55e02eb0d441bc10U,
  0x26413a1146a3ca32U, 0x1c3d4f27a3223df4U, 0xe805ba18b7dbe5e0U, 0xd030ed1f18f72bd3U,
  0x8c022d72bb5d41aU, 0xc7b8e115bde63bfcU, 0xa9160e0cda4339f7U, 0xdefa06e9f12b26e6U,
  0xaa9b266a2181f51eU, 0x1b3310c6240c2eafU, 0xb9f01f35c13fd8eaU, 0xdf48f3a3060bb3f9U,
  0xfcf43edff0c80e36U, 0x3b2e3325dc4c0fe7U, 0xfa2fff3052db4cc5U, 0xe5aa44f9adb6cde9U,
  0xfce62ff81aecf0d1U, 0xf0506b7331f16f2U, 0xd813e82b473a23bbU, 0xdc18fe96f1421537U,
  0xe92ce6f7aac707f6U, 0x214536e2ccf8d5b5U, 0xba450e0958c617beU, 0xe79c2308c5430206U,
  0xce17e90819fddf15U, 0xc10d23c532ffa7cdU, 0x1e2418ca1d9d1704U, 0x81302637f91b9f33U,
  0xeb1ed1edf8abd5acU, 0x28d7e873de26063cU, 0xb32729efbe4253efU, 0x21dad6d5241222ddU,
  0xe7cfe8d82de9c615U, 0x43bc06ec579493cdU, 0x9c3b757cc1816fcU, 0xe0b2404d15b212aaU,
  0x5b16cc24c0ebfbf0U, 0xc4dbbeccc53aed13U, 0xe9c3e42634520e0aU, 0xcaaab7fbe4b655e0U,
  0x1bbdfe4134611115U, 0x303c232523f91fcfU, 0xdbf87d2f33c2438U, 0x31e2aedf840d00cU,
  0xd5dc9bf88ae033dcU, 0xde21cdf1d0f14a0eU, 0xea18d33bf4f743feU, 0x24c01ce5f8d835d3U,
  0x11bfd7bae2d5deb0U, 0x3f0eded80d35349aU, 0x182eaaf5042c14f3U, 0xd7f1f954e5b905ebU,
  0x163de536f59beaddU, 0xe8e63360c1020df9U, 0xcafe81e1f0f736d1U, 0x2d301306eecbedc0U,
  0xd0b63d2b0c42dabeU, 0xf5faef2d2d00c103U, 0x311da4330113ca01U, 0xfaebc2230723dae3U,
  0x2e25d70a9fd0ff0aU, 0x48f7f0eced4830e0U, 0x4c06c02745d40a19U, 0x531cfe3bf3f6a9d1U,
  0x1802d21b30efc926U, 0xf0cdfbfbc11819c6U, 0x300adbf914e82738U, 0xb0262b4af94730f3U,
  0x202503d4f4a70113U, 0x41efd8f6ee15fafdU, 0x4bdbe80d273402d9U, 0xedd40df62314cdf5U,
  0xce1ef6dc3f33e806U, 0x3d130f4f9c407a0U, 0xbad7f00dc7b412d2U, 0x1e14cbbeeec6f533U,
  0x46271d48cde62436U, 0xa71003bcc3e5282eU, 0x93a8faba2c55fd2eU, 0x49097f22e6c5f3cbU,
  0xe011e80714d50b25U, 0x2532e5f94ffeef0eU, 0xe0b303e6dac1c8ffU, 0xc537f2acd25f27cbU,
  0xd9d4eb3d16efc5f5U, 0xafce605fbf63356U, 0xfddfc5292d0c19f9U, 0x41e2cfee1920df17U,
  0xead3d55a2ace07aeU, 0x17f2330d20d5fdb5U, 0xc7c221d5ca1ad3ebU, 0x33f429142d29e005U,
  0x511cc5ebfc94c6edU, 0x230cd5260645ee22U, 0x1e1d27eacd2c5314U, 0x26b2e9ecbf3716e6U,
  0xdaa24216b1c7cdf9U, 0xf3cd2e59fdcafd6aU, 0xd7c6d1e9dd1506ecU, 0x351d53bed3ee9d6U,
  0xffe24508cbeb3105U, 0xc5503bf73d2bba4aU, 0xffc543aa39d6f9b2U, 0x25e125cde4aede64U,
  0xd82a20f52b9202e9U, 0xfed9550aafbceb09U, 0xae5708b03721e5b8U, 0x73db09faf0dd0fe4U,
  0xcb1180fbb81334dU, 0x27ee282e32e2d045U, 0xa6bd413d474924b5U, 0xd3afb43133bf274dU,
  0x10fd16c150f619d2U, 0x331255f8d84dfbdeU, 0x19eafc1112e15ec6U, 0xeeda41b9302b5f48U,
  0x3ad3d1972bed231bU, 0xcc35f2c705d035b9U, 0xba3e1531d3572313U, 0xefb921292222cc0bU,
  0x17fe04e531ab38d0U, 0xf72a1ca0c9110ec4U, 0x23f8e43ff408b0d5U, 0xdab3e2fe182100dbU,
  0xc5df06b9c51434aaU, 0x63164044cf641f6U, 0xabda2149e8e1ccf1U, 0xfcef53d490424e1U,
  0xf1341af11005d116U, 0xdc19ea2c0df8fbb3U, 0x38e60de1d622c8f7U, 0x180ff0272c18183eU,
  0xc20d9fcae2f22fd9U, 0xf81e202ec281f7f3U, 0x264beccbd2f00010U, 0x17d0e0c2f8c72ad7U,
  0xd7160113f522f8b0U, 0xc84af1050a8303d7U, 0xddfca7f33dfe2bccU, 0xa81afad509fff43eU,
  0x221318e7fdcde0cbU, 0xee33f603049a20ceU, 0xf4b9d1c6021707deU, 0x3805c3d5e1d743eeU,
  0xf7ecf424c702fa26U, 0xf9eff7f7eefe1b1dU, 0xe03bf12010d7e231U, 0xe8cb1ecbf8ec0b2eU,
  0x113021f502cd352aU, 0xd23fc4b8e4eed13aU, 0x13d0e6e414110f06U, 0xdaf2b2e4211fd0f6U,
  0x17b71e2cd0173f0bU, 0xeae0003701e2f827U, 0xcddfe123ab08fce3U, 0xd72234b9f627d6cbU,
  0x27c81ceeccc2fdefU, 0x1e7e2d9d2b20eebU, 0xfcce01f6bc1740eeU, 0x3ec8ddde3049f50fU,
  0xf6f9c3f31435191bU, 0xfbfa25e13f2e0bc5U, 0x8182fa1a12390518U, 0x72bfd33c931e434U,
  0xee2fa217d016fdaaU, 0xae4104dadad2ee20U, 0x94e8aa4bb3382addU, 0x1204dbfa16d8064aU,
  0x2528b228061afeefU, 0x5c213beae4cece92U, 0xb839209ffddcecc0U, 0xe03e2a06d7471e1dU,
  0xe8104cff140f50f7U, 0xae6fef20be12430U, 0xdb05d2f248351ef2U, 0x50effe12df406238U,
  0xc1e7d5daa02cc8ccU, 0x11f8a8f941e4cc02U, 0x432140f10a14f9eU, 0x707212d631a2b34U,
  0xe51f60fce6e0e3eeU, 0x1bd4fad82e456f30U, 0xb53d9981f11acaf9U, 0xcbfc10f6ee05d0eeU,
  0xd7f8196f08d5e306U, 0xfcf3281df5a10300U, 0xeeaff30bbdee2929U, 0x13bffaf963dce025U,
  0xf22eccf7affc9246U, 0xdf3143ca636a1b2dU, 0x21e0c90afd16640fU, 0x2a423e7b5ce4619U,
  0xf524e8072a10e4f8U, 0xe72ffb5f2ef92933U, 0xde20f00e6926aed4U, 0xd40138f7c7bb05e4U,
  0x412ee13129dbd1f6U, 0xaf38f60fb79a205fU, 0xf9af16cdb547f667U, 0xec8de0295a44b716U,
  0x2fdf031a3d27f81eU, 0x2b40e702ffe1ec04U, 0x23c143d2f922f3ecU, 0x1fd1f7cffcfa0a4aU,
  0xe0db5cdf00040201U, 0x3d0e25c6d181e148U, 0x9edc35adb9dab962U, 0x42a92cc924dd1623U,
  0xcac22fc947fd575aU, 0x5d06a6c0c255522eU, 0x8e6bed30f0af6fdU, 0x1ac57cc083d25ecU,
  0x56cbf44019f20136U, 0xe539da19aace4ae3U, 0x8ff927fcc8bb4227U, 0x510a2aa40e00b74eU,
  0x550e17dec5125a04U, 0xe1ed5b19336aac1U, 0x2e09d9dc0e28b0e7U, 0x1b0fd5fa3428530eU,
  0xc5ef214033d9e1b8U, 0x37350b2a3dd7070aU, 0xc50730cef2df3139U, 0xe372ff7e5fed713U,
  0xb3c143161ae7d0feU, 0xcdc74a0fdb99f1ebU, 0x101cc24b53b6d810U, 0x1204ce341922da4bU,
  0x42d0ba060a56eefaU, 0xec254b31dae4bfbeU, 0xd0dfc2111b52ff0fU, 0xebcaefdbd8452da7U,
  0x9feb9f72cf3c8fdU, 0xf821e5ef01b810a8U, 0x15b5541eddf1b811U, 0xef3430e6460726e3U,
  0xdc44d7efe7431919U, 0x3902664ce1e522fdU, 0xf0c2a559bc6f86aU, 0x10815d1511e846fcU,
  0xc3541a46211d10f9U, 0xd9f42a30edf9029bU, 0x31ebec33f6e413d3U, 0xe909c4e12429eecfU,
  0x2a341cddc4b90befU, 0xc0f100dee3121232U, 0xaf01001c23273ce5U, 0x1eea132524f5fad2U,
  0xa11a05e337fac3feU, 0xe4d9e1c5110c17d4U, 0x1b2e1a37d116fdaaU, 0x132dd2310aac1305U,
  0xcdfd52d31b4ca2eU, 0x2c353fbedd37fe0eU, 0xf8f8cbf306f54d02U, 0xdfb24bdd6fd0ee5U,
  0xfebe311ce724ecfeU, 0xf31df4fd3cd102efU, 0x8113fbdfeeff1ddcU, 0xf0de0b1f09e81c39U,
  0xd3e3f9da030433d0U, 0x161fe2e0afc90518U, 0x18202beced214a36U, 0xb73436f5320acaU,
  0x9c9ee023fdc3c5bcU, 0xb2b2524fcf0e3c6U, 0xcc38b4d5ccc4622aU, 0x3a240cc3bcc9d000U,
  0xef2f01a7ceb8fd3cU, 0xb436de3737461416U, 0x1adbe5391c570bd8U, 0xab81e9b2c1f1e6baU,
  0xa7b2b944b9fe022fU, 0x4d012b4dddd158d7U, 0x18dd14ccb84a63d4U, 0xd31b541406ec220dU,
  0x1ce9fdc3b113db59U, 0xe5e22a2cf02b1addU, 0xd6d1360b2bdb55ecU, 0x201a93ed2261c37U,
  0x139dd115e3243911U, 0x25ffed21da541500U, 0xfeeed548bb58d411U, 0x9fc2efee529d3d7U,
  0xf1e50db4a0c0ff49U, 0x27fc06e46a0016e4U, 0x29350b2ff85646c8U, 0xeafd390cb5353a5aU,
  0xe6babcf9f833e70eU, 0x653713e602a6331bU, 0x1dec0613e8957026U, 0xf981e5072ba117fcU,
  0xe08723a0fed7b1caU, 0xaccc224fd0d713caU, 0x574ce8cb21f478b5U, 0xe1ebbece339f28e8U,
  0xfc23b1f8f2fa4101U, 0x1f074b15b6ebbeU, 0xd23fd6fb343feceaU, 0xd1cebc19ed44b604U,
  0x20dd2d0503e2263cU, 0x433d0300173acfedU, 0xe215c2d80dbb2356U, 0x349a5dc617a1d758U,
  0x414910b7f48db8d0U, 0x1cbfb6d8a20bf03fU, 0x640f3be92132e394U, 0xe214101521060cb8U,
  0xa1bb6aba9f455ecU, 0x41b522b18ae2257U, 0x96d5d512ca326cfcU, 0x3ff1f61b364bf3cbU,
  0x312f1619f2e3e8deU, 0xfdd6f1da078132b5U, 0xcad7320321dbefd7U, 0x15432ee707500423U,
  0xc1bcf00fde0b0f3U, 0xed9cadbd109ea49U, 0xf307e14b450a3726U, 0x3a91e3f7d0fa28e1U,
  0xdd4c05e7dc1fe017U, 0xd60515dff033ead5U, 0xf9d82606cb4cef00U, 0x211ff3111c5fe05U,
  0x15061cd107230420U, 0xe03d0ccfe00dd4cfU, 0xefcef2dbe017e944U, 0x3dd80efadff30309U,
  0xe9f80e1eda04e7d5U, 0xd21741cd1df1129fU, 0xdeac190907cd05f9U, 0xecfff10a392eead1U,
  0xf445f3fe191df2f7U, 0xe413130ccfee0502U, 0x292e4ae0e3eb232dU, 0x2ec3b117f9111b24U,
  0xeb1622fae9dccfecU, 0xfffffb47fffffca6U, 0xfffffce7fffffcc4U, 0xfffffb84fffffbe1U,
  0xfffffd36fffffc4aU, 0xfffffde9fffffc96U, 0xfffffb4efffffbf4U, 0xfffffb6afffffd2bU,
  0xfffffa52fffffe61U, 0xfffffa3cfffffc43U, 0xfffffe81fffffaecU, 0xfffffcbafffffcecU,
  0xfffffb43fffffd65U, 0xfffffbb5fffffec1U, 0xfffffcc6fffffb66U, 0xfffffd75fffffb2fU,
  0xfffffbe3fffffdd0U, 0xfffffc71fffffcd5U, 0xfffff822fffffcceU, 0xfffffa19fffffbf9U,
  0xfffffc0bfffffe1fU, 0xfffffc09fffffdaeU, 0xfffffe8efffffdecU, 0xfffffe05ffffff06U,
  0xfffff884fffffbb5U, 0xfffffd8fffffff20U, 0xfffffc92fffffa7aU, 0xfffffccafffffe0fU,
  0xfffffde3fffffc84U, 0xffffff26ffffff75U, 0xfffffac6fffffc8bU, 0xfffffd2afffffbcbU,
  0xfffffecbfffffc7fU, 0xfffffea4fffffd1fU, 0xfffffbd0fffffe8cU, 0xfffffd85fffffa5eU,
  0xfffffe00fffffc87U, 0xfffffdc1fffffc80U, 0xfffffca4fffffe43U, 0xfffff996fffffb38U,
  0xfffffc06fffffbb4U, 0xfffffd0cfffffbc4U, 0xfffffdc4fffffc52U, 0xfffffc1afffffd36U,
  0xfffffca7fffffcc9U, 0xfffffe03fffff94dU, 0xfffffe8dfffffe7cU, 0xfffffbaefffffc78U,
  0xfffffe11fffffa29U, 0x2003e421fc3d090bU, 0x16fe11f845ee0935U, 0x402c0c2408ebf3f2U,
  0x7fefe11a09e1cf01U, 0xfa05bc02550adc65U, 0x1c14f809030003fdU, 0x542fcf628f50602U,
  0xaebefc7fbfb00f9U, 0x50bfd0406090410U, 0xfbfa98eb0402f445U, 0x450941fe063907ffU,
  0x1aebfd4103f6fbd2U, 0x110000f0f6b6eb07U, 0xcbff1907c115f2f5U, 0x7f3e0709012308ebU,
  0xd1062ae2fdfeaafcU, 0xf7fb1a00f4f2ee2bU, 0xaf21d7fffcf3d302U, 0xc1bfcfd35cf0702U,
  0xf60bfc83ff00f904U, 0xfc0afd02fbfff20aU, 0xfa042210f901ee0fU, 0xdc02bdfcc3c808fdU,
  0xf19090efdfd04d5U, 0xd011320f2cfff01U, 0x3302fa00221ee806U, 0xadce04dc020901f4U,
  0xbfd0fddf9390303U, 0xff08cfec81e6cc08U, 0xbe1306090006e600U, 0xfd150304e7ecf8fdU,
  0xfb08d4e30a020506U, 0xfa11fd060008fe02U, 0x3fbb44402050786U, 0x47f4f6fafd2dfdfaU,
  0xecf123f500ff0af8U, 0x12013244fe99b4fdU, 0xe700ee0f38e9fd4dU, 0x813112f9fc430b06U,
  0xdc06f717f530ef08U, 0x3d2ff9218f3f4U, 0x8c02fd0bfff1f20bU, 0x11430807bdd904feU,
  0xe3609fc030e0cU, 0xf7090310f6fc02f0U, 0xfc07d414f8010e06U, 0xf2fbdbfadfc705fcU,
  0x967e23e0709fe1fU, 0xde020b33fe0008feU, 0x90008fdaac5f5c9U, 0xa6e802edfa310011U,
  0xbb0400f308160000U, 0x1f891e8e281U, 0x1be602ff00fa0203U, 0xffe80304eb1efffeU,
  0xfffb3523020400fcU, 0xff00ff0a01fdfcf1U, 0xfbfe1c23fc02fcfeU, 0xd6fda206e5e6fefeU,
  0xe355fdc402fef9f1U, 0xf002e51f06cdd400U, 0xe101d9030ee4060eU, 0x21d6000904db0ffdU,
  0x3605ea0cffc4edfcU, 0xcfd33ed810f2707U, 0xabd6f7fbfbff0500U, 0xfa25fe04c0c2fcffU,
  0xf6051af001fe0100U, 0xfbfd02fd06fefdf8U, 0x3f5121cf901ff9fU, 0xebf003fe13ff0602U,
  0x3f0eeb00200fbf7U, 0xfdfe4e7005e00101U, 0x7fd0d0405ed150cU, 0xe853fd0c0a3ae4f7U,
  0x680a50230e012dffU, 0x120910f68af1e658U, 0xfe03f9f604111b08U, 0x3400108171cfe05U,
  0x161e4784f5020c07U, 0xb02fd0702ff0a10U, 0x90250511202f954U, 0x5708580643fbeffcU,
  0x1d7f066702f80390U, 0x2a04eb4f0b4ff506U, 0x1e0306073b0ff915U, 0xe4fcfde6ffbbdadcU,
  0x3ef720ececf1fcfbU, 0xed00e9f2b5fce72cU, 0x51e3f607030a0ffeU, 0x1139fb0b122bf900U,
  0xfc03e598fd0008fdU, 0x1f7020fe909f9f4U, 0x109cd2904fe0ac2U, 0x2c0beefcf9fdf700U,
  0x1d7f0a34f9060299U, 0xe2f9fb1b0c1109f8U, 0xf500f5078102feecU, 0xf9fe09defd2108fcU,
  0xdf05eb02f958fdfeU, 0xf5f923029a01e4b1U, 0xee22f505fbed0bfdU, 0xf620fe0705faf903U,
  0xfbfe53ce05f500ffU, 0x601fc090d02fcf2U, 0x2fbf112fd01fe11U, 0xffc0efec7100103U,
  0xfe57f90f02fe07f2U, 0xecff02d50615a305U, 0x92fed10211f8fdeeU, 0x471dfde60581f601U,
  0x5010f0afce3f202U, 0x3038cd9c7030edfU, 0xc7f5fb01fc02c1fdU, 0xeefb0301bb00ff02U,
  0x203a017010001feU, 0xfafb03fdfd0300feU, 0x1f7f10bf703fe21U, 0xfdfbff000ae201ffU,
  0xff1604c0ff02feebU, 0xe4f73f740ac32ffeU, 0x3602ed018aef0129U, 0x37dcfec7ff1e0dfcU,
  0xe1fef40709eae305U, 0xef24f05cde63b1eU, 0x1c20dcff02f0dd01U, 0xf7da01fc47fef2fdU,
  0xee0927effaf3fbfaU, 0x8fff8f3fafbf6f5U, 0x6fc4704f8f2f919U, 0x250281fcec2300fcU,
  0xf816f6c40005f606U, 0xa03fce7f2d503fbU, 0x19fe070147ffe923U, 0x9f3204d8fcdbfcebU,
  0x2cf4b5cee8ed13feU, 0xff08ee127f201312U, 0x30150cfffef3f902U, 0x3edf3f9c2fafdfcU,
  0x1f0b62bf6040005U, 0x4f304fcf402fef3U, 0xfb1d21fd01091fU, 0x9c0933f5e0b9fefbU,
  0xeee20d402fef9f8U, 0x17fe2a110d0b0401U, 0xc0104fc263d00fbU, 0x1331131f01f8f7eeU,
  0x2905d11afd7fe801U, 0xf2030c04f912ef11U, 0xdd3601fa010b1703U, 0xc07020b09c9fe02U,
  0x604282af803fb04U, 0x205fe03f904f8f7U, 0xfe0453000ffe0cd7U, 0xdc103e06190803ffU,
  0xa18fbfc00fb06ebU, 0xd80308cef22ee600U, 0x17fe19fedbdcffc3U, 0x810602fa06e9fafaU,
  0xef0626f710edebffU, 0xf2fb3cf8f2f6dd93U, 0x39fcfcf9fffd04fcU, 0xd06fe0222330000U,
  0x21225d7fa050400U, 0x1fe040c04feefU, 0x7002fd00102fae3U, 0xf4fdd3030e170a00U,
  0xf728f096f2f9020aU, 0xf7fea2e7f4f1e701U, 0xca01ddf74ce6f71dU, 0xf00afe3105d1ffe9U,
  0x4108ff09ff81e001U, 0x101c607d8fe0c4bU, 0x9037ea0404f3da02U, 0x21303fc4216f3f9U,
  0x3089ee8ff05fafcU, 0x301fc09f4fdff03U, 0xfe052c24020101aaU, 0xa40724031ebf0404U,
  0xfb0af93bf7f8003aU, 0x3013bfb06011e02U, 0x3feed00bcbbfb2fU, 0xb8cffde3044705f3U,
  0x12f6fe0f004ff903U, 0xf100e1fbe605d841U, 0x100d0cfd06050cfeU, 0xf6e2fdf81e39fbffU,
  0xff0a7e01f700f902U, 0xffe8020df5f900f8U, 0x1ff22131103fd03U, 0xf50910fc0710f5ffU,
  0x27ff41ef9fe1010U, 0xe00008e7fa1202f7U, 0x15ff13feba0d02b0U, 0x3cd6fbf0fe050ff4U,
  0x5050adb05ccdcfeU, 0xfb0110fe05e8e481U, 0x35e800fcf9001100U, 0xfaf2fefef5fcf9ffU,
  0xeff9eb1800f7f802U, 0xff0001f8fffcfef4U, 0xfbfa27b6f601fbe3U, 0x1cfed9fbf327f800U,
  0x4ef05edfdfff8e7U, 0xf7041d020513fe01U, 0xfdfc019ce30dcbU, 0xdb3003f005f0fcf2U,
  0xeaf72f0ef80eed02U, 0x1fd40120714d681U, 0x38e4f804fefb03fcU, 0xf4dd00fddcf6fa03U,
  0xfbf8552505fef9f7U, 0x608fff905fcfe00U, 0x1ffe529fd02fe14U, 0xe00ce06e3180504U,
  0xf5ee0a1e05fd04eaU, 0x16fee9f0065a1601U, 0xdefb1a07e70c0135U, 0xc41905060795edf9U,
  0x65e70108f3810001U, 0xfe0287fa340d09deU, 0xbf00f701fcf4e606U, 0xf1edf9009e2f0800U,
  0x305d29ddffb07fbU, 0x1fd05fe04060301U, 0xf8d3e61206033cU, 0xe1f1d7ffebd8eb02U,
  0x8ddef980a0a029eU, 0x130227ef069ad7feU, 0xec03f100f3edfaaeU, 0xd9c7fef4ff201202U,
  0xd2fec9e9f006fc04U, 0xa0aeb0a81eaf909U, 0x990a13fe02fa1d02U, 0x2f703f4ca1afefdU,
  0xff093908f90405fbU, 0x6ed040c0507010fU, 0xfe0478e5010307d3U, 0xb601d0fdddbef201U,
  0xf709f4db000109faU, 0xea09f8daf9cf48feU, 0x71f532f73056022bU, 0x7a6af135ff5bf8ebU,
  0xe913bdf2dbf9c1edU, 0x1dfcf02c610626c1U, 0x18c51ef8000b04f8U, 0xf9d0fb0769fa03faU,
  0x51f92def20001f1U, 0xe0af9f9e7fdf9eaU, 0xfcfdf43510fdef7fU, 0xbd14211424322309U,
  0xeb631d6f08f011bbU, 0x2406c3e11401ee03U, 0xa404e4052a2aef7fU, 0xf14fbf408d30111U,
  0x82fb9dea1593f2feU, 0xf8145601c1e1322bU, 0xba3f11fefd15fe05U, 0xf5310502b8e10c01U,
  0xf0898e70cfd0cffU, 0x10804150d090a03U, 0x1fece2fff03ff48U, 0xfefe55fc3f98f0fcU,
  0x841db31ff080ddaU, 0xe9fe0d360709df05U, 0x17fdfcfaf7fffd0eU, 0x237fc170222f6f9U,
  0x21ff1805fb25e5ffU, 0x17feb8f4def9fd3eU, 0xb3f20302fcff10fcU, 0xf5f9fffafd03f1ffU,
  0x2fcf481fdfd05f8U, 0xfd040001fdfefaf1U, 0xfbfae918f4f60319U, 0x21fae70404ff0300U,
  0xf809001dfdfc00c8U, 0x3f9010ef9ca0ef8U, 0x1b0205ff35f9fe29U, 0x3ffefdf703d30d0bU,
  0x4fa0d0701b6e803U, 0xf7fddefb3114210aU, 0xe00a0500fdffee00U, 0xfa1afefe22d8f100U,
  0xf4f1dd8100fafdffU, 0x8fc01fdfffdfaU, 0x1ff99fa03020438U, 0xbfaeaf9e72207ffU,
  0x9faf2d802fbfce9U, 0xe900f8ce03fac4ffU, 0xcb00eafbee0002f1U, 0xe9f304f803d303faU,
  0x1dfb0505f8fdf5fcU, 0xf3ffd8f781060be3U, 0xbdfbfffefc0be6feU, 0x12100fbd51cfd00U,
  0x4fd05e904ff0002U, 0xfe000504ff0407U, 0x1001504f7030411U, 0x1dfbf4ff0fb7f001U,
  0x11fedfcfb00fafeU, 0x1204f038f7b012feU, 0xce050c03e006efd7U, 0x4ecfc07fff8ff05U,
  0xe4fee6fcf0b7f6fdU, 0x1fdf502c4f7061eU, 0x2e17f50401edfe06U, 0x2f9fd06d00cf6fdU,
  0x8faa17ff0050500U, 0xfdf6fd00040608f8U, 0xfdf869230dfcf914U, 0x1ef4e600e1c40e02U,
  0x938feb1ff020b25U, 0xfb01fdd306260800U, 0xe501f9fdec28f92eU, 0xdae208030513e4d7U,
  0x2c0bff180cb90afdU, 0xfa06c0f1c2f009d7U, 0xf623fafa010bce01U, 0xfa3efb022c1407fdU,
  0x70220810a0206fdU, 0x10103f7f6fdf90aU, 0xfd032df8f800f1dcU, 0x2ff7c1fe04f3f9fdU,
  0xc22050e04f7ff8eU, 0xe5fef441ee05f505U, 0x26000608afcc03d2U, 0x81e107c606690203U,
  0x86fafdf1e6fcf903U, 0xc1001d0501fab8edU, 0x67e0ff05fff91300U, 0xdb9f9080df3fcffU,
  0xfbf9dcfaf805fc01U, 0x2fbfefdf605060cU, 0xeb42f90505bcU, 0xae08c2fc010008ffU,
  0xe65b03a8fdfffbefU, 0xf3faf70f0cca15fdU, 0xf9fe10f9ae2107ffU, 0xcee6031c02f901f6U,
  0x2d0a2912fc4c0efeU, 0xf304ea01afcbe1cdU, 0xce2805080309fb00U, 0x82500081d20f603U,
  0xf8057f2905fd0202U, 0xf9ffff0afe01f3U, 0xfffc2b01fa040123U, 0x1301d4023812f5feU,
  0x8660fc30202fddcU, 0xf206db35fdea0cffU, 0xfe01faf50e350f0dU, 0x7ff2fbea06e1f7efU,
  0xee023409febdf700U, 0x100b0b13040de530U, 0xa12f4040404f7fcU, 0xaf100fcfcde0400U,
  0xff040cb8faff0bfdU, 0x1010201ef0904fbU, 0x3fdde2e00f8f83cU, 0x1c081708d61c0102U,
  0x4ee0bfcfdfa021cU, 0xefff9a911eb3608U, 0x24feff023e19f50eU, 0x673e0637001802faU,
  0xd9fac620ee0cf7f4U, 0xffbeb1b1c132fc8U, 0xf8ebfcf909013704U, 0x101f05f7ee8a0b06U,
  0xfffbd6c106070701U, 0x806fe02ff04fc17U, 0xfcfd8a111604f838U, 0xc1061fff1eb1f101U,
  0x58cfa7f0208ee1aU, 0x13ffe7d1f7e8eb03U, 0xeafee7000917ff3dU, 0xeef907ffffe60609U,
  0xb806cc0f09ee0bfcU, 0xfd0926f87f1306ddU, 0xc72ffff906040504U, 0x52d00091c01f901U,
  0x40a043bfc03ff05U, 0xfd0c0001ff0605f4U, 0x603edf2050607f6U, 0x1b0228000df70803U,
  0xf8e8ed2f06fc0129U, 0x21003f0e16400007U, 0xcd002e06f74b0843U, 0xa6fe0843031d060fU,
  0x6bfb2713f8680effU, 0x3fc0a1619e7013bU, 0x1dea010400090904U, 0xfe06fb01d53e0605U,
  0xfcfa0746f9021004U, 0x20b03030605fe10U, 0x30949d9020403feU, 0xf9002e02f1d8f204U,
  0x117f0f67ff030600U, 0x101e8a3efeef3fdU, 0xfbfd070102e6ffebU, 0x901f401fcabfdf9U,
  0x5020d0f02c4f2feU, 0x10307f90affff06U, 0xfab7fffb02f415fbU, 0x20301f000adfc00U,
  0xf8f181aafd0206feU, 0x2f10503ff0dU, 0xfb03c1ddff02f81eU, 0xcffb12041002faffU,
  0x1a30809fcfb0204U, 0xfbfbfbdb0ed70803U, 0x39fff00918310628U, 0x3722fd22ff16f9fcU,
  0xcdec03fef4eff902U, 0xfff19f613f32e46U, 0x1cfdfe0204ecf1ffU, 0xfcf1f5fe2124fa04U,
  0xfdfc1081fdfdfdfbU, 0x3fdfaf401070507U, 0xff03e21dfb02fd39U, 0x10020efadcf00101U,
  0x14c106ebfc040c07U, 0x7ff09f7061c0101U, 0xefffe409c316fb0eU, 0xd7da03e001c00508U,
  0xf9f3c4f6f4f01502U, 0xf70631108108fe08U, 0x117fa00fe09f500U, 0xfbecfa07d9ca0301U,
  0xffffb756f1ff0506U, 0xfee5fe06fb010504U, 0xfbffe5f808020101U, 0xf4fed2fb0acff6fcU,
  0xf4cbfdb3fffdff03U, 0x8003ba8e9124ffbU, 0xff31f50bd7eb1dU, 0xe9e6f5db07850f08U,
  0xcf7c1edf5291efdU, 0xe7093afd7fc8d8e0U, 0x75061204fd11f203U, 0xce9f7f21fdc0401U,
  0xff0abf38fdfafdf9U, 0x1ed01080e04fa07U, 0xfd0838ae0e04ff24U, 0xcb08c5fcf6da00feU,
  0xf1271f1b04fe0428U, 0x1d042328098107fcU, 0xfa000501031102e2U, 0x412205ec072c0ee8U,
  0x8105abb908bbed02U, 0x704f3122df80ef2U, 0xe905ff05fadf0100U, 0xf1650104abf4f5fcU,
  0xbf50d91fcfe0102U, 0x11fefc0704fef6U, 0xf999def900f801U, 0xea093ef8981ff300U,
  0xfbcff064fa040fffU, 0x100002ebfceec1fdU, 0xe701d5fac3f6020bU, 0xe016051800e8060aU,
  0xfafa21fb07e60dffU, 0xfcfdc9ef81fd0dddU, 0x97160103fc01d2ffU, 0xf5000101c7f60100U,
  0x4f9ba16feff05feU, 0xfa06fe0305fefd06U, 0xfaf721fffefdefU, 0xfafce50215ce02ffU,
  0x917fb0cfd0308f2U, 0x1e04dd0600de2406U, 0xe8ffd905aaecf403U, 0x3fe20822021fe7edU,
  0xf00f0820dc83ce04U, 0xdffd2f0f9f09d9ccU, 0x190f0403060f1bfeU, 0xf6cdfc07e61c0afeU,
  0x300d47fef0708fdU, 0xfa1304f9fe0600fcU, 0x5fb5b2a0b060400U, 0x94134703fc3201faU,
  0xe61303a3fc04ff18U, 0x11032fe0fd17fc02U, 0x240113ff220905dfU, 0xfdfc070c044114f3U,
  0xe900ed1e01e12a00U, 0xbfe0207e0f1120dU, 0x4e0c07fb04ef0efeU, 0x60400fffe1f0302U,
  0x9017f3608060002U, 0x50000060504fa01U, 0xfe0032130602ffceU, 0xf906d60707fffe00U,
  0x220fd1c05000334U, 0xf503b9e6fedfe702U, 0xcdfd090018f70d02U, 0xffe408df077fecf8U,
  0xaaf6d7e10649e9faU, 0x11044d0b8921f428U, 0xaa2ef5020514f1ffU, 0xffe1000b1805fbfeU,
  0x2fbd1e2f3010906U, 0xfe14050af70400f7U, 0x2023629f705fbceU, 0xc7011c03fddf0b02U,
  0xeec7fe15fcfef8faU, 0xf104e9ecfdbc0e04U, 0xc2fffefee9180f14U, 0xdc11002101dd0afdU,
  0x2040efe04cf0cfdU, 0x1aff0202aaf4fc06U, 0x8120e7fc05fddeffU, 0xfafdfefcd4c1fdfeU,
  0xfcf7a90afefe0705U, 0xfffefefbfefffc02U, 0x5ff8f12fc03f9e5U, 0x15fb39fce20d0b03U,
  0xf920d6000401fb03U, 0xeefdd0dde2c80bffU, 0x34fdf3f5f9c00819U, 0x4125fae707fcfe04U,
  0xfff408e7ff81e400U, 0xf1fa4910c4101ab1U, 0x7ef7ee0106f40ef9U, 0x101905ea0dbfeefbU,
  0xfff627f9110707f2U, 0xf90501fff9f9f807U, 0xbffc19e0503fb2aU, 0xb30f390402f8f503U,
  0xe7e1fe40f3fb0845U, 0xe5fb2dabfa994205U, 0xbcfc2409af0705f9U, 0x3e03f9f80c232417U,
  0xf4de24f6943af7U, 0xd0a4e1bbe1ef9cbU, 0x24bbf7f2fd0309fdU, 0x70600f6fbfa0301U,
  0x2061bfaf9fc0501U, 0xb1b040e090000f7U, 0x609e70b0301f90eU, 0x810f2209ed1e1902U,
  0x10e8ebe3fffef022U, 0xf006e5350254f803U, 0x1101eff6130d0be8U, 0xbff60f19067ff300U,
  0xe4fbfef10d6b1dfcU, 0xfaff2309e7091ee6U, 0xefe8f6f403ef03ffU, 0x82302ff0826f901U,
  0xfff84745fefc0801U, 0x70d040b0100f601U, 0x81e00f501033fU, 0xe00e2020efd0804U,
  0xf94706e103fff909U, 0x1bfe3926021119f7U, 0x4a024cfdaf27f7d3U, 0x15fcfe010741fa03U,
  0x6de8caefedcde6fbU, 0xe40dc22f7f2dbb1aU, 0x1219eefdfc05fc01U, 0xfa46f6fd3ee4f908U,
  0xf3fd22ba0df8eff8U, 0x6f7faf3eefdfee4U, 0xf30af1eefcfe02daU, 0xe3111109b15c0801U,
  0xc7f217bfb02fcd6U, 0xed00f2370517d502U, 0xcf01dafc0209fc00U, 0x12bbfbee01a802ffU,
  0xf8fcf1000cecfeU, 0x3004af781fcf301U, 0xe20ffc05fc06eb01U, 0xfde4ff00e311fdffU,
  0xff0400fefafd0202U, 0xfdfe00fffcfe0106U, 0xfffce9e20202030aU, 0x20fefc0120cafd01U,
  0xce9fdcd05fdfd01U, 0xe01ebe5f2aa14fcU, 0xbb02e40081f404faU, 0x55e807dd05abfceeU,
  0xc403dd0509b60d05U, 0xf7fae10239fb07a6U, 0x36c5f8010305eb02U, 0xf3edff0baa04fbfeU,
  0xfc03cfedfd0404fcU, 0xf806fff1effdfffbU, 0x2250afffef9e3U, 0x3f922ffcb0b0801U,
  0xcbfbc3fffd07bfU, 0x1d0134ccf5f3bffbU, 0xe2000907275bea3fU, 0xd5030f00fc43e7e0U,
  0xf07eafd02cbee00U, 0x1dfce907431e0776U, 0x81450afc06f41303U, 0xa0c03fad6ed0afeU,
  0x610268b00ff040bU, 0xffffff0b05faf9efU, 0x80aee3f00fdf610U, 0x22f9dc01f0c302fdU,
  0xe60bf30fff031516U, 0xfdffbf1f01830501U, 0x102040725ef0541U, 0x893b041d0c41fcffU,
  0x810abdedf5972bfdU, 0x50151025fe22c4cU, 0x90b408fc03f919feU, 0x62f0003cfca02fdU,
  0x310c454f10202feU, 0x5f804ff0301060dU, 0x6fa3c0503fcfac4U, 0xa60522fee2e80bfdU,
  0x8ede7e404000512U, 0xe7fae60207bd1ef3U, 0x3c020e0e2ffeef46U, 0x161de40ff9cf3217U,
  0x280911c7fc040206U, 0x70321071bdd0136U, 0x7b4f30e05d31503U, 0x9fafc0c2af30700U,
  0xfee7811407fff4fbU, 0x90d00f80f07fcfaU, 0x80013950203f2fcU, 0xfefec5f8b623fbfdU,
  0xf1500af2fb01ef33U, 0xc02c7f9fce3010eU, 0xfbfe25ef21100c4fU, 0x375000260c3cd6f5U,
  0x6a030ff6ee7f05f0U, 0xa0e211339155446U, 0xd8240beffc190c05U, 0x32900fd01350dffU,
  0x140c4bb2f907f7fdU, 0xfc0914fc05f6ebU, 0xf508605b0dfff704U, 0x42f51300dd4a0c03U,
  0xee45090a11f20d41U, 0xe300330df80c1a03U, 0x30fa2be71ced11e8U, 0xc000e02ff49d6fcU,
  0xb2000d0e0004fff9U, 0xdfaf61021ec01deU, 0x3060a0903fd1bf9U, 0x3e708f5d4230700U,
  0xf6057f06fffe0403U, 0xfe04fc03ff00f4e3U, 0xfe054321f7fbfd25U, 0xdeff0602263df904U,
  0xfc7507fa05f50403U, 0x24024a550f3505feU, 0x1fe361af217U, 0xe41b1ad70bcc0fdeU,
  0x2eff3710ecccec04U, 0xf9072b061e10e427U, 0xf03a0005011104feU, 0x2c4fb10ea58fffdU,
  0x8f67f55f3fbfaf9U, 0x312fc08fa08080eU, 0x2003409f602f919U, 0xfb024a03ead4fe00U,
  0x146ffdcbfd040adbU, 0xf07c9c1e6d91d05U, 0xcfdf6f39dfdf50aU, 0x883404d7fb4ce8f8U,
  0xda0231e9f7c403fdU, 0xf2fe010a1cf8c881U, 0xbef8ea0307e90e02U, 0x3ff06f6f3e905fdU,
  0xaff057105fdfd01U, 0x5f401ff0903030cU, 0x80422f0f9fcfddaU, 0xfb10dcfdd0f9f102U,
  0x26f0ed7ef01fa48U, 0xef00082cf5a9d700U, 0xfa00f504c8dfff03U, 0xef6fce000880409U,
  0x1701f8e202e2fffdU, 0xef01bbf82815eec2U, 0xf7f6fb00fff3ed01U, 0xf612fefbdf15ffffU,
  0x2fc99c404ff0305U, 0xf8fe010100020003U, 0x1fce8f201fcff81U, 0xe0030c05eafffdffU,
  0x4b2fc13faff04f2U, 0xec0403cb00bce409U, 0xb5ffd9078dce1904U, 0x2acb05d1ff15f203U,
  0xf9f4b91f12bfc708U, 0x22010206951fcf81U, 0x18ed15f5f90812fdU, 0xfd1f01feb52506fdU,
  0xfb18e6d4040700f9U, 0xff1702f8fc030e1aU, 0xfefd3757ed0b13d8U, 0x41fbc8010c031cfdU,
  0xe9dbdc1f040407edU, 0xdc0042fc0cdefc08U, 0x3ff220dc2eaedbaU, 0xfeab05e3fffbfdfaU,
  0x8f0bfced06471e00U, 0xe0fe571181e3b9fdU, 0x54170b02fef50404U, 0x29e020ade270d04U,
  0x7026f1ffa010806U, 0xfff204050400fdfdU, 0xfd0548e107fbf8c8U, 0xf301cef810d30100U,
  0x8fd1695010af8edU, 0x16fde00f0135c207U, 0xd3ffdefb23020eebU, 0xd70506f3ff4b08f4U,
  0x9f7e615fd05e301U, 0x606d5e3c5fb1cd6U, 0x810cfcfdfcf8efffU, 0xed100203e2d8f903U,
  0xf90ff3ae0200ff01U, 0x1fe00fc0afefffcU, 0x4fef902f8fc06d7U, 0xdff51906edc4f800U,
  0xb1df1cc08f9faddU, 0xfc02f80f09c51a04U, 0x6f9f3fd60c7163dU, 0xbb0bf9e90314e5f7U,
  0xfffb181c0811e0eeU, 0xde0afa03fbf9fb06U, 0xbc020aedf90701ffU, 0xfa0701f7c6b9f603U,
  0xf606e681fbfefefdU, 0x20801f9fb01010fU, 0x304ab2bf2faf942U, 0xf0f51506f5400604U,
  0xfd9c066bfdfc033dU, 0xecfad5ebf6e615ffU, 0x350035f4c41df641U, 0x2adb1afd0970daecU,
  0x5d14edddf1bcf707U, 0xed043bf814d6f615U, 0xc9e8fa050a0bc003U, 0xf9eaf8fef65ff602U,
  0x70be942f3fe02fdU, 0x703fd13e602ff02U, 0x7064cf102000e64U, 0x810848f00830f7f8U,
  0xf449281303051192U, 0xfbfcf43603180504U, 0x100111f3012efbdbU, 0xe52c0c160131e2ebU,
  0x440725f108f4e502U, 0xcfd1509f8ea2914U, 0x5fc040afff5f104U, 0xc100808151cfbfdU,
  0xfe0c0e0d09fd0703U, 0x20f0204f407fcfbU, 0xfdfdfe1b0d05f6e7U, 0xeff701fed631f000U,
  0xf7eaf7d2fdf70f81U, 0xf503332600971a02U, 0xe604ea031421fc0eU, 0xf32808ef03291911U,
  0xeefa8fff07f71402U, 0xa00340ddefdcffcU, 0x7f14000503fefd03U, 0x712050bdae7ff04U,
  0xff0921170402fc00U, 0x10303000105ff11U, 0xfffd321d03060816U, 0xce13e80117e10b00U,
  0x834e8e6ff0503edU, 0x77cfffffe75U, 0xfffffc9fffffffbfU, 0x4880000047eU,
  0xdafffff73dU, 0x61d0000059eU, 0x3a700000937U, 0x37afffffc03U,
  0x389000001c0U, 0x292000007baU, 0xb400000482U, 0xfffffa20fffffee2U,
  0x41c000006f1U, 0x12d00000579U, 0x2e000000554U, 0xfffffdca0000019fU,
  0xfffffb5bfffffbb4U, 0x47cfffff8bcU, 0x31b00000129U, 0x2fd00000133U,
  0xffffff2b00000420U, 0x7fffffb23U, 0x3d300000321U, 0xfffffe6bfffffd49U,
  0x3f8000001caU, 0xffffff8f0000051cU, 0xffffff94fffffdbfU, 0x2c0fffffb01U,
  0x288fffffe5cU, 0xffffff5b000003d3U, 0x53affffffebU, 0x2200000459U,
  0xfffffb1ffffffff9U, 0xe1e4d9a7eee9ea2eU, 0xf7e0f4f2f6f0c3dfU, 0x20d20630c8dd1eeeU,
  0x10d07e2dbd3d7cfU, 0xdbc11e28c54e7ff9U, 0xb42ce81330d8d3f9U, 0xfce3ffef411ae203U,
  0xefe6e9f1d8e2da18U, 0xba23123c2381cfbbU, 0xde11dd4588cc2655U, 0xf61f26df3bc51635U,
  0x4c58d8eeffc40f2bU, 0xed3dc4b9d1ee192fU, 0xfcc14b35d6ff3351U, 0xfb258a14bb4d10c5U,
  0x3aa7c60531ed0904U, 0x212de306d2c9f822U, 0x21ecdc3fca1dbe1bU, 0x642db28c1ec178bU,
  0xeeef2d29ed2bf3bdU, 0xda0b0cf7a324810bU, 0xaa042dc8efbaf711U, 0xe53a5741cbb1fec5U,
  0xc22e1f0c13cace0eU, 0xe0e3f648eadad3d1U, 0x21814315b231812eU, 0xc4b9f51e04e0470bU,
  0xd1d6d3323baf2bb9U, 0xeed8c1222109aff1U, 0x1911151921a9111cU, 0x3d103aed34caccd2U,
  0xe1d6fda3df3509e1U, 0x33e7c5000156f7ecU, 0x311a38fe31c621bdU, 0x96c8dbbe350ad3a8U,
  0x6ed03de7f4d001bU, 0x401eea3b38e4d4d6U, 0x43b3ef9d2601efddU, 0x4028ebf9e1532a1bU,
  0xd40a5b8ae946f952U, 0xdf184142d3fbe1eeU, 0x7c2d7de361e6248U, 0x59d103be4d4ddf36U,
  0xea1fa02048f1351bU, 0xd4484615541d811bU, 0x102defdaa1a6d7f8U, 0xd002aeda0ee731cbU,
  0xd70d609c47e1f810U, 0xd4df59402aa52fe5U, 0xcb61efcf87567f51U, 0x3829ea0d1ff91adfU,
  0x31142ae9d5c2fdffU, 0xf3380ad2cf0f8a09U, 0xe08f1d62f0d202eU, 0x25edd7eb00d5f135U,
  0xca050bf2481df15eU, 0xcb400004848U, 0x4a1f00001ef0U, 0xffffe519fffffedfU,
  0xffffc51fU,
};


ai_handle g_network_weights_table[1 + 2] = {
  AI_HANDLE_PTR(AI_MAGIC_MARKER),
  AI_HANDLE_PTR(s_network_weights_array_u64),
  AI_HANDLE_PTR(AI_MAGIC_MARKER),
};

