/**
  ******************************************************************************
  * @file    network_data_params.c
  * @author  AST Embedded Analytics Research Platform
  * @date    2025-12-11T00:02:37+0200
  * @brief   AI Tool Automatic Code Generator for Embedded NN computing
  ******************************************************************************
  * Copyright (c) 2025 STMicroelectronics.
  * All rights reserved.
  *
  * This software is licensed under terms that can be found in the LICENSE file
  * in the root directory of this software component.
  * If no LICENSE file comes with this software, it is provided AS-IS.
  ******************************************************************************
  */

#include "network_data_params.h"


/**  Activations Section  ****************************************************/
ai_handle g_network_activations_table[1 + 2] = {
  AI_HANDLE_PTR(AI_MAGIC_MARKER),
  AI_HANDLE_PTR(NULL),
  AI_HANDLE_PTR(AI_MAGIC_MARKER),
};




/**  Weights Section  ********************************************************/
AI_ALIGNED(32)
const ai_u64 s_network_weights_array_u64[4616] = {
  0x807f2400347f3dU, 0x7fd7d6d1c4ba1345U, 0xd4c4c3f723d540e6U, 0xe520f7b0d3f3fddeU,
  0xdcabece8bac3e441U, 0x1db86c7f0fcfd26U, 0xc4ca8ef6dcea15f6U, 0x80e50401a7f8d6ffU,
  0xa6d1bebae7f5d4c9U, 0xbfeef308d715d848U, 0xffcec713f3de05e1U, 0xf0c3f7cc0eb9dae7U,
  0xe9fd33f1cfd503d9U, 0x247bcefd38071bc4U, 0xa0613b9c0eae23bU, 0x45e90a21c607d2e6U,
  0x7f0befe6d81904edU, 0x5381d6f0f96172e4U, 0x42ef4bfed0bd5e0bU, 0x9a0bbd27dd44f0d1U,
  0x26c93b09d2238004U, 0xf4d021094d02ffe4U, 0xe334311739af7f58U, 0xe029f8ad3bacdb22U,
  0xe4ac023a088f271fU, 0x67bb5bc72a4e0b32U, 0xd066dfb5b0dfd781U, 0x3cb0d0bcb65019b2U,
  0x8f1ce9ff14f87fadU, 0x840f8a9aa81ddd4U, 0xb48495b7c43b550eU, 0xec81fa4fe55ec0c8U,
  0x310fe9af13ecebd0U, 0x4678c34b7f58ad27U, 0x7f0ca7575faccd19U, 0x3dbd31073fbaa1e4U,
  0xbbedd7175893e34cU, 0xfe81f583c23d2ca5U, 0xcc3521571df8b755U, 0xc8f281b8d6762bf7U,
  0x3051abff7ea48293U, 0xd35771a1fb815b9fU, 0xaa1b5365682fb0d5U, 0xde102381bc4e0431U,
  0x7a3184697f0244b7U, 0x7fcafecb46f1d2a1U, 0xb15ec7f933b6730cU, 0x8140375aa40de030U,
  0xeaca911c10612b02U, 0x5905fb7fcced88e5U, 0x7838625fe5c9a800U, 0x417f9c40b93c6137U,
  0x394844cbbc316f5dU, 0x9ed769c5687fbd24U, 0x9c06a14433067feU, 0xaef7de718438811eU,
  0xf316091eefd48ac9U, 0x4978af4f0a98ae81U, 0x84e7fae9c386540eU, 0x7f98b1e3f63c1d6bU,
  0x99029f692b0219e4U, 0x40ebce77005f7f59U, 0x814ecfac4431854eU, 0x76268c751a166cc4U,
  0x145c6590442feb85U, 0x48f4c23d26a9cd4cU, 0xf3c11811f648165U, 0x29fe9ce62975b7U,
  0x273a34be3921a935U, 0xe042d3917fc2e537U, 0xbb150c7f6ff3fbcfU, 0xb2d0428f3a867c90U,
  0x1b3bcb61d6ee2681U, 0x81995249d1e34f5fU, 0x973062c35fb4dc14U, 0x48994b753096f640U,
  0x339f12384b30ee2fU, 0x81ec1cfd7f53cb6aU, 0x6569138b38f1692bU, 0xdb00b3a5e72e188fU,
  0x92162c81b346478cU, 0x11a8a13dbd047b52U, 0x394c68196ddda0bU, 0x28ec7f79103d61b1U,
  0xe18ca1f675f7badeU, 0xfffffc96fffffe9bU, 0xfffffd4e00000181U, 0x2affffff4eU,
  0x44ffffff4dU, 0xffffff2800000126U, 0xcdfffffe2fU, 0x1200000004bU,
  0xbc00000084U, 0xce0000007bU, 0x13000000069U, 0xffffff9100000002U,
  0x62ffffff52U, 0x218000000bfU, 0x64ffffff22U, 0x15affffffecU,
  0x123ffffff2cU, 0xa2e406d028c5009aU, 0xc34519a3f54cba12U, 0x6ec9af151fededecU,
  0x25ac04af40352a2aU, 0xebf4c601afdedfbaU, 0xfbae76cfe85d15c5U, 0x43b0adf1d25162fU,
  0xf13537e61824fd3fU, 0x575c06c72646a9a5U, 0xfd3410f0ecb9decbU, 0x28cacecdd053d22aU,
  0xb32b57be1d990f36U, 0x171152b0d8c0442cU, 0xb9e6e6a9490ee022U, 0x42448aad3eedfd2U,
  0x162a41c8e80dc2b3U, 0x32df7fe1ab35f9daU, 0xeb95983c70f4cfd6U, 0xda02db1e15d8f5afU,
  0x4d65dc0da40b0af9U, 0xe1cabb3ff403cd12U, 0xf8dde20a4125361aU, 0xbe28d3dd2fc5480bU,
  0x5afcc649f135e7f2U, 0xc9d937e5b4d5ed1fU, 0x2fab095fa7e40fe5U, 0x25ee3e53c048ea3fU,
  0xa6b65c125148403dU, 0x28eed9206226edeaU, 0x1e0ee5f2fcee0000U, 0x2ab1273230433de7U,
  0xf21128e8c5111ae6U, 0x144c467b1a24c6d6U, 0xbbdf22fec7fa4c20U, 0x63fb14a749baec26U,
  0xdc3c17c0a7de1aa9U, 0x4bc8547e08eacb81U, 0xdea717f5113b3b59U, 0xbf18e91150e4a7b1U,
  0x43ad54370cd825c2U, 0xcdf61d1330c7d4bbU, 0xe7f33edbfdc55cd2U, 0x1897c3aac6da0341U,
  0x30effc812997ac43U, 0x33f5e9ecd6381139U, 0xf5ec150de1ec53d7U, 0xf6065417bdbacd01U,
  0x492b4bd01fafe695U, 0xaf0cc7f7b8d10545U, 0x2ab83f66200ac932U, 0xd1f44a0bf51ec33dU,
  0xea25203806d814fdU, 0x44e13dc452d0d106U, 0x4e4de735c7e833cfU, 0xd10b626e36454fc5U,
  0x950f0902ebf62e26U, 0x303040638b3f9dbU, 0x8061b43d636c25aU, 0xf8f8eed442d7f1c3U,
  0x6be1731d225f5edU, 0x49f91fdec14d2b15U, 0xfb3a18c9f5d86819U, 0xe01ef33eb62831f8U,
  0x4701b6813e059b11U, 0xdcf81b00a53e26b7U, 0xeccb3c11baccd88dU, 0xa1193149c952c2c9U,
  0xd8d425d41153ca60U, 0xcd0fc1a0b633a1fdU, 0x1b099b0e2360ec45U, 0x9ee6b1e80b4e139fU,
  0x182ffed8cd053faeU, 0xe7aa3041f35ec3fbU, 0xa1ddf0f4520ecd03U, 0xee260341236b98aaU,
  0xbf3da12a3f4d3d9U, 0x94bd9ed24a3c3bc6U, 0xe9a4fea6e803d941U, 0xd409a93d4b520735U,
  0xcc3bee463cd9ed4dU, 0xe4f75243e80cf1fbU, 0x5906f50f1bece9fdU, 0x510906062be24410U,
  0xb513a758474b4ab6U, 0xcd2a441ad5024bcaU, 0xae2911c9d46f003eU, 0x44be5ee5d7ca2fb8U,
  0x3225a7ceae365eb2U, 0xb540bcd6ddf95813U, 0xe116b40ae5fdc9b8U, 0xe28afe52e913740U,
  0xc9b243f00a47d438U, 0x55240b405b0ed0c6U, 0xd898d2f31ef3c1adU, 0x7f302fb7f4a52adfU,
  0x4826c00925d42acfU, 0xbb81ddcea1022bdU, 0xffa4f24444beb73fU, 0x999ba2dd7d5caa4U,
  0x3510e633e4e2bdceU, 0xffa402abb1ba6afU, 0xf2d14fcbf4dee5feU, 0x4f69145952d502ecU,
  0x41f0924837a8f036U, 0x244221da0d0b1bedU, 0x65c80ce6e1cb35b3U, 0xbfd1cf48a7bba7bcU,
  0x641bc1a2529bedeU, 0x45c7f5030c1e22c7U, 0xd8475ca7c6c1ff24U, 0x22fe08f6afdbebdfU,
  0x10eabecb18ebaa45U, 0x2f564a4b0245e6c4U, 0x463f4a310e2d67abU, 0x613402fc5940f2edU,
  0xad5fbeaf1432f1abU, 0x9526ecdf3d94bd88U, 0x1b5735d2efbcc423U, 0x267f0dfa1599ca0eU,
  0x20d55a23f1ee4607U, 0xe72322a0f8d0fa02U, 0x10dfdde93d3d062eU, 0x98e1f010b0d6fd36U,
  0xd9b5f512e4131347U, 0xfabc032bd372dddU, 0x1b0fbdd3f7b518bcU, 0x324cfe0042d50e40U,
  0x16291df322f8f548U, 0x4501cab2d03ba8b8U, 0x1cde1da3eaf4622U, 0xc8ef0e39cfc4f03dU,
  0xab43d8c0d01fd902U, 0x1eb9b7dadef3012bU, 0x2bd9f349fe6c1adU, 0xa59f21d7c6ff130eU,
  0x30e5f5faf6eef827U, 0xc605139bc6f5cb0fU, 0xf10afe01f02697f9U, 0x379f2efd0d17e0c5U,
  0x811107d12204e9d9U, 0x4d6aaed3bcfbc025U, 0xe3d6d4f57d37d40aU, 0xe4e6b9d7954823d0U,
  0xcd0ac593acfcdffaU, 0x225e718442e392fU, 0x4e41bb70d27bffaU, 0x1eb6b30fd6ada4d7U,
  0xe7305abcddff211dU, 0xe4ffe9cf392edd18U, 0x3201ed1abc1fb9feU, 0xcce04c1ec723d2dcU,
  0x39bc17fbddb54518U, 0x3e45c1db41391de8U, 0x3dbff409d32f5d13U, 0xed191bf45daf31d5U,
  0x2f0c59dfe9ac7fcbU, 0xf006416b21e63516U, 0x5f1c222435337312U, 0x47f7f6bb479f39e9U,
  0x345b0dc228affe67U, 0xe5c84a49d3b2a44cU, 0x7867cad052c3b792U, 0xb79943881e14e62aU,
  0xf4e41ee5df5fab51U, 0xece6003d063391adU, 0xf5cf1ef03ef8df00U, 0xaa0fd01231aad609U,
  0x1a6dd62d12a0d451U, 0x1f521089af34e650U, 0xdf56fd240cdc0cabU, 0xb3b31623e0cbe6faU,
  0xdfc9142c4a3a105aU, 0xb63373056da4443U, 0xd5e7d034e745bf4cU, 0x8f5df16506824b7U,
  0xc3fbbb00bdf345f1U, 0x6331f40c092b27ceU, 0xe334f0eb671cf723U, 0xab593ae08b64d201U,
  0x81699a22e9f33839U, 0x60ff052822e52706U, 0xb90d501dd0395f08U, 0x1b2534b007ed7f42U,
  0x205d41403bcc5358U, 0x400ef846ec310b26U, 0xe035edce10f4bd31U, 0xd9f4b4c212ca1823U,
  0x4b360cb9e5b130b7U, 0xabaffec8f3e8b34fU, 0xf635350b3657e5c1U, 0xbcb9e55517fad9afU,
  0xae1813b134f9dff2U, 0xd80d47f4caa700f9U, 0x28db1afed23ec733U, 0xccd63cd0d300a9eaU,
  0x2eb8bf0b343a051fU, 0x3205c5f410c0a613U, 0x26aca6ed16d7284aU, 0x44f0b54a43dab624U,
  0x10001d5c9c452f4U, 0xed99a181bc54e4a7U, 0x83d41059e3f83229U, 0xfce746cb9b080838U,
  0x1ceaf8cb17450606U, 0xdef5cad762ce5c06U, 0xb948453f1bdfdec2U, 0xe7ead709a5e7bb5fU,
  0x90b316c5f40e6615U, 0xe23c5db0d5fd17e3U, 0xf940c72400afc8f8U, 0xe2afbb03fdd7465eU,
  0x152795d8dc040fb0U, 0x3314044a442050ebU, 0x20350d489e549c2cU, 0x4d95e1b2dc0eeadU,
  0xbabfac47e8b85934U, 0x7566a6f2caac309U, 0x51fb59215623b7b9U, 0x33f2ffad54c1ec08U,
  0x1c3b501afecaea44U, 0x2c623c91e21d0840U, 0x4d346165dcba1337U, 0x2aa6a5c404aa16d5U,
  0xdef049e5083fd8f0U, 0x36ee1ebc52301bbaU, 0x58c0281c3000eeb3U, 0x3fc1450824b44909U,
  0x4526081f08c3c7c5U, 0x4d246ef4d8229ec4U, 0xc7550f6bcbaec7eaU, 0xc8dc45d32f3d5c9fU,
  0xbb1cacd9b419f7cbU, 0x112c7f41ac4daab4U, 0x3ff3fa6eeae0defaU, 0xcfb0e4b9f4f7a529U,
  0x650d2041f104a4c5U, 0xe2cadee549b260b0U, 0xa9d7f726fe9eb3c5U, 0xe839c207e4162149U,
  0x4d27befb14485bd2U, 0x9eedcb47c6431fefU, 0x1bbac6b21c513224U, 0xd50c12ccedffe9ddU,
  0x13251ed54185c73eU, 0x362025bf9e070736U, 0x1f18bdefade0d7c2U, 0xad5b3b054be9cfd6U,
  0x404a21bdafc3c507U, 0xf6f1affd2b0be237U, 0xe41fe17fefa018eaU, 0x1ec719facf2be627U,
  0x10d4c331f13fd029U, 0xd13be656c8d89c4fU, 0x511be929aaf2a7b1U, 0xfad40acf4cc9d6abU,
  0xd6283c5507c24af2U, 0xffada313963ab6afU, 0xd6bcd4cbe700f63bU, 0xabd9ad03ede11adfU,
  0xf2d51aeb37b9013cU, 0x162d8e57251e2939U, 0xdce3f7cce3a142bbU, 0x23da29f4a5007f58U,
  0x54fa11ce52db4036U, 0x4922e272fef10050U, 0xc0fd5eb164e22abeU, 0x2cecfde255e50442U,
  0x3e26ec3310a34ad8U, 0x3016c6e5ce346d01U, 0xcc4c1e258e11c45U, 0xae5c1a1c431ee14fU,
  0xeefcf8d1524db630U, 0x1e83c690a38024aU, 0x9b4829fcb9ca2500U, 0xf8de5d2f34f40750U,
  0x13120a4adb21d846U, 0xf27f7c9fbd7e819U, 0x39240cb7d7a3bb46U, 0x349c93d574c2bc8U,
  0x60b81b19b36125adU, 0xbb18374f4acca5d0U, 0x51d3ec1802fb9e5aU, 0x40d49dcad11559b6U,
  0x60e62d8402da747U, 0xba38ddf732b54815U, 0xe2d45a4bd290fea2U, 0xdfa419d3e6c53b32U,
  0xf8030c41b320223bU, 0xd10eaf133403b714U, 0xd62cb2d5d281f9d1U, 0xf7b3b453b6b9d24aU,
  0xcec11bc80a092221U, 0xfe4e0969574cebbeU, 0xdcdc1c399ecf1c10U, 0x1f2b2c00e8ee2ec4U,
  0xc6dcfa16a6cc7500U, 0xe5e047ee59251bd7U, 0x283110f1d8dbe516U, 0x51e30955dc53fc69U,
  0xece1c8f21668190fU, 0xb5ca581a23d50de5U, 0xb1c646553c44b32dU, 0x44422dc1dc0863b0U,
  0x263a61476356f8d4U, 0x4afafb05e1dbd407U, 0xa81eba1c2ce2dbaeU, 0xd33532dbf22d2cb0U,
  0xcae26a21f1452a16U, 0xdd40004d2a9d210aU, 0xa9dba2c9c629ea2fU, 0x1b1ecbd68aceeaeaU,
  0x13ebe5cf35bedabaU, 0xe53c19ce5008ae38U, 0xbbeb3eb64b3905c3U, 0xff1554320dd9e638U,
  0x56e8f29cd0e1aa32U, 0xaa1303d23f0534baU, 0x8149e3d1f0cd154fU, 0xc3d56bc4b4b8f114U,
  0xe140d8c92e5a1875U, 0x1f22ea1f12e2fb0aU, 0xe1080342d80af7d2U, 0x2f060fd3f537e1f2U,
  0x17ccd5e6d20afdd7U, 0xecc841da240ed6efU, 0xd4eeffb70c31020eU, 0x2a2f2ede460027e8U,
  0xe712cb292ccb1108U, 0xbeddd01f1bc021caU, 0x12d4f01cd826dfffU, 0xf3e1ee093db5f8cdU,
  0x3ec2cbdef7e1e4f3U, 0x1471812c4fcacf2U, 0xcbf1e8e9d4b705c8U, 0x1cfd1be514811be1U,
  0xecf4ef3623cf120fU, 0xecdf06cb14cd0526U, 0x1fe6e817d6ab27ffU, 0xf0ceff081797c3dfU,
  0xbaf40f031ac33c1eU, 0xd3355c392fc544b6U, 0x74143bf73dc13aabU, 0xfc0e9e25403ffdebU,
  0xcdf6dc0c23db56d9U, 0xf203cece023af222U, 0x62dc6b31acb20d2bU, 0x7fff0be41e4f5a1cU,
  0xdffe45403d9e0fe2U, 0x4d634ba3335f091cU, 0xab17f046d702615aU, 0x17f5ecbfa7c658cfU,
  0xf4d5e02e1b3b3dabU, 0xe9c6d1d3379d2082U, 0xa013b21284614fd7U, 0x10aa274a12c06cd5U,
  0xd31a0b34be3f1efdU, 0xb71c5dacdc3dcd40U, 0x51dc1fd7bd55f2d1U, 0x4cd244d8abcb0c40U,
  0x3b505bcfae5e1cb7U, 0x930b134d4bf3e48U, 0x547236e9af260a0dU, 0x2a17233b3ac6a4ebU,
  0x3413dbe7dce5034eU, 0x67db08d5bb10e14eU, 0x6ce9685c28277de1U, 0x493ec5d4d34e4705U,
  0x4bf5e204c408164cU, 0xc92cb532a2eeaed7U, 0xd5aba6c827396515U, 0x3e4964eee23f2841U,
  0x4bd1ed23cceecc1dU, 0x2ddc0cfd04d143bbU, 0xf20a1d16f62b0633U, 0xe6a96d4817482116U,
  0xf3d0762b3ae8e035U, 0x2c9728f547133497U, 0x3f0a4df82437e4faU, 0x5dfa41f40833c1f8U,
  0xac415a2e81da3985U, 0xb0a8fb17e0e01d4bU, 0x6e5c3fb40b3dc53dU, 0x4acc26ff25d7eedbU,
  0x64e6511eb7deb350U, 0xdb1c3f954ece5ce2U, 0xf9c5bdd5e91ce910U, 0xc09dac4a1545d9a9U,
  0x2e32d6d702bf9f29U, 0x280bbeb1a64bc6adU, 0x5145fa7302d7f505U, 0x22e8e1beb9e45856U,
  0x52b83dfdea2ebbd5U, 0xd84fab89165b2ee1U, 0xf557d7ee142b0aecU, 0xb8ad273efa0127feU,
  0x31095f18281a0c56U, 0xbaf02d91a851e367U, 0x3af3f445bcd6a6ecU, 0xfd0617ee42d1f814U,
  0xd0ec7ff6c133f822U, 0xa4433dfcf8223158U, 0x31139bbcbb050363U, 0x54eaea60fae6403fU,
  0x79e35512ddcc570eU, 0x4f07ed07c3f6d9d9U, 0x30fca524a04a35eaU, 0x781ed0cd4534091fU,
  0x42e362ac04f4e4daU, 0x253b650cc7e3313dU, 0x50f3581f284a1723U, 0x30fecdc0c2ac7647U,
  0x8ae83b5f6936f4d2U, 0xa95062f03cabf853U, 0x9f97940f616ced67U, 0x5c4e34ed10b7ade7U,
  0x1a530c15abb13ff4U, 0x4f4954a5a2b2f29U, 0xf713ce082f7f7070U, 0xf0cbd5eec9f066bdU,
  0xc9992f4daa64dc25U, 0xcbcb2d5cb32a0fb8U, 0x1efa3c4500e7c909U, 0xdb32b8ddaa1325faU,
  0x3dbfa4a35edb423U, 0x9d98131821ee0631U, 0xbfed30f3254fa30cU, 0x2ee33921f0dcafa7U,
  0x2efdd605c3da9cdfU, 0x81a5a55e4e044309U, 0xefd5c1e3e3f8f11cU, 0x26f9e9d83da1d613U,
  0xb5c6b804e3f69cc6U, 0x53b90f6323f24f94U, 0xfd221ce590e22f51U, 0xda3812d473f5d0feU,
  0xfd4dc1dc0e39d0f8U, 0xcdedcb5f4bc77551U, 0xc1e22ae0b7af0bbaU, 0xaae53220734093b0U,
  0x5d47b3f418e733a8U, 0xcc5355d05e427f39U, 0x9d620606fc4eb0ccU, 0x53c1a73e4d1a2ce5U,
  0xd1ce214cd71739f5U, 0xbcc469dc0958c9fdU, 0xeadf2f389b349f01U, 0x7106ea4d38bf31fcU,
  0x4e40d4d531375cd8U, 0xd909e6f003da6811U, 0x19dcc1fbadb83e4aU, 0x4f553fe80d363d33U,
  0xbbecd106f6b82d3fU, 0x25eafb1838d553d4U, 0x21b9393c17c0b8fcU, 0x1ac02722194b2931U,
  0x4c1b5443a9f70a2fU, 0x27083f20f2cf3531U, 0xb8c7d911072deef3U, 0x38440ae1f90de1U,
  0x440ac89bc5094931U, 0x360a4c61cfe11311U, 0xde611061593062cU, 0xe937c1dee0e0383cU,
  0xa621aaa33745d29dU, 0xd5da3f10c55732f6U, 0xe1fd62bdbed64bdbU, 0x3d11d85de92a58f8U,
  0x2d0b1b4dadbac356U, 0x192cd75405f7ebU, 0x96c58ccd1f8c4c2U, 0x436d2acfcadde16U,
  0xc7ed4500b9192f38U, 0xf845b709ba1500f2U, 0x195341f417183317U, 0xc1f0b8a99df0ace7U,
  0x39b103a01941cac1U, 0x14f113daf013f0faU, 0x24eaaa8c01afd4ffU, 0xb2c7f30081672505U,
  0x2a4bb79603d18dbbU, 0x8d228d937535734U, 0xe8f2b1c03f77572fU, 0x180c3eeba256f762U,
  0xab41f3bc2bc608c6U, 0xe9172f17414f0c2bU, 0xff433032f158abc6U, 0x5dad5f3f30054dc0U,
  0xd0e94eb061f84653U, 0xf7b15440ae559827U, 0x10f1fa4500d7b808U, 0x34db04c21add0ea4U,
  0xe9071d1429fb1434U, 0xbac63857262efb2eU, 0x955af1c3e9281f2U, 0xfa2d2ff19aca68caU,
  0xefcbc6f409e1c120U, 0xc239b7011e2f8b27U, 0xa5e7d22537ec0b18U, 0xbcb3d59ffa3a3af3U,
  0x27134c1c2917c6c3U, 0xb2a8b7bf1a08d6f6U, 0xcfc0c8df073f2f43U, 0xc0973da6d11727e7U,
  0xd762d981ee09a6d5U, 0xf8e93690c213d504U, 0xd3ab1dd835adb1e9U, 0xd90416e0fd304e39U,
  0xf4aec5da280b5f17U, 0xbe1c1dc7fbaafc33U, 0xc4f9c914080ea39dU, 0xe037fb2bbe4fcde1U,
  0x1102ff1ac544442aU, 0xc70c553841add7daU, 0x1d8e9f113d21aa2U, 0xa4cac9d7e8c2c152U,
  0x4e8fa332c3ffa4cU, 0xa30e479dd9c9fcbfU, 0xc0e4f811da9ceae4U, 0x4dc4e2f5cf02c642U,
  0xcdbd3c284bb73eb0U, 0xd34412ff034743ddU, 0x39dcc3ee115210c0U, 0x8b0006183dbe016bU,
  0x415d292dba61f022U, 0x24decea5f234e3e3U, 0x24e83832c8b0c54bU, 0xcd194cd52f501ed8U,
  0x42062ae11b50dee9U, 0x331e40aaea04fae3U, 0xf94f30de399bd5faU, 0xba00b60840d119abU,
  0x46f22b1a52bc4742U, 0xb33564ae544f20bU, 0xe5dfeae2dae419eaU, 0x8a032b091f522bc6U,
  0xbfbcc8f2de373119U, 0xe604253d1fc0305eU, 0x9301d570e81023bU, 0xdb3d003927ff1d53U,
  0xe14bdcb7c3c1004cU, 0xd022e20e39cdf3ceU, 0xb081f45740fe3a27U, 0xb50825af5bb455c1U,
  0x6ac0be3a0db8ce40U, 0xcf2e4445cd1517ceU, 0xf698ff56c950dc22U, 0xf262d7da20122d49U,
  0xdbcf0cb9200402bU, 0x2df7bd230dcec24eU, 0x23320412befb00feU, 0x331aa3c25d6ee1bU,
  0xe2064404dddb23fbU, 0x5bd7481f11cdbb18U, 0xd4293fee99e61f58U, 0xeb5cab113c0e3ef1U,
  0xef575100a239174cU, 0x32ccd0d025165e56U, 0x18e91bfdeafaf72aU, 0x3c092cf5f7222d28U,
  0xc6c71ee4140359a7U, 0xbdf83d22adea1335U, 0x35ccdc1fccd43498U, 0x3cf70fb61e383330U,
  0xb1dc2014d24446e6U, 0x11e71041a816201eU, 0xdf5323cc00cf3181U, 0xe5fdfeca00b12df2U,
  0xdd01371746c530a0U, 0xddf4d3d11c1c24feU, 0xf42dd3e3e13f1af2U, 0xe34038e3d30a1c40U,
  0xd637c233be183a27U, 0xda13fb01cacef9f5U, 0x32f7fc0438182c94U, 0xdabd0222f00103cbU,
  0xe32918b4dbd70f28U, 0x73d12c3d3f6d008U, 0x15dbd518d6f53dfcU, 0xdf0b1643521b143cU,
  0xcd38f036043fdec7U, 0x25e81bf21d4b52ccU, 0x5f3ccece222c139cU, 0x3421a0067f42f8e4U,
  0x16d22b742c00f1c8U, 0xa2e520f8a0ab0035U, 0x6b11cc6214ba821U, 0xcb06092cae97a4f8U,
  0xee3fbc21e7d25051U, 0xc222e202021c0715U, 0xb6c61464e4360cadU, 0xc4e3bff4af04c6a7U,
  0xc65a0bf71f4ef6d1U, 0x2c18de133433b505U, 0xff358f00f73011beU, 0xed1e31d3d3e421e8U,
  0x13c43100b5d90032U, 0x51dfd0cb5ee0bc8dU, 0x1b19c80299f15fe6U, 0xc646fd2948f6060fU,
  0x682647178fb8a01eU, 0xdd1b15f6e7eaf1f5U, 0xb1c6aadf889609dU, 0x6c2f8ecf20ccb03U,
  0xf04f55ac9abcd781U, 0xcf0827ba2ad455d5U, 0x6921f81698a821ecU, 0x5434b2fb432cc0acU,
  0xfd01ffcc06d64890U, 0x3c04aebbc3d324b9U, 0x46cb1d4ef449bf0eU, 0x283b471025161bcbU,
  0xa62aaa3ce6db9cecU, 0x29d3bd1f1bc029f7U, 0xde3829b4d5660d1fU, 0x410fb7c7242f45feU,
  0xe9f3e140af263faeU, 0xa7c53916c01c009fU, 0x5760e1b8133d13d0U, 0xe1e5e15cdde02252U,
  0x306626652f5b12a5U, 0xe9d01ae040546093U, 0x169ae6a7e6f75768U, 0x335afab1c4314b28U,
  0x7fa6d6e1b4d099c3U, 0x9962c25b04f4d74fU, 0x98b12ef74130d1d2U, 0x53f264c92fa75c69U,
  0x5eb5f603003bccacU, 0x555f672d695ca3a5U, 0x30b483bdb2d5e0b7U, 0x721d601ccf4ce9d1U,
  0x3a47b12664a8b75aU, 0x57c418b9d60eb7d2U, 0x46f8ca341b435e03U, 0x57b736daf2fb48b5U,
  0x6adab05f68ac95dbU, 0x3ed270ea06355171U, 0xcc111239399a28e1U, 0xdf600a3fb5173a0fU,
  0xdea0b95f00adbda9U, 0x304836d6522428eeU, 0xa6d8db0cb6fc1207U, 0xaaebcc27dc17ea60U,
  0x1745e0dde0beae30U, 0xcdbe161f10d2740aU, 0xeb5b2709c3f6ffc2U, 0x19e4c2b91d312817U,
  0xbb3e0b2c46225e1fU, 0xf49530cfee57febU, 0xe7e32a0cce22da4dU, 0x272e594c00c40dc7U,
  0xc95caf28cc5ce63bU, 0xd08c0fd482ad5f4U, 0xe4e2140dd6fdc3e9U, 0xdec38c219233137U,
  0x612abb33e2251539U, 0x2caa42f02d2d22f3U, 0xd95053cc21c8ff2bU, 0x3452ba21e8c9eaa0U,
  0x2d9a3dbf28f206eaU, 0xd5dc409648020fbfU, 0xe51ab33158f0c7daU, 0xb5203631959e01aaU,
  0xff2aa5cde310f143U, 0xfd2dcaa24220896fU, 0x3a9ae1b735040bc6U, 0xd239a5fd96d4539fU,
  0x53cace043f24c904U, 0xdbbec648a656e0daU, 0x53e8c952d21951c7U, 0x34302c062633ea19U,
  0x5212ed80eab20edU, 0x19a959cc2a4a0d46U, 0x4fe24e4bd113ff39U, 0x4a3f06c1a5e2d1baU,
  0xb7e12299f05221eeU, 0x1dcc0afea2255fffU, 0xf3da77f543b769e1U, 0x29bfbeaefa7fb842U,
  0xecff2c1bbf10c0bdU, 0xd02e6c1fcde9f94cU, 0x51f91fd6fe0f0bbeU, 0xcdc817efdeb1b228U,
  0xee314d1fff72afeU, 0xee0e8032ab2d4caU, 0x17d1e0ecedebcffcU, 0x1cb3c07a8c8acecU,
  0xf6a1cf40292910f7U, 0xff47db3dc04eb1d0U, 0x1446b849bee332e8U, 0xcdf6df103bb84bceU,
  0x5ef80cb1fae9e53bU, 0x49b0b74e0fd7fb20U, 0xd1cdd92b2c811702U, 0x19b748334bdeb834U,
  0xe45ab842e7ca1ca6U, 0x494535071139c640U, 0x2500cf18f4aae5ddU, 0x5fdedd3f112dd4f6U,
  0x4b1c6655ce0127cfU, 0x57353c40f220acc7U, 0xc7e748e7c3b74d81U, 0xe4ad00e8d7ccd5b2U,
  0xf0eca4b0aaf5fdeaU, 0xf109baca3e3901d5U, 0x45160a4103ecd09eU, 0x38e8d50f2bfb0ba6U,
  0x6738fbbd5723b5cdU, 0xe8cbfc38f616d6c3U, 0xdafbad1344ca696dU, 0x531a0f0a45f91104U,
  0x7351ecb7e43ad8acU, 0xd0ad48d9a6fa20d6U, 0xb5d91317be4ff019U, 0xdccbf24dee525c4dU,
  0xd0014a0a19ad03ccU, 0x465567d4acec5ac0U, 0xef0df91596e44efbU, 0xd8d52702c85eaebfU,
  0x50a18fd20c353aeU, 0xdc3ddd9fa819363dU, 0xd7e2d03f8e41e923U, 0xa35b5fa0d611ef01U,
  0xdeebd1255ce0d433U, 0x2637fba8f12d4969U, 0xf8ac2b5f269507d4U, 0x2370191614380f44U,
  0xfdca394735b06234U, 0xb2273597a30e6802U, 0x42fce50e10d0fcebU, 0xe1d521389316b06fU,
  0xd958c5d008172aafU, 0x20a2a77daee4a3fbU, 0xf9d24ad6fea21413U, 0x9fc81cca355eb56fU,
  0xbebe5239fd02ace2U, 0xb21c9f31c1c93fd2U, 0xee1624d40f6306bdU, 0x3b7f269dc1cccbb5U,
  0xf7a555c9c407d4e1U, 0x5fe8dac90ee0b927U, 0x3996b02e23c1b594U, 0xec97dc3716e2e7c6U,
  0x86d8edc12d9bc556U, 0x3264add512fcd924U, 0xe15ac5ef2025bbaaU, 0x5bc9026c5c1cd6aU,
  0xc8024cf4de45c422U, 0xe6d5b4352c30b329U, 0xc0af51f7a7e62547U, 0xd5cfd9a39a33b525U,
  0x8972baa7522aedffU, 0x233f5605424f52c7U, 0xe2e34bf7efd2f219U, 0x5d325705c707b3c9U,
  0x5d4667d962da6dceU, 0x60f211f31412ad65U, 0x12acec6280be5afU, 0x7fafcbbd6661f461U,
  0x6c19d76d3561c66cU, 0x8dfb42fa4ab5b31bU, 0xa0bec439d2153c5aU, 0x1eae35abc5000232U,
  0xd713d7ff4d5c291fU, 0x12af4f6af2cdd6beU, 0x281743d8e611e436U, 0x5c2cac02e7d6a6d0U,
  0x11dd57e6d8c9b801U, 0x3ef82018311b9f81U, 0x29ca135ddb3fbbc0U, 0xc3fb3b39baddcac3U,
  0xf8469cfdf52eb7ecU, 0xc62537f1ae5ce7acU, 0x1ef314cc72e311aU, 0xacb59d255e362c5U,
  0xdf0a4817e7be0600U, 0xc829daa52a25ebc3U, 0xe7e2ddcd0f412bebU, 0xc4d3adb954014fdaU,
  0x200c0355600a04baU, 0xa648ea6d67a841b9U, 0x96dee01b3ae8e7bcU, 0x74d8c1c162fc6259U,
  0x94e0affaaec65f6cU, 0xf2da41f03f1ac767U, 0xe2e83c9549bb0bbaU, 0xec00a0ed59c16344U,
  0xad294ada1fc5c0a5U, 0xdcb75787bd233209U, 0x8e2b3ed0f011c481U, 0x1d1339c158fc55bdU,
  0x2e893cfeb72afd39U, 0x4606252a05d3baf5U, 0x12feb6239b21dc7cU, 0xd55b296f13e59ed9U,
  0xc3062a326dfbd541U, 0x6d4af6cb96d29d4U, 0xf71677068e8159e4U, 0xc956315bee4e0608U,
  0xd134f2d39e1dedb7U, 0xa3fab4cab9a31151U, 0x6329b0be7f47bc47U, 0x17451b0faae9e31fU,
  0x5f3f99f12608b3f4U, 0xe5ddb924d3cff0dcU, 0xf0f6fe0ced2ef647U, 0x5b36d202472a349cU,
  0x2019ddceeb2a2851U, 0xaf1b16c9fb0348f0U, 0xe626c5ed0da3fabbU, 0xdeb3c3fd104ecffbU,
  0xb6ae22e1f331bc31U, 0x3d20eb2b5ce24a04U, 0x4c1853b025a33fa3U, 0xbde4ab31254eccfcU,
  0x414009212cb4b1f4U, 0xbbc4ff412e56490eU, 0x2119ec5c01e3191dU, 0xabc2f7e145feca1fU,
  0xc532f7fb0947b8bcU, 0xc5bac6c0ebb4576dU, 0x30ae69c9ae9a54dbU, 0xc69fc33bbef2de47U,
  0x87f5800da39e91bU, 0xdf6122b12db945d3U, 0xa2b0434b584ed0feU, 0xa2f5062dc77708b4U,
  0xd1f15023840855deU, 0x87bae065c0fc4be3U, 0xad8b3fc81638a053U, 0xe0cb3fb12f045310U,
  0xe4c805acf0c7c844U, 0xf71b5d69d6fddcddU, 0x5ee91fba40bac4b3U, 0x44245dc3f7d89005U,
  0xef04d15e2254e147U, 0x4912be44320ec568U, 0x6d180105fbe93bd7U, 0x2fc93dbdd71e3a05U,
  0x1ab3b106e668186eU, 0xa1fbcd1c0414b3b5U, 0x94bab6372701e01cU, 0xced82a21ab52d1fcU,
  0x99ef4226c1049d14U, 0x93dfd5edcde0d2d4U, 0x1f4fb40bf3badf36U, 0x2214c7054f4aec24U,
  0x28e333d91bd011b1U, 0xfcc8f1e0e5cdb6e1U, 0xf9d14f22fac350e4U, 0xed022ea3c0a15fcU,
  0x53601fb8ca0226beU, 0xe3514f2fdb212722U, 0x5a48dcc6052ec881U, 0xcf53b0fa5cfddd3bU,
  0x42fd102827d91adeU, 0x9e5611fea32d9d2U, 0xae1a3f2bc0bf09aaU, 0xcd2d3b4fcc3f7fdU,
  0xe26414d62d322c15U, 0xf7d3e83531520526U, 0x9a3d150617151e04U, 0xbb81fcf59807edecU,
  0x17451c30ce2632fcU, 0x29343af8494f2ab3U, 0xc3dc1afbf3dc0027U, 0x8b4126f825e5f7U,
  0x35a7ff472c63304eU, 0xc239cad3b6fdc4aeU, 0xe9e2c6eac9062258U, 0x54401545a8ce33d8U,
  0x33b347b3031b3232U, 0x1f50cc2f444ac652U, 0x35cc0f266d09073cU, 0xd2046b1ba474a29U,
  0x39ce673bff4eedf6U, 0x2cc4e8da29103f41U, 0x4ef31d5c5b8ec10U, 0x582dbf160d11e50fU,
  0x3ba55c192af7d02cU, 0xebf70441d4e0cb69U, 0x3ebc1ff63cb0403cU, 0x16274fec17b262b9U,
  0x40e8761057ce3101U, 0xa91e3d5be6394da0U, 0x654654fd36131a3aU, 0x2e1432035bc804f2U,
  0x650a650723f723b2U, 0xa4dbfef4cbebbb23U, 0xea170ee2be55e600U, 0x6adebeef14ce5f2aU,
  0x4d687128e9370434U, 0x4b4def206bbdda0aU, 0x14c14723d2c7c768U, 0xdedc683613e37f0dU,
  0xc925cf10d1c34b25U, 0x35b2cae9e9190d39U, 0x18daeff541a638fbU, 0x3bb692c1c3317bb1U,
  0xbc642f4dec3b09a8U, 0x97eac854bed8a818U, 0xdea4a83f43b8fe05U, 0x955ba8ef46b095ecU,
  0x9c222b4c1c576388U, 0xe0f5da10bcd4a6e2U, 0xb5255e3d62ede3bcU, 0x347f05e5043cecd0U,
  0xda14068ad49e4f5cU, 0x3b2606d92c2e4953U, 0xcd13b90a385430a4U, 0xba4e04aa950b1bacU,
  0xa5e8ce2fee5f1834U, 0x1307d9b4504ce1d1U, 0xe7ecfc4ef9264d29U, 0x6f9b5d03af11fc34U,
  0x3229996c249cca08U, 0x45f2d76df32012aaU, 0x1bf31eb29bd6f8a7U, 0xdedd585d58268858U,
  0x3405173eb9ad4cf1U, 0x1e3828c8451ccbf4U, 0xc7d3a632194f1818U, 0xe8d1ffc9b158fd04U,
  0x190d0808e5c531caU, 0xf44feaecbbd3090cU, 0xc72eac04ce062511U, 0xf5e90f4f35153bbfU,
  0xee4702c7bcdb33f4U, 0xd2bee2c182b14caU, 0x3ee915102f14d720U, 0xdcddbe12c43f3dbbU,
  0xf7edc9f1e34b2af2U, 0xb2fc0f1bc9f7531bU, 0xe4ef239450d3020U, 0xf8bcafc1d3f212dbU,
  0x71aaeb351dae9a9U, 0xec090a0dd8f30ef8U, 0x1dea18e333ac3b81U, 0x3f37beddc3b413b6U,
  0x2fe82433bbf266a5U, 0x3090b12e3740d5bcU, 0x302e1561b5ff212eU, 0xf89366db23707d7U,
  0xda64237a1b504286U, 0xc5c8fd21a0b806bdU, 0x686622a3ade5ba2aU, 0x234267e4303e02c6U,
  0xd59743ca03acebd3U, 0xcc9a0f0abd7fe0f5U, 0xf0af0330e8d60fefU, 0x2d982aacbebd9c64U,
  0xb4a7243b20e5aadeU, 0x1829bf9fd4ea2750U, 0x29d1f0939e9a9815U, 0x5f27ec369603bae5U,
  0xe6b6bd0ccc4a4f21U, 0xc938f1036359bac5U, 0x1ecfa7d05c49ecb3U, 0xc4cc1ebd93cacf30U,
  0xc913efe98923c930U, 0x225ac9074707faecU, 0x121ff8de1320010bU, 0x7a4d473145e70b38U,
  0x4a3c521022c24efeU, 0xaf33f9c4bfd1cf17U, 0x251a5bd534235c09U, 0x41da2144f74acb48U,
  0x1006060403153215U, 0xb1ee4446314f252dU, 0x40ea18f9ea51b8afU, 0xc9ac1a9fce50d8e9U,
  0xc4f5433caf142755U, 0xc4500298643b2f9bU, 0x81c5c6e7ac19f724U, 0x23fa4545d43961b1U,
  0x3bd2b5b3ffeece5aU, 0x26f764ec379b14f2U, 0x600a89c2ca41ed6U, 0xed9e80af255ce4dU,
  0x3da516eea333c80aU, 0x28f62a1dc903db15U, 0xa815c8f3211e02adU, 0x800e313a0e0e155U,
  0xb0af3112e32f9acU, 0xc619fdd6f9e8c73eU, 0x13e409b9f0061d25U, 0xd93e09fed635bd56U,
  0xbd1513ed212fdbe8U, 0xec219cfe0b461032U, 0xb101c3fcc9d33b35U, 0x114fceeea8dbbbefU,
  0xbd11804350edeb5U, 0x1e28b81814f6451aU, 0xbc4025311e1027feU, 0xf91be9e8eaed241eU,
  0xe3e51fd82ece3bb5U, 0x32f58120c7d2e41cU, 0xb611ace2d119df10U, 0xbbe0eee6b5e63435U,
  0x7f13e3b1efff5feU, 0xc239ff58f0c6ec2bU, 0xda3635be3a3df3e5U, 0xf6c1fbdc21b0034bU,
  0x2be70a233fe5ce21U, 0xfdd9fa0f0fedfb05U, 0x2b24e7fcde1cb3bfU, 0x3d101c3ff601ddfaU,
  0x435d1eeb8e52812U, 0x5135aed26b3431bU, 0xbee4ffe00e16e2c0U, 0x452022fee6c605cfU,
  0xc2c8e1df2630bc30U, 0xc3234327e41b3b13U, 0xd717d112d948c7f0U, 0x41e6dec012d4dbeaU,
  0xf306cec5e130b796U, 0xb2081a2108b7d002U, 0xc2b4288de7e1811fU, 0xf409610223b026c2U,
  0x19143d443634d013U, 0x4a5b3bf142cb0850U, 0x9b289b36d740c9e8U, 0x9faac3ecc04de2ceU,
  0x3702f428a310dabeU, 0x1d25f5fdd350f7dfU, 0xbbf7d44649b5c531U, 0xcab9d2e5e016fd33U,
  0xcb450a71c29c1cfU, 0x1c4cc63c0de257e0U, 0x472b11e2c3f02342U, 0xe4ed2827f1024bf0U,
  0x1aabec2f16f228cdU, 0xdcb3b2dee5f9402dU, 0xbbd26d3fbabf0808U, 0x39211ac86ecebf35U,
  0x2dcdb66423d5e8edU, 0xafe52b34fa41249fU, 0x3cf07f05ee191629U, 0x1ecdf1bd513329b8U,
  0xc9364c5265bfdc17U, 0x12b1b90102111a21U, 0x4465e03849bbef1fU, 0x857e447531c0998U,
  0x5457ca48359b8406U, 0xbecee7bac9b8e8a6U, 0xf7475663ef0dda4fU, 0xa2f4bbd7baf54b0aU,
  0xcebb6aa9acd9030U, 0x2915ebf506481b2dU, 0x43af072a361fbbcfU, 0xf781d104e4beac31U,
  0x5c52c11ce0f018cU, 0xbf250c1818b3f3feU, 0x23e8d9e9acc91028U, 0x24c4eb1429fd05f1U,
  0xc5404a34c4d42c9bU, 0xf9d3ecbc604becb3U, 0xac18e75c8547f2c0U, 0xa9cb1e741a717b5U,
  0xf8bb53c0fcee07eeU, 0xfff7f9f3d3421115U, 0x1e02a6e3f8f621d2U, 0xda58d20b13a4a3a8U,
  0x2a0bbfc033114b06U, 0xd7e44ee1ea0ae049U, 0xf7302ecc331d422eU, 0xc5d82dc524a3cbd9U,
  0x1ce0a4a1527cd17U, 0x1918a8e6ecd42fb8U, 0xa9e7d1d5b03381cbU, 0x49cabd04b703ceb8U,
  0x4ae2b80b3a52cacdU, 0x3b5e5617b605ff1fU, 0x21c0a2fceeaed501U, 0x35feedb5d90a13d5U,
  0x470c51c903312a1cU, 0x125fcca76524ef3fU, 0x30ebfe54a9f60bdfU, 0x350c3018b818450bU,
  0xb351603c31c6d3cbU, 0xe7f46c021414b2b1U, 0x5ff7bde737e09dc7U, 0xbab841571e913837U,
  0xb1f2dc582cd92835U, 0xede8d2d030a311f9U, 0xe613b843fc55acdaU, 0xc3dbd0d537262329U,
  0xa6b4e7d83c1d2dc0U, 0x2d046b32f805eccaU, 0xbef456fe60ff2bf9U, 0x2eda3e4005a742ebU,
  0xefb4d4fde5bc14c0U, 0x95e300f12a2539ceU, 0x21fa97f074381d37U, 0x1f5b3f2d4a385d72U,
  0xc7f3503de81d1213U, 0xce13f0915136470dU, 0xb215c27f22ce7163U, 0x40d4f0faa003dd3aU,
  0xdc4e0ebb765fd92fU, 0x20fa4cec36f2cdf4U, 0xe60b349ff6f0e7a0U, 0x15af8d518cfb48c4U,
  0x2ff40aca3119e6U, 0x44ac1d9f5f40c9ffU, 0xcdc5ff43f93a2dc5U, 0x4e8f0e072fefe410U,
  0x1bf0b4f30ca7a1deU, 0xe5a9daee0e53d1e9U, 0xd3f419bb1b4de3c6U, 0x2ce44e2898ad40b0U,
  0x9ea8c828e843f89aU, 0xbb05e11bb3caccebU, 0x4939070b3429ed88U, 0x1cff5bf1b4c5094dU,
  0x62aafcff3c621b7U, 0xc5350354c8da6920U, 0x4cc93be7553e81e2U, 0x54da674b4fe8a738U,
  0x4d18553f5b134215U, 0xc949001dcc483ac0U, 0x26256f0f29ffe8f8U, 0xc2e4acc90af8ea13U,
  0xffda0fe52ae553eeU, 0x17daa0e6ddb6eef6U, 0x3c5affdade2faf68U, 0xba11d146be440c29U,
  0xbbf2233aee2f5ca9U, 0x40f6ccf1f2f5a204U, 0x454bfcb0fcfed03aU, 0x52cb12d7f33d2e3eU,
  0xf4eb21c32600ba40U, 0x21e7d8c5d95031f5U, 0xdee54ec036f5d4f1U, 0x5104cc4e00d7f13U,
  0x16ddd4f6fa0db222U, 0xb4f4ede9b0d91d21U, 0xce0c18da2468f8a8U, 0x324c01263de0d006U,
  0x55f4acc03b0b3d04U, 0x94bf95b6f10ce4bdU, 0xb3f431e3593ec528U, 0xbdedb4d4ae585cU,
  0xe696e444c417dec5U, 0x2d4da14390dfdbcfU, 0xaf57eb01a323ad6dU, 0xb1dbd6beaa29a83fU,
  0x2ec7aed8e79e5dddU, 0x275e43b7c5d5261eU, 0xc7dd5a25f103ca74U, 0xa41efae2a27cac6U,
  0x1660caf424c2b85eU, 0xbc3e1b5b056f2e3eU, 0x393f2ca247e392afU, 0xa573b7d3063acb39U,
  0xff4ef01e17062ad4U, 0xf04db3c6052c2b4bU, 0x5ab4f24b81b9503eU, 0xe1f49d08fa1bacddU,
  0x3d3cdfe84170d88cU, 0xc6c40896caf60411U, 0xb2f1e7ba3db909d3U, 0xcf9592e7bcb32121U,
  0xa712f6ce1a3a4b07U, 0x3025e9b03419c3e0U, 0xdbbdebf12fa7d50dU, 0x14c28126f6e3a6a5U,
  0xcc2735cb5022bef5U, 0xbadd27e220a4d241U, 0x3128deee0a2a9999U, 0x421cd4d11cfb35bfU,
  0xd520b2e76bfebaebU, 0x2ac225dde155d115U, 0xdbdfbcb6ac41e2d7U, 0xc3e7d424056cfdf2U,
  0x9bb98de8ddbb4039U, 0xff2d2fc3f006b138U, 0x4ba9c444d53f3ae7U, 0xd63e074b1fea3719U,
  0xa1d890a1bea8b330U, 0xbaebc5ced2be1dbcU, 0x5b092cd96a44b721U, 0xbe641f63a8ba39d7U,
  0x323eb5374abb5401U, 0x1a1de2a72dc1f040U, 0xf76efefb22b4b0cU, 0xd2c14212091104dfU,
  0x79f103fde6b0d84aU, 0x621d01ad42418f2eU, 0xdd2751c5e5f55cd8U, 0x11da3defb8a9a751U,
  0xf74a41bd1eb073d6U, 0x1418ddfce7150e78U, 0xd304eba831bb7faaU, 0x997612f24c3af620U,
  0xbbb5529f1015654U, 0xc1749483bb95f54U, 0xabb08c4169ac3c8U, 0xb52cf342f313aba5U,
  0x67b4af06f2f555d6U, 0x22acd7313afccd45U, 0xd2b8900c01b024cU, 0x2799acde1acd1bd6U,
  0x3d8132af9052af57U, 0xec56be998ab1f820U, 0xf8c33134c30b272cU, 0x52e0ca26a235b10fU,
  0xbaedd6f1e5c3fa42U, 0xd7552b98371bd314U, 0x243d10363fae17c1U, 0xaad2ea1acdd5a4aU,
  0x2705d70ebe9ad4a2U, 0xf8b5fd2e5d18d9f1U, 0xfa1a47c22e21cbcbU, 0x1b5a55d7154012c7U,
  0xb15b29a21619f312U, 0x684d076fe14aef75U, 0x5ed2fcbfd968dc4eU, 0xbed76b11171baffcU,
  0x12cb47cc55d87a5fU, 0xfe786741b37b7fd6U, 0xa0f643db9a22bdf8U, 0x4bd7ba5ba637eefbU,
  0xe475d47e30e390aU, 0xc9095622cd155f55U, 0xfc5350f7dc0acda9U, 0xcefd09ef41760aecU,
  0x65b0bb61df0b04dcU, 0xb0a43d5e310801e2U, 0xe54356a69c01c892U, 0xd7452e59a0413b5bU,
  0x11651d3613bd257aU, 0x124fb426062f9d8fU, 0x26874a0a8d0035c7U, 0xad0d9bfdacd31c13U,
  0xfe5946f2dd39cb4fU, 0x63f84933d63a50ceU, 0x9aece52ed58ff5c5U, 0xea4da023c183d6eU,
  0x433a52435b2a4c0eU, 0xd9288fc60621abc2U, 0x190a25f900541fc7U, 0x29043736acb25781U,
  0x1deda0afbfce93b8U, 0x5046e3cbe42231a6U, 0x64ea438ec14a3a49U, 0x2630f6da608eeaa0U,
  0x23d86c6a5ee5af1cU, 0xec41dfe1aa09bb16U, 0x3ae1274e40443ae0U, 0x350f98fc2605a7eaU,
  0xed28c5fef059e94dU, 0xadc3e5b519bf93afU, 0x3e09bc25228225U, 0xefdf41d1e6d6c0ffU,
  0x2a51bff8b122d9f4U, 0xab219c0cdb12bf4dU, 0x9dde9cc22fc718feU, 0x88b936f4a92e4fdcU,
  0xd8be18d021fe2bd7U, 0x16e31817c5501305U, 0xe81b183638ebcd37U, 0x250c4337233a4df0U,
  0xad41e85bf915b526U, 0x8b742d946dcf3dbU, 0x3011ebb0efcd2fe7U, 0xe72dbdef0f21c051U,
  0x2bb90d1af3fba9f8U, 0x2653cb8151e3ecccU, 0xb164a26f7dae93cU, 0xe61b33dc96cb57b9U,
  0x2afcd4c52f26ff38U, 0x46c0fec5d83440fcU, 0xb83cabe1d43e320dU, 0xd8c2cfda96bccec4U,
  0xc3d9d8a5214dc1d8U, 0x1e05452fe4ea9affU, 0xeb2e1ef5e9119de2U, 0x35c53d0042c10b30U,
  0xbcd8f423ff0ff0a3U, 0xfffffd9eU, 0xffffff2efffffe0fU, 0xfffffc93ffffff13U,
  0x340000000dU, 0xffffff62fffffc77U, 0x12f000000b2U, 0x253ffffff1bU,
  0xfffffca2fffffffaU, 0x64ffffff42U, 0xfffffdddfffffed2U, 0x19effffff15U,
  0x4bf0000005dU, 0xa4ffffff0eU, 0x11d00000153U, 0xfffffdb300000069U,
  0x18dfffffd0eU, 0xfffffe4afffffe49U, 0xfffffeb8ffffffdcU, 0xfffffefcffffff5bU,
  0xfffffeb9fffffe66U, 0xfffffc40ffffff70U, 0xffffff19fffffdeaU, 0xfffffcfe0000006aU,
  0x348ffffff1dU, 0x34fffffd5dU, 0xfffffdd9ffffff81U, 0xffffff92fffffc55U,
  0xfffffda0fffffe45U, 0xfffffe34fffffd0bU, 0xfffffe1bfffffdf9U, 0xfffffc3fffffff37U,
  0xffffff5e0000007bU, 0xb211efe11ea8f8edU, 0xa8b6bef3063bbe54U, 0xdcc1da8abdf1962eU,
  0xd935b00ee6ff2033U, 0xcbfd0a4ff5e43bcaU, 0x4330b6e043297febU, 0x4f5ce442b9301535U,
  0xa2495a0ce0d5d23dU, 0x27ff10d503a7cfbcU, 0xc8101717494fe9b6U, 0xee4c9aaf1732ccccU,
  0xcb2fab02e3470ed8U, 0xfdf50fb338befb3bU, 0xe111be3207e7f6e0U, 0x2ea83f231f41ae30U,
  0x1d06111804e03522U, 0xfa1ffa3df006cdf7U, 0xc705e6b81141631cU, 0xa6f11d2fed64222fU,
  0x73f132bfefc3f19dU, 0x461dc9041d2349e1U, 0xc245b1553d62ddc9U, 0xf2cb97d0067102d5U,
  0xf2032ce5d90992f3U, 0x34061afe06eb13c6U, 0x37151605e412d1d6U, 0x3e1acd0d31fbc7edU,
  0xee59e21721da374fU, 0xdb3401fb1803b904U, 0xc34d293610e49bb8U, 0x5549fb04cbeb3331U,
  0xfc0bf8f51004880eU, 0xe9bc0332d6c3190eU, 0xde15f21a01ffc10fU, 0xebfe19deedbee01dU,
  0xf6effb1a0b1d2f03U, 0x4142352f293e17f4U, 0x27d43018dfc5b1ffU, 0x51f1c00c240d3af7U,
  0xfbe51ad01f1e0c9eU, 0xfe150e0cdbc2ed1cU, 0x322b45e217dcc0f8U, 0xcd2aad3bebcefe28U,
  0x380acfd9d1fce41bU, 0xcd0815e4fc0004e8U, 0xe7d952363b3ad881U, 0x1f0d745142009e6U,
  0xfb29ea53df0312c4U, 0xb436d153f61bcfceU, 0x535b39181eef2031U, 0x23ef37e6bff34acdU,
  0xd0292b22091b0a32U, 0xd0ca12b1ad231debU, 0xd118031faf21bbe9U, 0xc21ba7aa44311956U,
  0xdbd00c00e100eec8U, 0x2524ead31814bab7U, 0xc1f7c5e611d5221bU, 0xf743cbeb1b02effbU,
  0x4012fcda20d2eeb6U, 0x2d28ff1de901390bU, 0x151438360dc6f5c2U, 0xf817813bc735bd0aU,
  0x12fd0a07febf3731U, 0x125aed472f03b205U, 0xedd1f9d82445ed3dU, 0xb7de27e7d6f2b923U,
  0x40041116bb3826bfU, 0x1bd806fbf4b01d0fU, 0x33abb27c03808bdU, 0x49b4f004fc01c10cU,
  0xff2a0c15d033c8fcU, 0x4cff2f163e29c466U, 0x1df0c9e331d0e033U, 0x4c1a1a0869b6fa04U,
  0x15d5eff0f2412146U, 0xd60e411f18d4f3d8U, 0xe746c34536fdece8U, 0xebe92476faed5bbfU,
  0xfaf356184440b15eU, 0x50c7fdf44bd629fdU, 0x27bd22d62b490019U, 0xa172a3432ff144fU,
  0xf0ae9410bfd7be2U, 0x2f1b4ee6f191f0e0U, 0xeb41c650f412beadU, 0x4210277433d1062cU,
  0xac254cc7ee481acfU, 0xf4eb9a15fad40addU, 0xb732c732d643be59U, 0xef3a81a7f6a9b30dU,
  0x15320064584b5a4bU, 0xb71db0b2e03feccU, 0xeaba33b0fdcef9e0U, 0xfd2718df0bdcd802U,
  0xdb5d2f3bcfd3beccU, 0x13fdbc0712e6df10U, 0xab4b67e72718d3ebU, 0x4dcf6316b4db24b5U,
  0x3a0e1ede45b673e9U, 0xad3d0516f6e01cacU, 0x32aea721e244d707U, 0x330c9315d6def0feU,
  0xa208d3c40e4ede3cU, 0xf508f7f1c5f7f329U, 0xd07e1d7c7382f4bU, 0x25c932dc5115de56U,
  0xf4dca53648ed4444U, 0x9dd5fb251acc9b35U, 0xed2bfbf43abedce6U, 0xbebec2cb8e09f214U,
  0xa3ea513329bb0a4fU, 0xa4069bb365bd59U, 0x9dda4f1132430f15U, 0xf5c6e3cdd6fd15b5U,
  0x1fdcc6ec5e411acdU, 0x5fb0dac2c8c010bU, 0x291ca8e62aa6c93bU, 0xa8dfd4e1eacea52eU,
  0x81a6f528f43934a3U, 0xfc0be5fc09f108c4U, 0x2222d03abddbd0d2U, 0xe30cdb2213e8f0abU,
  0x1f32d00d470513e7U, 0xe0bbe1fcf02333cU, 0x32ebdb2af90fc9bbU, 0x11a2bc2fe02c2df6U,
  0x6042c50cd607c8b9U, 0xd5d618fc37012150U, 0xfa25f148db270648U, 0xba2fce10e2aa4cadU,
  0xaf5ebfefe63c0c1bU, 0xf74fc1eff755ace2U, 0xe99f18cd10de8134U, 0xc22bdad0ecc5ff53U,
  0x66c1d0d86a42dfc8U, 0xeec610fb3c03b920U, 0xb1bad9f102e2f546U, 0xf416433cc9b6232aU,
  0x3eeebe395beafa03U, 0x44be28f994c1254eU, 0xeedad0d4f340e216U, 0xc9001aee34e54003U,
  0x181bdae561d2fbc6U, 0xcbdd03c469c316e6U, 0xd938a140fcca21cbU, 0x6bc96ed0301be622U,
  0x492608f33c681923U, 0xcb8b2ed82e8d30ebU, 0x3539009941502c1dU, 0x9cf3150cf5031b10U,
  0x9403f03e4fd5e44aU, 0x6f10d250a2d5982dU, 0xb6f1abae29011a9bU, 0xf144dd23679aeee8U,
  0x95aad507ce5c28c8U, 0x47cf2c2862ccdccaU, 0xea03d3cd74204b12U, 0x10e7fc51084e149fU,
  0x1b21fa90e506994aU, 0x33616c135ba632f7U, 0x8f0aeb05283ec1ffU, 0x4f962e570e305b34U,
  0x42fda74fc1db6454U, 0xb0b400005fd4254cU, 0xce1481195d23e7ebU, 0xacdfb8106ce8f0e2U,
  0xacd3c5bd53d9ca2cU, 0xd5491e20bd06a60dU, 0xbec81a26efeec518U, 0x45c82629f5e3a604U,
  0xad18f1e30b05a35cU, 0x4ca28073ec5d1U, 0xe722ef19d20996f6U, 0xdda7ef2aeb2c4302U,
  0xb7d13923d2e13343U, 0xfec7f32cd0e3d106U, 0xe8e72227b525e45eU, 0xd1b5bfea3c231c13U,
  0x181a24ae2b35c336U, 0xf4c7bc01cd64d9ccU, 0x51d7beee58d41aebU, 0x21a539f681cb3b0fU,
  0xf69a9d08d30ade06U, 0xbe14d4560517d2ddU, 0xa366484ee4edaa03U, 0x2f0794bde1eeff55U,
  0xfbc207233496dfbdU, 0x42313954f023e512U, 0xb3e94c54c84dc132U, 0x1c4b1b1a3cd86952U,
  0xf4e7c31829b4ffe8U, 0xc1392c4703d7f41dU, 0xe42dea22098139U, 0x3de4f8e1f215d1d7U,
  0xae1ee4f6d215e2aaU, 0xdbb210f7cbd503d7U, 0x151ed8b91ae9eefdU, 0xf232e02b23f5e5dbU,
  0x3d27e7301667de31U, 0xef55321e14b5ca41U, 0xfe17f2f8201b0806U, 0xeeeaf128f1fa071eU,
  0xb41affc9ccd20518U, 0xd10053082bc02629U, 0xc5220ef410d9fc20U, 0x520f27f0fd2430faU,
  0xc534e61f3108422cU, 0xe0d518e81507cd15U, 0x42348dc22e0ae16U, 0x3df8c334f60925eeU,
  0xedad0529201bbd3bU, 0xac11a2423ac2332U, 0x1501e6dcf431c2afU, 0x30c81ce82915b550U,
  0xc14e5f03371423f7U, 0x3009ef5cd224357fU, 0xb709f0424001fddcU, 0xdfc7ec345a24dd2cU,
  0x3e201a04194b1fcdU, 0xece915e8cdc63214U, 0x522a0111f3dec602U, 0xde493b20af46d2U,
  0xb0cb528eb3b130dU, 0xcf6d0d71526e223U, 0xf5e9409081307e4U, 0xe4dfa92f301122edU,
  0xdaa6d533aedb4a2dU, 0x250f2fd5d5e0b3fdU, 0x36ccf9132e3ea629U, 0x1aca0c1f28bae63eU,
  0xd7d61a1d0906bfe1U, 0xac12dd1a141a082eU, 0x1325f00d2e312a49U, 0xeb2aee2017ac270cU,
  0x4c3423f5c8e4da07U, 0x27da3427e4322930U, 0xd105292a05f7ceb4U, 0xff143393aeee0d3U,
  0xc528ad03e1c048f6U, 0x47c0e802d7fbc23bU, 0xe13747de05ee8175U, 0xb001ed3fed082ad2U,
  0xef3eb406cd24dd0fU, 0x6ffe1445c2ca9febU, 0xca25452fc722da68U, 0x59c0336c03c33aeU,
  0xd347094de54ddb40U, 0x2f49161325189f74U, 0xf136b7cebee04bU, 0xe2f1c2e2e7d91ce8U,
  0x5fb6f1faf8124b13U, 0x618fdeed0d01035U, 0x203428e0e654ebcbU, 0xc3123f5a302e3c1bU,
  0xd42b37f514fb1d3cU, 0x23f04a1d254b52e7U, 0x4c1cf2c7c0bec611U, 0xc75cd6b853bd4744U,
  0x3f7119d5cad3deedU, 0x4eec3dc602efe166U, 0x51d69c0ce9c74205U, 0x33cd3212c4c82de3U,
  0xc93c44233c2322a4U, 0x415b5340cae4cea3U, 0x361908f9374811deU, 0xa5bfc709e69bcdccU,
  0xd81db9f33a25d2c9U, 0xc0bf039307e3aadU, 0x2d93e846ba28f2b4U, 0x51342bd9a62f40b7U,
  0xf6f61775da4459eeU, 0xea0fb0e93f152181U, 0xb652c7e5dcfce959U, 0xca1ffec907a41d34U,
  0xe9f630e7d817d9d4U, 0x3a54cf4516f452efU, 0xc9c9d94d5704263aU, 0x752b24d7da1d101aU,
  0xe0234d690d0a0fa3U, 0x2d20bc3ce6d9b9d2U, 0x3de5fc10db3fcccaU, 0xed4fddf8d50a49eaU,
  0xd8f6b0b71af3a2f6U, 0x4c5ec1b459f2fbc7U, 0xfbca5004bb4b9ee4U, 0x33c4110af641c414U,
  0x13b7cdc011e87015U, 0x470410244115c012U, 0xf1581a1dd34cd211U, 0xe01a46e46f0a0c47U,
  0xc8f823d2bcd85919U, 0x537f2a27d20ed76bU, 0xfd3fee3c3a0bbeb5U, 0x61c7be09e0b01ae6U,
  0x40c87fce487409cdU, 0x3f73c4d5f80a6d63U, 0xf1fccaee082692bdU, 0xc5041159c3c633abU,
  0x18a43e60ebca5abcU, 0xe56e22f89d14c272U, 0xde25ae09e006addeU, 0x225ccd3c16c4b33eU,
  0x2d415e2144540db5U, 0xd402b8bc3df9e405U, 0x3bd6b35c033faa35U, 0x61cc4024bc4471f0U,
  0xed3dda58c5431edeU, 0x57e70e423add4111U, 0xd8ed8e23c1570171U, 0xacfcb8fa01c0d6f5U,
  0x5ae003feaffcd6c9U, 0xc4f424f6cc96dedcU, 0x1bf11fca1525c039U, 0x121b3192c5f0fa45U,
  0x26dcf449e826db1cU, 0x1e330a31f7149fc8U, 0xba94e1c0eebdc692U, 0x1f4116a3b45c50cfU,
  0xf6dfb0123425a60bU, 0x215e17dbae0cd328U, 0xdee4f7393d3ef234U, 0x2fe50ebb1cf3051eU,
  0xc8fd85461624aed7U, 0xb75eee1efdba2e18U, 0xf6b513d111fa1af2U, 0x37e62ff8ee462dc7U,
  0xf0be3e0d013a0e18U, 0xe2ced836d5c605c5U, 0x3f31a404d957c011U, 0x917dceae85546bbU,
  0x414ea7cf51c51218U, 0x3a1fe84a1505d2dbU, 0xdcd2230937e80781U, 0xd0ccf74af1f5d5dbU,
  0x7f8ca0c19d5f930U, 0xfb394a3cc1db853cU, 0xecd62cc8b992f3c5U, 0xddaa03a81ee73aeaU,
  0x151817b76a02e042U, 0xcfb20d022526ecb6U, 0xb29dc2f26d5af20U, 0x2e37f8b662fbedaaU,
  0xdef8f32edaf0292dU, 0x54d4bc301fa1eb0dU, 0xc23e439dd12fb3ecU, 0xee06fc1e107ab152U,
  0xa9bdc91d0baad066U, 0xdd50d0a7342331c4U, 0xc822c5e9ae3ab6beU, 0x35bb0e12d02adb07U,
  0xaec5d2e68fce082aU, 0xc730a82314ff811eU, 0xae3b2bc4591f1dc4U, 0xe4ba4ef6bec0cc25U,
  0xb1d310c40cf31ac2U, 0x26e4b48f2cd14768U, 0x88fd4ccdc4f3bf2fU, 0x1a640d34c2392bdaU,
  0xa1f31ed431090814U, 0x1c08a037df37c4b1U, 0xe3e1a5289e0205dfU, 0x3817a1f7093303eaU,
  0x1ac0b93ae1d4fde8U, 0x28fb02db4e12f200U, 0x12520121f072fcfbU, 0x1957f5550d072bd6U,
  0x72b36bfe2c1c0d9U, 0xb145b5f0ece9dd44U, 0xda3999f952eed64fU, 0x530d0c1ccb2e1838U,
  0xf21d53ce550f342cU, 0x4b08d8f424c8ab26U, 0xedd7ecd83d1616f8U, 0x6b220e2c129d400U,
  0xdc1e24c30ad4d442U, 0x9ee22e9542e8981cU, 0xf0b4efa05235a7c5U, 0x3d0144304a7eed3U,
  0xc7f9cfd95e063b07U, 0xf7d51d67d0e32e49U, 0xffbf5ea32483ef7U, 0x81d5e84cedd5f3ceU,
  0x9f39a108e4f90566U, 0xbccbdacd0ef6be46U, 0x3424f9ecc51bd33aU, 0xe53929390ef0c832U,
  0x3bfafd48bc53f72dU, 0xe9120ed11c042323U, 0x4a38cc0324f20b81U, 0x2a10296fe3303541U,
  0xc53209d0f5212bebU, 0x4c9e6e913b7115cU, 0xdd1cba4231200dffU, 0x531a22d6502ba10U,
  0xece7ecd805d15addU, 0xe6eb05a932f42036U, 0x452bb53229709d10U, 0xc9f3c33c16c2e2dcU,
  0xd140dbb837c80053U, 0x1914d1c7edec3afcU, 0x1ec81cc31e1b9afeU, 0xcfd5dcc935fba8b0U,
  0xfe2d928e11ffef6U, 0xf829f40ad6f6bd3aU, 0x1c284cfa334dd1b2U, 0x5e4b1b4723f41a08U,
  0x91200426cdfb2260U, 0x14f6ed0339f7da09U, 0xc709f4c5193b2c2eU, 0xfa05371325bc35c7U,
  0xe628e7d11f0de02aU, 0xee1df223d8c40418U, 0xe9d7c4ed1610019fU, 0x1640a4db1a0911e8U,
  0xe33409325925d9a2U, 0xced43e3d90e063cU, 0x13fa9d1fee0155fU, 0xfaf0b2a7f9bfdaffU,
  0xf9320941441bfb1dU, 0x3af5e8cb11e5ca63U, 0xd3320cdee1f30ee6U, 0x1718a9ffe355ffd9U,
  0xb768d8160df2e1bdU, 0xb43fe4c81b8113cbU, 0xb0c05b202ecee3cU, 0xc32142be46a7d327U,
  0x314b15f506c34f2aU, 0xd35ace261d0b4233U, 0x61ed636cb13da0eU, 0x90ce5263623eb10U,
  0xdcdf26262afe3bb1U, 0xcbf5e32af426b424U, 0xe6383f1be6e7dac7U, 0x34caf01249fc410bU,
  0xaff27fd3908dbecU, 0x6d1f4100dfb24eaU, 0x15ed07380db98108U, 0x15fe01e405141212U,
  0xd728d4d7e445f307U, 0x27d7e911d9b7b733U, 0x2b30f3052c0fc9f0U, 0x2af72fc62a06caeeU,
  0xeacd091715f5d80aU, 0xb7e6d403e9cb2fe6U, 0xcc0a1be20d03b9e3U, 0xec36d6c6020339e1U,
  0x31ece0838431305U, 0xe8f42907d9e2d6daU, 0x1c042b2d1f0a2fdcU, 0x3b00e3f41fe505d5U,
  0x3becdf07fd0eff21U, 0x16c2034503c723f6U, 0xfb0c34fbbc11c6e3U, 0x102521dac70def0cU,
  0xdfd9131e3a4326deU, 0x9e82bd84882a9ceU, 0xbd12b4611bcbfdbeU, 0x176012a2ec1ff3e4U,
  0xb0607608dab44323U, 0xc5bd09cd102c204cU, 0xb6bb061cf8ba3ad8U, 0xddbc6c4ca0f3fd6eU,
  0x1aa7f0f2ec0aafd7U, 0xba13092aca2b05d3U, 0x1e1ebdd58302b098U, 0x16ecb9a5a3e7db50U,
  0xa4205ba6c6b12b59U, 0x25580bdbc9f5a108U, 0x170b9a5506b328c1U, 0xa85abf1bfa1ef1f9U,
  0xc47daea625d29813U, 0x8a52b8022807041dU, 0x9c3c2436b3be3U, 0x39f5ab6bda0041e8U,
  0xea5e1cfe5e4c6e63U, 0x5a1f9c52ea37e464U, 0x33e922564b071d18U, 0xfd4e81a46eb4e41eU,
  0x64f653a93db3f9ecU, 0x1431ed0e0d10f916U, 0xa5d7284f040e0c40U, 0x35c822dce00df4aaU,
  0xf7f68c194f1b1c0eU, 0x3204f1118d0a4ed5U, 0x1e92fcd8afd322eaU, 0x33b9e826d2042e0cU,
  0xef4f337052f30b3U, 0xc8f4c6e4d523f420U, 0xa6eb954d7febcf15U, 0x4afe35d8c3b1eba8U,
  0x95190931befae03fU, 0x5cce20632e347ddU, 0x31094ad8b4222107U, 0x2708bab9c7c0c330U,
  0x8ef47ffbd4bcd4fU, 0xe21f0eba21fde1aaU, 0xe055b9244e9d0b20U, 0xdefbdffc4ab3c7e0U,
  0x23b1ca3e552b9835U, 0x53a66c3aee0fa2dU, 0xeae3d5453bbad2d9U, 0xd4119199e11adae5U,
  0xe2c4c8ec38183bd0U, 0xce042747e0d3e24bU, 0xea52b7ce0ed811d1U, 0xfeb6f715d026d8ceU,
  0x3e5715132306dde6U, 0x36e1390e06cc03cbU, 0xfcf44be626d79c2bU, 0xde581c231c38efc7U,
  0x613b2ad7b59cd237U, 0xb33829e55cc52afbU, 0x123900dbc9760b11U, 0x111ad1d9bda81c34U,
  0x1935b8b34721e024U, 0xf41cffce27e6f5efU, 0x8dc635c3b7f2ac81U, 0x4b503336dc151bdfU,
  0xda492c3b25ff03faU, 0x10fe1609d6fcd95cU, 0xe7e4e3aad249e647U, 0x14ebf0b224e33aa4U,
  0xbc3a0bedc9e22c1fU, 0x1cd4d0cc100ad4e4U, 0xd9f283fc53adecfU, 0xd2d5d8c617082930U,
  0xc408c5e9173526fdU, 0x20083eb7fb81bdf5U, 0x2743a036b3a828c7U, 0xf2d82a35bb3905bfU,
  0x272c1cb14dfcffcfU, 0x35b0c4feab441941U, 0xff3e08d2f472fcfcU, 0x39c337e04ee9f541U,
  0x1f59d4e7abdecbb3U, 0xdbf7cc0156a203cbU, 0xacad42e0ebc1d914U, 0x313ee236364a13ddU,
  0x19cc3e0ef0db0a17U, 0x1e03c5cec1001814U, 0xff1fd5ced7d09cefU, 0xc7e84415c9b628abU,
  0xb4c6af4a02a110e3U, 0x3eb2ca35bea752c8U, 0xe62cdfa9fedbbe59U, 0xa6d9f90c2c021210U,
  0x22cddbe8062fe609U, 0xa1a9e0c7d64ef4e0U, 0xe0fdbfda97bf9ecU, 0xcaebe1fe1b00540bU,
  0x9d2ad1550accf633U, 0xfe0bb944def40bb9U, 0xe501b95620e0f010U, 0x2d1ce031091904ccU,
  0xf11536d916092e33U, 0x28d9b31cf901f2daU, 0x1a06f0fbc125e306U, 0xe610f0ceec33024bU,
  0xbd1cc137f34e121fU, 0xbc1e31aed8cd0342U, 0xfd1c0fcf203be601U, 0x26e25503b931abcbU,
  0x597f4ac749ddbcc2U, 0xcd6472ea03914d7U, 0xbfe11302f41134e2U, 0xd51f17233fb1d902U,
  0x325bc3decb70e44U, 0xca350813bf12b511U, 0x363ff3a93936b8c3U, 0x5efe72410bac90dU,
  0xf4de0c16e3221bf5U, 0xc00a0022f8ff0007U, 0x62f10df0072af3e6U, 0xf6165749b9ee33e1U,
  0xc3fcd23bc2f0253eU, 0xfe266826e92b1138U, 0x8143250db7eec7ddU, 0x2d0af0aa4b401ac4U,
  0xc5e8abbb741bba08U, 0xf0cfd41d12d23f33U, 0x2381eafbb70cecf4U, 0x311d2f552e4efadaU,
  0x1006f91ce433d732U, 0xf6f14953bff5dc55U, 0xd743991dd959ea35U, 0x5d1bd145d5f64bbfU,
  0xe770f6306209e033U, 0xe73bb2bdfd19f436U, 0xee27d5b9c408fcf4U, 0x3008f52c0ce45b25U,
  0xdc1cfc0c55eab8f3U, 0xd1e3e556154ee613U, 0xf5cfc52ad9e23a15U, 0xecb3df90d3ecfb3aU,
  0xdfde97e43519e5eaU, 0xb1eb41bdbf173cdfU, 0x9e0f32f3df1eef9U, 0x6d1116692e36f16cU,
  0x65bf5bd1a13fd94U, 0xaf1005c051be101aU, 0xa8e40abd224d18deU, 0xfe5216ece10031e0U,
  0xd0188a0503291efaU, 0xd0492c20f5c9d900U, 0xd90b1a0e3c0e1cc2U, 0xb7f1da3a17fcc735U,
  0x6d62a19fad9ea1cU, 0xb74457fb17bfb6edU, 0xe57da23c3d59fedU, 0x14cf3bed564107c9U,
  0xe027144c1925f153U, 0xcf24d50af818e5f5U, 0xdbfbc2e24218310aU, 0xd8ca100f1543bdfbU,
  0xf6f910080a3ae6cdU, 0xe64a1f292ddf8104U, 0xaecb72734529833U, 0x323390b2ad3fc42U,
  0xde1af930e6e309dfU, 0xa53221ade7b5be20U, 0x21dfd030bd26fcd6U, 0xcdcc063a16e1d8f5U,
  0x2c003513fdd4f811U, 0xebf30c32f122ef17U, 0xdae944bd181cbff6U, 0x1b561452d1ea1eebU,
  0xb230f5bbcfb6a2faU, 0xccd2c0dae43dfc3aU, 0xb6c0efcef5f8e4f7U, 0x49032529d233e020U,
  0x29d74fc047192729U, 0xac52053a6fdeb0d4U, 0xdfaaaaebfccbd4U, 0xc0dec8da3c0e4422U,
  0x333131e0d4000a48U, 0xd7d9f90be30ab5f0U, 0xf72ce8f115482b03U, 0x411a95df062cea11U,
  0xf5ac38b361c9c3cfU, 0x36422fdeecd4c063U, 0x110ea21c30f681d8U, 0x47271e0de8f7e0c6U,
  0xf13427ce12285d3dU, 0x44fdaeeb14f509f2U, 0xf71429f415e8de9eU, 0xb0de899f3eafee0fU,
  0xc84bba1a612ba6e9U, 0x11e705d3c3d50204U, 0xc2318df01dbbf3aU, 0x2ae758d70c15e4d7U,
  0x23cc455401ad310dU, 0x5f1e2b8fb19e243U, 0x18e439ac2d12190aU, 0x55f6ece61adf0897U,
  0x2212db94f3090cecU, 0x1c20e49514f7ed11U, 0xfd41cfebf65dc8a4U, 0x2847221fdf01d8e0U,
  0xd14823364c127f39U, 0x500bfc2909243be3U, 0x1cbe6d2f117f114U, 0x270a161045cd0ff7U,
  0xb1ff3b9fadd048cbU, 0xc30750a5f7e1c223U, 0xee450d22293303bbU, 0xeb3bf3f948de352fU,
  0x11dd7b6df2c5a03U, 0xb3f30dbc1c52dfdU, 0xc60b09e70f67ec26U, 0x68da161e4593c51dU,
  0x8102d31c0f11e136U, 0xeaa212304eff1c7eU, 0xedb6a9020725ddc2U, 0x4be50849121e1daeU,
  0xf14413dbc4e47f35U, 0x490fc93fb02be5ecU, 0xe273d236ca58b0a7U, 0x25d2192a369e323aU,
  0x1944c12cc20a3dd4U, 0xd8a72bf3aae4edfdU, 0xf22feaece237f142U, 0xb443bbfe500536f2U,
  0xee0915d408e50f51U, 0xf74c1c45c4ff114bU, 0xc1c4150d450cc5d7U, 0xf1eb061500e442eeU,
  0xf3ed00d9223bf8a7U, 0x986fd4cf3feecff5U, 0xcaf7bb3e2434f33aU, 0x38e226d738a5bec8U,
  0x1e2dd83cd0304af9U, 0x2e05b0461afbef1bU, 0x2dccc34ab0e41f51U, 0xb023c9cd9c0858b8U,
  0x1fd4eed3ed5dde08U, 0x211231c6d31200ddU, 0x3fff6465242c7f5U, 0x454ec3c7010bceefU,
  0x99e91630c2087fdfU, 0x32ef37fff6fd4eecU, 0xb51d1820dfcae8dcU, 0xccfcefed9c0f33aU,
  0xfd41363cd90e0b31U, 0xed1a44ec0108f8fdU, 0x2809dac7e9d60de4U, 0x2b44d2f111ef3bdbU,
  0xc525da5d3ecd1d20U, 0xe8ff40d9fabb1f4aU, 0xdaed08a82c131adaU, 0x44e310100e3aa702U,
  0x614f1e0210317f2U, 0x640ea33d6ab0f16U, 0xc516341afc21271cU, 0x15551a0d53c6390fU,
  0xd0e7e73ee8150b52U, 0xeed9b6226da3da42U, 0x3c12fc0ce72c230bU, 0xc03c1e0e091f25e3U,
  0x35010c0c363d34f9U, 0x2b073dca4cb7e830U, 0x321fbfc95e4f91f3U, 0xf51f25c645e8deecU,
  0xb9492070f9cacbeeU, 0x536664c637ad053eU, 0x473a6140ceaec332U, 0x8572002e8322dfeU,
  0xbefe2adbbf62dbe6U, 0x4b4a773056ed557fU, 0xd4301af74057bb39U, 0x69e7b208c8264c3fU,
  0xe437c416fe5141e8U, 0xcf333d533281a5dbU, 0xd31cfff229340ae1U, 0x1ad6c641c801d845U,
  0xd1fa3163e8391b48U, 0xe90d2dee30c53fe2U, 0x45e925e1dd48dde4U, 0xe14d020b69d00f22U,
  0xfb47bd6ae4b054efU, 0xcb5cf9f8d40348f1U, 0x1a1bab00dbb1d5b4U, 0xdb023cbafb13f826U,
  0x602e09f73e34e427U, 0xce05e412cda3eee5U, 0x99d7cdc12b3feb34U, 0xc831cd2241d2ee0fU,
  0x8ebd4c6e02e2e13U, 0x195cff08c2fe0c22U, 0x38cbb9aef564c44cU, 0x8117bcd2b1300be2U,
  0xc8ef5eea11d40c2fU, 0x181117ddebaffa1eU, 0x2d5500ff709cc08U, 0xb2b84608feffc5f2U,
  0xbd45f42253cc0837U, 0xbc4845ffc6d9b74eU, 0xa32434cb1b11fe20U, 0xe9ccd3dcd9f754c5U,
  0xb570dcefd48e9f1U, 0x4a234ed6f348c537U, 0xf45418dff5d10d40U, 0x19e02cacbfdce9adU,
  0xb23ac8282933daf9U, 0xbe4bc94744f022d3U, 0xf40348240376d7b5U, 0x4035cffeeb16cd0fU,
  0x3ef0c0c2e845b212U, 0xf7baa315d9a910b8U, 0xc9da33b4fbeae317U, 0xdf22f60d68d03534U,
  0x2cf1f0c11ede3f1bU, 0x6416f40844e0cd2eU, 0xf09fc02d6b29105U, 0x604432603e0e60d1U,
  0x1b630662eeda1398U, 0xdb01953948d6d9dbU, 0x491f0a3e23cf1219U, 0x4d0e57e2de0b07deU,
  0xf0104410dd693545U, 0x52140dd127f00101U, 0x5376e42450fba93fU, 0x672af5c2bca23a45U,
  0xdd07b4ebd0aba884U, 0xd6fc112ec7fda1d3U, 0xec08032bbe581c32U, 0xbcd8582a00813548U,
  0x3410a24cd6dadb1bU, 0xd710f0ecb868c30aU, 0xe1cdf7bb61dcadafU, 0xc0d7023cc33961e0U,
  0xe263fa4d12a8d837U, 0xb33fdeedebd3e740U, 0xcf3fa2b859251508U, 0x3929311ccc342e08U,
  0x134d272ebd33ab37U, 0xcfeec318316df256U, 0x3b1bb3fdfbbc4b16U, 0x64ff6545133f6056U,
  0xf5f940d1e7abc00fU, 0x3849ea15b7afd485U, 0xb9d5dc47d9d6e008U, 0xd2c2c11ab7ded9f5U,
  0xa74b0cf341d40218U, 0xf89f2ab4084bf9b8U, 0x13eb01ef05351ec4U, 0x7fdac853e8ea3dd2U,
  0x3620f51ddf40e32aU, 0xde0ee8e79e3d2bU, 0xc511eebdb353fd0dU, 0xef06c546361cb45aU,
  0x744ee05d7f2eeccU, 0x4fa8c8ea506a3a4bU, 0x1e0626e64b5fc443U, 0x6db2275149c0e79fU,
  0x5f1ef01318f0891U, 0x1beb49fbef9ed7bfU, 0x2d8e383f915ae42U, 0xf824d63fd69e291eU,
  0xc04068e62c3a1305U, 0x5ef31be8d9160a0eU, 0xabd5110a381cfbfeU, 0x2ef1f308deef112dU,
  0xf001eccb33181936U, 0xd14c594365dac4aaU, 0xea2f3281ca071201U, 0x1d28b9da0b1b37eeU,
  0x13cbfadf3332d7e2U, 0x1adee9f9d00d0fccU, 0x4c1de23c8280500U, 0xf314c925eb2bc4ebU,
  0xced0b7b01be2fd2aU, 0x3273e53c10ba202cU, 0x142e9fd46e1c631U, 0x3f064b27b2fb0610U,
  0x27dc4a0ab837000bU, 0x29b3cdcf08c2cef9U, 0x172c14d4f624bf21U, 0xd1f5cbf00712d5e7U,
  0x1847cb2e2320c3fdU, 0xcdd28b508274505U, 0xd82e3aa20af2f2dbU, 0xc85950bd1bf313c1U,
  0xe941e2c906e21b2aU, 0xef4fc5fbc6d928fbU, 0xdb2831d2340b0755U, 0x2f2ec340dd8b8e5U,
  0x26040ffa022e13d3U, 0x9d5346aa1b812cffU, 0xd429081d1d4843edU, 0xec594dfb3ef5c930U,
  0x2812fecd27201847U, 0xf7d70af50dfb971dU, 0xbef539072d3aaf14U, 0x1fb8120e830e2b12U,
  0xecf7ea20db403e25U, 0x1d2b3caebeb83d54U, 0x29591d4bf81bfb3bU, 0xdccc20253d6b5c3U,
  0xc3d63602b544eb13U, 0x392e2edd229790dbU, 0xd70ef5bbfee2ba04U, 0x1edf31430e09201fU,
  0xd2384702b35c3920U, 0xfae4dcf905b8e6cfU, 0x1c2628f6defdf9bcU, 0x1738d7e8f21dda00U,
  0xc42c4ad65cd51e0aU, 0x57f1b615910ed311U, 0xcae947ce0f28c7ceU, 0xcb10d2ff1ac0d613U,
  0xb6d7be2719c1dd25U, 0x26f0c0dc2b93d943U, 0x412ca5ce4b4a02fdU, 0xead4e93b04e43523U,
  0xec0fff2bce2d38bfU, 0xdbef582fdeec15feU, 0x17ee11f3ca1d008cU, 0xf9fc2b52f122d5ebU,
  0xec11edf4f115eefdU, 0x34e404cb0cd2a4e5U, 0xd7dbb2182644c51cU, 0x31e00ac9f5fbd4cdU,
  0xfbf80ac6eae421baU, 0xf10a002804fe0d1eU, 0x10d8fb13107f12a3U, 0xc6271b3b33ebe5f4U,
  0xf13df4b2d8d8cf4eU, 0xd0143dd8cca619fdU, 0xedbbf448022cb900U, 0x69c7ed0f15fc1ec0U,
  0x9a1e81ef3044cfd0U, 0xd2310948c5be5cb1U, 0xe93d1ac4a4f32fdaU, 0xf3a9303153553cbU,
  0xb2fe0aba574857ebU, 0xf63f5eee0424fdfbU, 0xb6a8d0edd5bc2920U, 0x60c60ec51c43f1bfU,
  0x2cd9c82442cf2dbfU, 0xd6fbdeda02c43951U, 0xb5a1affeec0238e3U, 0xbbfc19f642d9d3afU,
  0xef041eea1d123d40U, 0xf5032e06c512da0fU, 0xd11fc8401d02dbb4U, 0x5ab8cf46042e32f3U,
  0x47d00e4d391bde49U, 0xdd3cb3111b163002U, 0xe6070deb18e4e21aU, 0x1599d2f15f2023dU,
  0xe29e29b9d64a0445U, 0x29e1d0be5c1fa83cU, 0x46e73b11d029443dU, 0xcc20050d5e14a1eU,
  0xf7dc991fcaa65f40U, 0x49d3f8d11daf47e3U, 0xcc36629e34dcf6f6U, 0xb9dc11feb9d54e36U,
  0xf334f15c40134a8U, 0xae5b152b2dccbb1bU, 0xeb0208fd1e6d2bfeU, 0x1122292b6ead23dcU,
  0x9907cccac11d3140U, 0xca542623f61dbbd4U, 0x9bdb12e13f4f81f9U, 0x2b1cc120f1a5a5c6U,
  0x11df5d9b152703e0U, 0xbb2ff0f5183cbb8cU, 0xcbaee135196518d4U, 0xf3c3c2d676fa1522U,
  0xae262e4d22dc25ecU, 0x33e1b7dad84dea4fU, 0xdc40a02bde7eca9U, 0x511129582df512eaU,
  0x252a20440fff2a24U, 0xa1e005c7cadfb754U, 0xef3fc5f2a2210634U, 0xf60a41dd52c622c3U,
  0xc7304c2c021e420dU, 0x49030d38f2f8c00bU, 0x9e164b3ad0162dbdU, 0x14feba1829434300U,
  0x1e5e8e8513120c3U, 0x81ea3a2cca8413ecU, 0xd82df1da1359bb39U, 0xef2036ea5218583dU,
  0xea1e31050fd605d6U, 0xf7eeebc42de1cdd2U, 0xfaddeed517d9e6c4U, 0xfb4e2be40ff5fcf8U,
  0xd747f5f0dab63027U, 0xfd3c3eef1ffcecdbU, 0x53df3aaebd35f237U, 0x30f0d0d713dbcdf5U,
  0x3b44d2ff2c26d434U, 0x1b2cd0a8a5ed28ceU, 0xa2fff943f158e8daU, 0x5ecde0b4f52adff8U,
  0xf6e4feece0f6b9beU, 0x42eb4225d4e8d81fU, 0x2c0932d2a00aad02U, 0xb8fe26271f3443e3U,
  0xdb3452719eb2ae3U, 0x16beb813fdfed605U, 0xaed4f944d2d28524U, 0xffd408f5e0ce2e03U,
  0x9edfe0f9ea332200U, 0xe413ef30fe28e1dcU, 0x9556f49aef35d510U, 0xecd23a182512b934U,
  0xf4d822ef3945c424U, 0xc8e4b31aacfabacdU, 0x190f1b57d4448624U, 0xc9e0f50c4b1a2d81U,
  0xca1c0b28bdcec2deU, 0xf606f7494100e8deU, 0x2f443ab20be81235U, 0x4caf383e2131c0beU,
  0x1c4b4a18013f5d4eU, 0x57dd37ce2fc3c7b7U, 0xf0e266dda6efd01cU, 0xdcfe063fedec23d0U,
  0xb555ae4ee0cc4bf3U, 0x41ddd4c646fbefbbU, 0xc4d806ac22521c08U, 0xe3dc3e22cb4d3f0dU,
  0x40e3cbc8bae52a19U, 0x4bfafd928222325U, 0xddae6c9e65aa62dU, 0xaef4f6e1f3091015U,
  0x92da42cf3d40115aU, 0x3372dc37de04fa37U, 0x9bc42b250ecfb7afU, 0x1745d8f218280fcfU,
  0x2d62ae040e9bcfcU, 0xaccf1b27ae113001U, 0xed422b023f512315U, 0xf9dbb4c32302c9d1U,
  0xeb440ece41ea1823U, 0x215344ee0f24dc30U, 0x8127e1c9003f0cb5U, 0xeea3df61223cd25U,
  0xf227441609d93bceU, 0x26c23a10f707c5bdU, 0x4c26d7b5eacee8cbU, 0xf83be6e4c735c2eeU,
  0xdec43ee7c8e9ad00U, 0xc10b143a28fbbc35U, 0x43ee9ef4e2cc456U, 0xa9111a1cef063e1cU,
  0xf060b8ee23e16a32U, 0xb1fcd42404bde4eaU, 0xf4380835ba6ee596U, 0xea16ef23fcad0bc4U,
  0x1310e7d6df15023cU, 0xbf262dbc3ec32022U, 0x2a48ccea2727e726U, 0xd1b716ab65e6e7c6U,
  0x332132b43ab4e53aU, 0xd434fcbb11165565U, 0x1edb16f7b6354525U, 0xdcd0e2e0c3c90327U,
  0xda3a07e9cf4111d4U, 0xe5fbc61cc2ab32c7U, 0x28cb104f14f0112eU, 0x691c0f20d7af32e7U,
  0xac45084009b74138U, 0x4542c426dd2714e6U, 0xcd31ef944c68130U, 0xbfad22e2bcfa382eU,
  0x8ec2e6db094e60caU, 0x6dc4311f083c27f7U, 0x5a11f7c634191608U, 0xe1fe8a5e3b831d5U,
  0x2853e4f05d0dd724U, 0x17f6a66c3d15bdb4U, 0x4d664305f63c0d91U, 0xad5846f84ebb423dU,
  0xec9425be1334af97U, 0x3e3d191a0c3af9bcU, 0xeaf7045a169c0a5cU, 0xe4e315b2e333b3ebU,
  0xc32f9aca075fcb32U, 0x103ecd033232bb0fU, 0x753ea0c8bc20fb1dU, 0x3c130953a0453459U,
  0xcec45e22ce4bdcbcU, 0xb1ce0a601a992a52U, 0x4534f62d2d8f2b18U, 0x1b6180e7bac7f15U,
  0x2a07270657bf5172U, 0x369467c79f83b0cU, 0x366205d0baf017b5U, 0x58ede74ff0e3dff8U,
  0xfe8268ea4f15b8eaU, 0x3c018411fdd4a80dU, 0xfd0a21a5c7cedf2bU, 0xb0c9f9def5003ab4U,
  0x624318a1ab3da2cU, 0x14cd6707c70c1a31U, 0x2f4bc7ff4ac9cfd6U, 0xd71adf7c381e44f7U,
  0x1216ebffd536dcbaU, 0xf92f3ac01119c7ebU, 0x2d8370da2f1c6f9U, 0x491fe5d5cab9fa49U,
  0x2a72eec2e4db0710U, 0x3acc601eb95d3fdU, 0x53d513dfb115cdabU, 0x37bd9a763a085515U,
  0x3224bd5c0da2d25cU, 0xbac2039e9e4b9c8U, 0xe04e025352dece9U, 0xfdc3b93f1f1034b8U,
  0xc40b340fff49fbdbU, 0x7d27d1b906e3ee22U, 0x43ca1c41b26176fdU, 0x6750d07f7cd8f2c6U,
  0xd94340dfab2ecdb4U, 0xb91b392920be00ddU, 0xa2bd6e941ed1c10U, 0x1a4320a549fa400fU,
  0x9d39d8f7293d66e6U, 0x152a565917e87f46U, 0x53d9b74cdb45b6e3U, 0x47e7bbc515e423c3U,
  0xe815cb68042d34a4U, 0x47bdd210ebea313dU, 0xf42e1e07e6e21feeU, 0xd90fbec508e0e1d6U,
  0x38d9cd27fbdb3429U, 0xde57c841c225dd49U, 0xce5cb3e70c28b5fdU, 0xcafb12e0fb16b642U,
  0xe2db60da01be41e2U, 0x1a5ef056f0c4d8d0U, 0x7b04008ecd61ee5U, 0xd23cf0ac5fdbcc0eU,
  0xc3fa180318215f01U, 0x295b1401f3a2bbfaU, 0x392b0037d910a8c2U, 0xc8343e4baffd1a16U,
  0xf03c0acc4a4f4306U, 0x3d40e31e25d6012cU, 0xc72e392973fc8e14U, 0xac10ee3e385344c9U,
  0xb3bedcea39a2f224U, 0xd6cf27c41bebee6cU, 0xc4fbad92361a4943U, 0xe887b600cdccd9cbU,
  0x4d042d0de7151addU, 0xd0bfb3970922d4fcU, 0xd299f6c2b5f72823U, 0x5af35f0b4b88b808U,
  0xb1454028cdccfee2U, 0x1370e5018f88651aU, 0xeed032af58dcfbc8U, 0xcc1fdb617de4316U,
  0xa5b717dc6e47e5b8U, 0x33ed1a0ec8d5a6eaU, 0xd04eb332786ac0eU, 0xd140c0f02ed0a4e8U,
  0x1b300c57d7fdb8efU, 0x1b12d80217f69e5cU, 0x570d304da57aa2fU, 0xb99a0954e036a127U,
  0xbeff7f20266b2d4cU, 0x16be390b3eb0b40eU, 0x3fefacdee74acadfU, 0x13eb0aac01f1efdbU,
  0x908ffdd20a5e92eU, 0xdfa1622c71abf1cU, 0x3fda00d948c62317U, 0xfe060c05e914ded1U,
  0xd5f30e20e6d2c62cU, 0xae22dfb801d0fbc8U, 0x1047c24044fa2ebfU, 0x2937fc2a452e3ef2U,
  0xee4a81491bd323c9U, 0xd4f95127323c0ccdU, 0x1bdbc34fbb6086a9U, 0xd0f13ab244e13118U,
  0xc94a06412914f2d9U, 0x9382ae54caf1244U, 0xb4e3ed444d3d02a1U, 0x44dc50cb01d5d7cfU,
  0xfe511070f3b2d2cU, 0x2d0913f7f1f92bd7U, 0xec8030cf6def9b6U, 0x18613bbbeb072bcbU,
  0x3ae4ef0e55f5b5d7U, 0xde17bfe0c7b781e1U, 0x27de48fa230f3038U, 0x14d0d92b1ff110c2U,
  0xe8174a25e0d725dfU, 0xeccc57c43df73013U, 0xd7bbaff9c8f0efe2U, 0x60c4d8e215de2817U,
  0xf55cc42feef6ee01U, 0xc3e4cee70e22e312U, 0xb015c02134d50906U, 0x2b10fb0ecec4ecbfU,
  0x4c2cff4c4110382bU, 0x7dddb0ec5e5d340U, 0xd9261a59b918e7dcU, 0xfc1ee1cb28f34c0bU,
  0xc5e855074e67dbd8U, 0xf63d2bb7f2a7941eU, 0xe543d10009d7f2bbU, 0x4bf4fa0de61cd92cU,
  0x201c8df2beed1deU, 0x817c805ea33492eU, 0x11edbf1cfa12c76fU, 0xe1adfaccbc27f01bU,
  0xe6182713b9f84938U, 0xe30d2711bdde0d41U, 0xa400c543361d00ccU, 0x25083bb43d35d83cU,
  0xf4098848f2d951e2U, 0xbfcad509f7f0a516U, 0x3fbe10ddfdbfa4ebU, 0x8aa2a2627c40201U,
  0x10f2fefd2be22757U, 0x334c2a172c29fc32U, 0xeefeeedbe430be57U, 0xd9483bcfc00b07b0U,
  0xc0c58fdd0211e421U, 0x1d245a3235e52ff0U, 0xd1e0ee3a3f7d8b5U, 0xd3b63219a5fd4debU,
  0x42b07e84d2f01a8U, 0x2103034a0f81dcfbU, 0x34f4bab32a24c473U, 0x4c11a1c2fad60daeU,
  0xd5bda9fa53cac2efU, 0xe007dee0c50a01f4U, 0x41d90c1ce10dc726U, 0x26dee2e8da32bb45U,
  0x8907141ed73b3416U, 0x30d4f413f98fdffeU, 0x2a3bbf2b1722b4ebU, 0x2b2d0c01d3d2f3cU,
  0xa60bc6c226251c30U, 0xff05ed1fcf430608U, 0xf3c7bd170afceb1dU, 0x120c052f043be235U,
  0xd8ae244e30d3e72dU, 0xcdd5d3e1b8fba1b0U, 0xb541eaf1e2290432U, 0x2518d1e4c7e4ff2fU,
  0x24232e2d1becec49U, 0xc01e2df28e3c1aaU, 0x2a06cbffdd3c054fU, 0xbf459e1811215cfU,
  0xba0ad314dfd70b1cU, 0x2215f5fe25edf8b8U, 0xfecff112f0d230dfU, 0xc70a30d454d7c4fcU,
  0x1fbd53d334c2fe27U, 0xe2c318ec3f4a1e0dU, 0x5050b2b09fae232U, 0xce226c66cb095dd2U,
  0xe993c8f5d7c7c6eeU, 0x285da4c4abfea4ddU, 0x4aec096529fa4911U, 0xf3a84931c90addc6U,
  0x1c62c940cfeef97aU, 0x16542c4e3b15321cU, 0x19d72028b5f411daU, 0x5950294d38870d1aU,
  0xdba7f6094e19edfcU, 0x3b733d9d3e13d18U, 0xe2311c21ebb0b8c2U, 0xde3b026628dde255U,
  0xb5c2bae40f4d06ceU, 0xba35c9dbc94326e7U, 0xe5a405c41dcd81eeU, 0x2d2d0d7adfaa2f17U,
  0xc03951f2ec15fe4aU, 0xbdc81a742aceb218U, 0xcc4f3134df3234eU, 0x4bded25364360c3fU,
  0x90a6570519499146U, 0xca52b0e0e9113dbbU, 0x14a9a3ea4147ab30U, 0xf34f4f1fa019390bU,
  0x17f7f1614301f201U, 0x393bd9d0dc990603U, 0x3e0b0af7fe58b522U, 0xb2da1bd0d7e03c03U,
  0xf00a2d3fad551de3U, 0xffc3e34ca4f60113U, 0x26124cd1d91ce6fcU, 0x2e1ced1bf2fdcfe5U,
  0x5e437d037fce130U, 0xd3532725d8d8fc6bU, 0x36103edf3c2aa8d9U, 0xfcc6f4f75408ec20U,
  0x3c07ebe9fd44f926U, 0x2925d3d7a3fcd147U, 0x46df321be41fc299U, 0xd32e3fe532c5dacbU,
  0xf1e1e6ea0bf4befeU, 0x55c62c1013f01bebU, 0x1b1ac83528d3f705U, 0xd51435df6016dea1U,
  0x20eaded7d4f3400bU, 0x3df21cc4f2fc2959U, 0xfd514e729e101ffU, 0x93b1f7fdc2bfb3aU,
  0xa2f23151250e415U, 0xdd62dfbc1b261eb9U, 0xaa38df98be59a213U, 0xd1dbb2dafbe5ece0U,
  0xadf3c7274fc8f5acU, 0xce4e36b7002612d8U, 0x3cd9f1c0c37fa1dcU, 0x1c330d19081720ebU,
  0x4d4f3f257c306ffU, 0xbe90b1cbcbef520U, 0x1bc445894a264246U, 0x369f38dd01d91303U,
  0x44171b0527dc2213U, 0xc65f3cc9e2c0cd24U, 0x1ea00beeaf26cb30U, 0xde2dc49c4a31e003U,
  0xdef2253d31e308e8U, 0xdfce50323016e5e3U, 0x2203b9baec1bb31bU, 0x3f47e6246434491fU,
  0xfd304bf8f3b3e1a8U, 0x31404c1d2fd235fbU, 0xd0dd572f2ace9710U, 0xbfd59ed3ea52dee0U,
  0xf521c8dbf80f30b0U, 0xe81d192d263bd3f6U, 0x3622280a206324c1U, 0xf4f3211cbe3514e1U,
  0xc5f60c18ce120138U, 0x362e35c7efdb2bU, 0x392656372928f525U, 0x3f25cf1d1d0ebafaU,
  0x49ec0c27423021b7U, 0x52763b2402dc093cU, 0x173bfa22fb43b91eU, 0xf5d1fccaf635fadcU,
  0xe741fc0bd83423c0U, 0x3919094f10df2019U, 0xf1e8d550b3d6d4e0U, 0xd2bedaac2d3a42U,
  0xe7e7463a1b59f1f8U, 0xc87f390d0049fffbU, 0xfd39d90e00cce9efU, 0xff32cc0c35ff0e35U,
  0x23b4ae23d5fdd82dU, 0x3e5a1ecc1fef5846U, 0xdcf33a1af8022ef3U, 0xdffc1fbd13a6bdceU,
  0x4a2b50f8f253b7c1U, 0x40f10b1cde0a90f7U, 0x3226e1150f172d50U, 0x4e3c2637c9a6bbf1U,
  0xdb500c21bae329d0U, 0xdb373742401ff350U, 0xb9c514b3c14746b7U, 0x3a38c40a35eb41b3U,
  0x2bdabfdeb52be118U, 0xefe0c93658479cfcU, 0xcf27a023c832bcebU, 0xd9d0ed2c15f8352aU,
  0x1a03eb141aba1034U, 0xd6c7051ce712d350U, 0xb1fe2ebcbb2ce0a8U, 0xf0fdd7e1bb2cd0d3U,
  0x17eb15f8fdeac80dU, 0x405fabd4f8ec8123U, 0xb5019e352afa513fU, 0x49b5104c3c3632c1U,
  0xde59d4e743dad1e7U, 0x1fed33cd5839e049U, 0x1b23c3c41dd20702U, 0xe8b83f42a23ae0e9U,
  0xb1e318c53dcc01c0U, 0xc0c4b402feeb408U, 0xfbfef804d7ee18f4U, 0x38ea2c11c92bf743U,
  0xe54630e70d240c03U, 0xfacb2625c7fffc3bU, 0x22d9e9e905dcfa3bU, 0xfa09c114c8171cd1U,
  0xbfe0811061d2116U, 0x13729d50ffee009U, 0x1de627bc122bb7f8U, 0x12edd1c237d816d8U,
  0xfe03081ae233453aU, 0xfef1df30c5cc15f1U, 0xe836d931d7ebd113U, 0x5304319cae0da9bU,
  0x9bf33e112800c4faU, 0xee19ec2bfd815933U, 0xc524d8d63e0af2d5U, 0xf61432ee0fb8eb2fU,
  0x2fec4a041ed50848U, 0x218fe061837fe37U, 0xd2d714ffff5b9d0aU, 0xbfe417e4e2f4d127U,
  0xbcdbe72a10fac9d5U, 0xb9f9c4210f170009U, 0xfe36ccaef1b4e15bU, 0x46bf30b55ee23115U,
  0xdc07253e1afa14ddU, 0x91d1fc0826b9e347U, 0x12e9b92ecb45bd4eU, 0x2ee53cdb8f1521c8U,
  0x82e23dffe614233cU, 0x38d49dcd05fbdfa9U, 0x1f11c8102ae5f406U, 0x46dd493afb0e3b49U,
  0x492dbff932ba070bU, 0x1cfaff18c7313b32U, 0x10d3a430658e1e3U, 0x2ee8da07c7b9e7e4U,
  0xa781e3dfec353df5U, 0xc8f3b4def035180bU, 0x98ce25c4142428baU, 0x2ba210ebfe0e1b3U,
  0xb3b40d3544bee06cU, 0xbcfffedae0c51d29U, 0x2dd0fe2be669bdfaU, 0xc7c44c26c1f9c437U,
  0x9cf9eb42071525d5U, 0xde30d10400d20563U, 0xa3244fb13939f557U, 0x2a53a930dbe4a3b3U,
  0xfa08f2ea2527e8e6U, 0x29e59ee5a0add15U, 0x10cecc11ced3a6fdU, 0x120c01e2d047ad94U,
  0xd40b20797003f6deU, 0x57d542a84029f04cU, 0xfddc402f00d2c249U, 0x4602a82d071cc2d2U,
  0xd037c8ff46ddc755U, 0xde4537acde041be1U, 0x5fed324bf48cd95U, 0xf1a6c35d3e9eb63eU,
  0xf9d00eec12dbbfcbU, 0x170051b96e1da0e6U, 0xd2f44a631bf4d601U, 0x283d2bceebf50d0cU,
  0xcf0de5e5283b21f5U, 0xdd0f21f4fb25a579U, 0x485a81ebca4ec2d4U, 0x891a8d3fc6aeb14U,
  0xc7f55523dcecb1eaU, 0xc1b0a7fd017d02bU, 0xe8f520233dca08c8U, 0x8e02e4639104852U,
  0xe419db2e0467ea61U, 0x3e2ff1ec2026c3e8U, 0x4c2ffb4340dae611U, 0x727016bc6c44b34U,
  0x1fc84562db3c12U, 0xa8db2818cebaabb4U, 0xfdedc7edcbf1a5e3U, 0x2cd5e13c531ed0dfU,
  0x14f5a9d33ad1de22U, 0x2e3c05d0df45301bU, 0x1bc9d7392507cab6U, 0x5115db06e5f3024fU,
  0xe8a9d23a32b8d5dbU, 0xced5062a3cc8bee9U, 0x1010021a3818153bU, 0xb0ec01cb2a4bec28U,
  0xdd4998aa30d8e6b5U, 0xf2c2c5186f60f9d8U, 0xec010b2b420dcefcU, 0x8e75275b8102cf1U,
  0x2bc8c605bd1551d0U, 0xf61d19b2fac1f545U, 0x34bcbbe90ada329aU, 0x471f2001f0c8de2aU,
  0x36ba88e13b0d19e4U, 0xe42bf9aca5be3c29U, 0xdfde33f4f55806fdU, 0xfd2afa24397f0820U,
  0x18cc08d856f8cfcbU, 0xde34f63fcb05bbdeU, 0xc4ba08f64f1d9ad4U, 0x243de92fefaceee2U,
  0x1452d2fce9dc0e28U, 0xd85cb2d9b1c3cdecU, 0xa6dcd1d2281694e9U, 0x3b03400b4b6320fbU,
  0xd422f328b8e70ef2U, 0x313001cdc3bb30fbU, 0xcf27298f18f30516U, 0xabb46a94702f93eU,
  0x9c3b92933042a28U, 0xa0edd15b1e9c034U, 0xbb2b15d5a45b0e20U, 0xc3cdf7e92a2e4ad8U,
  0xd285c2a4e822144bU, 0xcacd3cd9d9ca04dcU, 0x305bfde16e6e119U, 0x2b2b201218ed3c0cU,
  0xe14309f9d1d9e1f1U, 0xdb39e8e3ea03071eU, 0xf0b8ed3d2cbcb298U, 0xadf00fdfb11d7f6U,
  0x1fce48cb20e11e0aU, 0x4c2a4f09db17fe0eU, 0xae31dad70f0a171aU, 0x521f0924e913effcU,
  0xcc2eb327410f0c33U, 0xec231e1c21f3fa26U, 0xfed9c5b8c911ebe0U, 0x32ba57e6f9223843U,
  0x2400c1f9371be000U, 0xcfefd40ac714e10fU, 0xd5291305dd300c03U, 0x290bf7b05a28030bU,
  0x618812510ec39d9U, 0xce10f70c3fe74e46U, 0x121c9824f551081eU, 0x2cb8eafbdf443006U,
  0x26e405fbf90abb16U, 0xebfee71ff7ec574fU, 0xcc2e2a004258d5f5U, 0x171b32e309ff3510U,
  0xa52dddc9dc3768beU, 0xb5d2323ceaaee6dbU, 0x401d15353907e017U, 0x42d4af25d80cf343U,
  0x74f5f3828434653U, 0xf5be53fcdfb5b32aU, 0xd1ecec48efcababeU, 0x19d5192b4f5656d1U,
  0xf5f381120321e9f5U, 0xba5440ff06041212U, 0xbda203cc55dc5e3U, 0xc3482ce8cc483c35U,
  0xe49c322363441cfU, 0xddcfe0d9cdfeb64aU, 0x37f0b9c237f2c9f4U, 0x1adb0affd8f342b1U,
  0x3424082b0f2ff8f6U, 0xc52b1ec128ade51dU, 0x1a26930d1107fdafU, 0xce8d23c1be1cd54U,
  0xe953f623d460f3b2U, 0x45e70839a7d2d910U, 0x8c4c1d36d91623bfU, 0x5b933db8cb7ce1bbU,
  0x61fd4ecd0cbbf8f7U, 0x6c753bd42d79543U, 0xe349fffde6f9ea6aU, 0xc3424f11e64bfac7U,
  0xaacf51cbfdb143c1U, 0xe6741fffcdae2538U, 0xbfbce3176307eddeU, 0xed222f00e670bbe4U,
  0x3aa1f70ced2d2f44U, 0xf5e9d69c810957e4U, 0x6f34d02c77dff65U, 0xe98817c120172b06U,
  0x8cb6de163b3f9c53U, 0xd075d46aea2f9614U, 0x8d5c0bd9f7d220bcU, 0x490816f942cc0cc8U,
  0x61e5d3171fe9b5b0U, 0x51ffc491930a008U, 0x21cae9b742674860U, 0xb41300a50f52cddbU,
  0x1ece1b5712fa541cU, 0xfb2428d74b15d9dfU, 0x49c4951bd208cfd9U, 0xec1b17c347ef52faU,
  0x2d31b6d9f5f92244U, 0x33e3d41b7da2144U, 0xf7df143a2cfff606U, 0xcdfde512def61deaU,
  0xc8ccd8f5b80a81ceU, 0xf74e39e511e1cfe6U, 0xc9fc31d5ee232b1dU, 0x1c4d2a2b75392e12U,
  0xeb09d13fd1b51a08U, 0xf819c7e6e1b14c1bU, 0xfa95bf14e32820ccU, 0x40e3f913df2f1eebU,
  0xc6ff28182d2fe3dbU, 0xc1d4fbb0f9f13102U, 0xf7160a191034ddf5U, 0x1c9ccc9021ce6a6U,
  0xcc35aad928c815efU, 0xf227f63fec390d1fU, 0xfeb5e9e2d01511baU, 0x34e52be8ec7a4af6U,
  0x32c2e8ddff2a05fcU, 0xd94818db4dddf869U, 0xc94b5ab95199c46fU, 0xd51c8b2a4bed4d12U,
  0x81babaecf505f4dfU, 0xa4ff182dd9bfe557U, 0x4750cfba62d41fa1U, 0x531fdd4dd7c92b09U,
  0xbd6da1ff10ef384dU, 0x1e3f1d14b59701ccU, 0x981de0ceacef0d43U, 0x3f3f2ffcf8dfb1e0U,
  0xd2c115b4bf5e1b0bU, 0x35e725e7e413e10fU, 0x76f0bc54b5d2c36U, 0xa999a1019ce6e60eU,
  0x9bdc09cef10aa21dU, 0x1404dd263134d9e7U, 0xea3e04a6bb16b83cU, 0x3fd36b2dbb3b1ecU,
  0xb6135afbd5f8U, 0x28e0f0dbb9e81d40U, 0xd0d948f746312ab3U, 0x2229f266f10a2edeU,
  0xcb03d1677bdc27e2U, 0x1cfe88ffe79eeef6U, 0xa939270c49f0c35dU, 0xdbfaf3264612a9d4U,
  0x230c9a372eb81f0cU, 0x338f5c3230daae04U, 0xaa5702564ee28ea9U, 0xb8b02151f3182944U,
  0xf403e4964fb66beU, 0x318c22d1ed28ef0fU, 0x29b382afad029217U, 0x3dd3bed13263e0bU,
  0x9f202443e93b76c1U, 0x5956d8c4fbd4c859U, 0xf05fdf774ac3c2e0U, 0xff3ecb5f2a385df7U,
  0x2224bd43c74fe9c6U, 0xec10dae12a818745U, 0x343da12ff9d48e5eU, 0x5ce7358ddc2d49eU,
  0x2205213bf91019feU, 0xdb5994abe6bb54b8U, 0x4b6f032a9322313U, 0x44d03ee438f4f8beU,
  0xb828a665eda30924U, 0xb60cd60ef916027fU, 0xd3d33b47b46f4158U, 0xe8f09b3ccd05432eU,
  0x34d4fee64073534cU, 0xf2f1f135b2315511U, 0xd014f8dbb7e22b07U, 0x15bf2442fb0736e3U,
  0x304b33bfdb5b1c36U, 0x3701ec4467ef2128U, 0xe85b43cfc4e1e858U, 0x8c27e80237d9d2f2U,
  0x261932ed49445854U, 0xde4c3acafae71704U, 0x3b2ca0e80ef3bd15U, 0x57ed2c22012a07e4U,
  0xbce72ccb3f3cfd0fU, 0xb48b143d2290c43U, 0x10fdd4d738e6e528U, 0xff32c12a15bd0f3fU,
  0x1b54cd341f19344eU, 0x13d234c4ae101d1fU, 0xd50220ffb9d1bc43U, 0xec030629bd36e20bU,
  0x89fb4305ffef32dcU, 0xd9f63beec30c33e0U, 0xa826c8c5064ccc00U, 0xedc63f48ea3426c3U,
  0x1e07e0db4a1deaf0U, 0xbb11c2233cdb06ecU, 0x4800072db1d2a2ecU, 0xf0ea38fc2a0eeeeeU,
  0xcc1f6f60541f0f2U, 0xbe11202adcf4173dU, 0xf70adef80ff9023eU, 0x64930e71ff9fa05U,
  0xcbebd0c8f80b1629U, 0xaf09c630ec161729U, 0x207e3043f16bab5U, 0x30f7bf193f480306U,
  0x5a17f0e4d7fc0cU, 0x38e5ded942398156U, 0xc2c27d81750cf16U, 0xde0bda31cfc17e4U,
  0xdb0b4f61aeef8b7U, 0xf7f33737b6da18e6U, 0x29a9f22dd503a32fU, 0x48d5d83b0534ebc3U,
  0xe52df7ee6641cb3bU, 0x4d6017ef24d3e7c4U, 0xa26cae42620bb39U, 0xf018c5f5b9b9282cU,
  0x382a1e50e5012d2aU, 0xe935eec40747f61cU, 0x4e5e51902161a81U, 0x75eae3e7092518c1U,
  0xcfb7ea07cd31ef11U, 0x38201ce840171035U, 0xdcfab4f5da3720d0U, 0xf4c90ccdfedc3614U,
  0x30ac6bf41e4ecceU, 0xbadd0fe7f24841b0U, 0xceb50c2c3c480da5U, 0xf0273de7b131272fU,
  0x23b4e2c11f1fecbU, 0x1412d712ed0ed2eeU, 0xe3c528fdd0cab0b7U, 0xc724fde6ebaf2035U,
  0x4b3b36db09c0d3dbU, 0xd237c717eb48e8U, 0xc8ab04460258d5f0U, 0xf6e5df0c2424450bU,
  0xfd0dee34eabbe615U, 0xe51bed4a2ad7aa0fU, 0xd90e391fd1f2e1e8U, 0xc4d6d6d9cc47de2bU,
  0xbad4ce0701c59e00U, 0xead7321e123c3811U, 0xc0110d102de32814U, 0x12d846bc99d75c27U,
  0xf22aaec117c52dd4U, 0xd836e914c4811003U, 0x25d3e6b727f7a90eU, 0x3ebf472b28c428d5U,
  0x2becb6a4da410fe3U, 0x59cb7d9b502f707U, 0xff00d70f3930f015U, 0x28dbf5370e21f824U,
  0xc0cfb90323184026U, 0x62063f1cdee9f3b9U, 0x9d2ce0edcfe10c08U, 0xf2b4d4ad0a1c3d12U,
  0x483923b6e844b70cU, 0x4ca0e929e6422036U, 0x3a250a3ff21ffa57U, 0x22c508514816411dU,
  0xdc3335522d4603c2U, 0xe648deb1028b1be5U, 0xc2c120d4e035d6a6U, 0xdccfe3e6d3fa0dd8U,
  0x81c03af83cde2239U, 0xd03fd9dab3c3c709U, 0xd2e23cef5037072aU, 0xe4fa1e0bfca53f58U,
  0x3a1154d6c1dc2554U, 0xb9f3258b3905240dU, 0xf616c7c32a6ed424U, 0xf4f109492e289b09U,
  0xe729250917c7dd03U, 0xebd321145d2aab0bU, 0x1c2a511e854ffbcU, 0xcb0a02592a36d305U,
  0xfc17e2bfd1ead330U, 0xe4efde0af9bcafe1U, 0x5b33c724ed3524c5U, 0xa4c930c11455de35U,
  0xae34073852e47749U, 0xef22134c01be2f1eU, 0xdefdf7c90653e217U, 0x42c625411cec54f6U,
  0x31c21ece302edb54U, 0x473620d418bf92e6U, 0xdce715caf402fd29U, 0xdd0fa84c1f0d49efU,
  0x281681acf9c0223fU, 0x1ee5f528c33abfeeU, 0xbf3ab4b1f061165fU, 0x98ce20c80901b6f0U,
  0xafcc452b4f241805U, 0x53bbdf35c6ab2904U, 0x2d80224450ad616U, 0xbedd1adb01dd5a9U,
  0xf33422e470de3bb3U, 0x3553e73cc8273a31U, 0x611b32fe3ac9efe7U, 0xbecfd6fb9529fd3aU,
  0x22fe0cd153ec124aU, 0x4858bf9b64ef2319U, 0x1d34e03bece9a8ebU, 0xec942a2e5850feaU,
  0xc7df95381050d8edU, 0x547f5b8f13eb3f1U, 0x5cc72b95c46d19e5U, 0x15a8a6cf3a5255b3U,
  0x4d3f681b46d7a3d0U, 0x42e1caa35ea2815aU, 0xb065b68a404fbdbdU, 0xe4ba2bb2e349ca17U,
  0xc2ed4058d6b8f211U, 0x1aaf0983901c3b3U, 0x1fac37d4eab0d528U, 0xd30631451f6630faU,
  0xfa5bb8c02cd7ace8U, 0x5f426f09da88c4a6U, 0xae6f4e4ba21e4b3dU, 0xd79f7c2ff8df1f51U,
  0x6ff74dade4b1e61dU, 0xaa3bbe640ff2335fU, 0x382824baae38ad47U, 0xc30d4d23424ab107U,
  0x2e59efa90aa04023U, 0xa6d14c2045f990faU, 0xd179eed1de58fb8eU, 0xfac31745645e18a0U,
  0xc7eec421f857365bU, 0x47ce58b39dbdcd21U, 0x9f331d1d3c271fafU, 0x26586af453f8b616U,
  0x97f5a72c852819ccU, 0x1162df3c2440aafaU, 0x1ecd20402f2001e0U, 0xa651d9cdf1f8f007U,
  0x9513eef105f3f529U, 0xa7a900c6fef8e34eU, 0xa144d116ee2803faU, 0x112f0469d4eadcb5U,
  0x222525b24f04b402U, 0x49040fe2fd0bfd42U, 0xb9ab2ba91b7a07e0U, 0xbc61c7b60a50c3dfU,
  0xce10cd6f73a4d4dU, 0xc5babfc4659bfed6U, 0xaa19100431131916U, 0xdab82a37260847e0U,
  0x124400bacb153527U, 0x2d4a0b2dd5c7c2dcU, 0xd5c42d05e5101a42U, 0xf2c9cfb67fba5408U,
  0xd1310ee8dc2841dcU, 0x3616c3e619f7a4d6U, 0xc44b313bbe3ecea8U, 0xe7311062fe13c04fU,
  0x232d55e40eae9bdaU, 0xd53f56e056bfb05eU, 0x2f70ae6ff1ef84eU, 0x1918e020fb2e4d09U,
  0xe8db0f463644f6e9U, 0x20063c44cdf324e1U, 0x31f3b3c52b0a51b6U, 0x7fe7f6064a7a54fcU,
  0xea4c05fa3f3de313U, 0xbeee50309e29e2aU, 0xb7ec0502e9143ef1U, 0x41eec90e34120d02U,
  0xfd2b0b51f3032ccbU, 0x36cd48c7ddd24855U, 0x3031b9e61314c1feU, 0x10081eed524ad4b2U,
  0x266a0a476cded1f0U, 0xec1f1512af2cc9ddU, 0x5ff702bf56433914U, 0xb5c31abb33035013U,
  0x6550c4e3e917ec4bU, 0x2bf0c5ed35fa52e4U, 0x1a42210a7aef517U, 0x1251ad8ff5cf5f9cU,
  0x2fe2d656d1cef90eU, 0xe3c28c5d304dec5U, 0xc2cbcc410fda8e27U, 0x221e20432a48d1f4U,
  0xaa3db8135dfbda17U, 0xa0c2a2ebeb2ac842U, 0xc2ec1134f22cc1d1U, 0xf102328ba3d1b4aU,
  0x2acb3cfae4f59732U, 0xea0f28072e35f627U, 0xcec5b7b73637bc07U, 0xda1fef2db40b00e1U,
  0x22b0d0cb09d83dfbU, 0xf710f202d9f2bee4U, 0x2548b1ebecf2d7c8U, 0x1922e8e54406310aU,
  0xff352d0850410d06U, 0xb2c3b647500c9362U, 0xad0bbdd8b425d4eaU, 0x36dfe3a2c9da17b5U,
  0x30c90d2105dae8U, 0x811fe9eeacba00e2U, 0x2409ea3edb4ebbcfU, 0xdfb72bf5ab3b1dddU,
  0x2eb22eb120101dfU, 0xc94a002f3925f043U, 0xc6c81e3a2bf93e1eU, 0x282f214630b4e623U,
  0xef09c9e5f912e2ddU, 0xd066f42816bd1a1cU, 0xcdbb590c253cc441U, 0xffd92bc3e19c43d0U,
  0xed78c2e695b921dbU, 0xad38c0d9d844d840U, 0xd426360edd0de1a1U, 0x3235dae5d784f820U,
  0x9646bc63b92b34f6U, 0x7f70fac1e2b90d01U, 0xb2d8f437a7d5b807U, 0x2e48f44722f1f42fU,
  0x50befcdb28efbdf2U, 0xe827d30342cf5004U, 0x38be0d1e0e640b07U, 0x1ac1fe3356b9c226U,
  0x1b38102e1df53452U, 0x2b21be23c0f1d907U, 0xe52754b7eef5be07U, 0xed530f63e8aa5a14U,
  0xc8fa0acf20db53f6U, 0x99d4d7cad2e302fbU, 0x4940fca5b530c0d8U, 0x44104f1102e0e4f4U,
  0xeb261a40dfc25c54U, 0xf01eb8d3b4f0d9d4U, 0xb9c4bc15c3f507c9U, 0x313a35e0436550bdU,
  0x1f4815c133ca2fb3U, 0xf0107ffa01c80615U, 0x3b3120a90a310bb3U, 0x143938ef303dbcc3U,
  0xe710f0fee533223cU, 0xf9d4e9f0f545cd30U, 0x44d333d5e36ae0efU, 0x26d5c31246de4c33U,
  0xc2b10ab3f0249d02U, 0xd3121e6679ec2d8U, 0xef4267b2ce44e7b4U, 0x231d21b702bddea7U,
  0x382dfdd0d7bbcb2dU, 0x3c250274e436ecceU, 0xfc3e2dcbe730b408U, 0xee2c6b6080ae362U,
  0x30f1ca1b22b70bacU, 0x17014a0d32ba1410U, 0x4f0a12cd0dabc024U, 0xfb1251f070d4fa15U,
  0xd031bb3b5f324434U, 0xe40e18fff7e31fd6U, 0xade00d3dd1b511e2U, 0x4bcf2a0bfe9810f2U,
  0x3d06d31d2755030cU, 0x5d3bf660cdaac5abU, 0x58ffee41c648354aU, 0xbbb6fc4ed00d27acU,
  0x27d4cab209fd4244U, 0xcb28cc25ee3d3301U, 0x3e3cc7ecc63f9a0cU, 0xab5ece7f06e777f3U,
  0x2801d7a5b95b1fc8U, 0x13efd22804aef030U, 0x4b5cd4f3e113a4edU, 0x3943be42640c22cdU,
  0x322afd01c5f95227U, 0xcdc862f85af2a253U, 0x5624caadeefad9c7U, 0x336452e0190dd304U,
  0xff53341f3c69cd05U, 0xecf22c0c54c0c714U, 0x3bcb1c1fe310f124U, 0xe25f47b36f015de3U,
  0xbeee14e80a072931U, 0x31bc3d411299f3deU, 0xba595516f842d803U, 0xf70827ff0d8312beU,
  0x1f4efee3c2603ff5U, 0xdf27d41061ec08f3U, 0x105a2dcacd75fb4cU, 0x7f3eaa4ded38661cU,
  0x311e38ba002c63c1U, 0x1dfce8b7e592e0e0U, 0xb32114d1e139de40U, 0xccbd464b2ce515e1U,
  0x3be7e4b7c3714fc1U, 0xd76d12b7032d2efdU, 0xe850ed0cd4c14525U, 0xdc0f19ae76316105U,
  0xe8112438e42e2d4bU, 0x149a5a4ccf0db51dU, 0xba3cf010a91d16b2U, 0xff072842b0f7e0faU,
  0x4e0204dce31323c8U, 0xc7416211df25a6e2U, 0x32b5318110eab14dU, 0x4ac6e35feae217caU,
  0x23d41bf71adcfedeU, 0xfac915f89ee4396bU, 0xe1f9cfeaf56812c0U, 0x4802262dd4f6c33dU,
  0xd903b7e3c0f840d9U, 0xe7205b2b5b3fce49U, 0x1534d7f7efd9d928U, 0x5bce623e1f1a5b3aU,
  0x2f285bf0b0efeb58U, 0xfbb4ea5fcc0447eeU, 0xf31af4d0fd3fbb82U, 0xd2c6a60faebeef2dU,
  0x37f49fbe2534b203U, 0xbd2a58c26a490a0bU, 0x21f4e7afa2229333U, 0xe3134ecf4d9af610U,
  0x3363c4f303d2f632U, 0x57f5fe22ccf6f9e8U, 0xf938cc6e3341c2bcU, 0x24b244f239122235U,
  0x4ed5f8a8fc41f1cfU, 0xb7e42c21e4d5dac1U, 0xec49513233aae51U, 0xcfb420e38291f08U,
  0xddf3010e251a0224U, 0xd082319e1365f22U, 0xe0f2b1d22adea1cbU, 0x26f907f218bf340bU,
  0x1636fd2e0e53f5ecU, 0xaed7f840f6f081ebU, 0xf027e900504fbf3cU, 0xf8b909295adc291fU,
  0x47ebf5d6f92371feU, 0x16ea2dc9b4c8e442U, 0xd41936fbdae2abe8U, 0x49a8eae3e4eddaacU,
  0x383eac334c4efc38U, 0xcc09e2d2f4a6de48U, 0x1dc99bf3d4b0a2c0U, 0xc7e8031c0ee733ebU,
  0x4713fdb4383b17dbU, 0x26072458dcce3520U, 0x2e0dcf59abe0a811U, 0xbd99231293bc4d0bU,
  0x953dc7fa3af0215eU, 0xc02ccefa16b112e0U, 0xd81729e165b9c031U, 0x37e6bca1f9593632U,
  0xf2cfb996e1554ce0U, 0xfd393e4eb5182e26U, 0xad213abecf2ae6e4U, 0x4cf3f289b2b20abU,
  0x9acfc017d02ef928U, 0x31ced3aeda16a0e5U, 0x3d9a4bfc4c326f1U, 0xfd405f2db810b2b4U,
  0xbd8dd40733128122U, 0x48451bd692e719d9U, 0x3e16c9b4df12b21eU, 0xc23eeff1b5eb2c16U,
  0x8d1dba0121032d5cU, 0xd9dee4c91906c6fdU, 0xde53e6f6c9ebace0U, 0xe10054b60676e4b1U,
  0xd1f5db1669f62508U, 0xd80c9afdce30c578U, 0xfefaade5e8a68a02U, 0x5d0372eaa00ff29U,
  0xbefded1d1c51c9d7U, 0x2145f6261dfb0a62U, 0xb40ad0b22e29aed6U, 0xdcdbc3c8eb080311U,
  0xacfde2232c292be7U, 0x1db43f5419fe172eU, 0xee3103d2e7148abcU, 0x3ffac8f0b9142a41U,
  0x5bc8c8ed3afce0d2U, 0xfccb4cf70ee22207U, 0x4dc3eda1f5f10401U, 0x14f4e4de48192d02U,
  0xd2fd14e432013208U, 0xd3dfdedbe319c803U, 0x5d13d7e33837bb9cU, 0x2b00f6ddb856173fU,
  0xef5508e840e939d9U, 0xefa12ff2a092e54U, 0xd436a12c373edf29U, 0xc73ace2710b5c90cU,
  0xf50ebc0f1cef22f4U, 0xd3ad39c3fcbde0faU, 0xfcbe7e52cdbf7dfU, 0xa937c5dee9f4e57fU,
  0x333ed6e118220ad2U, 0xd7272132e892a7eeU, 0xf3d13bcb25343a2aU, 0x1b0dcdd241b51d00U,
  0xfe0dcc014cfa05ccU, 0x23a54c47431a61ceU, 0xf0cc31385ada81c4U, 0x421e51213b5c25faU,
  0xd23f34e4dc3317ecU, 0x5534272be123ea27U, 0xd4f24c1bafb61ab0U, 0x13eb4936f3a7481bU,
  0x46524ac8d2cdbdddU, 0x1e22e1e1130ee42aU, 0xb432002736f0cca6U, 0x274dc503ba0223d0U,
  0x5830b4f8351a504eU, 0x4431b823e399c7c7U, 0x205ecef437c6b8c6U, 0xf542fa18cec5f534U,
  0x27c9d1c40fc2c433U, 0x15e6afef551ee4fdU, 0x13ca000d03099ff8U, 0x1f5ca9daf2d2f60cU,
  0xb3340cf7fec82ad4U, 0xf4cef39911e2abfbU, 0xbcc11fd072205d9U, 0x2c13b9a713f6b1f0U,
  0x14138e051ece6f2fU, 0x175d050bea331124U, 0xdeed0117081a9fc3U, 0xc3c933c7d5e4fa04U,
  0x3008dbf3ee38cc32U, 0xd0292af2fad4bb0cU, 0xfeffcd2edfced3U, 0xd4ec080629ef1c26U,
  0x313023cd304e94dU, 0xf8100807b3b4dce5U, 0xdcfdb4aa48f5d62aU, 0x6d109df27f1deeaU,
  0x18e0070ec4cfe2c2U, 0x8116490450c41fd1U, 0xdb0142a20c3cedf4U, 0xe71b28d334ff12b1U,
  0x161c1f0d491a34e5U, 0xb4e2c1422263930U, 0x25d5e8ad052e00f6U, 0x4e2405f303f1f7efU,
  0xfcdfd5a316d1f3b9U, 0xc8faa5542bfd9bd2U, 0x3abcf3f0f13cc0dbU, 0xef2701f91ec526d7U,
  0xf253c1a50d013120U, 0xe80fc81a05faff1bU, 0xb70ff6132761b406U, 0x2ae21ee6e3b44e30U,
  0xfff1070529c7c728U, 0xe706322d24f6b401U, 0x3eead02ecb7a2f1dU, 0x4102f2d93321e82dU,
  0x47320db5e11d4a4bU, 0xb30de60fc226c436U, 0xc81febade8f7d5b1U, 0x36e913ff3adafe31U,
  0x4e4635c7b5c713a9U, 0x902805ce44c53fe6U, 0xebc18424dc54b1c8U, 0x23c702c645ed20ecU,
  0x502def88c100212bU, 0xcbb7130722f0cde2U, 0x37d98aec127fccebU, 0x2cb70c18c952b9e1U,
  0x36fe3ce1ffe099e8U, 0x304640192cbe06ecU, 0x5420baf6cdea462cU, 0x323613e621b21421U,
  0x88bcb9ee063b6504U, 0xb7f0e80deafc104dU, 0x1bc33c120f47d1e2U, 0x1ad0ebd74ac94efeU,
  0x6b30293dd5eeb806U, 0xd8710855f934494eU, 0xae1c2357f0034aa2U, 0xc9fc3206d6e6caU,
  0xae168e3db70adf12U, 0x13000128d735f8dcU, 0x9ac04fb6f2f781f7U, 0xed5b1ccbf51b44ccU,
  0xf93105e708d0febaU, 0xdf0705111e3d1342U, 0xb6e0f90b3347d0fbU, 0x35dae1f722cf0dbaU,
  0xfad8204c0fb613ceU, 0x1233f25c0928cc16U, 0x92b31dcbf5652812U, 0x9fe217580522f1f5U,
  0xc1ddcfb0de4db819U, 0xe408050718fb812cU, 0xd345adc9d4e9c6daU, 0x11f9dbfcb22efc36U,
  0xf03fee3a2425ded5U, 0xef0228f2cedee919U, 0xe826c524c3dcc0ceU, 0xeac30df7ce4ae230U,
  0x5be0fa16ec113124U, 0xd9d605cd41e2bbd4U, 0xd40209e4352aa133U, 0x1ac83effe10f22c2U,
  0x12e2480e35d4f941U, 0x44cff52cf2ee083dU, 0x26abd6f82937effeU, 0xf8b6c3dad9f94331U,
  0xedc32bc049afa0d4U, 0xe245f5d01ad1f5dfU, 0xfb0abffc0c35d4ceU, 0xba1944edee0b12d6U,
  0xf7bf1def144044ffU, 0xdc29c312fc11da0fU, 0x2e3aefced12920eeU, 0xc1e0de26e306cdf5U,
  0xbf4739b01c373933U, 0xd8b70e404f07fc58U, 0x651d3c81ccafe52U, 0xea926f045bad8f5U,
  0xbbe62318c143d221U, 0xb52cf84b1b4bb2eaU, 0xd29dee52c90df824U, 0xb51ef5e4c90cd581U,
  0x21e20ce2c6151061U, 0xf919b42821ccc5c3U, 0x1d57dbfb0603fcdeU, 0x590fadb2481ac74dU,
  0xe8e1d2e2ce56b112U, 0xd742501d6809de48U, 0x1d758dcde4b18f3U, 0x3cc0b7f619f02fb7U,
  0xe1c4e4fe122606d6U, 0xb318f65d3be5bb2eU, 0xe8230e133c6e3348U, 0x3b9ea2b4851cbdaU,
  0xf0f0fd14a635f22U, 0x4cdfc5d83ec5c304U, 0x1f2fcc1cee18e005U, 0xf9bb3b4f3d403aedU,
  0xfef1fbc6f0c32552U, 0x15fefc1c08b9b904U, 0x93b2cfbbbaed1d3U, 0xfd4bd505cacf27f7U,
  0xd63336de25bfe710U, 0x1cb7e5b72b393527U, 0x3558ff62fa1329c2U, 0x1dfe254abaaa41f3U,
  0xa27fd61e3dcbd7beU, 0xc0131cd8c10fa003U, 0x3357d00a0ecad155U, 0xa8e1d91d2ad5123fU,
  0x36cbfcb41322e5e3U, 0xd5294c2fd631b5c3U, 0xe967be0ff3ecbfc8U, 0x1cce0bf7431ac829U,
  0xedd83956ee43fd10U, 0x42dda2502f1330feU, 0xec0504ea05f2fa08U, 0x1ffc362f13c5fa46U,
  0x49f5af1ae422d72fU, 0x5ef3745e5b2382eU, 0x72a424eb11239bfU, 0xf52be838d3115f24U,
  0xcb0dbfe7414d170bU, 0xeedceefe4ac61f16U, 0xb007f225c5cc0545U, 0x34a2b58124cf2a9U,
  0x3881bf28ea19f2d3U, 0x39b6d4cf242fefdfU, 0xf023cf50544bdc0dU, 0xcef5942c1ff4d102U,
  0x711d0e0fc1bf84bU, 0xe4c4f39aeb472ce7U, 0xc30fb6feb8164147U, 0xcbed35504b3421baU,
  0x520cf20708c01be7U, 0xddb7f2c9f7e136d9U, 0x22fb38cc0ffcf45cU, 0xf9210aebf7dea659U,
  0x184ed007dc00e922U, 0xdcdd589f3b102bf7U, 0xb2edcecdbdf2c41dU, 0x293b342c4932c22dU,
  0xe90dbb2bceec4251U, 0xcd0f2d09cc9a554aU, 0xfd1d285df6d1ca5bU, 0xbfc587b4241cd0d9U,
  0xcfd9d004eecb5402U, 0x992715d079a84821U, 0x2fee340a42fda01cU, 0x9b589e9a361e41d5U,
  0x2603fa08f4e93543U, 0x4365b761c4ed231cU, 0x9d1b11df26eba1f5U, 0xfcd6d547e917c405U,
  0x2dd2590ca6642ccdU, 0x334af2d3c203d89eU, 0xc2f5a217fa7eb813U, 0x561eb5c15d81bb0eU,
  0x9edd066907ef5cc8U, 0xe25de13e29ef361aU, 0xf811c39d2fb5c817U, 0xd6553efbdfcf405eU,
  0xf51701eed236376cU, 0xd13327cec71ff746U, 0xf5e72f3206334ae2U, 0x572a2b284a93f110U,
  0xc13b47321da5d66cU, 0x41d5765d4f3c1bdU, 0x3eacf3cfba220bdU, 0x633040489d7a5edU,
  0x4d0e7fa243d31540U, 0x5282ad7279703dbU, 0x251cdf4ac9f1b312U, 0x3d38ce14e0d5ffc9U,
  0x1d59cd2f3b330437U, 0xcf32312fcbe131eaU, 0x14ad4612d926d3f9U, 0x3dff0cebf5f02b21U,
  0xf9ba5a09103f1bf5U, 0x1ae91218e1d41140U, 0x1ac6ab1f262db9ccU, 0x1438f1defcace11bU,
  0xd1f2be0e4904e0d3U, 0x6303cbc2fefed2aU, 0xc9f24003db19ab25U, 0x1111fde3f512c7e1U,
  0xe20401e2483feb24U, 0xc34e0b0f1cd207f9U, 0xa9f5e9f9260ae225U, 0x2902b5e30b0c5209U,
  0x22def5192fe259f5U, 0xb9fcccde10a734e6U, 0x351834ce04d18109U, 0x3de01c461a5320f5U,
  0xf036c51bdad8060aU, 0xea20e7b5e606b826U, 0xebfbc0f74718c937U, 0x2bd3c907ec163528U,
  0x1cd8bc473d3b240cU, 0xb843193aca152ae5U, 0xf002c521eb30bad4U, 0xf6eac2c4f3cd49efU,
  0xa527f5decc211d4cU, 0xefe429d831cad006U, 0x14cfd320450903faU, 0xb62050092d38e4e6U,
  0xaad419cffcc503f1U, 0x101fecc1b8aedddfU, 0x3defde3709162731U, 0x1fee050522f50e6fU,
  0x90eb5ceae14d16c8U, 0xd815e8171eaf81beU, 0xa50be31021f2fd01U, 0x44cee1a7fa211d63U,
  0xf509de260febc5e0U, 0xc24ee9ee0ffae902U, 0xc7c00e231e0abbfcU, 0x7e5ed02042c06c5U,
  0xcf0f3f39cb1aff44U, 0xfffffe52fffffd83U, 0xfffffc1efffffd83U, 0xfffffb6efffffdc1U,
  0xfffffe33fffffd88U, 0xfffffd3bfffffefdU, 0xfffffd48fffffe98U, 0xfffffb07fffffe11U,
  0xfffff8abfffffa68U, 0xfffffbfffffffdbcU, 0xfffffe22fffffee2U, 0xfffffc2bfffffb91U,
  0xfffffbcffffffc58U, 0xfffffe2cfffff9a3U, 0xffffff59fffffbe7U, 0xfffffd22fffffd06U,
  0xfffffcf7fffffddfU, 0xfffffe6afffffc1aU, 0xfffffe68fffffbabU, 0xfffffecefffff8e3U,
  0xfffffb8dfffffb3cU, 0xfffffcf4fffffc88U, 0xfffffd97fffffb0dU, 0xfffffc23fffffdfaU,
  0xfffffa5efffffdd0U, 0xfffffba6fffffaf4U, 0xfffffe9ffffffd64U, 0xfffffc02fffffd41U,
  0xfffffbd8fffffd4aU, 0xfffffc8bfffffcb6U, 0xfffffd40fffffc0aU, 0xfffffd10fffffd4fU,
  0xfffffb52fffffed7U, 0xfffffdcefffffac0U, 0xfffffe81fffff82fU, 0xfffffdbbfffffcc5U,
  0xfffffe44fffffdd2U, 0xfffffe1ffffffb39U, 0xfffffc69fffffd22U, 0xfffffc2afffffb58U,
  0xfffffd68fffffa73U, 0xfffffc47fffffe27U, 0xfffffaaafffffbf2U, 0xfffffd17fffffddbU,
  0xfffffdb8fffffbd9U, 0xfffffd47fffffdcbU, 0xfffffd80fffffbeeU, 0xfffffdaafffffe90U,
  0xfffffbd3fffffcc1U, 0x314ff02f6fdf7U, 0x8103fb02fbffff02U, 0x4fbefffe7010f02U,
  0xed00fefafbe4fefeU, 0xecfdf8bbfcf501ffU, 0xcdfbfafd0004fdfeU, 0x1801f5fc00fc020aU,
  0xfb06fc03fdfef407U, 0xf5fffd2300f7fee6U, 0xecfdb70000f20cU, 0xfee302fdfc08f5feU,
  0xecdbfe000102ea04U, 0xfafde8eff50f00fdU, 0xa1f31004fe09fdffU, 0xe5f8c8facef6ba0eU,
  0x250200c8eecf3df0U, 0xe2f20bdf09f306fcU, 0xec0c1bf9f8c507faU, 0xe301fc06f9fd4a7fU,
  0x5eecef7fd100ec8U, 0xd802f9fb0018fa9dU, 0x7d2eca9ebf21502U, 0xefa00af010451c04U,
  0x420bf50108f9a9ecU, 0xfd04fa04fcf402f9U, 0xd8010404fefd01fdU, 0xf8fb0ef9f7fffa04U,
  0xe603010c04fd11f3U, 0x1fffced00faff02U, 0xd3030303fd27fffdU, 0xee01fafbfffbceb2U,
  0x2080502fd0703U, 0xafcfbbefff30008U, 0xfff0fc81fc00f6f2U, 0xf0eaff01fd02dd00U,
  0x5050000ff060afaU, 0xfe04e509070afe09U, 0x81f8000404fefd07U, 0xffe3c100900e702U,
  0xf006022006140c15U, 0x10fb0bb608ff0202U, 0xebfc0600fe420503U, 0xc7060d04ff0137f1U,
  0x7f61bfa00050beaU, 0xf0100fd03fd00f4U, 0xfefcf97bf802f5fdU, 0x9f5fd07ffea1202U,
  0x113c0300010805feU, 0xfe030e03f916fe02U, 0xf1fafd03f9fefb0dU, 0x24fa03010e053ff8U,
  0xf908042404213832U, 0xfe010969fb1003fcU, 0x51f724fe03ba0903U, 0x302f8040504e61eU,
  0xff08cdf906090e34U, 0xf905ffdafdee0231U, 0xff21fc7f070700faU, 0x1620fe0bfb96f7feU,
  0x80001000d10ffU, 0xf50ee6fd03fefdffU, 0x5c06040600060006U, 0xf30913fef60b350eU,
  0x310407e1ff033dc6U, 0x1203f57f0608ff04U, 0xf9001dff024b0904U, 0x4703fe0c00fbd034U,
  0x616330001050120U, 0xfdfbfd43fd1dfd09U, 0x1070af6130714fbU, 0xeff1020ef6591404U,
  0x35c3030203fceffbU, 0x3f6d6ff01f20304U, 0x7c0210f802fffeffU, 0xec0406ee0afad309U,
  0xbf9f9d0f6e6cdf1U, 0x3f3f9bf00020001U, 0x45ef04fbfed9f3fcU, 0x28f411fbff01be99U,
  0x4e6e20803faf02fU, 0xf703092c05f4ff25U, 0xfcf4f9e2eb050310U, 0xef400fff6810902U,
  0x152afbfdfc10e307U, 0x4010600fdfe01feU, 0x810307fb040502feU, 0x80000f0f7fb00fdU,
  0xdffa0411fefcebefU, 0xf8f903d4f9fb0002U, 0xd507f60200360401U, 0x1201fa02fd021919U,
  0xfc02e6fffe0601e0U, 0xef02ffd2fb0801d4U, 0x3f2fb5105fe0bf7U, 0xf7eb01fb05e00701U,
  0x50d04000100d0ffU, 0xfd0823fffce9fffbU, 0x5705d705ff020308U, 0x90a02eb050409f4U,
  0xf207fc5108fd0e17U, 0xe03fac5fa040404U, 0xbd0efb030065020cU, 0xf0fc02fa0203e881U,
  0x10f11f904fc1a20U, 0xee08fe2cfc0e0316U, 0xf7021af60701fcU, 0xfdf5fbf60d310105U,
  0x1ebfb0105f2f70cU, 0xf7060d0306f8fe08U, 0x7f02fcfdfbf901fbU, 0xf9fa09fe0e04ecffU,
  0xe9f9fd25fcfd27e7U, 0x80303330202fdfbU, 0x10df308fdf5fa03U, 0x27fff6fc02fadaf5U,
  0x1fcd2090007df01U, 0x17fa04020003022dU, 0x30f0745fa07f9f2U, 0xfafe0dfacb0900U,
  0xcbe50401fb08dc0bU, 0xfb021d0cfaf00009U, 0xf60101040705faf8U, 0xf7004308fd01de01U,
  0xff100c9ff15c5e4U, 0x211ff100403fb02U, 0xf5f7cf03fa430b06U, 0xfbf602fff7f76048U,
  0x3eaed07f7f8e11aU, 0x150806370821faf4U, 0x10138100fbeb08U, 0x12f806090400fafaU,
  0xe3d6000300fe0903U, 0xf613fa09fffaf8U, 0xe60810fb060600f8U, 0x303deedda074cf7U,
  0x170300c0efe4f1ebU, 0xf6f107daf9edfe06U, 0x81051aff01e6f901U, 0x3e0900f9010159e9U,
  0x160209020b141aU, 0xbc040a9bfd0b06a3U, 0x4cffda003fdf50eU, 0xf2ddff08f513cafdU,
  0xd60afffefcffaa12U, 0x903fef701f80704U, 0x81fd07fe0303fd00U, 0xea0510fe0a0b09faU,
  0x1ffc0739080cee30U, 0xafe0dea08090205U, 0x7f80600fd5102f9U, 0xd8fff4fcfefe3c44U,
  0xfc15450d0501f5f0U, 0xfd06fbf00203051bU, 0xfd0e0473050505ffU, 0xfe1ffaf70b5d1101U,
  0x4241f7fefbfff7feU, 0x2f2fdfbffffffU, 0x910404fe00fdff01U, 0xb02dc081101e9f9U,
  0xe0f7ffd709ebf1eeU, 0xf8f701f1fc0301feU, 0x1dfaf702ffe6fffaU, 0x1902f7fb03fefcd7U,
  0xfe0a18010307100eU, 0x1605faddfff1fc2dU, 0xfef3f48108fb04f0U, 0xfafa00f5fe1fecfbU,
  0xae8f70000f5def5U, 0xfe06eb0cf90d040eU, 0xfe0b00f9f4fcf5U, 0x14f60311060bd617U,
  0x3116f7670efe5521U, 0xd12fe8b090d04f4U, 0xd02301f8077ffafcU, 0x1d09fff5fa0c2e69U,
  0x21e74f704ffe4f6U, 0xff000d70f9f9ff24U, 0xfe1911d801fe0212U, 0x501f8ff101b3101U,
  0x6cf00d020005e014U, 0xf6052105fbeefff0U, 0x7ff7070001080208U, 0xf0ae9faf8fb3403U,
  0x21f9052602ebd712U, 0xe7020a2d06eaf803U, 0x8fffc00ff13ff02U, 0xabf7fd0b00f800a2U,
  0xfc1a0e08fcfffc2aU, 0xdaf9f4600719fabfU, 0x4e61bd3030607f1U, 0xf3fa03fb43befdU,
  0xbb6f801f9edb8f4U, 0x1040c05fdf9fb00U, 0xc103efff02fb03f7U, 0x103f8f6fd2001U,
  0xebf0fcad03fed6f0U, 0xf5fdfefdf8050404U, 0x3ce9f501fbbef7ffU, 0x2dfd0701fcfdcc17U,
  0x3f2fc08f9faf708U, 0xebf509ae01f7fedeU, 0xfefa0481f7fefefaU, 0xff08fdfffa20e2fcU,
  0xccb4fdfefefe2504U, 0xf90017fff6fdfbf7U, 0xd7fdfd04fbf9f8ffU, 0xff02d9fa00fd0deeU,
  0xfbfb01d4060f061eU, 0xbfafd81fd05fcf9U, 0xd0000ef8fe260504U, 0xef0107f9fdf909e0U,
  0x4fb0e08fc0207cfU, 0xfdfaffddfcf6fe03U, 0xfafcfe14fef90d15U, 0x2eb000403d91c00U,
  0x908f600f6060cf1U, 0x9ff2603020704ffU, 0x8106050305f9fbffU, 0x4fdc412fa03fb08U,
  0xd8fdfcdc03f6fc08U, 0xe40106b607f600feU, 0xd9110501fff4fc02U, 0xfffcef060205cef6U,
  0x709fffa0205ffd9U, 0xe60005e9fafb00afU, 0xd6f6620501f405U, 0xfad60003fbe8f1fbU,
  0x15f9020204fac8f0U, 0xff08f70c0df2fe0dU, 0x8103d304fd0404faU, 0xf80736f6f9fd5e08U,
  0xd1fcfde7040531f9U, 0xaf503fc0001ff04U, 0x9c0b1006ff04fafeU, 0xbb08080a0700cfe6U,
  0xff072003fc0b18e6U, 0xfe00f60a01f6049cU, 0xfe17ff581402fa00U, 0xf7cf0315f19725fdU,
  0x250ffa01fe10e3efU, 0x304d706fe11f6fdU, 0x1ef6e4f7fc020001U, 0x1a0914f8f8f53a05U,
  0x14fc08a400fe11e7U, 0xf6f71af60300f8U, 0x57010d0104ed0305U, 0xc4090bfdfbfb81edU,
  0x60317fbfb07fefeU, 0x401f5e901f8024dU, 0xfe17f930faff0a0aU, 0xf5edf7f3eef02e01U,
  0x919fe0200f3fbf5U, 0x1d502fb0f0405U, 0x97ff09f7f90701fcU, 0x304de02f805bbf6U,
  0xf50701fef6df0dd9U, 0xe0fff78105f6fefeU, 0x98f201fe00c6fc01U, 0xe400e9090300fdf3U,
  0x1062503020003dbU, 0xe707fbdeff0100dcU, 0x1eafec40af9f9faU, 0xecc702fbf9ded604U,
  0xb3ef400fc0a99fcU, 0x2f5d906ffeefd13U, 0xce0213040a04fe12U, 0x290451021efcbd11U,
  0x361004810ae1ab2cU, 0x5110a9e0f0cfe00U, 0x90f111060791fefbU, 0xd805f4fafffbe534U,
  0x1164d06071c1e31U, 0xe8f90a5b06fa0424U, 0x2cfa05f6062502U, 0x1be702f2fed00b04U,
  0xd71910fffeec35f2U, 0xfffce104fd030300U, 0xc90011060500fb00U, 0xf5fb1a0bfc05ecf5U,
  0xe4fd05fef70c1316U, 0x4fb0681f8010301U, 0x20fcfa0003fe0002U, 0xef030500fcfa26d7U,
  0x20b0bff0101fe0aU, 0xfbfc00c0fef1fef9U, 0xfefa0755f8fdf8e4U, 0xa09fefafe49fdfdU,
  0xae6f80005130002U, 0x2fffa03f908fffaU, 0x8104faf902fefff8U, 0xbfedc09ef0036f8U,
  0xf4f7f9f4ffdbeff5U, 0xf5f4faccfefd0100U, 0xb900fd0200ee04fbU, 0xdffd03fc0200250dU,
  0x3fcfafb01fff817U, 0x101e4fefa01e5U, 0x1f3f9cc03000b13U, 0xf4e802f7ffc5e8feU,
  0x1209fcffff03d6ffU, 0xf80ae6ee0bfa06f9U, 0x4bea000908f9fd0cU, 0xed02dcfcfbf9240aU,
  0x27f4041908e9e6e1U, 0x7130bb903fdf906U, 0x4bea0cfd03a402fdU, 0xdbff0e04fdf825b4U,
  0x3fb4100ff0cf415U, 0xf2fc05e600110302U, 0xfffa1f8100080710U, 0xef3905fdfeb20305U,
  0xfad20a010102071aU, 0x60d040a03080107U, 0x1fefec0501fffd02U, 0xfd0436e203faeb03U,
  0x1609031104012be2U, 0x12fa035bff0bfffeU, 0x8ee90805ffc4000aU, 0xfdf9000900038490U,
  0xfbf6e20e010efbecU, 0xf3fb008100290327U, 0x612fa1d0107f11cU, 0x7eefef4e81728fdU,
  0x9f5206fd0214e2f2U, 0xe8fbd1f4ef11fffdU, 0x530a0df709f1f6f3U, 0xffd48fa10fa1d09U,
  0x2c06035a0a0e2632U, 0xf4070fab0cf7f6f3U, 0x370bf1ecf52cfcffU, 0xf5061df5fafd5181U,
  0x123d306f30be4b7U, 0x16fef7a8fbe7fd4aU, 0xf603fbae0205f018U, 0x1e320303f45d2404U,
  0x15aa0b01f1eddc11U, 0xff02f6fe020301ffU, 0xf01000000fd00faU, 0x7fef3fd0400cdfeU,
  0xf7fbfb0d02fbd9f3U, 0x202010cfe020000U, 0xcedeb0101db0001U, 0xedfffffffefdbdcfU,
  0xf9dafefef9fdffU, 0xf9fdfdaafe060116U, 0x20081fc0102faU, 0x3fb01f900cb0902U,
  0xd6d7fd0002000504U, 0xf50bc6f0fff90108U, 0xb0f4cc0306fb0100U, 0x6003defeefce3feU,
  0x8c03fe98f3d1f22eU, 0xdfff0785f3f40000U, 0xae1c01f906fbff06U, 0x1ef4e5f805ff6624U,
  0x70d2408040df4efU, 0xe002070af8f9fceeU, 0xfee2f48d0d03ecf4U, 0xfbcc00f20a7ee1f8U,
  0x4b4d0902051981ffU, 0xf7050106ff05ff04U, 0x1ce6ef0b0cfe050fU, 0xfa04ed0afdf66df8U,
  0xd4f1082bfe1c351eU, 0xf8f5fb69f809fa00U, 0xc2f7f4fd01cf0010U, 0xf60910f4fff8817eU,
  0xfae944e9fd030431U, 0xd0a0d6f05f5fb46U, 0xfbf8007f1a051e2bU, 0xfef7f8e7f75be4feU,
  0xf6010703f8f5fdf4U, 0xf309d109fcf600f9U, 0x81f3e6fcfb06fdfeU, 0xf1f8d40408fec7fbU,
  0xf30009f80bdd0014U, 0xf3fc056207020100U, 0x42f50c0102bf09fdU, 0x405f20805fc8834U,
  0xfa03f0ffff0b1300U, 0xfdff02eb0415061fU, 0x408a41003e9f9U, 0x4f4fb13fdca0f05U,
  0xaa3e01ffff0d0d12U, 0x206d9f802040309U, 0x81f7fef501fbfef7U, 0xeb08c9010101abf9U,
  0x6fff99af9ebd9f9U, 0x11f7042d00f3fcfdU, 0xc7eff60004b809fdU, 0x23fa02fdfe08942dU,
  0x3e4230a0103ebe3U, 0x1302034b0012fed9U, 0x319f6e00a04ff03U, 0xf421fd0204882300U,
  0xcdd0ec00fd0fbb00U, 0x300ec0e07f4fe01U, 0x81fbfbf90008fd06U, 0xfe07090501fdef0aU,
  0xfcfa0253f9f0dd03U, 0x40c0991f903020aU, 0xe3f5180b06eef707U, 0x11f603050706edacU,
  0xfae72a01fbfc131fU, 0xdf040acffdfc01dfU, 0x4ee0dc90e06e6f1U, 0x8e9030dff36f703U,
  0x2e2f4ff05f6fff2U, 0xf8092005f6010409U, 0xf8fe27fcff0903faU, 0xeff91cf512fb17feU,
  0x11fb0a1407064403U, 0xb15f65708000401U, 0xedfb19fb07c204f8U, 0x3080afa05f96cddU,
  0x2e90006010ffa27U, 0x14f90b7f02f3ff46U, 0x5ee071b0c08f0ffU, 0xfbf806070d31f008U,
  0x181a03fefdfb22fdU, 0x805f2fcff0e020aU, 0xc508fefd0704fffeU, 0x13081e04f4fad70bU,
  0x3f9fcf3ff1dd120U, 0xd02f37f02f80202U, 0x106e9fe00abfe07U, 0xc80508f90104cba4U,
  0x7f003fd0308ec0bU, 0x110509c703e502ebU, 0x2f6048bf6fbfa05U, 0xcf5fe080aae08feU,
  0x1c4f80001f52e07U, 0x70429f5f90f06fdU, 0xb3060e00fe0501fbU, 0xe70c13010002d3f9U,
  0x16fffa6003f506e0U, 0xedf909e2f607ff06U, 0xeb12fa0000c00809U, 0xacfc0903fd032c07U,
  0xfe1013f0fe1012faU, 0xee030afcff0a06dcU, 0xfdf8f27f0dfeef07U, 0xf90b040c0bac2506U,
  0xef17fc0007fc1df5U, 0x3fcf5f6fefe04ffU, 0xc7fef6f904ff02fcU, 0xf4fd20f6f6ff0d07U,
  0x140705e2fde6efffU, 0xf400f6f500fafe00U, 0xd3fe0d02020af9ffU, 0xc902040401fd17bbU,
  0xfd00f1fc02fbff13U, 0xfa03fc2e020702dcU, 0xfef9fc7f08feef08U, 0x1fe0102ffdf0d03U,
  0xe40800ff0207e7ffU, 0x5fd04fb0107fb08U, 0x7cf90801f8020200U, 0xf6fad900edfe000dU,
  0x3207029e02122000U, 0xff09fe7f0108fe03U, 0xa60cfefb01ba0500U, 0xe8fdfffdfc050db8U,
  0x200d2fc03090b17U, 0x16fff4f5fcf804e7U, 0x1060126fe06fcfcU, 0xfdf101060a1c0c04U,
  0x23f50301fe05f809U, 0x804ef0301ff0004U, 0x410815ff00fd02f8U, 0x1fff4f802e409U,
  0xf00fffd090ee20dU, 0x4f6f99ff90302fcU, 0x810de80300250709U, 0x3903fc000501e1b0U,
  0x3f403ff06000b08U, 0x8fa061e0106fdb8U, 0x2f3fcfa000800fdU, 0xb06010afe140f04U,
  0x2b2b01fffe0eccecU, 0x1042902fa040200U, 0xabfbfafbf80301fbU, 0x8f8fbeffa07fe09U,
  0xfdf7fec8001ce5feU, 0x16f0068102fb0105U, 0xeffbf1020425fa0aU, 0xc9f80bfffe031ee2U,
  0x50113fbfd01f4fdU, 0x304f635000efd30U, 0x216f8910bf7fc11U, 0x121e0204fff827fdU,
  0x1cd90200060ee70aU, 0x303fcec08fe0203U, 0x68f9fffffd0304f6U, 0x202fbf4f502a10dU,
  0xf7fafaddff02080fU, 0x301f91501fefe02U, 0x1eeee6fcfc9b02fdU, 0x2d000307fd0691b0U,
  0x4fede0302020d07U, 0xa06068103effd21U, 0x100018beefefa0cU, 0xfe10fff203d0ed00U,
  0xa9102fffc0716fcU, 0xfaf9f7ff01ee00fbU, 0x81010604fff9fbfcU, 0x20133f6f1053d09U,
  0x1101fa13f7e007c5U, 0x8040ac203eafa02U, 0xf708ecfc01eaf501U, 0x2c0303f702fd33daU,
  0x30eb0fffd09e501U, 0x1801f088fd0cfbffU, 0xffd9fd9bfc00ea01U, 0xe2d8fbf905c1e403U,
  0x1005f9fffffeca04U, 0x544fc00fa0103U, 0x810bbe0903f8fdfeU, 0x260ebffd28fd3e00U,
  0x4c02fa7204042448U, 0xfbf4fafd050cfffaU, 0x20dbea040046fdfcU, 0xae08fdfcfef6b6e9U,
  0xf60ee6eff9f30331U, 0xb080bc1062afb29U, 0x926fbf908fbfb0cU, 0xf41e0117f0424e0cU,
  0x9cd0f6fffce250fcU, 0xfb00e6f8fb0afbfeU, 0x7ffdf400fc00fff7U, 0xf6fe0cf9f9f5d308U,
  0xb0203d107fdfae5U, 0xaff0769030201f9U, 0xb0a0802fab70607U, 0xf90507fe01fcc6ddU,
  0xfcf60803ff02f7ebU, 0xf804f812fe18fff5U, 0xfb080797080303f4U, 0x6f2fceafaabf9faU,
  0x30c7f601fdfb1df6U, 0xff01f2f5f513f809U, 0x1dfd0d02fafaf8ffU, 0x1afed9f20307eaedU,
  0x130cfb02fc2938d0U, 0x1a08fa2d0107faf8U, 0x35e2fbf9fcd80b01U, 0x2fd0ffcfaf68187U,
  0xfef3c808fb0002f8U, 0xe9fa012100f5fb46U, 0xfef1071f0e0c13e2U, 0xff25f9f209e42b00U,
  0xc52ff03f502e412U, 0xfe01ee0bfff703f7U, 0x7f01f7fdfb040108U, 0x3030df200052a0dU,
  0xef0f01e0070dee05U, 0xfc06f82e080a01fdU, 0xc51a0a02ff0bfcfdU, 0xdd03090a00f8e89dU,
  0xfbd6f8fd09110dU, 0xe0fbf394fee702dbU, 0xfeecfebc03fe01f9U, 0xf5defb0b0388db03U,
  0x154105fe01f6f804U, 0xf106da04fb0ffcf3U, 0xbe05f501f7fc0003U, 0xfcbc01f5063306U,
  0x200302c8fe10d2f8U, 0xf00a0a7f0a0df7feU, 0x9709f1fa03950401U, 0x10030201fafbce89U,
  0x103e100fafbfeedU, 0x10fdedb10405013eU, 0xfe0df716f9fb14feU, 0xecf40306fcb23102U,
  0xfdd503ff0008c3f9U, 0xfc0df91413060a08U, 0x7f02da0bfc0706fdU, 0xf2fd01f20001ed02U,
  0xea03051a0410071cU, 0xf608082b0c020000U, 0xdf0e19040410fc0dU, 0xedfc0cff040b240eU,
  0x714de0005fe0e14U, 0xe704f83c022904edU, 0x4fcf95e0802f1e1U, 0xd406fff5fe2affU,
  0xf7c50bff04f9d3fcU, 0xfe0404fc070200U, 0xdfee7fffd030200U, 0xfc04ecf00cfb0dfeU,
  0x17fdfdca000bfb08U, 0xcfa07210207ff03U, 0x95f5fbfffffb0004U, 0xe7fe000601ffbceeU,
  0xfef6f500030023U, 0x170404f0ff09ffefU, 0xff0c038102fc0209U, 0x4faff00fb350503U,
  0xfdcf5020409e906U, 0x1f7d0d5ffe90810U, 0xce01edf306fc0cfcU, 0xf8082fddfef4bf0dU,
  0xca0beed40a002bf5U, 0xf90be551041406f8U, 0x960bf903ffedf201U, 0x29f3f902fafdb9c3U,
  0xf4d851f907f4fee5U, 0xedf902a6fdf7fb77U, 0x3fd1d81e7fcf7dfU, 0xf93907f6ef281b03U,
  0x29e008fb000ce0e6U, 0xfdf1e40cf0f4fe0eU, 0xb30b1e02fc05fa06U, 0xeef5d6f40b0bb8f7U,
  0x7ebeffe00e4ea42U, 0xe8eefd99f90001fdU, 0xf0e513fd02180309U, 0x3f505f50206c8faU,
  0xfe061808021007dfU, 0xd6f8f964fde00029U, 0xfcfbf67ff0f4fcfdU, 0x17e103f60b414003U,
  0xd08e501fdedc30dU, 0x7fbfd0801000308U, 0xcb08fffd00fdfffdU, 0xe601f9eef7030df4U,
  0xbf9fcfffef52414U, 0xa01ff8100fd0005U, 0x19f30502ffedfdfdU, 0xe0fdfefd0102303aU,
  0x30616050400fdeaU, 0xfd06084900f7011aU, 0x30f0719fcfafaf5U, 0xfaff00fe00f6f9ffU,
  0x14ea0001feff0d02U, 0x1f2fceff0fc00U, 0xe8f810f00704fefbU, 0xf602d3e7f503dcf2U,
  0x2e00f99602e2e32bU, 0xbea0d81f4fffcf8U, 0xc81107f602b0f703U, 0xdff60aeffa0688fcU,
  0x3ef0f0bf7fc0dcdU, 0xd9fffd1df9d7fecaU, 0xf71fea3d18f80312U, 0x10ecf8e3f9ca24f2U,
  0x44c7e5feff1c07f2U, 0x4001606fe030001U, 0x3e04060400fbfcf9U, 0x1fdfaff03fff0feU,
  0x3f8fbff010cd5eaU, 0x402fd4ffc010202U, 0x29ebe7fffeee0000U, 0xf404fd01fd00c6e5U,
  0xf3060100f5f211U, 0xf60402d5fe07fcf9U, 0xfd040281f6fe09faU, 0xf60301ff00e4ff01U,
  0xb40601fd0af2fbU, 0x103f00300040307U, 0x7ffbe6fdfbfdff02U, 0xf9010ff00afd1603U,
  0xdfd00e702f4f904U, 0xfb08031c08fe0201U, 0xac02060201d402feU, 0xd5fe05030101fafcU,
  0x309fa03fe02ff18U, 0xc0103ff030e020dU, 0x1fcfecf05030208U, 0xfc16fdfffff2ec01U,
  0x9140300fe051efbU, 0xfdf30c09fb0505U, 0x92f3f706fe0404ffU, 0xf3f908090b03d904U,
  0x18fefcf3fe012ee7U, 0xf9fcff7308f9fd05U, 0xf103fe040770f805U, 0xea03000302ff2e62U,
  0xf9f6f8ff0508f60bU, 0x1bf8067f041705d8U, 0x20410140f070609U, 0xf400fff403ecd8fdU,
  0xd50c0400061212f7U, 0xfd001cfcfbed00fdU, 0x4d0514fc04fcff04U, 0xcfecf01f6012705U,
  0xefbfdebfbeed1efU, 0xe3f8017ff8fdfefdU, 0xd5f80303ff1bfefdU, 0xda05f60300fe6249U,
  0x3fddfff01f71503U, 0xf0ff021001fa04deU, 0x2faffb011f8fcfcU, 0x13e103ff0903d3ffU,
  0x2e190601ff04c0f5U, 0xf9f6fedc05f4040fU, 0x8b02090df50603fbU, 0xdff3e20e04fea7fbU,
  0xfbfff718123a43f2U, 0x131007810a01060bU, 0x74daecfb040efd00U, 0xc7fe150cfa066a17U,
  0x62df8fdf0c123U, 0x20f7094ffc12f93fU, 0x22126cf50004e2U, 0x15d90406f64c1804U,
  0xaaf1f70000e44a0bU, 0x101cd0cf904ff01U, 0xb7fefdfb00fbfdfeU, 0x120ad70e0f00e703U,
  0xd5fb0993f5ff230cU, 0xfde4f68a04020000U, 0xfafefe0104100100U, 0xea01f4f7040346e4U,
  0x60b00f800041317U, 0xedfbf505030102a7U, 0x2dedd62f6051307U, 0xecb0faf70981f5fbU,
  0xeeeeefffef5c5f2U, 0xf605e204f7f80102U, 0xac03f20902fbfe07U, 0xeef8e409fe0934fbU,
  0xdaf9fe1c0209f425U, 0xfc0f0debfc02fb02U, 0x50f713fe0108fa02U, 0xef0805fe04f5db50U,
  0x30ef600fa0bf6d2U, 0xfaff0347faf3fd19U, 0x3160e7f0c00ff05U, 0xce8fffef7000cfdU,
  0xd1470600faffec09U, 0x108e90302fc01fbU, 0x54fce803fb0406feU, 0xafd22eff2061d10U,
  0x405084005052e16U, 0xdfafc11fc01feffU, 0x810a0aff023801fcU, 0xbf01030a0103d7ffU,
  0x40ee2f904fdf11aU, 0xf709f11905f500ffU, 0xff0af4dafffdf1f1U, 0xfb01fe08f4151303U,
  0x15e7fd01fdfe07feU, 0x20005f303eb0200U, 0xf5f800f8f8ff0501U, 0x13f2dbfced072303U,
  0x8fdff450bf721e5U, 0xa070b07fbfafffbU, 0xe0f1ef010559ff05U, 0xdcfeff0704038ce3U,
  0xf8eefc070000e2deU, 0xeafbfd7f00f8fd1fU, 0xf3f61cf7fbeddcU, 0xf6edfe0ff9d20e03U,
  0x18360afe0218ec08U, 0x3feeb0105fa03ffU, 0x96050d0601ff01fbU, 0xfffc16f8f7fd1704U,
  0x206fe2d00f902ecU, 0xb00ffb8000504fdU, 0x2ffe0405ff02faffU, 0xeefc0700fefc000dU,
  0xfe0401fd02f1d5U, 0xfd00fcf80404022cU, 0x30ffe7f08fefcecU, 0xfaf2ff03010f0102U,
  0xf71206fe00faeefaU, 0xcc700000682U, 0xfffffb2e00000404U, 0xfffff7c8fffff8b9U,
  0x2f200000483U, 0x4cfffffbf3U, 0x72f000000abU, 0x37efffffc88U,
  0x640fffff908U, 0x5bb00000626U, 0xfffffca2000004b0U, 0x89700000110U,
  0x26dfffff709U, 0xfffffdf300000470U, 0x53dfffffdccU, 0x97600000323U,
  0xffffffd1fffffe87U, 0xffffff20000004e0U, 0xfffffed2fffffa57U, 0x25bfffffdc1U,
  0xfffffdbcffffff48U, 0x2e900000010U, 0xfffffb67000008baU, 0x35e00000436U,
  0x300000000c9U, 0xfffffeedfffff96aU, 0x87200000607U, 0xdbb00000125U,
  0xfffffe8e00000266U, 0x403fffffd1fU, 0x6fcfffffed7U, 0xfffffe4e00000126U,
  0xb7000003aaU, 0xc4232711e705b3a8U, 0x1bdaf9dcbe2a2adfU, 0xf5f3b4ef00befc1dU,
  0xd721d97f583d05a3U, 0x4affa7d349e8e811U, 0xee24341830dd531aU, 0xeb7702bdcc310407U,
  0x1ee6f0f9d9392ddaU, 0x18cb2c353ffe3a05U, 0x1e0e3e0ce89e811bU, 0xe32ef932502c3c19U,
  0xc437f5b1f446e61cU, 0x5e3707013bf9dd23U, 0xe7f0f84c20e7d40cU, 0x571825d3f8c53338U,
  0xafb41b2fbaaf828U, 0x19db05290cf9ed9dU, 0xe52ecd27bfdf08cfU, 0x29ffe0f3dff766c3U,
  0xbf26ef8156d5f9c7U, 0xfbd20423231f15f0U, 0xc1a858cf1eb4b516U, 0xbeec1627ea26b6e8U,
  0x61fee831ae1fcbe9U, 0x88ee6e3e05f3645U, 0x750c8f2707db75ceU, 0x1cdc1cc70630b2c0U,
  0x8c81fcfb33c5597U, 0xb3355dfdc0f1cf3U, 0x151af1b3b01debcbU, 0xece981b8e3ffb0eeU,
  0x3d41191bc00d1c3cU, 0xf56417d005f1303cU, 0x680ada1e36b41b36U, 0x2ed316b62b258c15U,
  0xc80c22ffb323d4cbU, 0x25126c2a23c4317fU, 0x99fbd2b052e8fc17U, 0xd7d5f1f66352fcefU,
  0x5b543cee01395bd9U, 0x6af03fda022002ffU, 0x30277a0ec58dd8d5U, 0x6b0b4c4f0c584f01U,
  0x34096649edc3d3c2U, 0x47f6d2d733e63f7fU, 0x580635f7c1d1fcd0U, 0xb24901fb02d2cf34U,
  0xe4fe22537252ac6U, 0xffffe13c000014a4U, 0x14200004be9U, 0xffffa1f5ffffc5adU,
};


ai_handle g_network_weights_table[1 + 2] = {
  AI_HANDLE_PTR(AI_MAGIC_MARKER),
  AI_HANDLE_PTR(s_network_weights_array_u64),
  AI_HANDLE_PTR(AI_MAGIC_MARKER),
};

