/**
  ******************************************************************************
  * @file    network_data_params.c
  * @author  AST Embedded Analytics Research Platform
  * @date    2025-11-12T11:02:28+0200
  * @brief   AI Tool Automatic Code Generator for Embedded NN computing
  ******************************************************************************
  * Copyright (c) 2025 STMicroelectronics.
  * All rights reserved.
  *
  * This software is licensed under terms that can be found in the LICENSE file
  * in the root directory of this software component.
  * If no LICENSE file comes with this software, it is provided AS-IS.
  ******************************************************************************
  */

#include "network_data_params.h"


/**  Activations Section  ****************************************************/
ai_handle g_network_activations_table[1 + 2] = {
  AI_HANDLE_PTR(AI_MAGIC_MARKER),
  AI_HANDLE_PTR(NULL),
  AI_HANDLE_PTR(AI_MAGIC_MARKER),
};




/**  Weights Section  ********************************************************/
AI_ALIGNED(32)
const ai_u64 s_network_weights_array_u64[8279] = {
  0x3c926e063bacc9b0U, 0x3cb9a5fd3caf503fU, 0xbba9130d3cd79840U, 0xbc5841273c657f5aU,
  0x3c086ff33cb51f94U, 0xbc3589cebc99deeeU, 0xbc6f93793c11718dU, 0xba9a87d23c7917a2U,
  0x3c0741d5bb3dd0cbU, 0xbcce2b183b9856e8U, 0x3baafd4d3b17a78cU, 0x3c6750c7bb1cdef4U,
  0xbafca8773ba6a384U, 0xbaed2807bbbec471U, 0x3c609af93ca48b4bU, 0x3a732a84bd293b0fU,
  0x3c96aba43b331a08U, 0x3cbc5a1cbc20dcfbU, 0x3cbdfcc2bc21f6b0U, 0xbce6e526bb675857U,
  0xba9bb41ebcba65eeU, 0x3c5a806ebc02629eU, 0xbb0fe5e43cb50004U, 0x3c72e3aebc87db3bU,
  0x3c74ff513cbbd735U, 0x3c2348313c53ea0fU, 0xbc3c0657bc9b9647U, 0xbbd6eca2bc04e5a4U,
  0xbc887709bc1bb685U, 0xbc8671c03cf0a791U, 0xbbfb3b543d0f9752U, 0x3b3da520bc4cfa46U,
  0xbcaa379cbc34b039U, 0xbbc397c73c6479abU, 0xbcbdff5b3cd4fb55U, 0x3cdda6393cf12b1dU,
  0xbc233f99bd04aa9fU, 0xbd2209053b913acfU, 0x3b7f05573c871303U, 0xbbe9f3c3bbbd9f99U,
  0x3c76d9493c0fd5fdU, 0x3bb0ab1abacef8e8U, 0xbcaf9f83bbd82a2cU, 0xbb3e5618bc888e2fU,
  0x3b9bf4cb3aca4b8bU, 0x3c8ffac8bccf097eU, 0x3c60668ebc8037d7U, 0x39299d9b3c0fd93dU,
  0x3ceae331bcd795d9U, 0xbc2a365dbc333951U, 0x3c37809ebb0edf75U, 0x3d067324bb822a4aU,
  0x3d04b630bc8587c4U, 0x3ce15674bbe93a0eU, 0x3ca18c4cbb9c863bU, 0x3b257caf3ba5bd62U,
  0xbae0a890bbb63c33U, 0xbcb93e013d2df831U, 0x3cb820b2bd06d929U, 0x3cf590423b1ae6c1U,
  0x3b885899bd06cb96U, 0x3c35ffe03ab9765bU, 0xbc70bf80bca934a8U, 0xbc5064c83c232cdbU,
  0x3ca5eac53c2fce9bU, 0x3c8cef343b8f9e38U, 0x3cd08cdb3ccde14cU, 0x3cc65ed23d022bb6U,
  0x3c7593f9bd0c2c26U, 0xbcdf12ad3cb9f372U, 0xbce14080bc91ec14U, 0x3bedd7fcbccd9276U,
  0x3d0300b83cbb2bbaU, 0xbcb06c413c8333c6U, 0x3c985810bc8e2117U, 0x3aa0b5573c30811aU,
  0x3bbd9b9d3c80cb00U, 0xbc981d6f3b145b68U, 0xbd29a5743c290a20U, 0xbc9ea6d13c78d3e0U,
  0xbe1dece9bea4d574U, 0x3ddf84e43dcbe02fU, 0xbdf9811ebdc77cccU, 0xbcfa67983ddf7536U,
  0xbe009728bc3b7a80U, 0x3d4c66363e0589a3U, 0x3d676eeebc0c9c78U, 0x3de17835bdd106f4U,
  0x3e37da74bdf0516aU, 0x3d9df5b93cae0e48U, 0xbe7f0b1bbdce989eU, 0x3bd5de9cbe7796faU,
  0xbd3f53a23e1170fbU, 0xbaa0812fbedcb7caU, 0xbe0c2b7e3df57fb0U, 0x3e52832abe80b2f7U,
  0x3ffa8ca8be9ae0f0U, 0xbfe31b923f8f1a35U, 0xbfbab2533ebe7be6U, 0xbffb0463bef839fdU,
  0x3de31bdbc0162324U, 0xbfd2c7c5be7f37dbU, 0xc008ac153f1c34a9U, 0xbf3b54f73e577ae2U,
  0xbe3e4cf7bff60670U, 0xbf2d634bc02329d4U, 0xbf002c7c3e0cfb67U, 0xc033fbc1be1b3d1eU,
  0x3eaaee8ebf01f4d7U, 0x405e50413ec57b22U, 0x3fd1359f3ea099b4U, 0xbe6782f7bec2be0cU,
  0xbfae726bbd3991d1U, 0xc00015043f99f3daU, 0x3f41620fbf8f4486U, 0xc065c840bed755faU,
  0xbea393b6c024f435U, 0xc024ed2dbf58209aU, 0xbf2f7daa40027de2U, 0xbf86a0323eb40cffU,
  0xbf3c44183f3d992dU, 0x3fb7e43a3ff837fbU, 0x3f049c623da2f1d4U, 0xbfedfae0bed44eb6U,
  0x3d9a9860bf902149U, 0x406ec45c3e40bafbU, 0x3e6516d63f938545U, 0xbf0706acbeda418aU,
  0xbf0363ba3e37a69eU, 0xc00243e3bd862d9cU, 0xbf7e41f6bfd2ba5cU, 0x3f2b52e83b539738U,
  0x3e92925a400ad7deU, 0x3f04e8d5bf1cc222U, 0xbe24f0ddbf16e484U, 0x3fa8804bbf239b27U,
  0xbe5bed5cbf0c5305U, 0xc014bf1abfc57be0U, 0xbec81b483fb05b13U, 0xbebe8934bf0ab28cU,
  0x3f286828be99514fU, 0x4030f0f6bebb62ccU, 0x3f4f167a3fb52d18U, 0x3e1e515c3e766843U,
  0x3fa532a0bdab230eU, 0xbeceb1ebbf78e9daU, 0xbf3333983f883506U, 0xc08207f83e1386beU,
  0x3f68b811c01baecaU, 0xbe0643d93e613aaaU, 0x3e845f433f9ca187U, 0x3ef992edbf5f9f70U,
  0xbeaae140bf969fa2U, 0xbf7c0d39403992c3U, 0xbf1ab12e3f2457daU, 0xbd9143593e4dd160U,
  0x3ec07e093efce0eeU, 0x40201f703ecde30bU, 0x3fbbc9073f060681U, 0xbded76ecbffa2dc5U,
  0x3f0205343ddb935cU, 0xbf3aa127bf6d6a1fU, 0xbfac4c8ebd978d81U, 0xc05e14a23f92fbe5U,
  0xbd0be77dbfb313b4U, 0x3f7f6670bf2f1057U, 0x401e79103e5660c6U, 0x3fc92e8a3eb3147bU,
  0xbd3cf19dbffd2521U, 0x3fd86e32c0892d5cU, 0xbe0960e73fbc1356U, 0xbf0126063f3249ccU,
  0x3fe55d563f0b9388U, 0x3f5b063b3eca4e69U, 0xbe4db7a5bf89252dU, 0x3ea2bd31bfcc1017U,
  0x3e87c370be9184e7U, 0x3f2011e9bf8f9137U, 0x3f8219163edc7415U, 0x3fdeae7ebf09bae6U,
  0x3eb47a19bfeb7dd5U, 0xc017f376bf749a4cU, 0xc0c97cce3ea93171U, 0x3dfdbe2f3f42b7c0U,
  0x3f0033283e1a02abU, 0xbfe9488ebfbb100eU, 0x3f059f4ebf28530dU, 0xbfaebe1b3f1f8ec0U,
  0x3f2bfcaabbc56d00U, 0xc016a5fa3e0cd165U, 0xbec69464bf3545efU, 0xbf02fbd23f12d743U,
  0xbfcc1f4fbe9a45ebU, 0x3f357646be96a4f9U, 0xbfaa8dbd3f0a39a8U, 0x4024637e3e5df1daU,
  0xbf35f404bf99ba3bU, 0xbfae882dbeab2cd9U, 0xc03f5321400aae3eU, 0xbede21a9bf93c883U,
  0x3e8b5a30bfb237c7U, 0xbe14dd04bfd20cd5U, 0x3d42a8ba3fc56e37U, 0x4009ea293dcc8ddeU,
  0x3fd6be30bf8c0ee6U, 0xc05c0842be9fc451U, 0x3f324a32bf8d9dc9U, 0x3e495e603f92c703U,
  0x3f8f2f363e8cba8bU, 0xbff18f763f73a413U, 0x3fb48bf83fab2d46U, 0xbe4abd4fbf4c62d5U,
  0x3f22685b3ea6ea3aU, 0x3fd3bd36bd88fb0fU, 0xbe8d39e03e7ea871U, 0x3f25ec97bd6cf4b7U,
  0x3f764a433f366363U, 0x3f212c474046e684U, 0xbe28bdb6bff4f6a3U, 0xbf70d9d8bf742c25U,
  0xbf3bbb0dbeeda716U, 0xc0577bc9bdd76991U, 0x3d7e10cb3f8199bcU, 0xbf1e17753f353a85U,
  0x4001bc493ec08234U, 0xbfdc7c7bbfd3e603U, 0x3e9bafbe3d218f56U, 0xc014adf53e02d262U,
  0x3f7611e03f052ee3U, 0x3fa087913ed4907eU, 0xc02bf0fc3f99682dU, 0xbfa94dc73ff2878bU,
  0xbe921161bfa13cceU, 0xbf415d3cbf147753U, 0x3dd7c02b3fa9ce5bU, 0x403069c3bece6645U,
  0xbf8ea8033edb81ecU, 0xbfb70876be588fc0U, 0x3d3aa3323d11c2adU, 0x3f282e673eb33da9U,
  0xbf490fe2be871e8fU, 0xbf9aabd33eb68dd0U, 0x3f17973ebf656e2cU, 0x3ef61911bfa9c882U,
  0xbe1c70ac3f8d44afU, 0xbf0c4f1a3f6c756cU, 0xc015b5ef3f507adaU, 0xbfc51869bfabef88U,
  0x3e89a462bff0b06aU, 0xc01bf19840a34fddU, 0xbed69818c00a50d8U, 0x4020e50c3fccb0e9U,
  0x3fb7bd7ebf66205eU, 0xc059dc7ebd10a87fU, 0x3eaa75e03f097f9cU, 0xbe999abf3ffd5928U,
  0xbfbfbc4a3e867771U, 0xbfae7110bf958fe7U, 0xbf6fe4163f997e48U, 0xbfec77ba3f8a271aU,
  0xbf7548d5bdc55d32U, 0xbfb3f2e2bfc1a5a3U, 0x3fb0f502c0cb9beeU, 0x3eef5208bf2b43ddU,
  0xbf38f9f83d5d7df1U, 0xbfc727b03f91b62eU, 0xbe147c9b3f3494dbU, 0xbe9ebdefbc93ed36U,
  0x3f32ae913f2abbe9U, 0xc05a1d03bedf238cU, 0xbfe83e5f3e1bf62eU, 0x3f40aef8bfdd4e67U,
  0x3fa9389e3e866b18U, 0x3eaa7668beaf90cfU, 0xbed1c6943fa6abddU, 0x401200463f0d1396U,
  0x3cc42a8ebd58bcb6U, 0x3fba0874be211183U, 0xbe6834d4401924beU, 0xbfc090cfc003a398U,
  0x3dc1d02b3ee0673bU, 0x3f831df940559083U, 0xbeadbf98beb46137U, 0x3f375ebf3f51512eU,
  0x3f8d58603f697626U, 0x3d923223be074cabU, 0xbf0230693f3a9476U, 0x3edf5bb53fb30569U,
  0x3d94d67fbee16819U, 0x3f551fd43f957cd3U, 0xbf9985573d3c9d44U, 0x3fc5272cbea5d6d3U,
  0xbf9a7d2cbdd539baU, 0x3f8610413c24d216U, 0xc00c9c5e402ef03bU, 0x3d9473553f432058U,
  0x3df6ed903f994bd0U, 0xbee44cea3fe838ecU, 0x3e59be9e3fc2ee13U, 0xbf9d1e3bbf821fb6U,
  0xbec53064bf90de9aU, 0xbd817cd0be2a0ebbU, 0x3f82d18dbedf9624U, 0x3dbb41b83fea6aa7U,
  0x400a7eab3ed442dbU, 0x3fc90948bed2015aU, 0xbf12b81bbe75d91dU, 0xbfad51cebedce239U,
  0xbe8b5176c04d464fU, 0xbfd05540bfde72b4U, 0xc02f6accbf18a0daU, 0xbd926b5bbf6a8982U,
  0xbf46dc5f3f01f6d9U, 0xbf01bda3c05ea1e8U, 0x3e35ae5c3f0c8f1eU, 0x3f9b9e92bf06bb23U,
  0xbfc3f1e33f0b4f41U, 0x3e9a6d42bdfe2deeU, 0xbf98b9babfa53d5aU, 0x3ed2bee4bdc1cbe3U,
  0xc0081c703e9aae1dU, 0xbf8797033e3f15d8U, 0x3e09011f3f894da0U, 0x409554783c974f97U,
  0xbf3a13da3f3771ceU, 0xbe08f20c3f9e8cd2U, 0x3fff5bddbfc47326U, 0xbe12cff13fab2c66U,
  0x3e09f92bbfbd3e9fU, 0x3f999818c0a4ed63U, 0x3f0357753f8c5e91U, 0xbff39ea2bf78ffd0U,
  0x3f4812dd3f9bac48U, 0x3fbedf663dd16eb7U, 0x3f1331f0bf81ecefU, 0x3eec5c8d3f4658f4U,
  0xbfaef3d83ec449e3U, 0xbfb6d7343fe0e014U, 0x3f281c8abee69581U, 0xc04aea96bdc90507U,
  0xbf2587a3bdba42d2U, 0xbf743e203fb10f31U, 0xbfa6d05ec091a030U, 0x3f42ff4bbf913e38U,
  0xbf501637bfdde4b4U, 0x3f2f350a3f9094deU, 0xbf1e6276bec78b8cU, 0xc03800f9bf9a6342U,
  0x3ebcea303ec8f8d4U, 0x3eb5e2c9bebcd46cU, 0xbeeecc23be4c781dU, 0xbdb9eebb3fb35302U,
  0xbfc27b543d5703a3U, 0x3f46d7d1bd6c0ca1U, 0x3e7c27333fd7b081U, 0xbf094bafbe07f0a9U,
  0xbeedc4f53f344215U, 0x3fba1146bcc74dbfU, 0x3f3f3a32c02f7c99U, 0xbaf73b3cbf24af6dU,
  0x3f1ac974bfdf38beU, 0x3fc4b10d40653b1bU, 0x3ef2250e3ff9d1ceU, 0xbf9373f13f7c28a2U,
  0x4003270cbf8afceeU, 0xc0090fc1bb85b18aU, 0xbeaca963bedcfd93U, 0xbf155ec1bfba66cdU,
  0xbfcbbb5e3ec19856U, 0xbfa43dd9bfa710f8U, 0x3f3b58f9bfaa6954U, 0x3f20e96dbfb8d0dfU,
  0xbf995b8ebfaf4f6aU, 0xbe9394aebf61ae10U, 0xbea1b4d03f171447U, 0x3f9feffec005f990U,
  0xbe7389ee3f82b37cU, 0xbffe50343fd7b53bU, 0x3ec9a81cbee28f3bU, 0x3f14694fbe5c2578U,
  0x3e0af345bed9a28cU, 0x403b5f113e09c3dcU, 0xbe5f4dbd3eb9a714U, 0x3b49b8113eaba180U,
  0xbfa6c8973e6f59f5U, 0xbf7088c5bf542d98U, 0xbfb47ba23e87c8e7U, 0x3fc809d5bf228e98U,
  0xbdbdd01cbf4ea482U, 0x3f5f599bbf2b2e59U, 0xbee02851bfd73e0bU, 0x3f7d34183f89c049U,
  0xbea428273fb2c548U, 0x3fcc4439c03ec76aU, 0xbe9665c4bf43fd41U, 0xc0212b46bf8a10efU,
  0x40152c413f78d81eU, 0x3f88ed61bee0bab2U, 0x3fca7b6c3f157734U, 0xbf2a02d5bfd368f9U,
  0xbfaf46373cbfd14fU, 0x3fe010debf2e8afdU, 0x3f3e90e0bd671ff2U, 0xc0647f5ebe0e7169U,
  0xbf0c74adc05b7fbdU, 0x3f640971bf95bbe3U, 0x407ff6e8be1508f1U, 0x3f82fb253fa253e7U,
  0x3f010a8ebfe3176fU, 0x3f6336debeb056f6U, 0xbd03a9d0bfc895edU, 0xbf93d6c93f1befb1U,
  0xbe42ee3dbe76d518U, 0x40495a253df6903cU, 0x3e086c8e3f0b0791U, 0xbe69d956bff48eaeU,
  0xbf1da6be3eefa624U, 0xbe06c391bf5dd4fdU, 0xbf40a8d23fb908acU, 0xbfc771b8bf09dfa3U,
  0x3f53b8e54014a790U, 0x3e97b2813fa9b157U, 0x3fc9d7d1c00f00f4U, 0x3fb7fac5bdd5d739U,
  0xbf39efbe3ff055f9U, 0xbf7609d33fcd44faU, 0xbec9895d3f42ba25U, 0x3fc48b213f23b7a2U,
  0xbf8f42f7bd64b69aU, 0xbef1d5d1bec95411U, 0x3df76f4fbedac02eU, 0xbce6ab663fa9dea8U,
  0x3fd05a91be8131f5U, 0xbf831b0c3fb4fdf5U, 0x3f9199a2bdcff1cdU, 0xbfd5bbb9bf39e32bU,
  0x3f587b91bed2590aU, 0x3fd139df3fd8dd6bU, 0x3f4a4f9e3f8884f0U, 0xbe8ed95a3f1e15f7U,
  0xbf15e59bbeb195bdU, 0x3fad80c1c0566cfcU, 0x3ece4e253f6f1383U, 0xc005330f3e7eed07U,
  0xbfaa6449be0c4e82U, 0x3f49691d3eae9f05U, 0xbfb3ee4ebf2c5759U, 0x3e98c835bf209e84U,
  0x4002d4fc3e94fb71U, 0x3fd825c0bfb65ec9U, 0xbf86c2f7bee37a73U, 0xbfc185bd3cb4820fU,
  0x3eb588313f087b1aU, 0xbf8562463eae6f0eU, 0xc002f6753d461e3eU, 0xbf99718bbf803328U,
  0xbf443555bf10da15U, 0xbfd5b83c400122f7U, 0x3ebe48febf976662U, 0xbffe22653fad5827U,
  0xc029012dbc1e4bb0U, 0x3fb61cb0bdb5b235U, 0x3f7dd6ae3eb1f05eU, 0xbe9f3518bf348dd2U,
  0x401553d83d46d8c7U, 0xbf8d391bbdffb236U, 0x3f63bcb93fa91456U, 0x3fcbc55d3fbec211U,
  0x3efac60abfef316dU, 0xbf991cc6bf7bab2fU, 0x401dcc5cc00e3a1cU, 0xbf3f5680bfb72411U,
  0xbf1b13143e62bf8cU, 0x4017fb26c0884d88U, 0x3da222023e256064U, 0xbf8a4e633f83bc57U,
  0x3f27b805be632cecU, 0x40526dcfbed10d29U, 0x3f18d34d3ec4b68dU, 0x3f5e62f6400ae469U,
  0x3fd9d25c3e015c1bU, 0x3f5702b5bf6fcbb0U, 0x3fc9ffb23ef3cfa4U, 0xbee6a5b83f3918f4U,
  0xbf158057bfec1024U, 0x3e0f39a3bf8a8010U, 0x402a226cbfbf15ebU, 0xbf826a2abfb30778U,
  0xbf4b2401bfd53e95U, 0xbee4709bc04d9c9bU, 0xbf06c0663e76ed26U, 0xbe97415bbf7e3eceU,
  0x3ff9a9873face0fdU, 0x409079dc3e84ecd5U, 0x3f40d4a73f28525eU, 0xbf0fcd853f3fb166U,
  0x3eefe3a33eda67e9U, 0x3f955d8b3f80b45dU, 0x3f79d9df3fb4b043U, 0x3f424c0ebfb7ae7aU,
  0x3cd89401c068155dU, 0xbff415bebf0cbd53U, 0xc0169f943e892287U, 0xbe579210bea22d78U,
  0xbf8eb4e93f925cfcU, 0xbf1549d53f2ed344U, 0x3ebda9f5be372c61U, 0xbf037ff2bf8bf268U,
  0xbfcf8661be0f59baU, 0xbff3dac93eca61a1U, 0x3f3fdd1b3f26591fU, 0x3e94bbe8bc31fda5U,
  0xbdea75c8bd4ab944U, 0x3fc35ba73f08b24cU, 0x3fb782763f8f249dU, 0x3ff3541e3f23965fU,
  0x3e829ebdbfbccd59U, 0x3f7f48243f7d9b2fU, 0xbe91b1ce3e29ffd6U, 0xbf98bde13f05d479U,
  0xbe8904fa3ee17f8eU, 0x3f14d5e4bfdc41ebU, 0xbd4185383fe23257U, 0x3fc64e233ed77632U,
  0xc05be298bf76291fU, 0x3fe2d3533e31a827U, 0xc0141cebbed2e385U, 0xbf1e44813e931d42U,
  0x3fdb7279be859d0eU, 0xbe4cf7dbbec7dccbU, 0xbfbd60b9be9c58b3U, 0x4018bc193eb5fbccU,
  0x3ef76f674018b7b6U, 0xc00539b03fbf2434U, 0x3f8be63cbf9200a2U, 0x3d94d3dcbe60da18U,
  0xbf60fc5ebf8211a8U, 0x3fbe2aa7c03a355aU, 0xbe7a19843e1b58ddU, 0xbf0a99adbf0ea980U,
  0xc03ab581bf0af79aU, 0x3f96ef9f3e8256caU, 0x3e7332343f2d2ab4U, 0x3e712d2c401616eeU,
  0x3fc9a34a3ebb0c74U, 0x3ff8a408be9336efU, 0xbd4cd1783fdd8f2cU, 0xbf3707e23f9a1fbcU,
  0x3d578dd33f7b2bf6U, 0xbf834dfa3f3780d1U, 0x3f6af0fabf94711aU, 0x3e6438e8c00725f5U,
  0xbf636e55bfae749cU, 0xbf218f3bbf81b515U, 0xbd9be5f73fb7ef16U, 0x3f426e683f372224U,
  0x3f9ea06d3f9fe5d1U, 0xbf557798be8a2a47U, 0x3e99628e3e92e678U, 0xbefb1edfbfc74a80U,
  0x4011e398be2fad80U, 0x3fc03fdabf17fb82U, 0xbf72df61beef7d81U, 0xbf85186d3f9c17caU,
  0x3f03bfe0bf00698bU, 0x3e27837c3dc93d1fU, 0xbf40d0f9c02d11f7U, 0x3fb64265c027e78aU,
  0x3f435fc23fe7ad55U, 0x3f98724d40162624U, 0x3d1cd710bf4ef771U, 0x3f0cf2af3fbd2586U,
  0x3fbc20ed3cc61546U, 0xc0251cbbbcb6d284U, 0x3fe7c226bf80f81cU, 0xbf1456a53fa89752U,
  0xc005c4273d86be3eU, 0xbfcb6b363f9d9375U, 0x3fe2d82ebed78ef2U, 0xbfc0aac93fcf58cbU,
  0x3e8c86c0bf7c8974U, 0x3fdd8e223fad7022U, 0xbf03133d3f50801fU, 0x3fa04ab93fa94720U,
  0xbed33861bf9f71e2U, 0xbfcd42e23f66f9f9U, 0xbf06500d3ee4b5b6U, 0xbfd6c41abe835ec3U,
  0x401588a73da808fcU, 0xc0911969be909124U, 0x3faa59173f1b8098U, 0xbee6eb81bd9e3c2bU,
  0xbfbcfb2a3d0cd4f8U, 0xbf05d610be11c5b5U, 0xbfb7aabbbfc89a59U, 0x3f0de1d6bd83fb86U,
  0x3ea3b1893f7d974aU, 0xbe52d5113f07e83cU, 0xbcbbc09bbf3155d7U, 0xbf94f724bfd08733U,
  0xbe330c913f823adbU, 0x3fd2c1d73fbbf93aU, 0xbeb0214ebfda9d3bU, 0xbff43ac03e477e12U,
  0x3ff4f3303f14616eU, 0xc10ac250bea8e5f7U, 0x3f97137f3e58cf97U, 0xbe9ff1433dd4e634U,
  0x3f9448663e8ea797U, 0xbfb163debf488648U, 0x3d8f6e9ebfe5d9b9U, 0xc012d4173f69cd73U,
  0x3f3e73f4bfe01232U, 0x40008972bdac2093U, 0xbfef3c4dbfde82e7U, 0x3ef22d1ebe949fcaU,
  0x3f2932aa3fbc319bU, 0xbfda2bfac05ca073U, 0xbf229e24bf35f44cU, 0xbff3662e3dac283bU,
  0x3fef1e073e08356bU, 0xc08b90af3dce3a4dU, 0xbe962312be3243e1U, 0xbea924b43ea7314eU,
  0x3eded034be9c2305U, 0xbfb8aaf03e158f2cU, 0x3f685daf3fa807b9U, 0xc05f1e523f8a1c47U,
  0x3f0a446240008fdfU, 0xbf27c1b33ec51484U, 0xc0160bd23fa88512U, 0xbf1507de3e87d269U,
  0xbd94db8c3fdc3a5cU, 0x3e32ef63c024257aU, 0x3e644f23bfbe7660U, 0xbffbe275bf9770edU,
  0x3fb8e5cc3f84855fU, 0xc08f2d62bec634d4U, 0xbe4a9cb3bf8e55c3U, 0xbec84ae2bf4d435bU,
  0xbf113182be234ee2U, 0xbf0f57cd3f3ce17fU, 0x3e88813b3f0f1de9U, 0xc085e1da3f71c365U,
  0x3f65cdd0c011954cU, 0xc00cd146bfb7b7ccU, 0xc0197de9bf518341U, 0xbfb2577abe455eb6U,
  0x3f5e571dbf563987U, 0xbfa841ed3fb17e6eU, 0x3ecc826dbc2bfd88U, 0x3e67174c3f848f64U,
  0xbfb16a953e78a40cU, 0xc1231f333db23e09U, 0x3f44fec03e67817eU, 0x3e77520abf2318e0U,
  0xbd9c1dfa3ecc246aU, 0xbfaa4059bf9fe23fU, 0x3f31939f3f20f379U, 0x40197f0f3f8cccabU,
  0xbf1b4d3ec0031de4U, 0x3eb93422bf761d6aU, 0xbfb56abec025c2edU, 0x3f9631adbd891a3dU,
  0xbd15448f3f9c2f2fU, 0x3f3426793fb98048U, 0xbe595271be967586U, 0x3f5289afbe9714a6U,
  0xbf845c413f9a18beU, 0x404647a43ccb0d1eU, 0x3fe01ef83d94a2e7U, 0xbea3206b3f920a21U,
  0x3ee68fadbd94a8c6U, 0xbfad7e233e7287ccU, 0x3fd31a20bf7a0ebdU, 0x400ae072bf68b445U,
  0xbf9f2b7bc0452d1fU, 0x3fe8a185bf5cce07U, 0xbf78055ebd839cc2U, 0x3f9a2f433e5636a6U,
  0xbdb0cf05401eb48bU, 0x3ef5f08f40258e05U, 0xbd7d0c2dbfad2683U, 0x3e4540d93d9fade4U,
  0xbfdac6b83f898ff6U, 0x3fd00f3dbee01047U, 0xbe36fadabdcd835cU, 0xbf5672913f91788dU,
  0x3cef93783d807d6cU, 0xc001c00bbfcc50eaU, 0xbee05bebbd749293U, 0xbebe6991bf32ca3bU,
  0x3ebebc61be279d7cU, 0xc0153e263e24f002U, 0x3fc34e69c009fde0U, 0x3faea1983f9ec510U,
  0x3f2479edbfcee2eeU, 0x3f9cfb70403b7857U, 0x3e01a98c3fc3355aU, 0xbf8d417ebf94b4d6U,
  0xc01987553dd36e45U, 0x40053638beb39b29U, 0x3f6ad72ebf3f87d2U, 0x3f0bb5e13fd5e2dfU,
  0x3f9029a23dda95adU, 0x3e880b8fbf2ef6f0U, 0x3f43e229bfcc37e8U, 0xbf7ddd0b3f8b50d7U,
  0xbeeaa8493f3299edU, 0xbf50852abe81d82eU, 0xc0010477b89327deU, 0x3f20dccec015ed3bU,
  0x3f45ab68be108d4dU, 0xbd7115e440378a93U, 0xbf0c9f2fbfac80a3U, 0xbebec2ae3f0894a7U,
  0xc01774e73f5eaf57U, 0xbff6e81e3ef419f3U, 0x3f25017c3f6ccf59U, 0xbf35ef2ebe354218U,
  0xbe6341583ed6ea15U, 0x3f4b8bb9bfcde427U, 0x3ef4ab273e9cc7d2U, 0xbfb223103e1f9433U,
  0xbf1aa366bfae5498U, 0xc00c1464bfebb27dU, 0xbfbb40dcc03c0a8cU, 0x3f17f6d5bf9c498aU,
  0xbf8274fbbf345519U, 0xbf633c52c0126e48U, 0xbdd16eb3bf59cf57U, 0xc05294ebbebb7d3aU,
  0xbfd527603f9e7e3fU, 0xc04511893ef8b260U, 0x3f91c6a43efb8aafU, 0xbf0b607e3f46acf8U,
  0x3f98f9343c5c5ca3U, 0xbf83f5203fa56553U, 0xbecc89d83fad5a46U, 0xbfba92933e943554U,
  0x3f5661673f5fbf6dU, 0xbf39c186bf46a4cbU, 0xbeb954a43f94b07bU, 0x3e6abb5fbf11c25eU,
  0xbe87ae30bfaca5a2U, 0x3f654b15bf9d65d0U, 0x3e82fedf3fc81ebfU, 0x40321ab3bf68b03cU,
  0xbfbf185f3e88462aU, 0xbfb1c8213ec38c4cU, 0x3d82ec9bbdaeec03U, 0x3f261ed23f6e51e9U,
  0xbf6b9f36be92dd12U, 0xbfdc8bafbf8a3cf2U, 0x3fe134dc3fb6a025U, 0xbfcf58303f627a7dU,
  0x3e98e67abf9eb363U, 0xbfd480483f1360e6U, 0x3ff3d64e3fb8e54fU, 0x3f7b550b3fca3218U,
  0x3bd2984b3fbe79afU, 0x3fe76b56bc558034U, 0x3f33ce96bf356eb2U, 0xbda228603f679cabU,
  0xbfe7679d3f109d70U, 0x408699283f06d0c7U, 0xbe4885e1bf4b3ca9U, 0xbf4bb685bfa760e7U,
  0xbd8f4cbcbd2c3266U, 0x3fe62b95bf097d12U, 0xbead2f0b3fc6b97aU, 0x403b4654bd138b10U,
  0x3f32c47e3e3a4464U, 0xbfe027f93f832f6aU, 0x3f5410294001beabU, 0x3e7e02073fab83c6U,
  0xbf41325ebcfc4120U, 0x3e0e35f0403227f0U, 0xbde63bbb3e8f0303U, 0x3fd4a76e3e91a1bbU,
  0xbfb810c23f4851c7U, 0x3fb531cebe651349U, 0x3f1421413ecdce92U, 0xbf3d9dafbfaab350U,
  0xbfb98b563e8482bbU, 0x3f5336cc3fdcbcb5U, 0x3f7e67c53f9a66dfU, 0x3f8ad812be7734ffU,
  0x3f92c22cbf2e2341U, 0x3fd2c2803fa410beU, 0x40078e763ff22929U, 0xbd1d4ad93fc7040eU,
  0x3ea59186bcec7d24U, 0xbf36d7e4bffb46fdU, 0xbe48e1793dbf04a0U, 0x3effd0f7bebff3c0U,
  0x4017e7a8beedd2fdU, 0x40496ebc3edc4572U, 0x3f7e86fcbf6cef82U, 0x3f535dfebfa7b62eU,
  0x3f1c228c3eeb23faU, 0x3fb0c174be6ae2b0U, 0xbf0f3e9e3f9b8f66U, 0x3e8e31003e2204a4U,
  0x3f77577abec37aefU, 0xbecec59a3f39516aU, 0x40166390bf1288b6U, 0x3f4b448d3f82f8a6U,
  0xbe5d35b73fa4e81fU, 0xbfb69b51c0249e53U, 0xbe9d4da5bd0b7047U, 0xbf48fb013fa6df95U,
  0x3df0ecfd3f44f273U, 0xbf3b696d3e3d7677U, 0x3e2e8cf73e2c8314U, 0x3ecfa4c9bff353c6U,
  0xbfe6baf63d8a411bU, 0xbf5d8541bf0d98e4U, 0x3feb542fbe9005b4U, 0xbffa6fd33e79163cU,
  0x3ede3888bf1dc1e9U, 0x3f2a3f933f90f2a0U, 0xbf85ae39c08c8b5bU, 0x3ecc0810bf10ba02U,
  0x3e85e05fbf7d18a2U, 0xbeb24a80407baa24U, 0x3e1ef76bbf9afba9U, 0xbf5f4f3d3fa8999bU,
  0xbff0c4b43f577eeaU, 0xbf98e62c3e9f4cbeU, 0xbfb9d4003edfade8U, 0x3ee54552bf846697U,
  0xc00541b33ead090cU, 0x3f516b90bf1c6c45U, 0xbfb4e562bfa5ccb3U, 0xbff9dc9d3db1e98bU,
  0x3ee384febfc0e631U, 0x3da56488bfab6dcbU, 0x3ff6f617bfc9533bU, 0x3f379078bfb7012dU,
  0xbf3841c83ef78736U, 0x3fadc0f5403da4d1U, 0x3f351d13bf8bafd9U, 0x3f188261bede5b0fU,
  0xbf9bc1323e9b62a2U, 0xbf176bb33ed38935U, 0xbdbad4f03e40a46dU, 0x3f344187bf1f184aU,
  0x3f05024abe9c95aeU, 0x3e3a9958bfd0fc0bU, 0xbfccb2b03f1db0a4U, 0xbf46a804bf2281a6U,
  0x3eac338fc078a6c1U, 0x3f90fd7bbf99986bU, 0xbfb3c6223f25cbc4U, 0x3edf447cbf4e5507U,
  0x3f3b8ae0bba46511U, 0x3f31beee4002d4a3U, 0xbeda1ed7bfbddc03U, 0xbf9410a1bfb8f07aU,
  0x3f53182abf799004U, 0x404a3ba2be91a361U, 0x3f66665d3f180acbU, 0xbecb876ebecffc6dU,
  0x3fc250f83eaa5f2bU, 0xbf7ef6e3bf90bf08U, 0xbe827eccbfa6e94fU, 0x3eb6aed0bf98c464U,
  0x3f898e63c0859a58U, 0x3fe5d0503d059d35U, 0xbf82583cc00449b3U, 0xbfa7aa453f0e076aU,
  0x3f4001c03f99c8dcU, 0x400f162240546ceaU, 0x3eb6099abe8ba6b8U, 0x3fac9569bf261be4U,
  0xbf9871183f9b6733U, 0x40011b88bec75639U, 0x3f9178513f221dabU, 0xbf3b54e23fb89da8U,
  0x3eb8f902bdea7f32U, 0x3e12c2e1bed3c0a2U, 0x3f8d0bfa3d9f07e1U, 0xc0205ca13f0fd230U,
  0x3e1526c3c0cd640fU, 0x3ead2a19be9097f6U, 0xbecbb0d23d5b883cU, 0xbf34ba18c0394140U,
  0xbeb0522b3eb6e6a4U, 0x3f46bd8d3fb75ee4U, 0xbe8862a4bf1f5597U, 0xbf0c3ea43efe3ed6U,
  0xc02efe713ec0a439U, 0x3f92169a3e5e5ea9U, 0xbfc2c1fa3d246910U, 0x3ee0939bbfab523fU,
  0xbca1bbba3d6b909dU, 0xbfa5d08cbfa9d59aU, 0xbee2b9f7be4e23dbU, 0xbfbca47c3f92fcc5U,
  0x3d16153bbf1d4862U, 0x4002cede3e9ecd19U, 0x3e2671a2be3cfa67U, 0x3fbaa84f3f591a23U,
  0xbe159b9fbfb6b4c0U, 0x3ff3fdb9400380ddU, 0xbe472efc3f5c9e2dU, 0x3fde43b3becba5a1U,
  0x4029562d3f26f105U, 0x409bb9df3e6f24c0U, 0xbe1345653ec245a0U, 0x3eadf433bfd600e8U,
  0x3fe24364be2f1f70U, 0xbc3af46abfbd3490U, 0x3f51a21f3eb2dc15U, 0xc02f7abfbf91e164U,
  0xbef68f2bbf9a1acbU, 0xbf7d6c4cbf8eb961U, 0xbf75df1cbe6bf98bU, 0xbf34cefcbe8f5a6eU,
  0xbf64b7613f36cdf3U, 0xbf507a62bfddf79dU, 0x3f14ccbdbf60d170U, 0xbfb03d95bf0628ebU,
  0xbf631178beb759b7U, 0x4020bd1dbec170ebU, 0xbf2ee4d63f76cc16U, 0x3f419094befb6a7dU,
  0xbf8995533d26fb65U, 0x3e76a581bf5526d2U, 0xbff604f6bf38086cU, 0xbfc3c4bcbf7470fbU,
  0xbedccdb83fba2c70U, 0xbffed2f43f30e8b9U, 0xbf91ddf23f9fcf8eU, 0xbfa3bde5bf788761U,
  0xbea83b72be04177eU, 0xbf3655fcc018411dU, 0xbf11a2e6bf8ff182U, 0x3feaa67abf6842f4U,
  0x3feccdfe3ee9bfaaU, 0x4038bb343dc9ee7aU, 0xbfa826243f296c79U, 0xbf36f830bfad7e6bU,
  0xbef67201bcae6edbU, 0x3f9714303d91e50aU, 0xbe838dde3f51b4f6U, 0xc08b3c5a3da373acU,
  0xbf11ba29bed7dac5U, 0x3e0acd7cbfc3926cU, 0xbfaf1538bfab348cU, 0xbf838c0c3fb7f219U,
  0xbf1ffd543f8020a8U, 0xc0045d02bfa8a84aU, 0xbee8cbc03cdc94b5U, 0x3f66f49dbe958962U,
  0x4000f715be48a0f3U, 0x3fbe28683e0a9202U, 0x3f42575a3f7bf776U, 0xbed30168c02a461eU,
  0xbf9d404bbed9cb2cU, 0x3f1bf740bf81859fU, 0xbfb8bdfbbef70afbU, 0xc0728df43eddf883U,
  0xbee52a93bfb8acddU, 0xbfa6dc59bf98e889U, 0xbf3c6528bf54c5a0U, 0x3f4212bfbf95f4d6U,
  0x3f80e9633e56c3a0U, 0x3f25e5613f8112f2U, 0x3f14babcc00d65bbU, 0xc0247e6e3f8452caU,
  0x4017b9ae3dc5d41aU, 0x3f3ff0c9bebec782U, 0x3f88fbbd3f7f096fU, 0xbe9cdd96c0426df4U,
  0xbf89a1e5be75760aU, 0xbee0f39dc00644c7U, 0xbf280bc23f4dda0eU, 0x40290779bfb9608eU,
  0xbf5e03384032b146U, 0xbfe4092e3eb5c6efU, 0xbfe4bc69bf9b8e89U, 0xbf8199dabf8471d4U,
  0x3f5f37ccbec13379U, 0xbdb3a55f3fda382fU, 0xbf105d893f83f727U, 0x3f2cc802bedbe9b5U,
  0x3fa6737bbf7445a0U, 0x3e4d7b2e3efcd9b4U, 0xbef3d50ebe4242a0U, 0x3e9885e7bfb0997bU,
  0xbfccb0fb3da1f0daU, 0xbf1d1673bfe7aeb9U, 0xbf230bf93ec5befaU, 0xbd9c60e23f7581f8U,
  0xbf612f03be9a500cU, 0xbe6da7bbbf73f03dU, 0xbfa521fdc0113cd3U, 0x3eb11d453f9b4010U,
  0xbf7229dfbe660937U, 0x40100ebebe90bebdU, 0x3ef99f8ebf8af95bU, 0xbf8dc09dbf3751e1U,
  0x3fb169fbbf30c8c3U, 0xbf611486be3b1d11U, 0xbeafd728be6a53f4U, 0x3f3033514001fdefU,
  0x3fd193aa3cfa93caU, 0x3d4e059bbf4c0dcaU, 0x3fa84c703f0f9391U, 0x3e1c667f3f6f43baU,
  0xbf70bb45bfd7b0a9U, 0xbf807ec43fb2807bU, 0xbf0ef0a63f21942fU, 0x3ef41cd43e812331U,
  0xbf879ba5bfdf6109U, 0x3fbfc449c029f87bU, 0x3eeb3be93f250b3fU, 0x3f688bd2bf722040U,
  0x3fed35183f4c32b4U, 0xc07ed857becdb045U, 0xbfaed5b1bf767429U, 0x3e9370bebf32e46aU,
  0xbe15a2693e864496U, 0x3fce4e3c3f5bb301U, 0x3f9502ae3fe1e47cU, 0xbf44629c3f2a5801U,
  0x3f6ee490bf4eafddU, 0xbee6f919bf4d83dcU, 0xbf31264dbf972221U, 0x3fa7cf2bc00e90edU,
  0x3efe5ea1c00394b5U, 0x3f522fefc02103a1U, 0x3f0e51483f26f3d1U, 0xbfb0c81c3f9f1e1cU,
  0x3f22547b3f32e50fU, 0xc00411dd3e9370f7U, 0xbbeada1dbf957e33U, 0x3e995ede3fc13237U,
  0x3fa7b1a2be88aba9U, 0x4012bb033e612f5dU, 0xbf94c7bd3ec99396U, 0xc04f74e53f4006d2U,
  0x3f8b91613fb58bfcU, 0xbf7921753fc4363bU, 0x40031c663f8aaec2U, 0x3e80fc1a3ea63454U,
  0xbe4de6a03ef6ff44U, 0x3f927551bfc7325bU, 0xbe66f782bfdc2aa6U, 0x3f9833f43ea68f49U,
  0xbf751b7bbee1f882U, 0x3ec1a012bdcc9442U, 0x3f2bb9d2bf1defc3U, 0xbde5ef63bf0bc2bdU,
  0x3fb70e1dbf0894f1U, 0x3f6982f0bf3d799cU, 0xbf2144fcbf049864U, 0xbf87e71b3fa9eb7eU,
  0x3eebb24240a7f197U, 0xbf3daca8bfad4d76U, 0x3fb47542bf3fb02bU, 0xbc02424ebed90af2U,
  0x3edf81a3bf66146dU, 0x3f01028cbf39c485U, 0xbdb940a3bfa8df4eU, 0x4020a562bf045a66U,
  0xbf74eb6dbcfce18eU, 0xbf2c4051be16e7baU, 0x3f7b881a3f9406e2U, 0x3f3f4699bf9422f0U,
  0xbe90e527bda67dfcU, 0xbf74e9c63fcb0538U, 0xbfadec313f047490U, 0x3fb315063f8b75d8U,
  0xbe3d4e5b3fcec7fbU, 0x3dbe00f53eb67556U, 0x3f6b46993e99c30cU, 0xbe959b433ff2e89dU,
  0x3f570a70bf95ca3aU, 0xbf2db03240731a8cU, 0xbec52f35bf3805edU, 0x3f17ddcabfb68037U,
  0x3f7b7b16be5746b3U, 0x4009942b3eca5624U, 0x3fa8339f3f3a557bU, 0xbea68f22bffd769eU,
  0xbf9398a73e5a5375U, 0xbdf43ac2bf90dd38U, 0xbf19053c3ee0c90bU, 0xc051b7263f706937U,
  0x3f419464c036219eU, 0xbfd3685abf58a527U, 0x3e7a9ed33fac54c3U, 0x3f0e09473f995179U,
  0x3f53a595c0278823U, 0x3e4af8264007618cU, 0xbf4022c5bf7c33a4U, 0xbffbb3b93e84a8a6U,
  0x3f832aa53f95fb9dU, 0xbe3554993d3f0a8bU, 0xbf691d29bea39515U, 0x3e32c5f33efc6d07U,
  0x3fd1d0293d9b4ac2U, 0x3f153d65bce6124bU, 0x3e8b8d61bfd2c804U, 0x3f16ee963f8fe31fU,
  0xbe0f5204bfb0767cU, 0xbf91f5fbbf48ff69U, 0xbf06cb96bf8d4c7bU, 0xbfb2b3883e54cc8aU,
  0x3f6603473faa80b3U, 0xbfdf902a3f93c773U, 0x3de71b41bf43f942U, 0xbdb1f818be35aa61U,
  0xbe9af1a4bf653c94U, 0xc03f62f43e4fd9b8U, 0xbf213a763f62e208U, 0xbe29faa1bf698facU,
  0xbf05b2323df13005U, 0x3e269a563f9c87f6U, 0xbe89c89bbf82bc20U, 0x3f7e7f72bf70fca6U,
  0xbedd62ed3eb6f611U, 0xbff34bea3f9fd076U, 0xbfc62013bf6161d1U, 0xbf526d293f21f159U,
  0x3e4bd9c73e9ebf61U, 0x3f95fd7f3fe85e7fU, 0x3d3291d33fcb721bU, 0xbf5ef05bbfcc37eaU,
  0xbe24402b3f0c1c42U, 0xc015f531bd31e02bU, 0xbf95365f3dba2499U, 0x3ed0d20ac00b7de2U,
  0xc010670ebe8b1222U, 0xbf4be8fa3f3a75c3U, 0xbf81942ebf18f9b1U, 0x3faf8b46bf1edf53U,
  0xbed4d8003d3aef3fU, 0x3f9bc0453f56100cU, 0x3fd27676c01e644eU, 0xbf509ddbc02b8ebbU,
  0xbf825dfcbf5d8959U, 0xbfce4d1c403896cdU, 0x3ecbdb34bfc917b0U, 0x3fa394fe3f4f309dU,
  0xbeb71c153f7c9f87U, 0xbf6d33eabdfeaa18U, 0x3fb37594bf51eddcU, 0x3f5558d6becc176eU,
  0xbe6847fa3cfcb572U, 0xbe5c9b76bf9f53c0U, 0xbe1dea603fb7e209U, 0xbf38cfc13f92b0a5U,
  0xbd1f62d9402d07b2U, 0x3ee0d52dbe827ffbU, 0x3e31dbaf3f90a58eU, 0x3f6c65cbbf948829U,
  0x3f0c5cc0bf85c335U, 0xc00309ed3f96017eU, 0xbed5424cc0167308U, 0x3f0603923eb31b05U,
  0x3e24e534be0f888bU, 0x3f8da98ebe530ce8U, 0xbfe9c5783eb3a6c5U, 0x3e233cb63f6bd1d5U,
  0xbf4b76143ec46e51U, 0xc01927b8bf766ca4U, 0xbfa0cbd53f2173d1U, 0x3f948abdbf78dda6U,
  0xbf045d833fd8276cU, 0x3f47601f3f2d6075U, 0xc029c30cbddc74ddU, 0xbef39cc7bf8ecf4bU,
  0xbe838ae0c02cc48fU, 0x3fb798bf4057d9c3U, 0x3ed988adbf301853U, 0x3fa505963f1076a4U,
  0xbe35fe093f677ea3U, 0xc0073332bdb74dc4U, 0x3fc7acb4be9aa14aU, 0x3d05b0843f8edae2U,
  0xbfdbe7f83cddd4e4U, 0xbdaa5b9ebf98e850U, 0xbf32ca503eb71e3fU, 0xc03b0533bf90c64cU,
  0x3ed315f73fd7c5eeU, 0x3d0f449abeb672c5U, 0x3f5c55c1bf3ca055U, 0x3dbaa61cbf7336b7U,
  0x3f8a329cc0234843U, 0xbe4d0882bf82ebffU, 0x3f04b32b3ed5e513U, 0xc01127913fae4128U,
  0xc0019789be274023U, 0xbea760f73e816198U, 0xbfd5e15cbf0081a4U, 0xbeb9c9bcbf93793eU,
  0x3f051c4fbb86ccccU, 0xbe8ed1e3bcee7cb6U, 0x3e7d57b03f198fdfU, 0xc0a466c2bf602f45U,
  0x3dc860723e5aa068U, 0xbeee249d3f844492U, 0xbf6d988cbeb2d7beU, 0x3e6be7b33f17b0acU,
  0x3f7c7278bfccdbadU, 0x3f51a1e7404fa99cU, 0xbeaa4d22bfffecedU, 0x3f61540f3f6b12c9U,
  0x3fdc95f9bf5bc4adU, 0xc0a0121e3e4e01cdU, 0x3efbdae4bede7c9fU, 0x3ea50ed73f7d16dcU,
  0xbe048547beb44d41U, 0x3ec4283c3fb09560U, 0xbf8de3813f72c87bU, 0xbf0c1554bfa01a1aU,
  0xbed4a18e3fc94c56U, 0x3f1bc7f7baf87405U, 0x3f8bf0d1beb12b28U, 0x3f981d4cbfd14ac4U,
  0xbf463bcdbf8f1b72U, 0xbf9e0a3ac072e3feU, 0x3e396a99bf8ead14U, 0x3e438e303d8134cdU,
  0x3fb9577d3f0d1560U, 0x4051bb4d3f04d9e9U, 0x3d9f86ffbecdb3caU, 0xbe3115a03f05caf7U,
  0x3f055d6b3ca0483bU, 0x3f2921b5bee93069U, 0xbf8ceb82bf8a169cU, 0xc0786d85bee9e29cU,
  0xbe8617163d164ff5U, 0x3f9c5bdbbf338343U, 0xbfbb25293f262862U, 0x3f42778cbf9658c1U,
  0x3f4976893fd1a2a3U, 0xbff2760bc0369e29U, 0x3e7177a53fd1ef0fU, 0x3f2954313fadae53U,
  0xbf4e2625bbb61c24U, 0xbeb9a5a33dbc45f2U, 0xbf278efc3e2b1741U, 0x3e8044c6bfad4b93U,
  0xbf14b008be74304dU, 0x3fc0ce6ebfd8e9c2U, 0x3f846014bfbff75dU, 0xc018f2023ee87871U,
  0xbe97a742401bdeccU, 0xbf8fb03bbe1f0f7dU, 0x404a5966c0586815U, 0x3f9909b53f14a654U,
  0x3f502e9540030196U, 0x3fbf6eecbfbbe14fU, 0xbf02d9bb3f049d8eU, 0xbf9f935f3f73432dU,
  0xbfa801163d8bbdacU, 0x3fcf0beb3e0dd1a8U, 0xbf74798ebe8214a8U, 0x3ed2f70e3e9f4664U,
  0x3ee6664d3dab1affU, 0xbf6725fabfa39306U, 0xbf0a7553bf92138eU, 0xc02fc4c03f9e570dU,
  0x3eeb0b033fa767d9U, 0x3e2355e13f94559cU, 0x3e82e1b6bf8e6b07U, 0x3ef699933f56a357U,
  0xbf4323003f88d8adU, 0x3ea59d64bf8750b8U, 0x3b2fbf903f2a26f0U, 0xbd6a1ee63f9f609aU,
  0x3f84adc2bf7d150bU, 0x4050df183e22ec25U, 0x3f6621b23d0bd4beU, 0x3f265168bf7693c8U,
  0x401cd5e63dfb0457U, 0x3f46e85a3f515a14U, 0xbf8ce3d9bf0888ffU, 0xbfd81160beeaede8U,
  0xbf656d884093a808U, 0xbe596cff3f3e6c5dU, 0xbf847cabbfb94d9cU, 0x3f839307bfec5593U,
  0xbdf093c1bfdfa616U, 0xbfd86f73c01dcbd0U, 0xbe8996d6bf5744e0U, 0xbf6a4017bf093418U,
  0x3e97c7f1be68911aU, 0x408c48353f036cb8U, 0x3fcc74773edddcf2U, 0xbf2ce3b3bea1ee84U,
  0xbf57d93e3c4140b9U, 0xbf6555a1bfb44ec9U, 0xbf24b751bed0265fU, 0x401871d0be23a5d2U,
  0x3f25363d3f06f0cfU, 0x3f404cd03e4c9fa0U, 0xbffa3bfc3fb085b9U, 0xbfaf4ebcbf7c7027U,
  0x3c37737ebf09d7d5U, 0x3ef9d737c0547695U, 0x3f010b0d3f88e13eU, 0x40297fe83f039b6eU,
  0x3f808b00bf1ad2e3U, 0x3feab1b33eca4ad6U, 0x3ec956033f0b43e3U, 0x3f3594133fdb08b0U,
  0xbfe1bcc1becb4e91U, 0xbfe6e0e4bf50df11U, 0x3f8c9e6d3f99e48fU, 0xbf34edecbe72bb80U,
  0xbf1b294d4048f6d8U, 0xbde3f605bdfb6f05U, 0xc01b43ad3fb9bed0U, 0xbf25565e3f8efee3U,
  0x3b795c053fbf169aU, 0x3fbbfb763fa2bae6U, 0xbd8ef64c3f4d7bc5U, 0x3f58d84d3f57d36bU,
  0xbe013ac9bf0731e9U, 0xbfeabf273dd2ceccU, 0x3f4e3e00bf3ff63aU, 0x3d8291efbf93d7f5U,
  0x3f12d19c3e185db2U, 0xbe814e4c3f6cf5c5U, 0x3f3a82f8bed052d6U, 0x3e2c0ea5bf1aa733U,
  0xbf9f8688402fcb84U, 0x3fc3667bbf83dc8dU, 0x3feca821bf94698cU, 0xbf0b85dc3ef76db4U,
  0xbd9bba06bfb66104U, 0x3efae672401308ecU, 0x3ea367b73f1febbfU, 0xbe07b89e3e930713U,
  0xbd8aa3503f874ee2U, 0xc024430ebef3160eU, 0xbf54dd073cc32782U, 0x3d95828ebfeca8cbU,
  0x3ff7bff23d90ad61U, 0xbf1fea353f9e2e02U, 0x3f657c3b3f97eb30U, 0xbe85fd53bfd19087U,
  0x3f6aab81c0033e75U, 0xbfc805783fcff66dU, 0xbfdb111d3febf764U, 0xbf69d14bbf8bf1a9U,
  0x3d1150e2bfe52939U, 0xbeb50d5c409ff276U, 0x3e8df2d8bf6d1ad2U, 0x3ff97dfdbf1db8b0U,
  0xbdfe9db7bdae9bfdU, 0x3fbc7a41bdb93f88U, 0xbd0a79033d93ac2fU, 0x3e685f803f01dfacU,
  0xbf4969c2bee6da40U, 0x3fa665d3beeab36bU, 0xbfbf2ccd3f4f8824U, 0x401933aebe80c130U,
  0x3f75c3093ff7fad5U, 0x3fc9f9aabf605390U, 0xbfd4881140494655U, 0xbf903d2e3f56d115U,
  0xbf6426243fd2cf78U, 0x3efebf6f3dec7a90U, 0x3d7019b93f6791fdU, 0xbe7b7a023f48ce9cU,
  0x4073988d3f29cabdU, 0x3f966420be6c1b81U, 0x3f848f673f897c25U, 0x3f3f1fe7bfd69af9U,
  0x3dcdfe8dbcbee304U, 0xbf7418033f15b565U, 0xbfa698c43f5b5f99U, 0x3e0ea2eb3d507b10U,
  0x3f4a00ef3dc23b25U, 0xc00faade3fd1625dU, 0x3e958ceec05c19a1U, 0xbf70f3083f12d3daU,
  0x3ecb7471bfc13d7aU, 0xbe8e089e40289490U, 0x3e236afb3fcda9ceU, 0xbfb3935f3fa5746eU,
  0x3ffb6e473f450030U, 0xc0aeeb19be9e53b6U, 0xbf06a5c9be93d487U, 0x3d90b8fbbf3e9b61U,
  0x3fa9db41bebb1c10U, 0x3f4883abbeac446eU, 0x3fc89493bef397e1U, 0x3ec9d16ebf966243U,
  0x3e44bb333f691959U, 0xbfa028603eea1f2dU, 0xbed464cbbda27d30U, 0xbf502b22c01b44d6U,
  0xbe420fe0c00dc718U, 0x3f910aebc04ba487U, 0xbd0ae8a7bfb5a175U, 0x4014e989bf96c385U,
  0xbfc135213f4064e8U, 0xc045a96ebe975f71U, 0x3f5349963f0aaa6eU, 0x3dc5ca0dbd6752ebU,
  0xbfb3964c3eba016eU, 0x3c75be7ebf9bd6deU, 0xbfb1b1aebef8eb55U, 0x3f79863abe9e7f76U,
  0x3f04bf92bedb918bU, 0xbf8037c43f96f0f6U, 0x3fa34f833ffae447U, 0x3f10571d3f88bae3U,
  0x3d9ab2353fd4447fU, 0xbf97ebf9404e6b46U, 0x3e3e19f5bf662e56U, 0xbfd2c8a03fb16f6dU,
  0x3ff257063f0db1e8U, 0xc06272db3dd2d62dU, 0xbe4e50ed3a8554d9U, 0x3e0ef00f3ffa22aeU,
  0xbf65b87cbd6ea141U, 0xbe6ad1313f81272fU, 0x3ef6817d3f89c973U, 0xbfa27581bf4cc2aaU,
  0x3e0a6ed7bf2a4199U, 0x3da5f1873f18dd6dU, 0x3f492593bd1c3fcaU, 0xbf18a1adbf9095d9U,
  0x3eed12043f509aa3U, 0x3e363e0fc0499d0fU, 0xbd9d9d633f9f64abU, 0x3fd020893f61f2f3U,
  0xc0070644bedc4335U, 0x3f99223bbecfdcb0U, 0xbe4e4e5fbed87188U, 0xbf2482d33fe25748U,
  0x401cbe9d3d79df14U, 0x3f280698bf61737fU, 0x3ed09c3cbfc5a70fU, 0xc01868fbbc595e7cU,
  0xbe99b3d0400c2ef6U, 0xbf8e141abf3b5b04U, 0xbfbba12c3fd80614U, 0x3f78dfa2bee75c57U,
  0x3e9fb991bf1628aaU, 0x3fa5f2dabe59ddeeU, 0x3e8afd1f3fee4ff6U, 0xbe701a3a3f8b0801U,
  0x3fb9232fbf52609eU, 0x3e970ecc3ef690b3U, 0xbf9643c53eb26ab4U, 0xbd0283fdbfa1e763U,
  0xbff14075be5a9d0bU, 0x3ec5e7213dde3f0eU, 0x3f8ac5b6bf5e9e01U, 0x400a83d63d664fefU,
  0x3ed13761402469baU, 0x3eb572113ff2c896U, 0xbfdb55d64021bf94U, 0xbf7dcaebbfeb5e96U,
  0x3f40402ec00a086dU, 0xbfbafc20406e20b2U, 0x3ef2b0233f946bacU, 0x3d49d759be2d2eb6U,
  0x3fec8ceabfa2f67bU, 0x3e2093503d00e89bU, 0xbf9704313f32d74aU, 0xbc5f7ba4bf94c8beU,
  0x400c27a63e692642U, 0x3cd6432b3fb45d23U, 0xbf9d5101bf38df28U, 0x4018c398be06522eU,
  0x3ed7f34f401ded47U, 0xbf863e213f76d920U, 0x3df15c7440108643U, 0xbe8afc7ebf774fc5U,
  0xbea4fe003f9a9e20U, 0x3f34e23cbef54a67U, 0xbe39aa31bf164780U, 0x3ea1a083bfac01f5U,
  0x401b5ea13f5b52f0U, 0xbec0d0e93e640245U, 0xbfb409753e9505efU, 0xbee97a6abf990f5cU,
  0xbfd18a4bbe82c33eU, 0x3f2aa0983e843cc0U, 0x3f8494da3cad9408U, 0x3ffadea4bf551cf4U,
  0xbe3e01a5bfa53580U, 0x3f52ff573fc4bfa7U, 0xc0163f963f8ffa0fU, 0xbe7fc315bedee02aU,
  0x3f0745d03fb96609U, 0x3f906e3340380b14U, 0x3f190bb7bfa4ae09U, 0x3d019a41be695a12U,
  0x3f8bc1233e9b228aU, 0x400dd136bebaf625U, 0xbf6b1650bf08645aU, 0xbeb04daebfdf5211U,
  0xbf9c87fdbe73e573U, 0x3f067278bf25811bU, 0x3fd76f523fe16d53U, 0x4048b7d4be3356e5U,
  0x3e9619b140238fd1U, 0x3fcbc50b3f631d65U, 0xc0487a813f3b1540U, 0xbf16059fbfe75655U,
  0xbe71c96740022c74U, 0x3fd1e6eb3d960d91U, 0xbf1626c93fba0083U, 0x3e35a4813d455e99U,
  0xc011e65c3ea60b0fU, 0xbe8a2b383e56cc63U, 0xbf6bad843f541a85U, 0x3f5146633ea706e0U,
  0x400191803ec6fae1U, 0x4009db87bfe5ed29U, 0xbf29f2dabe106267U, 0x3fdd3ab83f0b92d3U,
  0x3e2549f53f4716c3U, 0xbfc9c1b3bd09bc7aU, 0x3e379e163c29761aU, 0x3f834ee3bf77aeeaU,
  0xbf69965c3c815dc7U, 0xbfb2a398c0003809U, 0xbdad45a4bfd9040bU, 0xbf49ea4b3decc0b3U,
  0x3fc7fe67bea78bd6U, 0x3ff839193e8771a7U, 0xbda72d1cbf4a4723U, 0xbed377143f4954feU,
  0x3f33b2d93e913a3eU, 0x3f2f58e83ed95cecU, 0xbf11f342bfaa9073U, 0xc0983a593f19ab95U,
  0x3f6c3ebf3f4908bbU, 0x40111c83bee914acU, 0x3ff970d1c01824e1U, 0x3f583edbbfe81d88U,
  0x3f0287203f8c860bU, 0xbf5369d5bfde7a86U, 0xbebb675fbeaefe91U, 0x3fa671403fb09285U,
  0x3f7eab50be284daaU, 0xc064a37f3ddc6569U, 0xbf4e66f73f07c157U, 0xbf1c34b9bf3b1a6aU,
  0x3ef3ea5abeb8f50fU, 0xbf52fd903f9e02b7U, 0x3de43780bf2df597U, 0xbfd1c060bfa7fbbfU,
  0xbead5d6d3f81b0d9U, 0x3feec8a63fbad732U, 0x40129d97bfbf31faU, 0xbf1d9cb4bf15a49aU,
  0xbe51ce6cbfcfe04aU, 0x3fcb33f94001dae6U, 0xbe0d47823fcd67f6U, 0x3f518359bef357e5U,
  0xbe6f7a023e685029U, 0x401567503ec9531aU, 0xbebc3e05bd8ecad8U, 0xbeef07843fc64890U,
  0x3fd2d37cbe725159U, 0x3fab267dbeabf779U, 0x3f62f7643f0dd446U, 0xc00a1658bf43a860U,
  0x3f2455d6be09589eU, 0xbfef86813f40ee7bU, 0xbfdc750abe6b69fcU, 0xbf79291a3f40edf7U,
  0x3eeb6c9abe30595cU, 0xbfd0d501bf6ae1c1U, 0xbe12b1acbf20da62U, 0xbf5a0cfb3ef08d8aU,
  0x4030f58e3f460e77U, 0xc05520ffbe75db18U, 0xbe86e303bf5c2926U, 0xbdfd70c53f3f5a3dU,
  0x402e3ada3eea2e92U, 0x3f8eb94c3f80e10bU, 0x4009e0e13fe141d6U, 0xbfb7f7af3f14cfa3U,
  0xbf20f17540182e9eU, 0x3e962064bf7c9997U, 0xbf9240b8c006c3cfU, 0x3edca753bfe29699U,
  0x3eee4e9abea7b213U, 0xbc812d13406505efU, 0x3d1424003fdf4951U, 0x3f5f7c05bf4f9947U,
  0x3ffbb7cf3f3d9599U, 0x3fb6bd9f3f11d1e8U, 0xbfd2bef4bde1533dU, 0x3f22bcf8bfe50e91U,
  0x3fb47d89be52cf56U, 0x3ee8e3453b1dad4aU, 0xbe87b46d3f473b34U, 0xc07c2817bf469ea8U,
  0x3fb252e93f1e424bU, 0xbfc972d0be6d10afU, 0x3f12b4093faa95d1U, 0xbf41eab4beecf249U,
  0xbebe491b3db40b8cU, 0x3e804172bee520caU, 0xbec8ab9b3eebb8a9U, 0xbf86bcf43fc65be8U,
  0x40443440bee04fbbU, 0xc01829e4bdc35e95U, 0x3e1001b8bf16ab83U, 0x3e8922443ffe233fU,
  0x3fd9fe01bd631125U, 0xbfcda4f6bf715cc3U, 0xbf0e95353fc480beU, 0xc0057d87be9659f2U,
  0xbe9d32cc4041dd1cU, 0xbf468556bf4265feU, 0xbf0e151fc0945e57U, 0xbeb709c3bf354779U,
  0x3ee75eae3e9e5557U, 0x3db0aa843c8d250eU, 0x3d22dfa139c90856U, 0x40045760bf5ace9eU,
  0xbf3e694a3e3f75b7U, 0x40018a9bbeba5399U, 0x3f0b93163f3df7bdU, 0x3e91ff053f7c67cdU,
  0x3f739607be85ac90U, 0xbfca83bf3f1a6c77U, 0xbf2b2ce7bf0f7f51U, 0x3f4830e1bf781adaU,
  0xbedc0d20bebaef85U, 0x3f8245393fb14e1fU, 0x40155848be2c23f5U, 0x3fb2e7f8bf7816e8U,
  0x3f92e5cfbf39c3e5U, 0xbfe877e44063d5abU, 0x3da25865bfebdc8cU, 0xbf1ca7803f150563U,
  0xbfda2a13be5187ebU, 0xc05da6d13ceac587U, 0xbf60e044befbc3f6U, 0x3f1e892c3f60e03bU,
  0x3ecb64783e935434U, 0xbf6c36173ec4d58eU, 0x3f99d5c93fbb0d28U, 0x3f51c028bf63461fU,
  0x3f577365bd969189U, 0x3fb1d3d8be5d22b7U, 0xbfae4c88c007f9b4U, 0xbf3c6d37c005cc84U,
  0x3f23bf323ed109e8U, 0xbf2a34923fa6ee89U, 0x3e61ad933ff3ceb0U, 0x3fae0015bf270432U,
  0xbe8759f3bec1f1c8U, 0xc02b000bbe85be8cU, 0x3f7cc1aa3f0102f5U, 0xbe10913b3f8bd7d6U,
  0x3e8939a03ec13118U, 0x3da3c32c3ed7c97eU, 0x3d8bc477bf8df193U, 0x408c12c8bf08f8a7U,
  0xbed289f0bd77073aU, 0xbff8e29cbf814a19U, 0xbfc8d9a4bfd4e575U, 0x3dcdf873bf161215U,
  0xbe9387fabfc09c2eU, 0xbfc7ed76bfa9c6b0U, 0x3eb245a93fd55686U, 0xbe27b2613fc575d5U,
  0x3ff417423f29361aU, 0xc010c17bbec1936dU, 0xbde489d6bf4b96d4U, 0x3e65c548bfce6b3bU,
  0xbfb73c3abe6e48f9U, 0x3e84fa023fb45480U, 0xbf8b501a3f0d6dfeU, 0x40bac1143fa67a3bU,
  0x3df23eeebf857df0U, 0x3faf4e69bf5e98eaU, 0xc01ba6c93e30da86U, 0xbcca69543e98e3f2U,
  0xbf480632bf8bfc29U, 0x3ea8c17b40228bd2U, 0x3ec7a5ed401547c0U, 0x3d0d962bbf6eab4cU,
  0xbfa5e3953eb474bdU, 0xbf4b08e0bddd54f8U, 0x3eadad51bf1dc902U, 0x3daf4279bfe1f41cU,
  0xbfb08317bed137d5U, 0x3e2ef70d3d8dd330U, 0xbfcbff583fa890c9U, 0x405298adbf62c092U,
  0x3ec6b70540643908U, 0x3f6600bdbf451ffeU, 0xc02b8ea03f8ddc90U, 0xbe11e4bebfc6c1cfU,
  0x3d8c069d3fac3827U, 0x3f03b23dbfaaf1f2U, 0xbef487b63f15b6beU, 0xbf7d3026bdb41ebdU,
  0xc031f10ebe486c1aU, 0xc00265363eb1f48aU, 0x3fa3190a3e74b182U, 0x3f07847bbf6bec40U,
  0x3d225552bd9aedd3U, 0xbe5a1b9fbffe9026U, 0x3fb716f93f1fcd5cU, 0xbfe9837bbc893ee0U,
  0x3f9bfc474025d22dU, 0xbfd05e8a3f8d746aU, 0x40032e553fa1b20cU, 0xbf0d6ed5bfbbfef5U,
  0x3f4957c93fd52414U, 0x3f5c08813e978e41U, 0x3e36a7d4bf0174e3U, 0xbfbe835c3f139050U,
  0xbfdc3966be0c826cU, 0xbff7a6d93e3f5d5eU, 0x3fb3851abecdc874U, 0xbf0aee1e3eebf548U,
  0xbf7305a83e559b1eU, 0x3def8fc8beab5154U, 0xbf8c0a52bfadcd1aU, 0xbe6236bf3ea17f63U,
  0x3f1f3b7f3fdc2688U, 0x3f2cda2f3fa14600U, 0xbf8d6054bfa068d2U, 0xbdf6a2eb3f6eebefU,
  0xbf2ccf79bf93a136U, 0xbf88b73ebf90fff9U, 0x3d6f65993e8c3086U, 0xbfb2f35b3ebf450eU,
  0xbf8c69e23d9581ccU, 0xc0d1e4dfbed1c0d6U, 0xbf2137ff3f1cd9f8U, 0x3dc75be3bf6a9df3U,
  0x3f8e23cd3eae86c6U, 0x3eedf6c5bfa56539U, 0xbf2232d3bf389a80U, 0x3c350639bfb76348U,
  0xbe822692bf2f667fU, 0x3fbafc7bbf18a20bU, 0x3f90c6a13fe20159U, 0x3fa1fdae3fbada1dU,
  0x3f5e1c3cbff3b12aU, 0xbfcbc101bf835b52U, 0x3caa7fb23f8aef66U, 0x3f071caabeca2036U,
  0xbf481f1dbf552332U, 0xc0a56be2bdb2259bU, 0x3fdb7445bf01754fU, 0xbd9209b53fd8da8aU,
  0x3fb6a85fbe10c9fbU, 0xbdc0ff763f481b5bU, 0x3e9ea38bbd933049U, 0xbfa569da3e65f31bU,
  0x3fc5c1ae3fef7f0eU, 0xbfd0af303faf27d8U, 0x3dcece84beb8d2aaU, 0xbf6e4bca3fd3c723U,
  0x3f1de0673fa1b2ddU, 0x3f1bbe6d3e7349b7U, 0xbeb6b959bfdaac17U, 0xbda47c123f348be2U,
  0xbfe9e96abd8e9aaeU, 0xc0a5fe733ec565b5U, 0xbf3310ea3ed73d46U, 0xbeb5a5d0bef20601U,
  0xbf623a233ec5f332U, 0x3f31cbc13f86a616U, 0xbf3ac0603fa99745U, 0x40266edabf83b3b4U,
  0xbf6f97ff404230abU, 0xbfccb8b13fa45a77U, 0x3f4c3eb7c051db69U, 0xbf3f5d2fbfaae0f2U,
  0x3ee62ef13f95b096U, 0xbe880e933ff7abf2U, 0xbf3525143dbb130eU, 0xbec526d73e37567dU,
  0x3ea26b22be453ce0U, 0xc01fdcecbeb50a47U, 0xbf90e83abfcab829U, 0x3e86fe5cbfd419a1U,
  0xc00f742f3eb9b12aU, 0x3f96fe99bf61d151U, 0xbf6aff4cbf0eb6a0U, 0x3f8df49e3cde48f5U,
  0x3cdd1dc5c0164101U, 0x3fe7a767bf3efc2eU, 0xbfeeb810bf214f23U, 0x3fbd5503c01e4aa9U,
  0x3eb6f8963ee31871U, 0x3f86a09ac00d7c90U, 0x3ee37c8abee024b8U, 0xbfbb45243f618713U,
  0x3f3345f83f1a06ddU, 0x3ec365c9be202c4bU, 0x3f95362dbc698afeU, 0x3b3a9fbebf1f8217U,
  0x3f84689fbd7bc161U, 0x3eda6db7be4cd7eeU, 0xbf97a5e93fb6bf76U, 0x3f42cba13fa2f574U,
  0x3f33d3893ce0884cU, 0xbed35e23bf9ee15aU, 0xc0432dfcc08ecf87U, 0xbf5494003f633b17U,
  0xbf28d4a03fa1426aU, 0x3f953a1d3fe862d8U, 0x3e5fad8f3eed9b2eU, 0x3fb633eabe785779U,
  0xbf5412c6bec76c6eU, 0xbe99c5d53ecf3f85U, 0x3c5d836ebfac6876U, 0x3f40f7bbbfcba2ffU,
  0x3f1df86e3e03749aU, 0x3f5ea46dbf9617b8U, 0x3fd6dc6fbd7b6585U, 0x3f5a3f633f9431f8U,
  0x3e7ee8e43e1d4fefU, 0xbfceb8c6bfba8778U, 0x4006de68c03a5fcfU, 0x3e1033103f0947e5U,
  0xbf168fcd3ec8e9c3U, 0x3d9efe5cc034f376U, 0x3e9faab6bf4e0649U, 0xbed65f593f10f7d9U,
  0xc01302e9bf77818aU, 0x3ff1eeda3d3fb487U, 0x3fabfa04bf3bd316U, 0x3f2d8e24c00af0feU,
  0x3f394a71be088587U, 0x3fa99a0cbffc7fb1U, 0x3fdcba383f93b531U, 0xc0939b9abf6b12b3U,
  0xbe925691bfcd2c5bU, 0xbdd7ca193f575ba2U, 0xbfcb1322c00606a7U, 0x3f80f6c93fc2b516U,
  0x3d27dd813f1db6c9U, 0xbf0a27783ff363bdU, 0xbd8c6ed2bf959bf9U, 0x3fd7e4193dfcfe57U,
  0x3f88f3313f71f1c2U, 0x3d6f92edbd99ea8fU, 0x3f9416b2bebf2673U, 0x3ec07047bea5f135U,
  0xbff0191a3e996563U, 0x3f45a96f3ead8f16U, 0x3f9fa5263f9cd4cdU, 0xc00419e1bd1a8a3fU,
  0xbf78d16f3f584781U, 0xbec03bc3bfad193aU, 0x403a436bbff99583U, 0x3f1204b9bfbedd85U,
  0x3f089a01be104575U, 0x3fe4910040cca74aU, 0xbf5d400f3f870930U, 0x3ec6e505bf4f77ecU,
  0x3fcfe4443f2c514dU, 0xbe8020e4be01d7f1U, 0x3fb511dbbf1f1202U, 0x3f31cb53bf976d53U,
  0x3f81ae93be7e2d09U, 0x3f17c2a0bed7c05fU, 0xbf1c99923f9a11adU, 0xc00eb5b53f942ca3U,
  0x3f024a87c03be317U, 0xc005f2f33f68ed1dU, 0x3f6eb446c02893c2U, 0x3ebc034b3e683850U,
  0x3f8098adc0066fd6U, 0xbf83ed4c3f972403U, 0x3ea7269c3f84046dU, 0x3fb91fb9bf8cbba2U,
  0x401c544cbf40a197U, 0xbf3e4f333e1507ddU, 0xbf6b924f3f4e33b6U, 0x3f28b1533ee396c7U,
  0xbe0dcf293e9c0304U, 0x3d9b50573f5d105cU, 0x3f333967be481c6cU, 0xc08c1770bf8e25d8U,
  0xbf8117233fd63094U, 0xbfa1bf51bf91a509U, 0xbe4911a4bffc11fbU, 0xbf013714bfadee05U,
  0x3e7d06e63ebf1579U, 0xbff02a35c04006e0U, 0x3e7cbe813e058b8fU, 0x3fc2eafa3c5e2400U,
  0xbe23617abc4ffd56U, 0x404f4ba5be49040dU, 0x3f34e288bea05789U, 0x3eb0fdab3f792374U,
  0xbeb444cb3e597c2cU, 0xbf1c46d23d627012U, 0x3e513ace3efa3e47U, 0x3e0f35ab3d1b8af7U,
  0xbecc4d313d3efd7cU, 0xbfae2aadbfa52198U, 0xbed1111bbfaf51deU, 0x3f846e74bfaa2cceU,
  0xbf1d00b23fed2b07U, 0xbe6c1072c004b9a9U, 0x3f0681a83f9c5492U, 0xc01cbfdbbeb44df6U,
  0x3fe9a37bbed0de60U, 0xbfeec6483e00996eU, 0xbfd07310bede86f6U, 0xbe6d5126bf50bc06U,
  0x3fea3134be3abab8U, 0x3e67834b3f2b315eU, 0xbf1dcc48bf90c5eaU, 0xc0a45afcbfc4f08dU,
  0x3ee5436dc0030a34U, 0x3fb17327bfc3f012U, 0xc0198190c075ffb4U, 0x3e301283bdd947eaU,
  0x3d84e2d3bfd39ebeU, 0xbee448d94093edfdU, 0x3e70e0223ebfc6d1U, 0x3fd614fbbf7fc1abU,
  0x40181f7f3f03e9e9U, 0xc00360b43d94e70cU, 0x3fbca765be75a36aU, 0x3e08f888bff6d510U,
  0x3fdbee4bbb9e90f8U, 0xbf90e7f23fd98640U, 0xbee1cac2bf5c5399U, 0xbf4441d3bf2a53b6U,
  0x3f977586405bfd4eU, 0x40278773bbf2bc80U, 0x3ec646523e82bf3bU, 0xbf341bc03e36d041U,
  0x3f79e082bfd4dc0cU, 0x3f80d56840b2c426U, 0x3e921f363f87553aU, 0x3edf3112bfb3570cU,
  0x40593424bf0b0ed4U, 0x3fe251843ee0ba73U, 0x3f5941e03e75c7b5U, 0x3ec425a2bfaa11aeU,
  0x3fb670783e6fd942U, 0xbf169f2c3fe03d05U, 0xbfd7355d3fc46cbaU, 0xbf0558e03eabbcd5U,
  0xbeec3c113f9f1db4U, 0x3c2ee6d33f385db2U, 0x4018c97fbfc39696U, 0x3cf74b50401d51b8U,
  0xbf409d7f3ff4e58fU, 0xbf28262e407b27e2U, 0xbf06d2fd3e928159U, 0x3f975288bfba15dfU,
  0xbe98d5c43f4888daU, 0x3fb08867be864ffeU, 0x3fce874f3f249a57U, 0xbf3720443f0b51c3U,
  0xbfe1ffcc3e820babU, 0x3eead7133fd1920bU, 0x3ed8b1283e34a104U, 0xbfc4cc2c3d549c0bU,
  0x3ee7c0913fb2245eU, 0xbe4598663faa4dc4U, 0x3fad28cebd6e715dU, 0xbf846c9fbea73c63U,
  0xbf2ac8d53f887740U, 0xbee22e28c02d6cf0U, 0x3db1700c3fb7cc00U, 0x3ff4dc573eaab736U,
  0xbf164d683f02b458U, 0xbe1361483ee4444cU, 0x3daa9edb3f072f81U, 0xbee45b90bef0a9c8U,
  0x3e16d1783e50af50U, 0xbf6174183ef23267U, 0x3f4305183edb07a9U, 0xbe71760dbfa0119eU,
  0xbccc21d940131969U, 0xc00b12f4beeb7347U, 0xbfc26ac4bfbd4d14U, 0xbfadf9d2bf937c8eU,
  0x3edae161bff9cf79U, 0x3f198ec9c022a7f3U, 0xbef76d2f3f106622U, 0xbff7c6dcbe300a4eU,
  0x3fa1487fbd1260e9U, 0xbda43813be7503c3U, 0x3f4e97fb3e03a2b6U, 0xbe9ac4cf3f7ebe3dU,
  0xbbcb3099bd6babc4U, 0xc001ef4ebf554132U, 0x3f59d254bfb280a2U, 0xbea25b7ebfb84f0bU,
  0xbef38bbc3ff86e8cU, 0xbee78524bf438c9dU, 0xbe04ead3bf481d57U, 0xbeb155fd3f22c0feU,
  0xbf6f4c883f64891fU, 0xbe3fdc114077cf32U, 0x3e966b9bbffc04b3U, 0xbd7e70c5be94847eU,
  0x405052b0be696e42U, 0x3ee60f003e9637a9U, 0xbf9e4e433f6269abU, 0xbe890d46c0143405U,
  0xbf999c883e942929U, 0xbf6183ea3ff2c030U, 0xbe639d483fb3b2f4U, 0x3fb3f8613f27ab7dU,
  0x3e60bd083f00bd0dU, 0x3d25d5323f04f6a3U, 0x3fc4670c403953a1U, 0xbe9d006ebf8db27aU,
  0x3c649156bfc9641fU, 0x3e0b9e01c0db9db0U, 0x3f3d965abe4522e8U, 0xbf9f3c753e97bf2eU,
  0x3fc69ad8bf515efbU, 0xc0024e363e3a98ffU, 0x3f9f80df3f1a46a6U, 0xbd5d2da3bfc597d5U,
  0xbfe1814e3e47a6f3U, 0x3fc55008bef3b789U, 0x3fbf6671bdd07613U, 0x3fcacf15bf2a4621U,
  0xbf46be87beeff9c2U, 0xbf8dbc1d3e887f37U, 0xc00b83b03fa95416U, 0x3fc1422fbf45aaf4U,
  0xbd2802b53faa6632U, 0x3fad88d2c04a077dU, 0x3e9a2641bf6282c0U, 0xc073e56fbda978e1U,
  0xbf77bdb03eee9b44U, 0xc06cf3fdbe438987U, 0xbed395bcbf0ee3d3U, 0x3ecf4edcbe582048U,
  0xbee1011ebe375cadU, 0xbf341310bf91c3edU, 0x3fc53a7c3fae7678U, 0x3ef52c303ef78d25U,
  0x3f0bbaea3f906095U, 0x3fd1a2183f858ed6U, 0x401a2c473ffbebd2U, 0x3f950a71bff704b2U,
  0x3e54c6b0bf47e658U, 0x3f0ed065c0490f55U, 0x3ed0ccfbbefc1b66U, 0xc0233db4bd80abebU,
  0xbff3e969bf4485e0U, 0xc065a9babea29b15U, 0x3f5b59f23f34a534U, 0xbf0581633ec6eaaeU,
  0xbdf05ea2be0f9290U, 0x3f43c0e23f6bb262U, 0xbfadfd21bfa699d0U, 0xbfdd67e9bf0925abU,
  0x3f0f89e4bef383c7U, 0xbfad12b1bfb141bfU, 0xc008f14ac024af14U, 0x3f1fc5083f972b47U,
  0xbf32d8713e50e0cfU, 0xba927dba40312239U, 0xbe50d6863f00012dU, 0xc01efc3a3de42734U,
  0x3e1334a53f46c74fU, 0x3e097ce13d72938dU, 0x3f604746bfa414f5U, 0xbf2f8357be969cdfU,
  0xbfa113ddbe542e8bU, 0x3f947643be9f9b8bU, 0xbf7632c4bf28ff6fU, 0x3fcc6f47beb04a20U,
  0xbf6d4574c055f96fU, 0xc0094b4ebfb4e2b6U, 0xbf87452e3d81ecabU, 0xbf24bb9ec01af323U,
  0x3e8ba51abfa5aa4dU, 0xbf034b18c10e2d73U, 0x3f2ad4843fc187a1U, 0xbff69dc9bf94d9f8U,
  0x3f1ca33bbec0e5baU, 0xbf95c84fbec2acb9U, 0x3fc54eba3f0028c5U, 0x3eb1b6513f7994ebU,
  0x3b896b90bed27869U, 0x3f3c28b2be1143aaU, 0x3f9425aa3f9edfc9U, 0xc00a9877bf7efa81U,
  0xbf84439240302259U, 0x3ee8f88c3f8e9a4eU, 0x3e831f0cc035e1a0U, 0x3fa5d02ac0106548U,
  0x3f521917be9a6977U, 0xbf2d3f6d3fb7046eU, 0x3e58a340bf3e40d5U, 0xbf788107bfab2f33U,
  0x3e1148f13f09a68eU, 0x3fc1b530bed34e47U, 0xbfc58bc9bf426d72U, 0x3f364782bf5e105fU,
  0xbee679fcbee2e497U, 0xbfa840c53fbf5610U, 0x3f9b8906bf6dc730U, 0x3fe1accdbf668f08U,
  0x3df9463740075372U, 0x3ee69ecd3f7b2165U, 0x3f9073aec00e6b70U, 0xbd5ebcf5c01acfeeU,
  0xbf362e58c01c4732U, 0x3f2b0186c01590c6U, 0xbe8ee5c6bf26f237U, 0xbf292cb13f821403U,
  0x3fde6a94beeaf435U, 0x401778563eb47363U, 0xbe3cb2093f463ab3U, 0xbf3b108bbfae9ff9U,
  0x3fbc71e4beec9470U, 0x3d9c415cbfa1088aU, 0x3f1eef8cbd9c5ce8U, 0xbef111033eb034d2U,
  0xbf8abc20bf819a5eU, 0xbf5083febfa67992U, 0xbcc29433bf909c3cU, 0xbebb681abf4b4d66U,
  0xbf5fe02d3e9dbc56U, 0x3fd278793f0fbf5fU, 0xbea09aa5be83f725U, 0x3fd62fc63fb01c41U,
  0x3fdc2f383f0b29a4U, 0x3fa7920e3b84acecU, 0xbeddee13bce891a3U, 0x3ea4ae5ebf33fc6eU,
  0xbfa41008bd0f7268U, 0xbf8b66fc3ffde16fU, 0xbfba5ea23ec5ca9bU, 0x3d82fd3b3e376c27U,
  0xbf11974e3d856a36U, 0x3f6ad2efbd566756U, 0x3fec8f95c06482d6U, 0x3f1114f0c02987beU,
  0xbe1273ad3fc67d1aU, 0xbf31c79ebf376614U, 0xbee625e53fb0ab94U, 0x3f08ba9cbf5288c3U,
  0xbf06bf3dbeba8757U, 0x3fa8a230bcfaae2aU, 0xbda20d1c3eaaefdaU, 0x3ef341c8be8cee7dU,
  0xbe557ae53edfb034U, 0x3fb374e93f8f4706U, 0x3fa33e683fad6003U, 0xbfe1a7fd3f69376bU,
  0x3f405576bf23fa31U, 0xbb774381be8b3d5fU, 0x3f67d5af3e60a1a3U, 0xbe4477fcbf08074cU,
  0x3dac12e2bfb0a9e0U, 0x3fe33ef040863e7fU, 0xbe204e0e3f636e94U, 0x3fcabcf13f763f7cU,
  0x401d3dfebf56f3a3U, 0xbf28c2e23ed26a37U, 0xbee840523d855fadU, 0xbefa82b5c004dba4U,
  0xbfb1593b3ebc196dU, 0xbf97abe63f1337b7U, 0x3e047e34beaf78caU, 0x3faf24dabfa7055fU,
  0xbf9d106ebc602af6U, 0x3fa898683fbdc982U, 0x3f88d2613f82c1aeU, 0xbe1cb85c3f916654U,
  0x3f279f453f36a369U, 0x3cca81a7bfa3e096U, 0x39061b86bf808540U, 0xbf6483813e9e9d72U,
  0x3fb9da23bf06c6d9U, 0xbf43a12d3e87216dU, 0xbe84a4f9be8e05caU, 0xbef67d053e014a7cU,
  0x40013e1dbef2958fU, 0x3f97bdd33e3535cfU, 0xbfa4fb013e16f237U, 0x3f3d0aacbf14881eU,
  0xbf8201b1bfc902cbU, 0x3f1963783fa21c30U, 0xbea60f233fb27485U, 0xbe9f3818beb9f23fU,
  0x3eca7319bff60643U, 0x3f8f1c294080d96cU, 0xbf3062f9bf8a464dU, 0xbed6e1873f0f4215U,
  0xc0044c40be3a73b1U, 0x406776f4be97e77bU, 0x3e24ab5d3f17dc90U, 0x3f083237bf35f1a8U,
  0xbff490753dc532cbU, 0x3ea06b10bf983477U, 0x3f0ec117bea5e73eU, 0x3ee3bc85bf43dc53U,
  0x3f3487f0becbcbc4U, 0x3fa03d323f90f501U, 0xbeccb8093ed72dc9U, 0x3f52f5c13f48146eU,
  0x3f85a190bf171000U, 0x3feadccd3f323a1aU, 0xbe1e36793eea0c91U, 0xbe15130a3c5cadfeU,
  0xbfeae7da3ed26d42U, 0x40586f8c3c928701U, 0x3ed7b377bdf8d3bcU, 0x3ea42ebf400ffd3bU,
  0xbf827f16be0c79ecU, 0x3fee7fe53ff4c7f4U, 0x3ed0e6683f058d68U, 0xbfcf1f69be85dbc7U,
  0x3ed0b28a403c0a90U, 0xbfbb504e3e0b7118U, 0x3f420ea5403c7d9bU, 0xbd8d4ea03eedd476U,
  0x3f290e9cbe40d513U, 0xbb93a9143e717bc7U, 0xbf1bfa603f816279U, 0xbde27641bd16b44bU,
  0x3f5f2322bf243324U, 0x40b7e811bee541abU, 0x3e9226a23fd776aeU, 0xbf2feef5bf6122cdU,
  0xbe8b593ebee4dbc2U, 0x3fa688433ece0041U, 0xbe21c1783e8094ccU, 0x40bc394c3f6d772dU,
  0xbe097413bfe9ad30U, 0x3fd7f612bf6d2183U, 0xc0702d38be12b06cU, 0x3f3e76cbbf307b0dU,
  0x3f2d8d2c3fb2350eU, 0xbfcddd3740d19c5aU, 0xbf019f42bfee7adcU, 0x3f1dd5273ca03f62U,
  0x3f21bb49bf820495U, 0x3ed409363ed7ba5cU, 0x3e9761e4be15ed9bU, 0xbf15f671bfbb6591U,
  0xbef1636f3d09485aU, 0x3ff4f18f40037ee0U, 0xbf5cfaf6beb6c9c0U, 0x3ff3c9ec3f92cd15U,
  0xbe9da490c03fe871U, 0x401591433faa771bU, 0xbf73d6a8bf8a7e0bU, 0xbe4031313e59326bU,
  0x3de6d323be095a8bU, 0x3fef4b143f1130f8U, 0x3ee697bb3ff585fcU, 0xbfe9d5fb3e1dc2e4U,
  0xbfc336a73fab4f72U, 0x3ff1f21fbe713878U, 0x3fe7675ebf4e2acbU, 0x3f6f72b83f00cf20U,
  0x3f6cbbde3e5010caU, 0xbf78a83fbea6885bU, 0x3eb321febf6e1d8bU, 0x3f66ecc33e5d00c4U,
  0x3f8968bcbf7e90b9U, 0xbe36b4463e900704U, 0x3ff750de3fa2cd0eU, 0x3f8beb5c3f154f96U,
  0xbf495beb3c4e562cU, 0x3f8c419fbf2cf76aU, 0x3e2af78d3fcd5468U, 0xbe759c3b3f9e8769U,
  0xbf3767fd3f0bcf7aU, 0x402f3a8f3eb2eba5U, 0xbfae45e7be6c128aU, 0x3f372b6cbf5e8a7bU,
  0xc005c4d0bccc8ad7U, 0xbf1f63fc3f20ecf4U, 0xbf2cf8f73fab6a44U, 0xbe9d557ebea08a62U,
  0xbf7bf1603dd58ab2U, 0xbf59c213bfbf3d3fU, 0x3e343c57bfab6756U, 0xbc6a2f453f942ac1U,
  0xbe41e3233fb2257dU, 0x3f9eef053d0cdaf4U, 0x3ec26167becb9efdU, 0xbefb1a06bf8ce74cU,
  0xbd1f29c33f6a0b5cU, 0x3ed537e43ee6ca4bU, 0x3e3564e3bd9483b4U, 0x3c0912a8bfd8498dU,
  0x3f5b3c653b6bf855U, 0xbf378ef0bf9d85baU, 0xbe56242dbf471a34U, 0x3e6e1a3e3fb4e4bdU,
  0x3f5a39a0c07c121fU, 0x3f9e73e0bfd08dfbU, 0xc011dd613ff3b98eU, 0xbf273690bfd996a7U,
  0x3f2ce4fa400633cfU, 0xbdcffedebfd05e8aU, 0x3ea4d04b3f34c83eU, 0x3e940c7dbf8a614aU,
  0xbfe4100f3f9100a1U, 0xbff8601f3d74f6efU, 0x3ea5244ebf236a58U, 0xbebcf33f3fcda952U,
  0x3ea555253ea440c0U, 0x3fad8d0f3f4d5f22U, 0xbee665703f8e03e9U, 0x3fb04689bf2c9e89U,
  0xbebe4377c098f1b1U, 0xbfac2ed6bc6a8009U, 0x3f5503fe3fa8d38aU, 0xbfaf33c2bf8c53e2U,
  0xbf1e64a94007456cU, 0xbf0702da3f1ff8dbU, 0xbeaacf713dbc544cU, 0xbf9bf625bfae1c37U,
  0xc05b6c55bf57e248U, 0xc020848c3ea519b3U, 0xbd92731dbed5d211U, 0xbe9475b7bffa462dU,
  0xbfade3523e67c486U, 0x3f345bcf3f3b8e18U, 0xbf8bd714bf1b5727U, 0xc015e9e83f7eb367U,
  0x3ea01422bf3f9cc4U, 0x3f5c44473faa8002U, 0x3f4634883ffe24c3U, 0xbf71ea504036bd72U,
  0xbf1100eebfe7ce50U, 0x3ea65b4ec0e712b1U, 0x3e84ad70bfdd1e6fU, 0xc07b212c3f6687f0U,
  0x3fbb7e293f3ab4e2U, 0x3fcf2232bedbf516U, 0x3f5721f5bebd8f27U, 0xbf14d3b23fa5f470U,
  0x3f17eb8e3e976561U, 0x3e0ac8eb3f2fa1c6U, 0xbfcdfc8abf019139U, 0xc02e4c663fb22c10U,
  0x3f2a5f4d3fc13491U, 0xbf7d3257bebe9a40U, 0xbfe79d8ebf3fa5dfU, 0x3eeb08643f4b1f91U,
  0x3f1218713f3b1665U, 0x3ecf9a82bf50631cU, 0x3f1fb0e73fdc8c01U, 0xbf3eb4283f37ef1bU,
  0x3f3352c43f0df038U, 0xbf8896193ecc7cbfU, 0x3f9ac51b3f71e5d7U, 0x3f0c6a043f6dcb4aU,
  0xbf8e1640bee34e49U, 0x3f435a253ee074dfU, 0x3f7252c13ebd084cU, 0xbec62070bfbb403cU,
  0xbf4fa1413ee701aaU, 0xbfd1f27f3eb2a4deU, 0xc034126ebfdb596dU, 0x3dfc5ad53f81d429U,
  0xbf50756dbea4982fU, 0x3fde93fe3d81fc42U, 0x3ec81d08bfa16e5cU, 0x3eb12ef6be3fd486U,
  0xbf9d24a43f8fd57dU, 0xc01c493cbeb9b3a0U, 0x3ebbb0f8beff5234U, 0x3d569a573e9e4182U,
  0xbe7b549c3d8b3179U, 0xbe0881be3e40b2b0U, 0x3f5aa103bfc9c956U, 0x3eb4bdb1bf4d86beU,
  0xbf544d65bf9c059dU, 0x3f871a7abf2c359eU, 0xbf230d27bc989afcU, 0xbf656a90be13197cU,
  0xbd08a4973e94df6dU, 0xbedb789dc02d63c7U, 0x3e08aa0fbfcba67aU, 0xc01ec5653f3afb4dU,
  0x3f01007cbf77c9fcU, 0xbe45e00d3eb6712dU, 0x3f76bb0cbedf7ac5U, 0x3c952f90bf641b4cU,
  0x3fc3dd18be282055U, 0x3fa84d733fd246aaU, 0xbf0667af3ee3c0e5U, 0xc03e386f3f235773U,
  0x3f2468fcc01aea13U, 0xc00360a6be09f623U, 0x400c4e9dbf6046f3U, 0xbd2689e2be4e7748U,
  0x3eb38ba7bf0d59feU, 0xc00159aac0300a64U, 0xbe192facbf66f6f9U, 0xc05a0589bf397727U,
  0xbe2f22f1bf1e3a4cU, 0x406e99563eb89733U, 0xbed481f1bf704a3dU, 0xbef32ad43ed0b078U,
  0x4027928ebed5397bU, 0xbf09191d3f879faeU, 0xbc36f8a73d5521eeU, 0xc04657a13d02f7afU,
  0xbfae11533f2be4c7U, 0xbfbb6cda3f77931eU, 0x3fde64183f19955fU, 0xbf850dcdbebf7492U,
  0x3f1e6224bf04a6cbU, 0x3e3141d74041a71aU, 0xbe97cab9bf3aff2aU, 0x3f7c608a3fb16869U,
  0x3ed04fad3ee23c5bU, 0xc070a42d3c99a32eU, 0xbf3f8702bf41814fU, 0xbf13abf43ffaf909U,
  0x400773293d647447U, 0x3fc16b9abf83d253U, 0x3f8aad263ee0fc35U, 0xbf5419e6bf2e8d5bU,
  0x3f79c3b4401258eaU, 0xbf70a8393faaedadU, 0xbfba9c083f1a4e87U, 0xbea1847ebffa33dcU,
  0x3df428b1bf86925dU, 0xbf1712a0be595478U, 0x3eaf4cacbeaca78dU, 0x3f199b1d3f680d87U,
  0xc02c895c3efdea17U, 0xc01c1a8fbd548068U, 0x3f91115abf878c54U, 0xbf07a52b4006eb3fU,
  0x4002645d3da637f7U, 0xbf67888a3f5c5a5dU, 0x3b3cb0c9bfc19cc3U, 0x3fddfdd7bf8adea5U,
  0x3d2069833dd5bf63U, 0x3ed8ffb3bfa1cdceU, 0x3ca28939becebeb7U, 0x3ed1ed83be8002e1U,
  0x3f7a5d9c4012b2bbU, 0xbf3f7fab40782199U, 0x3f0ee74a3fe98c80U, 0xbfb8d03dbee0dddcU,
  0x3f38593cbe1d4502U, 0xbf9b541d3eea4b18U, 0x3fa459a23f09c3a1U, 0x3f17a61f3f5e88b0U,
  0x3fc00fd83d3a49e1U, 0x3f72f324bf20deefU, 0xbe951ec63fe06ff8U, 0x3f23d4d63fb9ac06U,
  0x3ef0438bbfaeb732U, 0x3dd96e1e3f8ffa4cU, 0x403d3f0f3ed88341U, 0xbe1586653f0ce32dU,
  0x3e8e9e8d3f150ecaU, 0x3ffacb9b3fc7898cU, 0x3e1bd29fbefc81d2U, 0x3ed857103d9140e6U,
  0xbfad36a73ec87a29U, 0x3ed6d4cc3e8a04b0U, 0xbd328c353f0c9023U, 0x3e85913b3efe7473U,
  0xbe92fe953e4ba2f3U, 0x4007381abfab6b5bU, 0xbe1f662b3fc581e5U, 0x4019f81c3ec1504eU,
  0xbf613ea83ef44ecbU, 0xbf511dd8bf321f4aU, 0x3f75cc123fe32040U, 0x3ed27078bfd68982U,
  0xbf2327eebf3f1a7dU, 0x3c01be63bde92704U, 0xbeb2d22b3fefdc6cU, 0xbecf3ede3f252452U,
  0xbe29a8653f829f1fU, 0xbf9d1bf63e285865U, 0xbf3939b9bf1d4ad7U, 0xbe3dabbe3e36dc5fU,
  0x3fd23d893f016f72U, 0xbf6c8eeebfb01079U, 0x3f05b06cbf176d6dU, 0xc032b4783fb32e14U,
  0xbe136dcfc041fcb8U, 0xbfa57f5b3f4508e0U, 0x3fbf529ec04bc0daU, 0x3fc211683e56ae2cU,
  0xbedf856d3ee4cbf6U, 0x3ff76433bf31f68fU, 0xbea8c821bf43a987U, 0xbefed3033fbdd41aU,
  0xbc607e8b3df9e314U, 0xc005c2f5be9ef7ebU, 0x3f6023dbbedc2556U, 0xbf4167653fb21e51U,
  0xbeea65773c8a4f1fU, 0x3f4d443d3f60793eU, 0xbfc964273ee87cc6U, 0xbeea9ad6beb24642U,
  0x3e9bc5063f5a1c0cU, 0x400d82633f24dc0bU, 0x3d9c52d43fe4890bU, 0xbe351341bfb57c9cU,
  0xbf6a534b3f9476a3U, 0x3ff481da3e66bc36U, 0x3f55131abf92a6d2U, 0xbf47edbb3dbf45e2U,
  0x3cb1e9fb3d0c2791U, 0x3f473a293ea4adfeU, 0x3e2e40f5bf9cda38U, 0xbebc07e4bf283e52U,
  0x3e6667e23e9be1c1U, 0xbf0677333ec6c718U, 0x3f4fae4c3f1a41f6U, 0x401bac07bf6344b6U,
  0x3f3944a6be89ceffU, 0x3edea5c93fa6fc1fU, 0xc012c4d23fa996a7U, 0x3f6c81983e6dddc3U,
  0x3dd669de3e2e7179U, 0x3ec3e57bbfaff3d4U, 0x3eb0bdc83fb376d3U, 0x3fd482bebf47a524U,
  0xbf9b2d6f3f77569cU, 0xbf53d9503e927dbdU, 0x3f321d89bfacdb46U, 0xbdd6b8803f4901ffU,
  0x3fcdbca63e8a447aU, 0x3ea1ba7d3f72cd99U, 0x3fae44c23fa2269cU, 0xc02dce9abe743dfaU,
  0xbf8a70ccbff2470aU, 0x400e74f43fd740e1U, 0xc01431b5becd326cU, 0x3f86e30fbdd75037U,
  0x3eae8edebecb2276U, 0x3ead31a440197397U, 0xbedbb41c3fbec7bdU, 0xbfe0d7533f8182d1U,
  0xbfe1eba4bf2657a9U, 0xbfe58b27be3d453dU, 0xbf4ad2d53ec8ecefU, 0xbf1178a93fc4a9bbU,
  0x3fbaafbe3edc81bfU, 0xbf4d04eb3f9a1e4dU, 0xbf210ce8be2bf0a4U, 0xc05c30393f3b0a6fU,
  0x3f591462bfe294dcU, 0xbfa8e454bf293ea4U, 0x3e1d41e1c07ea74aU, 0xbef876c4bf0c31c5U,
  0xbea4cda73fcdbb52U, 0xbfb1949a4007adb4U, 0x3df6020d3d05b7b7U, 0x3f9cf4b33f454b68U,
  0xbf15e2063f32f81fU, 0x3eba7056bdd80f0cU, 0x3f8ad444bf8c2f4bU, 0x3e98c2d5bfd6f7e4U,
  0xbfad8505beb99788U, 0x3f91b060bf72787cU, 0xbc3f786cbf57fca0U, 0xbfed2d50bf9a20a7U,
  0x3e7de1723ff4736eU, 0xbfef14b93f95857bU, 0x3fd1f5d1401fa341U, 0xbe32761ebf63227bU,
  0xbf52de16400bf13aU, 0xbf9fe5673fb55ebfU, 0x3f05a271bf179ae8U, 0x3ef46dc33f591749U,
  0x3f656bbabf4f0a3cU, 0xc0993dc63ef71ef0U, 0xbfe964b2be9f917fU, 0xbec1f64ebea7a2ddU,
  0xbf899d38bed7c308U, 0xbf1e659fbf2c3c37U, 0xbfc6cea93fb9ca6cU, 0xbf03f4a7bf23f6c3U,
  0xbf778f2fbf522a7eU, 0xbf0a4e3c3f922859U, 0x3faf95e6c006ca9cU, 0xbf8709ae3ead7f20U,
  0x3f0e7187bf8d8053U, 0x3f18b5b63fe3542dU, 0xbe6eb6c1bf1359a3U, 0xbfc195e03f3693efU,
  0xbfc0e4ca3f95b81bU, 0xc0b43fc5bcd543d9U, 0x3f985881bf6a813bU, 0x3ec2dd85bfa48dcbU,
  0x3f0bae683d2e2354U, 0xbf01056c3e3428f1U, 0x3f0172063e1aa477U, 0x3f96126ebf50a94bU,
  0xbf8d4eeb403ac53eU, 0x3fee5bc23fec8e58U, 0x3feab98e3e9fe312U, 0xbf793de0bd7fd9c3U,
  0x3f362eecbe5223f1U, 0xbfada73440994597U, 0x3ef624ba3f94f533U, 0xc0031f80bea7715bU,
  0xbe97bdc23f2aeac0U, 0xbf6a0a9d3ebf91c8U, 0x3fcaccfbbeca5113U, 0x3f1ed4db402729cfU,
  0x3fed2d283e331c7eU, 0x3f91f252bfa6b793U, 0x3f72396c3f43afd3U, 0x3ce814c93edac155U,
  0xbf69acbcbfe179e8U, 0x3fc5d5d6bea5a3f7U, 0x3ff29cda3f1d4e5dU, 0xbee1479a3f947861U,
  0xbf272078bf8e39a9U, 0x3e184a96bff29416U, 0x3e37af6e3fd910d9U, 0xbf1f76373fa81655U,
  0x3e3693703f06dcf1U, 0xbf5d0105bd0d8330U, 0x3f9857a7bf38a772U, 0x3e91f57b40054cc2U,
  0xbef614b83f00fc79U, 0x3f49e6c03f06a3f4U, 0x3fe5dcba3f14a81dU, 0x40182c383e06a98cU,
  0x3f25bb3d401e5a09U, 0xbed8ca1e3fe70de2U, 0x4003067d3f9dd49fU, 0xbed7aa5cbe45705cU,
  0xbeb7a2b83f4f0523U, 0xbfb5cea2400fb0d6U, 0xbd97fa7fbf785e52U, 0x3fce2b523e88e75cU,
  0x3f7e7eacbe4e183aU, 0xbfb479b6be0e8a57U, 0x3fc7102bbe56a801U, 0x3f006cb63f90038cU,
  0x3f9ae0873f9bdaf5U, 0x3f815fe33e674145U, 0xbf842709beacfd5dU, 0x3edaea263f5f4a28U,
  0x3ebffea2c011152eU, 0xbeb7f2923fd689afU, 0x3f486dbbbe1d36bbU, 0xbf0355aabdd45065U,
  0xbf6f6ab8be9d7d10U, 0x3e8bb43cbf78f376U, 0xbe3e23dcbd365e00U, 0xbe9674ac3e06d87cU,
  0xbd19d60d3f510febU, 0xbf39feadbf5f7b2fU, 0xbfea1dd43ea066ccU, 0xbfade8d3bf8fc06bU,
  0x3de15a64be83114fU, 0xbd85ca99be2447d6U, 0x3e8eafa1bd6a2ae5U, 0x3e58a4c63f0d119cU,
  0x3e2e0a51be14a595U, 0xbfa4edb4bd56e2a3U, 0x3da42afbbe79127aU, 0xbc997738bee5b4baU,
  0x3e022b5ebea31e67U, 0x3dd7f041bd4344afU, 0xbf392a24be97c7d2U, 0xbc39f27b3c115f5fU,
  0xbdcd44fdbdafdf79U, 0x3d70b7263cae6085U, 0xbd8640c2be2b94daU, 0x3e1723ce3e4b1668U,
  0xbd88e4c93c85c15aU, 0x3d84c4643d697461U, 0x3e8d5631bdc2f3ceU, 0x3e7c656b3e7b330dU,
  0xbd1f3de6bde88645U, 0xbe77dce2be184b97U, 0xbe6d08a43d8c0580U, 0xbe2c85dabe5da604U,
  0xbd26bab43d4183bbU, 0x3d1fbb393d0d8e85U, 0xbde822943dfe296eU, 0xbe3725e7bb2242b6U,
  0xbdc60c33be0bf276U, 0xbdff2a58bd92094fU, 0xbda224a9bebcfc02U, 0xbe1fed6c3e43c4c0U,
  0xbe1785bbbcec8efeU, 0xbde33c3d3e4d7c74U, 0x3e3edfe23da43930U, 0x3d7d1ab0bd7b3299U,
  0xbd1f57833d78d448U, 0xbfe5d454be036fccU, 0xbeb6c6b7bddcc071U, 0xbc5c400dbe053d04U,
  0x3d3c8fb83e2dffa1U, 0xbe243de33e3cc778U, 0xbe88e4c63eb71777U, 0xbd5e10bc3e96b409U,
  0xbe412eadbe859594U, 0x3dd640db3e4c5d48U, 0xbd9160f5be99a7c1U, 0x3dfd9706be21c0f9U,
  0x3e1173babe1cec92U, 0xbcee0bcabefda050U, 0xbd802c3c3da8aff3U, 0xbeb2f8e43f06a1b8U,
  0x3e682663bd8b7872U, 0x3f549333be945dc7U, 0xbdf2d9d9bd567d56U, 0xbdb7b06abec552baU,
  0x3e79b8143e322463U, 0x3e3c083f3de01817U, 0x3e9919f4bea2aa4bU, 0xbe3298353eac7577U,
  0x3d60e8723c611281U, 0xbe098e09bdd4419bU, 0xbe0202853e046c8eU, 0xbd61c7ccbd8712efU,
  0x3db7742a3e36514fU, 0xbed4b1a3bde71120U, 0xbd8a7cf5be48121fU, 0xbf3a57d7bece0f9cU,
  0x3df290af3d101807U, 0x3f6b69fbbe1109faU, 0x3cd6a2963dfdf464U, 0xbd003a1ebead3a0dU,
  0x3dcd522fbe05f007U, 0xbdf719cabd343abfU, 0x3eb90676bea4f7f5U, 0xbdb9c1ea3e9db110U,
  0x3d47e0c33f090461U, 0x3eb63ee7bca02e55U, 0xbdaea65abb8cd32bU, 0x3d2fee53be2cc6a6U,
  0x3dce22b6be3689f4U, 0x3e0958b63ea5ab77U, 0xbed5fa2dbd89ea9fU, 0xbf18f8da3ea45856U,
  0x3e1919b03dba5fa2U, 0xbeca5b4dbd886561U, 0x3de800eb3c0fc2daU, 0xbdede5abbed75041U,
  0x3e48549dbd8180d2U, 0xbd44fdd93e0665b6U, 0x3f0d1594bd7ea158U, 0xbe5185b93e603e73U,
  0xbda081473ed2e2beU, 0x3dcacb203d8fa33dU, 0xbd6cba533e3e0f17U, 0xbda43a143e6ffc54U,
  0x3d862334be841b23U, 0x3e285ab33ce6ce0fU, 0xbdb4d9563dc28eefU, 0xbf1d00d7bf070539U,
  0xbceff32a3d5dca6eU, 0xbeaaf361be17f5c6U, 0x3c9ab8a53d7f8af2U, 0xbd7dd854be03bf1bU,
  0x3e61b889beb45e6dU, 0x3e855f83bde0ec0fU, 0xbf2d3c9d3e3bab2bU, 0xbe49712abe6563eaU,
  0x3d49fd223d10dc02U, 0x3e2ab2debda5274fU, 0xbe273471beb45146U, 0xbc8043c23e0364a3U,
  0x3ad077db3e6de69cU, 0xbddea3a5bd82b78eU, 0x3d9d6bf0be1171eeU, 0x3f8382173ed9be8eU,
  0x3d9a5f473c21baf4U, 0xbe7e4233bd99332fU, 0xbe3ae5d3bd4d9979U, 0xbe168e8abece14d7U,
  0xbd8b5577be9f7896U, 0x3e047d783dc1c5e3U, 0xbeca2b58bcf54037U, 0x3c666c8fbe860a47U,
  0xbdda23f5be513fe9U, 0xbe22efb53dca1c8aU, 0xbd4da8183c823e25U, 0x3d1acc9b3df7b367U,
  0xbdb0c31bbe2f6511U, 0x3e1d2f54bd549fc1U, 0x3c943424bd836df4U, 0xbf2058ef3f2416d2U,
  0x3c141d1f3d4b92abU, 0xbea5ac0dbe376e28U, 0xbe6a75a6bdd31f04U, 0x3d76f864bdc9ba5bU,
  0xbd7ae0b3bd8bbe56U, 0x3e6b783e3e382e57U, 0xbfb506543e8b5ebbU, 0xbcfe369a3e856d7cU,
  0xbe31bc06be6a670bU, 0xbe007fd33e04bbbfU, 0xbd835a4ebe95e693U, 0x3cb968d83e65f587U,
  0x3dab7c5dbe182fe5U, 0xbe22101cbdc3914bU, 0x3e485008be455830U, 0x3f1d77943e59b7d3U,
  0x3e6ceec0bcb2b968U, 0xbf7d8d94bd4a62b1U, 0x3daf7e553da7e57bU, 0x3d28b32bbe285cb5U,
  0xbf276c383df94e7dU, 0x3e5687e3bd6d6338U, 0x3ea560193e80bc2dU, 0xbc21c1343e967ff8U,
  0xbe2ade44bec39fa1U, 0xbe348df0bc1acf0dU, 0xbcb249673e3449a5U, 0xbc0cfdb6bdc8a527U,
  0x3d822d1cbe89edf9U, 0xbc4b5c8b3f0911dbU, 0x3e9c1bb5bdf8d498U, 0xbeefc928bebe2590U,
  0x3ca87f52bd53d758U, 0x3ed5daddbeaa9541U, 0xbd5f05823de64ac6U, 0xbe1be4afbdcde72cU,
  0xbe43c6ec3d91d66bU, 0x3d8ba92f3dfb8dd9U, 0x3df4e58c3e674f5eU, 0xbe7bba06bd9fb30dU,
  0x3d9885813e9163a8U, 0x3e97708cbe41e143U, 0x3dd6900abdb1e5a5U, 0xbe007cd8bd03538eU,
  0x3d809e803d9260aeU, 0x3ea85d343f2d5498U, 0x3e097b58bde62329U, 0x3e873045be59eee2U,
  0x3ae8f587bcad6e9fU, 0x3f2781c6be50f901U, 0xbe9194eabd196cf5U, 0xbe6013dcbe88be80U,
  0xbdb103af3dd82ce0U, 0xbd7030fa3d580f7fU, 0xbf3873b0bc5f6eb0U, 0x3d13a675be220e7aU,
  0xbe19713bbe6335baU, 0xbcf6b255bdf55cd4U, 0xbda4848dbe00a3ebU, 0xbc668e24be092113U,
  0x3c15fea93d9c9ca7U, 0xbe7a347fbd95b0b2U, 0x3e257b7a3d287bceU, 0x3f62e58cbeee9919U,
  0xbdd400503d903df4U, 0x3e7b5cdfbe385bfaU, 0xbe07a0d2bd81b352U, 0xbd179bc4bd965a29U,
  0xbea558d7be95f17eU, 0xbeeec97c3d921e63U, 0x3f847e7f3d1dad96U, 0xbdca92c43ea9a1baU,
  0xbe0692473e1667daU, 0xbec26443bc2fac1cU, 0xbe1d1904bc6cf5faU, 0x3def505dbd17dba6U,
  0xbd6f4dfe3df567acU, 0x3de5a2ac3de51e09U, 0x3db08fcb3e00808bU, 0xbf59ad793e11902bU,
  0x3c896b803bc2bd2eU, 0xbf00e494be4c9df7U, 0x3ea17cc7bc868d33U, 0xbe1f1a8dbd9064feU,
  0xbea73002be5ce2d7U, 0xbe77e380bd042190U, 0x3f86870fbdbcbfc9U, 0x3d33878b3e8e9810U,
  0x3cd53e0b3e069220U, 0x3dc632cfbe39d514U, 0x3c326f9b3d8e04d4U, 0x3df3f6853d5a1dfcU,
  0xbd21678dbdd6e172U, 0x3db05e26bec2a542U, 0xbe154428bd86cc5fU, 0x3f0a1ac9beed9b53U,
  0x3dacd52cbce251d4U, 0x3f15c744bdb8aeedU, 0x3d3672ce3c1996d4U, 0xbc4c0c013ec79974U,
  0x3e8ae6a23e5429a3U, 0xbf04a5083c4ae114U, 0xbe7426f1bebdae31U, 0xbce88bd9bd585699U,
  0x3e01531fbd5a6bb6U, 0x3e614534be22dbf9U, 0xbdb0d5423e8dcf18U, 0xbcdd7b263d5e888eU,
  0x3dadf4e9be803431U, 0xbcbdd3e3be265df7U, 0x3e99e505bca63772U, 0x3f111d30bf17614aU,
  0x3cfa0500be1f433bU, 0xbf5bd7af3dcb0cf9U, 0x3de6130b3d28701cU, 0xbca2ff1d3e9c34bfU,
  0xbd31987cbe308795U, 0xbe1537e73d652116U, 0x3c179192be37f104U, 0xbe96845e3d7332d1U,
  0xbb27b32bba86b112U, 0x3cbf665cbdd13f0eU, 0xbdac8df53e118ff1U, 0x3cc407fcbe70b938U,
  0x3d65f0193dfe36b5U, 0x3da537efbe29bd5cU, 0x3e0ebeb3bd9187b9U, 0x3f84569e3e8b777cU,
  0x3e10bf1d3dcc1fbeU, 0x3f0a66debe9ea5d3U, 0xbdb0ba133e28fc0dU, 0xbd312907be1c85b5U,
  0x3dfe6919bd808d3cU, 0xbec1034d3d8453ffU, 0x3f23fa3d3e5735ddU, 0x3d4b39babe8fb3aeU,
  0xbcc0fdec3d3e857dU, 0xbc8f31f8bc82926eU, 0x3dc4de4f3e18c9dfU, 0xbd4cf12dbbd281b4U,
  0x3d8484fc3e27efd8U, 0x3e7959223d777a45U, 0x3e62f6debe385a8fU, 0xbbaf4abf3ee6d6f7U,
  0xbdecc331bdc8712eU, 0x3d78c0e5be5936deU, 0x3dc30b81be187219U, 0xbe0d5fe3bdf10dc8U,
  0x3e266d463e31e4afU, 0xbe45effc3ca488bdU, 0x3ef33d1b3dd058f9U, 0x3c8058263d92d7c1U,
  0xbdf189533d6c3563U, 0x3d12cea83c43cb0fU, 0xbd13ea17be29d697U, 0x3de0d582be36b670U,
  0xbdfa15fdbe9ed753U, 0x3d80888dbcb73185U, 0xbc9d5695be3a9077U, 0x3d8ffaf6bde67fccU,
  0xbdc0b21ebd699864U, 0xbf82b3443d0f45dbU, 0xbe4a9646be11585eU, 0xbe01fbe03e2cbb23U,
  0x3edb24013e0ad2d8U, 0x3e00336d3e207545U, 0xbebcaf7b3df8f498U, 0x3d090cb83b782658U,
  0x3dfe1c9a3b7eb389U, 0x3e8fef3abe0adbc5U, 0xbc83df3c3ead8c32U, 0x3739575ebb9c971bU,
  0x3c13310abe916f66U, 0x3ea09be7bde724adU, 0x3e4e3906be0f9ed7U, 0xbef8bc29bc2955c2U,
  0x3dc717df3c69e1deU, 0xbff706d1be10af61U, 0xbe0ab994be0282bdU, 0xbda906b93ddf3322U,
  0x3dc7167f3e101c11U, 0xbd69e780bd3a55b5U, 0xbda05266bdd9d617U, 0xbdd6a8d2bc8d53b1U,
  0x3e26d70f3e25fc09U, 0x3d8ac2e7be26d4bfU, 0xbdd146fb3ed57f0aU, 0x3e1420cc3dcebfe2U,
  0xbd39889b3e11f25dU, 0x3cb83cd8bea10a3fU, 0x3e9af2593dc64586U, 0xbe9cf92cbf0d2b26U,
  0xbdcdc08b3dbbfe52U, 0xbbdce3a9bdc5de0aU, 0x3e33ff3dbd0b766fU, 0xbe07a2543ebb576eU,
  0xbe4865e7bd5ec32dU, 0x3df9c2843db14c9cU, 0x3d3f00f2bc5c5be0U, 0xbe04253a3e656b62U,
  0x3d8ad4dbbec5a9beU, 0x3bbe8835bdea94d4U, 0x3e091e143e90b7d0U, 0xbde13ff8bd108930U,
  0xbc1c96ddbe6249dfU, 0xbdf7b509becb78eaU, 0xbe947dae3d9c9a80U, 0xbecb35233e2ba4dcU,
  0x3e08d032ba0356d7U, 0xbea8e7ddbe037c87U, 0x3e8a2ab6bd884fa5U, 0xbdeee103bed5d2f5U,
  0xbe0d004cbc465c55U, 0xbe40d7dabcdb1f37U, 0x3dbede973e22644fU, 0xbdcbd52dbe87fd96U,
  0x3dd660ad3eb16fabU, 0x3ec922bbbe00df08U, 0x3e19bd823d98bd79U, 0xbe17c13abd655225U,
  0xbc1873903da68ea8U, 0xbe9c370b3e5fe390U, 0x3e29a398be25eccaU, 0xbf02942dbe2e5130U,
  0x3e4134b5bcf65a8aU, 0xbf40f6483e5040adU, 0x3e07b35bbe02c67eU, 0x3cf41d5ebdf6ad73U,
  0x3e3b6b0dbde2f163U, 0xbe79361abd04d465U, 0x3e8b82e63eb95378U, 0x3ccf7ae13d760d71U,
  0xbd8abdf73e3d1351U, 0x3cef65eebd4ac682U, 0x3d83b2643e33b066U, 0x3ddf95f8bddd5e2cU,
  0x3db5a323be704671U, 0x3c9b04d63e8b20c4U, 0xbea8c13cbde1a1feU, 0x3ef2c7b93f2f9898U,
  0x3dbef7073dcb8164U, 0xbf5abf11be7ace8eU, 0x3d1b78d1bd2844e6U, 0xbce2d531beb270c6U,
  0x3b4fda6fbaaf0e76U, 0xbe5757a23e3972c7U, 0xbcc886ae3e042efaU, 0xbd06e8193de943bbU,
  0x3e0bff7c3d433e35U, 0x3c3ff5213d911880U, 0x3e1da602beb063f1U, 0xbe090fa73c501180U,
  0x3d77712abe5c89bfU, 0x3d54602d3e542960U, 0x3ec01c703d5d7bb9U, 0xbd1a7f5a3e458e37U,
  0x3e633889be04744eU, 0xbf52f2cd3ca030faU, 0x3e01ab4bbdeda8c0U, 0x3c527a6abeb214b2U,
  0x3e34d38c3dcec11bU, 0xbe731b093dd5e002U, 0xbf0058a73ecfdadbU, 0xbe57a8be3d349010U,
  0x3c8a1fa4bee9cea5U, 0x3e850b15be01e387U, 0xbd86add63e2db331U, 0xbe30dc6c3ccdd12dU,
  0xbda52a8dbe18cc0eU, 0xbe4ca44dbe8aa6c6U, 0xbe995f9e3c314ca7U, 0xbb3adc303d7c4553U,
  0xbd02f693bccb3c78U, 0xbfbe38c5bdff935cU, 0xbe9bbda9bd87dcdcU, 0xbe39ca9cbdfedd14U,
  0x3e8761f03d054f2aU, 0xbe014780bb04ab73U, 0x3e05a2fb3dd733a8U, 0xbe1437643e8db5f6U,
  0xbe0b590dbeff2000U, 0x3e806d9a3dd1f5deU, 0x3d94549ebd865ebfU, 0xbd9167113dcbf9aaU,
  0xbcb68decbd4aa388U, 0x3e10bfa53dd91aecU, 0xbd65dffe3ba01d16U, 0xbf1265ed3f55280dU,
  0x3d88aa90bdb9e34fU, 0xbf0e28b33e18840cU, 0x3e08f8b6bc457d52U, 0x3d037eb33e03c960U,
  0x3e096928bd67fb28U, 0xbe08a3ffbc72a2bdU, 0xbe43e20d3db2a189U, 0x3d18dfaebe1ce57aU,
  0xbd568f88beb62c10U, 0x3e20d9803c8eb20eU, 0x3e01363fbe823d9cU, 0x3b7a12ef3e28bd8cU,
  0x3b8c2b883b16c684U, 0x3e784cbbbe3d8fc8U, 0x3ed02bc5bd5d3de3U, 0xbf0d86e4be1c43adU,
  0xbd94d3f23e193cb4U, 0x3f74d7e53e8887afU, 0x3e396a483e2abbf5U, 0xbce156efbd803266U,
  0xbd33d4273cc2ccd3U, 0xbe9ca7a6bcd6da48U, 0xbf780d713dbfe543U, 0xbe1477873dedd0e1U,
  0x3e260223bdf46b40U, 0x3d6334793ddfe0f9U, 0x3d93b3ca3ea72b46U, 0xbdaa0353bd896835U,
  0x3d85d846be5779e1U, 0x3e0c7a9abe817692U, 0x3dad52443c86f877U, 0xbef0b7413f339898U,
  0x3c5f46f93d9a2615U, 0x3ef6517abe389d2bU, 0xbcc79bc5be05b562U, 0xbe294309be7ffd5aU,
  0xbdc6168ebe60aa45U, 0xbe240113bc6a02caU, 0xbe8a175fbdfa1c9aU, 0x3d6b08313eadbcb3U,
  0x3d089448be99e52fU, 0x3e39cb463c6bbe32U, 0xbd74cdc13ec539a3U, 0xbbad0ed33d9f181cU,
  0xbd208241be2a0f28U, 0x3d93fc00bd852dcbU, 0x3e8191973d056da3U, 0xbf106023bec85c0aU,
  0x3d94c76d3ba2b08dU, 0x3f91ea593decb807U, 0xbe51b5113c8fc29eU, 0x3c44732dbac1f1c1U,
  0x3dfd50f0bda0e17eU, 0xbec77ab83d969961U, 0xbf146c253e1b0934U, 0xbe32a9583ea9bc6dU,
  0xbd4da60abe232744U, 0xbe02ddad3d4323e6U, 0xbc8819443e9986a1U, 0x3e1678e13e1a5c36U,
  0x3def94463ddcf577U, 0x3e9d1510be1c337eU, 0xbcec23e1bdf2449cU, 0x3f520055bf3bc63eU,
  0x3e6d4134bd9184cbU, 0x3f4cb2cb3baa8b94U, 0xbe17c7fbbd39e083U, 0x3de20b87be3929caU,
  0xbe579d903e423b68U, 0xbe8c17afbcbef3d5U, 0xbde8c83c3da85656U, 0xbd7685893eb1121eU,
  0xbe36b3003b8e05e2U, 0x3d0417c4bc7cf3c5U, 0xbdd17ff13e3e73c4U, 0xbc8199bd3e65d048U,
  0x3c2e9b93be74c337U, 0x3db8c456be9d5858U, 0xbdf4170c3e371472U, 0xbe135e243c906e52U,
  0xbc8f2f623db1b2b5U, 0xbe8003babe0b3aa1U, 0xbc0d09253ddec8b8U, 0xbdbe01cebe8f13bfU,
  0xbe80d9aebd2b647fU, 0xbebce291bd1976acU, 0x3e8b19d83e820e6dU, 0x3dc9c5583daef786U,
  0x3db51dd43df4a93aU, 0x3e7317a7be47c729U, 0x3d9716c23dce114dU, 0xbe3ee026bdfa8d6bU,
  0xbce3d116be5c2e3dU, 0xbd911503becc6cbbU, 0x3e4e75183e278be5U, 0x3d4d2d04bf128e67U,
  0xbe09e7dd3de38cdeU, 0x3f5c63a63e23e1ccU, 0x3e27db633da82677U, 0xbe24444d3e071ed2U,
  0xbeb6ea28bcd18df6U, 0x3e24555fbd879b28U, 0x3e6fe52cbc8e1ea5U, 0xbe7641533d5923e3U,
  0x3da0aa5c3e9858b4U, 0x3e17e05fbe18c156U, 0x3e16e514bdd3c113U, 0xbe421bed3e58e504U,
  0x3ddfa7443d7c12a9U, 0xbdc1ceedbef6277eU, 0xbd8f3203bd095f49U, 0xbf01fd2b3ea3bb43U,
  0xbdbd19593c9ff899U, 0xbca4ddafbd6741ebU, 0xbe219723bd1f6275U, 0xbe181d11be3f8a93U,
  0x3e167e673e6b463fU, 0xbdee77e43e300632U, 0x3e166bd83eba3885U, 0xbda17ee83e17af79U,
  0x3dbc93893d2c0a23U, 0xbe07d424bc64c246U, 0xbd3aedab3f2e035fU, 0xbd09b5b0bd1db345U,
  0x3d914f833d5a30ffU, 0x3dcc9c093eb4770bU, 0x3de18445be0a0261U, 0xbfd486393c67813eU,
  0x3e2ea11bbdcedff2U, 0x3e2f589cbe80f616U, 0x3dc3e5cdbd86f250U, 0xbcf70c2d3e410044U,
  0xbe160d363e8849c2U, 0xbedc4f53bd8b69f2U, 0xbe7e7dc23c32e628U, 0xbd0d95903e9bf628U,
  0xbdcd8a793f077a60U, 0xbe95d5fbbd0a0b73U, 0x3d78eb7c3ddd3f46U, 0x3d5860913da33f4cU,
  0xbe04428dbda4e146U, 0x3d191317bd9fc793U, 0xbddde021bdf4e9f3U, 0xbd0dd89bbf8829f2U,
  0x3d74771dbdb11224U, 0x3f12fd0abba8465bU, 0x39eede9bbdda9820U, 0xbb3d7b25be46e762U,
  0x3e2ef8a5bdd8f634U, 0x3c6ad842bdc3145eU, 0x3efbe4b0bf1685f7U, 0xbe51e0393d70bb53U,
  0x3cfb41edbd82dd6dU, 0x3f0afaffbe349e73U, 0xba3f23f43ec3e523U, 0x3cb1618a3deb2de0U,
  0xbd9d92f0bd7ad423U, 0x3e57a0dcbe394295U, 0xbd30627dbd9b89b4U, 0x3ebbfd833c52953cU,
  0xbde4cebdbd8f366cU, 0x3f4bc75dbe7f442bU, 0xbd8874c93d94e149U, 0x3d289c5dbe1206a4U,
  0xbed2049fbe0b1405U, 0x3e146b2a3c05df2cU, 0x3f33a44a3e31b444U, 0xbe5017e0bc2eedc0U,
  0xbe06664dbd8684deU, 0x3e178cbabbcfe880U, 0xbc98dd1bbe0b133cU, 0xbce76d593e395b9cU,
  0x3cbf88ae3e089a2eU, 0x3e60bd213ea69d1eU, 0xbe74712e3c8c3139U, 0x3ec7ecd4bf39664bU,
  0x3cf7aa893d929aebU, 0xbe4e0033be7e2ebeU, 0x3d6084f3bd8cceb2U, 0x3d7657f0bea83a52U,
  0xbd0721b03e304ae9U, 0x3d3938aa3d1b4a57U, 0xbd9abe3d3ea340bbU, 0x3d402a403b87da95U,
  0xbd9b5e933f006e9aU, 0x3e360b69bd35332fU, 0x3d690f48bcad8a9dU, 0xbddf524abddd05c0U,
  0xbdf7ae27bd60366eU, 0xbc0bcec93e35363bU, 0x3e2321acbd9dd9a7U, 0x3fa898053ea92475U,
  0xbd2a32713d06e851U, 0xbeaeac48bd963efdU, 0x3ea9061abd83ea7cU, 0xbd225f693e2bf04eU,
  0x3c38560abe9ad2a7U, 0x3e3515ee3d00f3baU, 0x3f1e68b03ea9cbd4U, 0xbe7509263ec8cfacU,
  0x3e3066473db42770U, 0x3a914d4dbd8a1dedU, 0x3db9fa073e7d19c7U, 0xbe5d6f733d919853U,
  0x3bc0bfa93e4558c0U, 0xbd824ceabe59e93fU, 0xbe416497bdef7341U, 0xbfacad7a3db1e1a0U,
  0x3e21d2f3bd9aecaeU, 0xbf786fa9bd796c38U, 0xbe705b3b3dba1a56U, 0xbe49a29dbe544239U,
  0xbc9ab73d3ea6cf2fU, 0x3e8e77d23db19013U, 0x3f9293863ed03137U, 0xbd8c581d3ed7d022U,
  0x3dfd062bbcbf376aU, 0x3d315dcabde37584U, 0x3d38a9983ead7fdaU, 0x3dc3983dbe1bc4f4U,
  0xbcb36efcbd29e3f2U, 0xbe767017beda51acU, 0xbeb8e3ba3ced8c26U, 0xbf16e276bed73bb0U,
  0xbe308eebbd839efcU, 0xbf8b2880bed404afU, 0xbc2b6cf33e1b5e90U, 0xbe3ba6553e38e077U,
  0x3e82da3bbe224162U, 0xbe3500893d67cc18U, 0xbeeb1f92be8d9103U, 0x3e04bb373d9f0052U,
  0x3e1e52443f19cc4dU, 0x3e7a1c01be13defcU, 0xbcda32113ec2ce10U, 0x3d90f91abe11ff5aU,
  0xbd3db295be1d2d31U, 0xbe7dd5a7be1c7e7dU, 0xbe9e1d2cba8ca246U, 0x3df393863e255211U,
  0xbd214d05be12306dU, 0xbeaf5be0bd941867U, 0xbde407fbbd6b55f4U, 0xbdc88eacbc7d9823U,
  0x3d2a769abe2017b4U, 0xbb330d5f3da97c1fU, 0x3f38a09bbe8ebfdaU, 0xbdf153cd3e518228U,
  0xbc9881fabd22e3d3U, 0xbdd000d7bda3a118U, 0x3d4ecf1e3e99a9fcU, 0x3c1039233dc9c9f0U,
  0xbccb3edf3e03154cU, 0xbd122bd3bf0cef32U, 0x3e3486ffbdbb8cabU, 0xbfc829833f08e31fU,
  0xbe534b5c3cfb466cU, 0x3fb6a097be413545U, 0x3d474a133e3f63ebU, 0xbdc453973e894a3dU,
  0x3ea1e405bde1127aU, 0xbe4d47c43c63589dU, 0xbe6518223e0ee3ceU, 0xbe74b4e13e82e5beU,
  0x3da883e0bea8c8e1U, 0x3d671f233dda611aU, 0x3dbf566d3dea5c94U, 0x3df421e7bdd4ad68U,
  0x3d9af5243de589efU, 0x3d95e60e3dae2c5dU, 0x3e53a2243c620a44U, 0xbf672a7bbf5f59f4U,
  0x3dd7ed823d24b705U, 0x3fae76643de8f4bdU, 0xbe353faa3e103d9dU, 0xbe093430be8a7762U,
  0xbd7e9b933d3a1e9bU, 0xbed3907ebe1580bfU, 0xbee4a3313df3b915U, 0xbb08b6863ece79a4U,
  0x3d2c5d96beacda11U, 0xbdabbbc83acd5af1U, 0x3d32f8493ed1253cU, 0x3d510fa43e869cc5U,
  0x3c9d772f3d9c76dbU, 0xbcbe6cdbbc07babdU, 0x3db4ebcfbdedf9ddU, 0xbd40e13a3ed5e893U,
  0xbcceaf25bd93e384U, 0x3fcfae503e8b701fU, 0xbe748f333d13083fU, 0xbe10ab30be6e79a8U,
  0x3e0a80e0be35a1b4U, 0xbed73f703c8e307eU, 0xbf05ab5abdd5e755U, 0xbe325c12bde8e830U,
  0xbde4182abecc7497U, 0x3d93e0e8bdb856b9U, 0x3d84da153eea845dU, 0xbe2402663dc5b2cfU,
  0xbdaea1053e969ef0U, 0xbe4f131dbf341d8cU, 0x3e2f049bbcf63a07U, 0xbf7975c2be363cf0U,
  0x3e5a64cd3daf6088U, 0x3ee0ef11bdce08c2U, 0xbe5cc8b2bd7139b0U, 0xbe2547cd3d1a614cU,
  0x3d64c1babe18a0d5U, 0xbc57a36f3ce33f13U, 0xbf3e3f7fbea95282U, 0x3e1fda273dfab4afU,
  0xbdb89c083ecadbd4U, 0xbe2e47c9be015904U, 0xbdf2ac1fbd03dbf9U, 0xbe28fa6abdbd6fcfU,
  0x3de33bf9be392186U, 0x3d87bf3abecad11cU, 0xbdad9ad73da00b9eU, 0x3e55431cbe7e1f2aU,
  0xbd07a4233cc6b91eU, 0x3f1836833e066a72U, 0xbe2c07fabd81f44aU, 0xbe5443453e753379U,
  0xbdba2a8a3d9477b7U, 0x3c97aa4bbdafbbfeU, 0x3f53b0e83cdc5a1aU, 0xbe15e4483e60ea87U,
  0xbda13bf9bf2223d4U, 0xbeb3c3143c936489U, 0xbb9d41513e712732U, 0xbe19198c3bdb456fU,
  0xbc9ff5b73e237b81U, 0xbc7b324cbe00aed9U, 0xbe4fa7bcbe1061feU, 0x3e6eee21bf03c652U,
  0x3e17f3233d2f8418U, 0x3f333a4abe83f064U, 0xbe192dd7bd28638dU, 0xbde4f2e7bd84be6eU,
  0x3e46209fbc5243a3U, 0xbd88648a3e30ba9dU, 0xbebac0c2becb9479U, 0x3ae568dcbd1e4bb4U,
  0xbe1c3b823e973401U, 0x3e3db87bbd60f9dcU, 0x3cc0e76c3eba2519U, 0x3ce74cf23e4d1098U,
  0xbd46dababc8183a2U, 0x3e866fa43e1c98c5U, 0x3e4c2f653e0d0ebcU, 0x3eebcd2a3f126b5cU,
  0xbdefc038bdb2bbebU, 0xbe25cfc73ce25e6cU, 0xbe42fdb7be03c672U, 0xbe0da5163c8b8a13U,
  0xbd8642a3be8434e5U, 0x3d67c9583b2df9efU, 0x3e87786e3ecf0babU, 0xbe43eca6be2e7a81U,
  0x3d55ba0c3d437740U, 0x3e003127bdcdc578U, 0xbcfdb46ebe20559dU, 0xbd8d60403e64a2d6U,
  0x3d9b221bbe1ba497U, 0x3c68efc73eafd580U, 0x3e8359d63e2206d8U, 0x3ec57b883f0e8fd7U,
  0x3ddcad25bdeff858U, 0xbf721edcbddf2b1aU, 0xbe93babdbe3821cbU, 0xbe2f7e283d572ff2U,
  0xbe785846bc331056U, 0xbddd1aa23dee6ff0U, 0xbe1fa7a6be4ec361U, 0xbc548a4cbd591842U,
  0xbe4db375bee39d01U, 0x3dd4acef3d0a3f94U, 0xbdddb9773d990495U, 0xbdd30148be199a50U,
  0x3d64f468bea54c50U, 0x3dbdf2fdbe48b414U, 0x3e926ce5bdcd4f3cU, 0xbf32ae653c658efaU,
  0xbdecd41dbd69714dU, 0xbff6465439aa63ebU, 0xbd3e49b6be05d89eU, 0xbd128d02beb85c11U,
  0x3ebe0c793e1adc2dU, 0x3e84962dbcb1f91aU, 0x3e11adc5beb6a134U, 0xbd9cb2373dd5c929U,
  0xbcaec105bed96279U, 0xbd35ea833dce19e2U, 0x3e01b2b4be5cd9c4U, 0xbc3677cc3e7a03cdU,
  0xbd89294abe2faeecU, 0xbd826bce3b96c46fU, 0xbcb3885dbe419175U, 0xbd98a236bebd9be7U,
  0xbe1f0b6bbd172030U, 0x3f1e35773e120368U, 0xbe8258243d14ebdaU, 0xbe3d6a933e2f7a51U,
  0xbeaf0cd83e491404U, 0xbd45a1c33dd56facU, 0x3d3303783e4ad8ffU, 0x3baad780bdd8e0fdU,
  0xbe1fe96d3d8057bbU, 0x3e1cd6023d6f72f3U, 0xbd709ae03e58e696U, 0xbdae4bff3c0d3419U,
  0x3d8723a4bd4e5ca0U, 0xbdfcbe3bbcd0ea38U, 0xbe6049583ccbcf6eU, 0x3f4e71c53ee2e896U,
  0xbd6a411dbdb4999fU, 0xbf02d54cbea1318fU, 0x3d5190fcbd8348f9U, 0xbe170b01beeb5758U,
  0x3e39a78f3e4693b8U, 0xbece0f4c3db6e864U, 0x3ec5591b3e9b04eaU, 0xbe24a8893e0b517eU,
  0xbcd3fa423ca9a40cU, 0x3e927f0cbdd2a96fU, 0xbdff8ab4bdf61e60U, 0x3e0457fbbc8d7a43U,
  0x3d7768273d8ce430U, 0x3c9ae21e3eab024bU, 0x3d1bfac7be3506c8U, 0x3fb19e3d3d0312caU,
  0x3e767381be07b712U, 0xbe8a5b51bcee2d46U, 0x3ea3ccd4bd4d4317U, 0x3b3756ab3e9c51a7U,
  0xbe8cbfa7beb24273U, 0xbf0740ad3e2b9f37U, 0x3f86882f3eca11a5U, 0x3db1f836be3adca9U,
  0x3cb5c7fb3ef4c450U, 0x3e1eecc43bcdf210U, 0x3d3ad3933e331604U, 0x3dd6ba0d3ddbf459U,
  0x3d91175ebdefca6bU, 0xbcdee081be3eb562U, 0xbe427b65bcd52356U, 0xbfda958abe48a67eU,
  0x3e1930edbd1bdc42U, 0xbf24a0cfbde1dd25U, 0x3e47b5d03dc12203U, 0xbd957332bdf69e5aU,
  0xbe958b28bd9759a4U, 0xbf15ab83bd055a53U, 0xbee7604e3e74fd72U, 0xbdbfaab2be39dd6bU,
  0xbd074a3b3cbb1ec7U, 0xbeb11d2dbe04a3b6U, 0x3d8905193e78475cU, 0xbdc5634f3d5bf281U,
  0x3cf50418bcd4e51dU, 0xbd3cfd043d2391c7U, 0x3e3619febdcf65aaU, 0x3cf56158bd6af8a6U,
  0x3de6f4533e2e9051U, 0x3dd7f06c3e8c8e06U, 0xbe34e88dbd275494U, 0x3cdc9fd73c19d3aeU,
  0x3e68e2ebbe6417beU, 0xbe0354973b930175U, 0x3ef4d1a13d1abc66U, 0xbcb51a333e622dddU,
  0x3d99ae973e82dba1U, 0x3ddc511dbcd7d3fbU, 0x3db2b6843ec9564aU, 0xbdfe7a4d3e9a86bdU,
  0xbd20770abe4be31eU, 0x3e138393bf13ee7cU, 0x3d2d1e3dbd745cfbU, 0xbf396990bea72fd4U,
  0x3dd5f12abc2a8388U, 0x3e8a111f3ee3c37fU, 0x3e0ff6fa3d927cb7U, 0xbdd03f743db7d7aeU,
  0x3ea904b13d2342f9U, 0xbeae6c81bb3e60f1U, 0xbe0447153d80ec34U, 0x3dca0286be48ffd9U,
  0x3d2b4c74be95ff60U, 0x3db147b9bcbed904U, 0x3dbf5586be3ee77aU, 0x3d9456d53e9f1b70U,
  0xbd5120203d7c614bU, 0x3d66667cbdb7b112U, 0x3d7f6e1b3e2da58bU, 0x3f2d52843ee35a9cU,
  0x3e03d817b9a3bb72U, 0x3f3824a9be57b3dbU, 0x3d8dad043c53dc6aU, 0x3dd2d0b1bde1df16U,
  0x3d0c9b043e77ff0bU, 0xbe3a34fe3cde5b69U, 0x3e82e2043c1f7130U, 0xbe1657233e012d16U,
  0xbdc90f2e3dd703a5U, 0xbe24f233bdc21b80U, 0xbd1a6b713ede1072U, 0x3d0316293e1596e1U,
  0xbd57acc0bddca159U, 0x3a45f18bbf29d147U, 0x3e4bd0a5bdfd95eeU, 0xbef18b15be88f143U,
  0x3df315fc3d1e32beU, 0x3f4024dabdadaaf8U, 0x3e2d747f3e263de0U, 0x3d53d51ebedf8559U,
  0xbea4ee213de5fe15U, 0x3e4ba35a3d7a47f6U, 0xbdabcf733e62e695U, 0xbe52e29d3e301a68U,
  0x3dd1435a3d3e41d2U, 0xbd8ee433bcc99df9U, 0x3da0b1573e05c7dfU, 0x3ce856d0bd9c5aeeU,
  0xbddbe84dbda68d03U, 0x3cdee18ebe829175U, 0xbd39c7e9be157d48U, 0x3f640c353ee1a260U,
  0x3e2cd6e0bde67d9cU, 0x3f6eb9ff3ce0a098U, 0x3e69dc44bb89ca5fU, 0xbde274d83d598063U,
  0xbd28eae3bd1d0ef4U, 0xbe18b31d3d06a2ffU, 0x3f36e0323e8481deU, 0xbc8199abbdbb3660U,
  0xbdf45a3b3e4a1df6U, 0x3ea436df3dd23696U, 0x3dc119233ee52e99U, 0xbc8f4d6bbe2fab6bU,
  0xbcf1c9d8be8d81b8U, 0x3d90dcafbe16f0eeU, 0xbe829a76bd8ad51eU, 0x3d689e8b3e4f96a1U,
  0x3e56f2b63c0a271eU, 0x3f6ea6c7bea9ae26U, 0xbde6aeea3d070fa5U, 0x3db955953e0c6bcdU,
  0xbec272b93cabc142U, 0x3e3e67c73dcfde09U, 0x3f754a723e767782U, 0x3d1654383e052985U,
  0x3c9920663dc561edU, 0x3e48aa1cbe1b2a9bU, 0xbdd6e9ee3e803f26U, 0xbe33cc003e6850a1U,
  0xbcd3f95c3e159f4aU, 0xbe527fa5bb3b75a3U, 0xbe2547cebdb4d022U, 0x3da35262be621266U,
  0x3e040e58bde20defU, 0x3d52491bbeae1971U, 0xbe2147b0be3702c2U, 0x3d4d53babec79f5eU,
  0x3cf79f08be0caa9bU, 0x3de6f72c3e0f3923U, 0x3e6d9948be18da87U, 0xbdc8d8a53e8da064U,
  0xbdfce7873e4ff28eU, 0xbe0f90593d24de12U, 0xbd25846b3e06e8c2U, 0x3d97d026be0fc58bU,
  0xbcf81caabc64415bU, 0xbd8257f83ddfb819U, 0xbdb07f38bd27914cU, 0xbf2d809f3dcda786U,
  0x3e05e81ebceab0d2U, 0x3f7c5c783d8611d9U, 0x3eae0df73d379b9aU, 0xbe293511be07307fU,
  0x3e9f8efcbe464fa4U, 0xbee67d0ebdd0fc75U, 0xbe1f44013e93e463U, 0x3cc61e133e6d8f2fU,
  0x3d6117473ebe5ca1U, 0x3e9dab31bd93a565U, 0x3d5cb9723e4302faU, 0x3e0239df3d4557b4U,
  0x3d34bd1cbdf03c78U, 0x3e666a43bedc77f7U, 0xbdd8710a3d1c932fU, 0x3f590ecdbdf460afU,
  0xbe07cc723c0a1fd5U, 0xbfd459023dba854dU, 0xbe177b62be25a992U, 0xbd6d63443e2f073fU,
  0x3cc9dddfbddae738U, 0x3e2ac5c53dec3030U, 0x3e33675fbec6048cU, 0xbe178c363e8017a0U,
  0x3dc5d2e9bead9f17U, 0xbd6bec88bdc87c2aU, 0xbdc8ff7f3cbb66fbU, 0x3dba98273e4913bfU,
  0xbdc97786bcff078aU, 0xbd39d44cbe9a2e22U, 0x3e645c573de7c223U, 0x3e683cdd3ed6c083U,
  0xbe3508113ba03840U, 0xbf25b26d3d1b93b7U, 0xbe60aa9dbd7bf268U, 0x3d7f68f1be442c03U,
  0xbdcf37b33d71cc12U, 0x3d0632ac3dd10993U, 0xbf364841be0d10a9U, 0x3c6ef9a13ee98c2eU,
  0xbd6f17f5be82f7e5U, 0x3e3bfd90bd127aefU, 0x3d2a01b1be36e5bdU, 0xbe53995ebdc43212U,
  0x3e033618be7332c8U, 0x3dd5136bbf056015U, 0x3e7c5eda3da4015cU, 0xbf21f7d13e866a90U,
  0x3e3c92bfbe2c00ebU, 0xbfe5b9eebe547a2aU, 0xbd7517f3be184127U, 0x3d18fc6dbe9e4a97U,
  0xbe5671afbe5f6327U, 0xbe8e48d03d78ec83U, 0xbcbb9651be05e0efU, 0x3cfe68fc3e8f902cU,
  0x3c7ed88fbefc4c72U, 0xbe0f989e3ac294c2U, 0x3c347b493e1e22c2U, 0xbd419f653dd952d9U,
  0xbdcb745fbdec02b0U, 0x3ea0c887be570140U, 0x3e15b6183d4ff304U, 0xbf32527e3f1080eeU,
  0xbd442bc83da7c621U, 0xbd97b6303e8a4acaU, 0xbca746733e48a17eU, 0x3d31cdfc3e91e179U,
  0x3e8cd325be6134cbU, 0x3e2494003cfe9cdaU, 0x3d4b0b00bdabfc94U, 0xbd0ef7313efa1bedU,
  0xbda4dab9bdfd598dU, 0xbe78ed0ebd570eb4U, 0x3cb110953ef30640U, 0xbd8e51ee3e147086U,
  0x3d38468abcd35612U, 0xbe02dcdabe07374fU, 0xbd618162bdd38801U, 0x3defd30cbea39f00U,
  0xbdc075573dba23adU, 0x3ebc3f2a3d480290U, 0xbd37a1d5bc40426fU, 0xbe5d1e473e8ec269U,
  0xbe938becbe3e1266U, 0x3e0bc3c33d2d4798U, 0x3eb711b5bdafb80bU, 0x3e0b1c413e2588b3U,
  0xbe1ca882be3de6a9U, 0xbe47ac77bd679aebU, 0x3cc5ae823f090feaU, 0xbdb431f0bd96d128U,
  0xbe0bf0403dcda0a8U, 0xbe8a0bfbbef53b41U, 0x3e2821f13d60bae9U, 0xbeaa65de3f59da35U,
  0xbebd45cdbdada96eU, 0xbf9298f5be771f12U, 0xbdae77473dfeb2f9U, 0xbe8c0b353ea4a56eU,
  0xbeb0816dbdbf2715U, 0xbc208303bdcbd4caU, 0xbea14f483e6509f9U, 0x3b87f2e23e8fbf21U,
  0x3d4534e2be981732U, 0xbd93425d3e0a1eb2U, 0x3e2696023dce5152U, 0xbe6b3cd03e556839U,
  0x3d35a509bd8b42c4U, 0x3e6a7301be15795eU, 0x3e39e46a3e164d6bU, 0x3f16e1f93e8f09ecU,
  0xbe875b633d63ceddU, 0x3fd9b9b13dff3920U, 0xbe3a3d4dbd713955U, 0xbe5153acbe577288U,
  0x3e64bfd5bed1ede9U, 0xbe58ee9bbd89f954U, 0xbe989cc93ebfce7aU, 0xbdce8eb23d83d11dU,
  0xbe221e96bf2bb495U, 0x3c7bf733bd51b1fbU, 0xbd68eea83e94eeecU, 0xbcc428673d5357dbU,
  0xbd718bd6bdb4930fU, 0x3e431c283df4bb89U, 0x3e461750bcab3fefU, 0xbf9066a5be5beb0cU,
  0xbe88d1eabe06fcf3U, 0x3e64d6d2be8a6de1U, 0xbe63005bbd8d1da4U, 0xbd1ec8d6beb8cb88U,
  0xbe95306ebe2b6f63U, 0x3c8b74fabc8a7c08U, 0xbc69d7d13dbcb616U, 0xbe51a60bbbcf22c3U,
  0x3b6d0fc7be703d93U, 0xbd9e7d6e3daed2f0U, 0x3dbd79543b8ff829U, 0xbda153023e318bc0U,
  0xbb786eebbd249392U, 0xbdf64fee3ebf0a50U, 0xbea8f396be05881dU, 0xbf2b17a53ee6c94dU,
  0xbe150f8c3d8f3eadU, 0x3f4a99823dc6fc7fU, 0xbeae20c63daee710U, 0xbdee5f4bbeb6cec6U,
  0x3ea06c6fbd69984aU, 0x3e8572c03d9ffdfeU, 0x3e896f75be93afbeU, 0xbe6141683dd846c1U,
  0x39207a5f3c9cc281U, 0x3d1e96b43d9462aeU, 0x3da25102bdf17df0U, 0xbdb601bf3e8f329cU,
  0x3ba764443dfb412dU, 0x3dfd9db6bb3c13e1U, 0x3eb69822be13600bU, 0x3f0361e6bdc454feU,
  0xbcecbd79bd850f9bU, 0xbfec2c243cd65304U, 0xbe84e0043d845a10U, 0x3d28a398bda10bdcU,
  0xbd8da8d53d6b846eU, 0x3cc1a1333db52ae8U, 0xbece0ef5be8c15efU, 0xbd4789653e947d7fU,
  0x3df4c375be0faca7U, 0xbe27a378bd172506U, 0xbd6754da3d752386U, 0x3da64c873dfcb4c2U,
  0x3cec46f3be36ffb1U, 0xbddd7e403dc3429dU, 0xbe15bbdebdb33815U, 0x3e40b65e3f2f75eaU,
  0x3da1e1fd3ca40b2aU, 0xbee43c18be7c6ffeU, 0xbe891733bdcd7383U, 0x3cc148d1bed56c1eU,
  0xbc598d34bd2c0686U, 0xbea07e273beea628U, 0x3ead72e0be322f6dU, 0x3de5b53e3dfff194U,
  0xbd085fb7beb0c296U, 0x3d55bd6fbde45abbU, 0xbcb923de3ddaf7d4U, 0xbd4e0917bdc611c5U,
  0x3d828d14be9bbc98U, 0xbc44442fbec300f0U, 0xbe1d193e3e060473U, 0xbe9aa1e33d765c9dU,
  0xbe2f68d83d23a71cU, 0xbf1a981ebc5b75e5U, 0xbe2f567e3dae836cU, 0xbe051ce4beb9f153U,
  0xbeb610133e27c596U, 0x3dc76e6e3c361ca3U, 0x3e406857be26c13bU, 0xbdfa14c33e27e75eU,
  0x3d8b3675bec6fc10U, 0x3d80adf1bcca4b62U, 0xbc05d0e2be273255U, 0x3d79e1c13e30dad0U,
  0x3debbbfa3dcb344eU, 0x3e43f13ebf63119cU, 0x3ea7f278bd8e29efU, 0xc007380a3e7f9bdbU,
  0x3d85ea023ced749eU, 0xbfa1172abd3e2e18U, 0xbe944850bc1b1b36U, 0xbe5dbc49be7bf7e6U,
  0xbd288202be9da298U, 0xbf23fa9c3e007f03U, 0xbe71b018bc85b584U, 0xbcdd0215becd0bb5U,
  0xbd4a49073f00f424U, 0xbef7143bbd4cf7caU, 0xbc6339193edd7de5U, 0xbe02b1eb3e5ec479U,
  0xbde553603c35b10cU, 0xbdddf181be4c39baU, 0x3e91d1f6bd147b1cU, 0xbd1995d6bf36ef07U,
  0xbdf5d3c93d3f9686U, 0xbe0aa30dbdda84aaU, 0xbd298857bd0b1bbaU, 0x3d1886683e47f890U,
  0xbeaecc523e871527U, 0xbe74ed233d42f08eU, 0x3f0e6cbabec6b16aU, 0xbd2353b53e600f0dU,
  0x3deffced3d865c31U, 0x3c648a2ebe70d980U, 0x3d4d2acfbe3d0573U, 0xbd3b7f0b3e138497U,
  0x3dc98b56bd9e01b4U, 0xbe20a958bc93419aU, 0x3e54ea79bdd1ca5dU, 0xbf290f8fbf85049dU,
  0x3e80b20cbd38bf5fU, 0x3fd1b9e03e7aaec0U, 0x3e65d6283dd95cdeU, 0xbe335c93be855cfeU,
  0x3e2e9f733d18a743U, 0xbecc8e203b768337U, 0x3e810e1ebec2958aU, 0xbd919cf33cd916c7U,
  0x3e1dd2953ecd7d28U, 0x3e5809653ca7b1eaU, 0xbdc660853e782316U, 0xbd6eb0fe3e57f413U,
  0xbd8d2e7a3e3a4cd4U, 0xbe626bb5becb450cU, 0xbe2b55c73dc03d6cU, 0xbf5b935b3e54e91eU,
  0xbd27e7423d7a3113U, 0x3fd18d3bbdbbe918U, 0xbe0dfb553d45dcfaU, 0xbe459ae6be903f44U,
  0xbe2cc64bbd3fba38U, 0x3e1a3c543dc9b11fU, 0xbed0ea57be1e325cU, 0xbde8ca9f3e4e3c1eU,
  0x3bfc20533f02aa87U, 0xbdc1c725be10f673U, 0xbe0c5ecc3efbcae0U, 0xbe063a843d80a3c1U,
  0x3d8b72973e1f12a8U, 0x3e5ba18ebdec0aa3U, 0xbd9918ca3b273747U, 0xbbdc5444bde32c6aU,
  0xbcb449d13dbd9281U, 0x3f3877523dfbc5f8U, 0xbe9d44b8bd9f441dU, 0xbe78b7343d3da7ccU,
  0xbde08fcabe56e5e6U, 0xbe62cb8a3d5aab21U, 0x3f727e4ebe05f286U, 0xba80885f3ef2f8d8U,
  0x3d80365bbf56ede9U, 0xbe51c4e53d399894U, 0x3d929fe0bdc40d72U, 0x3dddd66b3dea3ab7U,
  0xbcc290203e4a0233U, 0x3e91d7be3db21770U, 0x3e9d3ab23d28fd83U, 0xbe95dbb6bf28d944U,
  0xbe502c54bdd46c92U, 0x3eaa04a7be910757U, 0xbccab5c73e10106cU, 0xbe1b160dbc0c8c3eU,
  0x3eb11232beca559fU, 0xbd13d9cdbd2c1aacU, 0xbf04e84ebe139f3aU, 0x3cbca4f3bcb4269cU,
  0xbce408203eafe2f7U, 0xbde5c00ebcd7bf27U, 0xbe03194a3e845c6eU, 0x3d6a47e43d8e60d0U,
  0x3cb715b93da38b1cU, 0xbdcbd82e3e2993b9U, 0xbd9b7a413da4ecdaU, 0xbf9680adbe35cdc3U,
  0x3e7746fc3dfc8dfdU, 0xbe9fec8d3e5edcb6U, 0xbe1874b43da2fa84U, 0xbe17ea7ebe907828U,
  0x3e904702be0d2557U, 0xbf1a176a3dbbc873U, 0xbe99ac1c3d18027bU, 0xbd8eb27a3e77def9U,
  0x3b2ba82c3d70f7daU, 0x3e551af7bd8be6afU, 0x3de67970be5d7575U, 0xbddae9f83b80ff6bU,
  0x3d2ce934be59c783U, 0xbd39244cbe71611fU, 0x3ea5cda43c3cacbaU, 0xbf4bcbc73d461d97U,
  0x3b9071f63d12e20eU, 0xbf954835be766a63U, 0xbe40eb77bcf2a268U, 0xbc1450ecbebcad23U,
  0xbde8cdbbbe6311f7U, 0xbe8f7573bda0aa42U, 0xbedd3b773e7c224fU, 0xbd11c9863eacd5e2U,
  0xbc975f223ca54f9cU, 0x3e13fbc1bb21688dU, 0xbd9522b7be98f35cU, 0xbde19e143e73ee11U,
  0x3b2e84cdbe7ab33fU, 0x3e437fe13e1d1b53U, 0x3e36b56c3dcf2937U, 0xbf7998873f668d43U,
  0x3d68c9a53ce409ddU, 0xbd329985bd8f3a04U, 0xbe25c9533bb8f401U, 0xbe59d8fb3cc4092cU,
  0xbd8cccacbe061be2U, 0xbec7d3073d65ec91U, 0xbeb537d6be9d8942U, 0xbbe0ba363ea7a637U,
  0x3c9ced45bf0595d0U, 0xbe9aef683df544f4U, 0xbd06b013befae57dU, 0x3e0c6b0b3e834a47U,
  0xbde232753e8c0dacU, 0xbe58e55cbe5bbdc8U, 0x3e898cd13d463843U, 0xbf62e8d6be825721U,
  0xbde4983e3db8e11aU, 0x3e26e77ebd283b14U, 0xbd77f1a73e3be0b7U, 0xbea3bce4bd96641fU,
  0x3e018eb23d6f2597U, 0xbe5c731c3d63347bU, 0xbb4a4548bd10c792U, 0xbbfd93cf3e3346a0U,
  0xbe87edf9bf1d5996U, 0xbd67d8433e01f74bU, 0x3e0bd2d13df8821cU, 0xbcb449a53d5da651U,
  0xbd84f27fbd92d7f0U, 0xbe55f7dcbd15f6d9U, 0x3e85751cbd9559e0U, 0xbf9956a83daaf910U,
  0x3c462f67bc94006dU, 0x3f2303cc3d92338bU, 0xbec544bcbdd06f88U, 0xbe9b7234be988823U,
  0x3d74f2d5be6909a8U, 0x3dac5955bd829795U, 0x3e94bfeb3e4fdcb3U, 0xbded00cd3d835530U,
  0xbe4bf691bf15ddd8U, 0xbe6d73b03d36a3f1U, 0x3d0e63fc3e25cff0U, 0x3d0fda96bdf7470fU,
  0xbe22e2bb3ce66f20U, 0xbdf90c62bde69bd3U, 0xbe8291e03e109b92U, 0xbeb50b0cbf0f5091U,
  0xbd06c887bde0c4d6U, 0xbef38461bea11c9aU, 0xbe56b9e0bd65642fU, 0xbdbdc15ebcf6ec5aU,
  0x3e1ec07f3e20370bU, 0x3e39267fbda00805U, 0xbe21547cbe8d42fdU, 0xbc922b093e2b1d0aU,
  0xbd692a1c3e2a3868U, 0x3da7c928bbba3f5aU, 0xbdadf01cbd7ce5efU, 0xbcf523783cc3a884U,
  0x3c5645cd3d220e50U, 0x3df8ec4cbd95be3dU, 0xbd78e78fbe3c3470U, 0xbf0873af3e908b9fU,
  0x3da42d9fbde3bcf9U, 0xbec6de1bbe4a4edbU, 0xbe4e84dfbe0f2572U, 0xbd7ed501be422937U,
  0xbd21182c3cde7815U, 0x3e130ad33d02a0baU, 0xbefffe923ec5c5d0U, 0xbe8619f8be05edbbU,
  0xbd8e5d67beda9104U, 0x3ec8ecae3de86029U, 0x3d81f67dbe159408U, 0x3d13ff9abe3e468bU,
  0xbc91d7c6be8d7498U, 0x3e405acf3c736db4U, 0x3d95373a3cb7336bU, 0x3e02d5393df20e2fU,
  0xbe0f5f60bc03a11dU, 0x3dcecc813e46e9a0U, 0xbeaa49d53c1d4862U, 0x3d0cb762be8b57edU,
  0xbe63b5e2be289967U, 0x3e43c51ebcda7229U, 0xbed3ff903e5b486dU, 0xbe03ea85bb92fc48U,
  0xbdf65c51be8ecbffU, 0xbe2bac3b3d2adb9cU, 0xbdf58311be60dfb8U, 0x3cd03c163e5d0815U,
  0x3babb5d0bdec9519U, 0x3dc3f8ed3db826f1U, 0x3dbe5ee93d9ddcaeU, 0xbf0fc8583f08a19dU,
  0xbe0c4dedbd968358U, 0xbe8d0013bdade6b1U, 0xbdae378cbe00bb44U, 0xbd095de6bed646b9U,
  0xbc20d240bd86c643U, 0x3d24aaea3d1f27e3U, 0xbf0e58693e099083U, 0xbe697fa63ec752b9U,
  0xbe1b862dbe5b9400U, 0x3eca9a213de060a7U, 0x3d8936c03d39e783U, 0xbd31de8e3dd2788dU,
  0xbd2b96dcbe42e623U, 0xbe15e409be65a41cU, 0x3c1613fc3d94ffb6U, 0x3e02d1c3be5d4ea9U,
  0xbe1c366d3d0765d7U, 0xbe6c23dfbde27c50U, 0xbdb00087bda616b4U, 0x3c2ea5333d1b7740U,
  0xbbf90e3abd828057U, 0xbebe45503e1d117aU, 0xbe2d946a3ed1010cU, 0xbdcd1f1abe4810daU,
  0xbdab30363ee288f0U, 0x3ed04cb83d7290dcU, 0x3d79e674bdb22c51U, 0xbc1641153c07c3b5U,
  0x3cd6edd1bdb51dd3U, 0x3ddb25953ecb44fbU, 0x3a0f21d5bdce5855U, 0xbd954c873f4a3601U,
  0x3e4af918bca14e29U, 0xbf67b93ebe89cd04U, 0xbe58919fbe3482e8U, 0x3d3b65d03e0afc0eU,
  0x3d8f713f3d7da197U, 0xbe900e5fbc8d5798U, 0x3e9b8d813d0b40efU, 0xbe21b4b83e6930c2U,
  0x3e0a0db7bd19eb5fU, 0xbd2c99a7bccd8848U, 0x3d92999b3decaf0cU, 0x3d6a21f0bcbc69f8U,
  0x3c4b04abbe1c0b20U, 0xbe364af63e843c91U, 0xbbeff715be56e067U, 0x3eae89f93f31d6a2U,
  0x3d3f8045bd8c1f81U, 0x3ebe73343e0e6078U, 0x3ece053fbd98edadU, 0xbdbb3eebbea1043bU,
  0xbdb2927dbe828ce6U, 0xbe9d8a1c3da8cca6U, 0x3ee65a0ebc8eccf1U, 0xbd880a5dbd2ca466U,
  0xbe066c8e3d335746U, 0x3ea9c09bbd1cc427U, 0x3cd2405abd5f5389U, 0xbe396cf73cb4ce1bU,
  0xbd55613fbe75fb12U, 0xbdb7eec8bed727a2U, 0x3e6de1f0bce635c2U, 0xbf4907d4bee4f1d4U,
  0x3dfa18083d4117a6U, 0x3f1d98953de9f8e2U, 0x3e6eddabbc04e067U, 0xbd73da193ec115c0U,
  0xbeae3b20be163266U, 0xbede9b6e3e14054cU, 0xbf4a58753ed6097bU, 0xbdbf54ed3d0684d8U,
  0xbdfa2cd8bdbd207aU, 0x3e475534bd7cf630U, 0xbdb14e3f3e02b018U, 0x3db9d1373e7213a3U,
  0xbd61e7ccbec0a081U, 0x3e820abc3df5bfc3U, 0x3d6d2590bd810602U, 0xbc501958bdec98ebU,
  0x3d8bf46dbd75fcd2U, 0x3f6907c0bca37456U, 0x3c746ed7b71f57b9U, 0xbd33171cbe25e54bU,
  0x3e90cc663e0e02a6U, 0xbed7db613c294a1dU, 0xbf13623f3d94a7c6U, 0xbe48d3643e561193U,
  0xbd43db2dbd55731cU, 0xbdb2d935bdf06ee9U, 0xbd9ed02b3edc0724U, 0x3c5edd523e8da36eU,
  0x3d4f589dbd649af7U, 0x3dcfaa2a3e72e690U, 0x3e3d6cacbe11bee7U, 0x3f57823e3e889f93U,
  0x3dd906b23dda137fU, 0xbf9631f2bd02784bU, 0xbe484c13bcbb4545U, 0xbe2f3175bc8f3c28U,
  0xbae412d93e4d02a9U, 0xbe888fc33d17ca82U, 0x3e8443f73dfe6998U, 0xbe304a733e6f1103U,
  0x3ce56e523eaf09eeU, 0xbe805eab3dd713f8U, 0x3daf3dc5bce56b4eU, 0x3c24e0793e23ec23U,
  0x3c0e1aed3c94fd23U, 0x3e5e47c53dc81a8bU, 0xbdb2b9ad3dbcb8cdU, 0xbed2510a3ec43523U,
  0x3e87dd85bdaa772aU, 0xbf332d073d3ebbb3U, 0xbd9f2017be0dcdedU, 0x3dc3b454be02ebafU,
  0x3e87a6cd3e84ccd3U, 0x3e3ceb693de4a788U, 0xbf2c768b3eb1ea66U, 0xbe1da17c3e9a68c1U,
  0x3dbdb4853ee8b76eU, 0x3e849e5d3d0c90faU, 0xbdc31f033d3a4bd2U, 0x3d04d15f3d34b8b5U,
  0x3d6ab199371d44f1U, 0x3d744b31bd21d801U, 0xbe45d5f63ace0ce0U, 0x3c4990c4bd7b3ee7U,
  0xbe08b1f7bd59af3bU, 0xbf40be643ea6b2cbU, 0x3e8498263d9e76cbU, 0xbc33db96be197c91U,
  0xbd74e3fa3e8c5f41U, 0x3dff62333de966dfU, 0xbf1c39c73ea0f17dU, 0xbe58d9493e0db9ddU,
  0x3e114cc63ec0a6aeU, 0x3cfbefb83d9fff44U, 0x3da7c8e73ece371aU, 0xbd9f1c8b3e2b13c9U,
  0xbc89b027be2c26ebU, 0x3e7dc299be8ebf1fU, 0x3e93e2c43e0b5827U, 0x3db4d7703e876af2U,
  0xbde5bffe3e33a168U, 0xbee1a0da3ccb472bU, 0x3e9e6fa6bdb5a49bU, 0xbdf562ab3ea400c4U,
  0x3d92c1633d1e7631U, 0xbd9f44763de15c75U, 0xbf2a3325bec5849dU, 0xbe66fdd93e552624U,
  0x3dc401be3e1c664dU, 0xbcdf70943cf851cdU, 0x3decd4553e822808U, 0xbe2d52d83d89d821U,
  0xbde836f13e095a27U, 0xbe249be8be9833d5U, 0x3e0547173e15a91eU, 0xbf73d3d2bf062621U,
  0x3d8856b03dbc9b68U, 0x3f5edfde3e71199aU, 0xbd298bc23c96b1e8U, 0xbda35b883d018e82U,
  0x3e29584ebe46125bU, 0x3e54db943e100db1U, 0x3efcfa73bd96d36bU, 0x3cb6d38f3f20619eU,
  0xbc4ecaa6be48d082U, 0xbe1d59f2be1091e3U, 0xbd88bbb7bd87df59U, 0xbdbe89653dd61f9fU,
  0xbd63b8513e690f57U, 0xbd958b69be630f42U, 0xbe0965583d0d1457U, 0xbf9b1b1d3f06a384U,
  0xbe478a893de89414U, 0xbf2851e3be89ccd8U, 0xbd24f9c83df7a36aU, 0xbe63c5c93dc64a4dU,
  0xbe71985dbe87985cU, 0x3e3129463dc1aedbU, 0xbe739a0f3e492bcfU, 0xbdf2fd843ea29ff3U,
  0x3d41286cbe16fa33U, 0xbdfd675d3e0f47c7U, 0xbdcdce3a3f0b9f00U, 0xbe23f6cd3e815ffcU,
  0x3d8ae97bbc3c19c0U, 0xbe10e27cbf226ae4U, 0x3de4a3e93dca0131U, 0x3e58d7bb3dc56f98U,
  0xbd3054453ca62d3aU, 0xbeb0ce1ebdbefa4aU, 0x3e18f534be2fd0e9U, 0xbe4364a9bebab9b2U,
  0x3cf7663ebe7952f0U, 0xbe8fbb0bbb8eeaa7U, 0xbdf96102bed8f255U, 0x3e1f064f3e4421a0U,
  0xbe2fd21bbe6bcd19U, 0xbbdda0b43e46d125U, 0xbd9e0d28bbdf30d4U, 0xbe007303bd999553U,
  0x3d95e9aabbb43d8bU, 0xbe53643bbf62fb36U, 0xbea0ff38bdfb5740U, 0xbe5faa30be0bcc28U,
  0xbdd06f4c3ca5464dU, 0x3f036f49bebecbdaU, 0x3dc9d3063dd78033U, 0x3da68aacbdb1872aU,
  0x3bf1661d3ec6ca2bU, 0xbe32a9c73bfd1ddbU, 0xbec45c5e3ea40261U, 0xbd5e5e4a3ecec593U,
  0x3b9831733eb07cf8U, 0xbd2f4da6be465d02U, 0xbd2f46bf3e970f2dU, 0xbda877debd5e2296U,
  0x3dbc9b39be4aaf23U, 0xbe82e8f2be7902d2U, 0x3dbee94abdb6356eU, 0xbf5c954b3db8a1a1U,
  0x3de691633d3bdee2U, 0xbf369ab33e25894eU, 0xbc8625633e31e60cU, 0xbe15b658be5620c1U,
  0xbe29df763da4bd2aU, 0xbe7294c63d010999U, 0x3e12a9743daf5e2cU, 0xbe140d30be439849U,
  0xbd8f959f3d86e383U, 0x3e7a154d3c3d3e6cU, 0x3b9c28953db7d31fU, 0x3d303adebda08360U,
  0xbda1e23f3d240d87U, 0xbe66618d3e96c59eU, 0xbd5416acbdda259aU, 0xbe83e479bf4f0ffeU,
  0xbd624f1ebe085bf1U, 0x3f2d9754be5069d9U, 0x3d4975c13e0619a2U, 0xbd1c5685be12b14eU,
  0xbebf53b2be28a7a7U, 0xbd0fbe6d3da2590dU, 0x3deff39bbea06dcdU, 0x3d40a20ebbcc12ceU,
  0xbcc06d5d3e9227d0U, 0x3e9d86c53d1f20abU, 0x3cfcc8d33ec1cb2bU, 0xbdb4df21be0ee8ccU,
  0xbdd015e13b494c4fU, 0x3e346742bebcbcfaU, 0xbdcea03bbd70374cU, 0xbf63219cbf31e611U,
  0x3dbaacbf3c500d3eU, 0xbf64f7573e59d6c1U, 0x3d623183be180acaU, 0xbc8807843e75118bU,
  0xbd69929e3dbb6205U, 0xbe9629a53da373c2U, 0x3dedcfe23eb3fb35U, 0x3ded9f263e07f966U,
  0x3d81e3bf3e20d8e4U, 0xbd31b7e6bde1048cU, 0x3d5680953e2d1f36U, 0xbdedaa2b3d9a672aU,
  0xbdecf58ebe2bb4f9U, 0xbcb47cedbe8fc9c6U, 0xbe51841abc9e8407U, 0x3eaaa83ebf371cacU,
  0x3e00a14e3d572582U, 0xbe60ac943e3e9ef0U, 0xbc9a83fe3d4aadd5U, 0xbdfa4873be9989a0U,
  0x3e8346053e48ab2cU, 0xbd8e4d04bd0c4b09U, 0x3db2a9ca3d3d1987U, 0xbdb311b43e93be76U,
  0x3d985395be38e7a3U, 0x3e33695ebda5bdf2U, 0xbe0aa0f63eb5835fU, 0x3e1e4d603de15f74U,
  0x3c95054b3d9ddac1U, 0x3c8966fabe99bb77U, 0xbc6350f0be327099U, 0xbf3fef163ecf0251U,
  0x3e0447923c94dc1bU, 0xbf689842bdc55d0eU, 0x3d57d4f93dbee36cU, 0xbcd8a5b73e8664b6U,
  0x3e8de115bd9b5cceU, 0x3e48e054bd48ec67U, 0x3dfceb4d3ea3ffe1U, 0xbcfe5101be2b2b85U,
  0xbe6a39a93eb0ed07U, 0xbd54533d3df76039U, 0x3ddc0bef3e69a32fU, 0x3dd29c5e3e3fec2fU,
  0xbe0a1a94bd84901fU, 0xbda14af53dfa3321U, 0xbb928a93bdd0f1b2U, 0xbf838a563e9b075aU,
  0xbde8e41bbbe2854eU, 0x3f5b4a82be8a67d3U, 0xbdbb9c863d747aa6U, 0xbe14c0a03e8bbeb0U,
  0x3e5a2d9cbe1d325dU, 0x3e3bab58bd7c66e2U, 0xbdad22e1bd93be18U, 0x3e0a513d3eb646b5U,
  0xbc26b364bdc93987U, 0x3e2d66ea3e2f6db3U, 0x3dc32f233d39c35bU, 0xbd1a996b3e85bf1bU,
  0xbdaa42883e5042a5U, 0x3c755bd5becd9964U, 0x3e21ff87be339d66U, 0xbf95f713beae5778U,
  0x3db26d70bd6d4390U, 0xbed1b22b3e63ada8U, 0xbe387fd6bcbd0165U, 0xbd937e6bbe1b1c90U,
  0x3d9254b6bec68ed1U, 0xbd9ab9273de79779U, 0x3e24aabebc6ac83aU, 0xbd76d5883e4c6e6dU,
  0x3e02a09ebed40006U, 0xbe775053be2e83d0U, 0xbdaf084c3ea53253U, 0xbe2b3e623d88d69bU,
  0xbdafb5b63e8b4cd7U, 0x3da0dde3bf0de788U, 0xbd81641d3da8a02dU, 0xbf5ab46a3f2e7dfbU,
  0xbe2cf46f3d68f214U, 0x3f3ff7b83b8df444U, 0x3d61d977bd9c43a6U, 0xbe2e19a7bd225575U,
  0xbe5c9bbc3e42480cU, 0x3d8967e6bdba5f01U, 0xbf0b7595bdfbe6a9U, 0x3db335f33e72f53bU,
  0xbdd72198be258b14U, 0xbe2b92003de8d10cU, 0x3e1895833ee03cefU, 0xbe11ec643e3a46a3U,
  0xbd48384a3e5ecfa3U, 0xbe53ee5fbe6c0e30U, 0xbc32627fbe04cf39U, 0xbfc5a19e3d39719fU,
  0xbe38e6f73cf4b752U, 0x3f4a8b1dbe112541U, 0xbd845ef03e5f9223U, 0xbe0f2f6c3d859c66U,
  0x3e3274a93e82e386U, 0xbe151423bd95121bU, 0xbd809d7b3e50006aU, 0xbe1817cdbca9f940U,
  0xbe1b6cd7bf148eafU, 0x3dcf00913d117a78U, 0x3e03fa76be709d86U, 0xbe3a1ee23e948318U,
  0xbd83ef1b3d714906U, 0xbe86f2483e490347U, 0x3e1698693cadc692U, 0xbfbf94f5bec72afbU,
  0x3db119173d3e8353U, 0xbe55f244bdbc4573U, 0xbe0583b3bdd2f9d4U, 0xbe036ed33e04b4c1U,
  0x3e84f63f3ccf7e03U, 0xbe9a5c7c3d42fc5dU, 0xbe8bb64fbeae80c6U, 0xbe0fa2243e1494bbU,
  0xbd57ea033e84ad41U, 0xbdca0d363cbf6febU, 0x3cffc2773e776035U, 0xbe0506223e4f9556U,
  0x3d074ecdbb4c3920U, 0xbdafe64a3e743bd2U, 0xbe3cba24bc529c4fU, 0xbf82a2bd3e48ca72U,
  0x3dddb0e63e138fe8U, 0x3fc899e23e0f96f4U, 0x3d8d1d023e1b425aU, 0xbdc6d70dbe647fcbU,
  0xbcaa80443d8eb8b4U, 0xbe87b3a43d91526dU, 0x3d9f15043e8b4984U, 0xbe1a8f61be0c1d37U,
  0xbdb9e9efbf0d30e0U, 0xbe01ef873db7e01fU, 0xbd638f1a3ebb3360U, 0xbe26d2bdbd8d9df6U,
  0x3db8fc2dbdc536fcU, 0x3e2c8b38bded5f2dU, 0xbebe693dbe2c88d6U, 0x3efe5d893e73ac3fU,
  0x3d83fa103c193fb5U, 0xbdb1f0e3be8970d8U, 0x3e4e9d50be144ff2U, 0xbe02e9d3be88a68eU,
  0x3e1f30903e7c3dbbU, 0x3e7c530b3e17315dU, 0x3ee0e0cb3e6db148U, 0x3d9c0233beaae5c8U,
  0x3dc51ce63f1654e0U, 0x3e8f8e5f3db410d9U, 0x3d3cf7fabd71a690U, 0xbdd23e3a3e3dabe0U,
  0xbdbac1b0be03598fU, 0xbd35db3c3d3060dbU, 0xbdf8a145bda70b18U, 0x3e948ee63ed7b7d0U,
  0xbdb5671d3d1f2fd8U, 0x3ead6264bdaa902eU, 0x3dfd80b4be120cdeU, 0x3d95a0a3bbc923b5U,
  0x3c14b2b3bc44eefdU, 0xbe95ecb53db5c9a0U, 0x3ebecbf9be8e7a66U, 0x3d4465c5bdacaa02U,
  0x3d413d2d3d5c27d5U, 0x3e0e9f3ebe369fa7U, 0x3da976e3bd86f91dU, 0x3bc6835dbe517461U,
  0x3d8523aabe44f3cbU, 0x3e006515bec6561eU, 0xbe5d470dbd9cff3aU, 0xbeed86e43dc6146dU,
  0xbddbfaaabdb3c198U, 0xbe9f0affbe42ece2U, 0xbb5cfe1d3dab53c1U, 0xbe1474d9be8250fbU,
  0x3df8bf4dbd365dbcU, 0xbe533e253e110da4U, 0x3f1511203e69622bU, 0x3c8d4d2fbe7621a5U,
  0x3e351a1d3e14b6c1U, 0x3db2cb62be3e2aecU, 0x3d5d08d43e9fe985U, 0xba7fb7b7bd83aec5U,
  0x3db456123e61a572U, 0x3d4c4779be8e035eU, 0x3dfee67f3e296dc0U, 0xbf83a82cbe96b756U,
  0x3d4ffe893dd02604U, 0x3df89cd3bcde8ce8U, 0xbd7c77063d1df3a0U, 0xbcdab6f7bdac1bf4U,
  0xbcfa0c95be3c85b1U, 0xbdf76cabbd7fef46U, 0x3f83857ebe56572aU, 0xbe17a75a3ed8359fU,
  0xbde040ba3ea90c18U, 0xbe8870203db52342U, 0x3e08b3e63e1380e6U, 0xbd1ed8403c50305eU,
  0x3dee57c1bccf3769U, 0x3e11159fbe9547e5U, 0x3e1bd3de3d71739cU, 0xbf67990fbe3a20beU,
  0x3e08023bbdcb6964U, 0x3fa7205f3e101a19U, 0xbe494f11bd03f271U, 0xbc4ec24fbec69b25U,
  0x3dbe82d6be06b6d3U, 0xbe6629afbc4f76a5U, 0x3ead0c873e70113dU, 0x3c1d78de3e6b6402U,
  0x3cc9c34bbf0c356dU, 0xbe28a94fbdc38ddcU, 0x3d9f6e033e5a40bfU, 0xbde1b0ce3d03a2acU,
  0xbdcc0d403d3a20a2U, 0x3e67aad0bd861b3dU, 0xbe4295113d1958e3U, 0x3ee32721bed559ebU,
  0x3e182770bd7da6d3U, 0x3ebe1acabe8c7611U, 0xbe4b5856be1a2363U, 0xbe32482c3cc0ee68U,
  0x3e9bc539becec99bU, 0xbe6d2e583dd2e919U, 0xbe4284b03d85e3f4U, 0x3da647613e212197U,
  0x3d355b083efa3682U, 0xbd57a8eebd445ae5U, 0xbdfcd2ccbc628adbU, 0xbe3412a4bde24f2fU,
  0xbd8e3356bdb67eebU, 0xbda6f6ba3e58ab41U, 0x3e973ff03dfd5643U, 0x3f736ea7be0fe428U,
